memory_initialization_radix=16;
memory_initialization_vector=
02,
f0,
f6,
ff,
30,
f8,
17,
ed,
13,
fe,
13,
fe,
2e,
d3,
cd,
0b,
19,
2b,
04,
f4,
e9,
ef,
c1,
d1,
21,
fb,
03,
fe,
e9,
ea,
f7,
e4,
e3,
0d,
21,
f4,
06,
1c,
e9,
f7,
48,
3b,
06,
ea,
dc,
1f,
f3,
e1,
16,
fd,
03,
25,
e1,
dd,
f6,
e2,
ee,
dc,
1d,
41,
03,
ea,
11,
04,
04,
ba,
e7,
e5,
da,
fb,
de,
f6,
06,
0f,
03,
02,
e7,
f6,
0f,
d2,
d5,
2a,
0c,
f4,
27,
31,
f6,
15,
10,
d6,
0b,
f8,
1a,
f0,
e5,
24,
14,
fa,
11,
09,
0e,
1d,
11,
cb,
31,
10,
f2,
03,
0d,
f1,
f3,
10,
0e,
05,
1d,
df,
ce,
f9,
f8,
ee,
fd,
12,
f2,
1f,
09,
04,
f4,
00,
e9,
f7,
dd,
dd,
e7,
f8,
f5,
fb,
f4,
ed,
1c,
4d,
0a,
ed,
fa,
02,
ee,
01,
e3,
f8,
2e,
eb,
f5,
ed,
de,
07,
00,
10,
05,
cd,
c9,
0c,
b7,
dd,
04,
f5,
2a,
f9,
d6,
12,
f8,
fd,
de,
f6,
07,
14,
ed,
e7,
05,
ed,
10,
11,
e5,
15,
10,
ec,
f2,
45,
ef,
cd,
f9,
1d,
48,
df,
0b,
08,
fe,
11,
fc,
f0,
18,
f2,
14,
f8,
97,
15,
03,
08,
fa,
e8,
04,
f1,
db,
14,
ec,
f0,
16,
ef,
12,
d5,
e1,
0c,
b1,
1a,
10,
14,
13,
e5,
28,
0f,
03,
21,
f4,
06,
f2,
18,
15,
cf,
00,
fb,
d3,
30,
fa,
fc,
11,
fb,
0b,
f1,
e9,
e5,
ca,
f5,
f2,
e9,
f5,
d2,
19,
e6,
dc,
1d,
f7,
fd,
f1,
fb,
e6,
f5,
fe,
12,
1c,
f4,
ff,
ff,
df,
20,
1a,
dd,
09,
25,
db,
04,
1b,
11,
e9,
09,
04,
08,
09,
18,
03,
e9,
1b,
06,
10,
c9,
a3,
ee,
fb,
f1,
f4,
13,
01,
f2,
d3,
f9,
04,
ee,
f9,
ee,
f2,
04,
e5,
29,
f4,
d5,
09,
21,
e5,
00,
df,
f1,
f3,
cd,
ac,
19,
29,
0a,
f2,
11,
cd,
ef,
4f,
0c,
fd,
df,
1c,
02,
dd,
f4,
0c,
21,
31,
01,
14,
e5,
09,
06,
13,
3c,
58,
1f,
1e,
fc,
06,
14,
d9,
fb,
0b,
17,
11,
05,
00,
f2,
1f,
17,
24,
0c,
fb,
24,
14,
ec,
ff,
0c,
f6,
ec,
f1,
e7,
fd,
f6,
0e,
f6,
2a,
18,
dc,
0a,
ea,
ca,
fc,
ea,
f0,
ce,
e8,
06,
ec,
21,
fd,
ff,
3a,
07,
02,
a9,
d4,
0b,
81,
a9,
06,
e8,
fb,
0c,
07,
d6,
2f,
06,
dd,
f2,
ea,
f2,
e7,
e0,
41,
fb,
f8,
04,
cf,
24,
1b,
11,
07,
07,
f4,
16,
d0,
f8,
0f,
df,
02,
12,
38,
03,
d5,
03,
e7,
dd,
17,
ee,
d2,
06,
0a,
31,
10,
f2,
20,
ee,
ec,
0d,
e5,
f6,
e1,
0c,
18,
fd,
f5,
31,
d3,
e4,
f8,
eb,
21,
0a,
fe,
d1,
ff,
ef,
fc,
fc,
be,
0b,
f2,
ff,
22,
0f,
d1,
d4,
06,
13,
f5,
f0,
1f,
ce,
03,
c9,
35,
25,
ba,
6e,
ff,
fa,
01,
e0,
e2,
22,
d8,
fd,
27,
e2,
f0,
02,
ed,
d4,
d5,
05,
3c,
2d,
1d,
3f,
1b,
17,
ef,
bc,
1a,
e0,
83,
09,
d0,
b9,
e2,
01,
ed,
e6,
2f,
ed,
fc,
fd,
f7,
ef,
bb,
db,
04,
c3,
d4,
ff,
b7,
c9,
18,
d8,
ff,
00,
b2,
0f,
13,
c8,
0a,
ed,
d9,
19,
d8,
e0,
1f,
f1,
c0,
ef,
f6,
ef,
16,
24,
1c,
02,
f6,
fa,
00,
fb,
f5,
e7,
1b,
31,
bd,
fa,
e6,
07,
f9,
02,
dc,
1a,
e4,
d8,
d5,
eb,
cc,
08,
ea,
08,
e1,
28,
f2,
00,
0e,
15,
ff,
d2,
e9,
d8,
fb,
15,
2a,
0f,
07,
ee,
cf,
e9,
e8,
e9,
32,
0e,
16,
14,
06,
22,
10,
29,
af,
2d,
27,
02,
20,
20,
ec,
0b,
fa,
7f,
ef,
29,
0a,
03,
27,
4e,
f9,
28,
f4,
eb,
06,
ce,
0f,
f0,
42,
fb,
d8,
c1,
d7,
e8,
0d,
f8,
34,
cc,
f0,
05,
f3,
fd,
ff,
f2,
d8,
11,
df,
e2,
04,
26,
00,
cb,
ce,
ec,
e9,
f4,
0d,
ed,
2b,
fd,
0d,
10,
fc,
f0,
b2,
f4,
be,
06,
fa,
f5,
fb,
f6,
24,
ee,
09,
00,
dc,
ec,
d6,
d4,
f3,
ff,
e9,
03,
09,
03,
13,
ef,
ea,
02,
b8,
0d,
0a,
cd,
fd,
f1,
f3,
f7,
f6,
de,
19,
16,
15,
f8,
f2,
e2,
de,
e8,
04,
cb,
db,
d5,
de,
0c,
08,
23,
06,
09,
01,
ee,
06,
10,
06,
f2,
eb,
f1,
f8,
a8,
c3,
ea,
22,
25,
00,
22,
fe,
ec,
1d,
e4,
f3,
14,
fb,
fe,
f8,
db,
fe,
03,
09,
02,
f3,
09,
10,
1e,
1b,
12,
06,
0a,
fe,
12,
d1,
ec,
fe,
08,
db,
b9,
e7,
f8,
ee,
21,
01,
08,
28,
32,
c4,
fd,
06,
ed,
13,
0d,
fc,
05,
04,
19,
19,
c0,
06,
33,
07,
16,
13,
07,
ee,
eb,
3f,
ef,
e4,
22,
e1,
ed,
e2,
e0,
03,
07,
cd,
f9,
00,
19,
16,
01,
fe,
0a,
ff,
17,
11,
f2,
e7,
f8,
07,
19,
17,
06,
0c,
f4,
26,
f9,
03,
19,
f1,
13,
07,
0c,
f4,
02,
05,
e2,
27,
15,
fa,
fb,
e2,
f6,
d9,
ed,
0b,
f1,
4c,
26,
23,
3d,
c0,
22,
b8,
0d,
0e,
0b,
ea,
06,
2c,
f1,
24,
f2,
ff,
01,
f0,
0c,
e7,
2b,
2c,
ee,
f8,
09,
10,
12,
f9,
bf,
0b,
3b,
e2,
1f,
0b,
ee,
d9,
fe,
cb,
f7,
f8,
fc,
f9,
fa,
0a,
38,
32,
e6,
35,
f7,
e5,
19,
11,
ac,
f6,
d8,
e7,
10,
05,
fe,
14,
ec,
08,
f9,
ce,
3b,
e9,
da,
fd,
d2,
f6,
fc,
2c,
fe,
0e,
1c,
ea,
29,
04,
0f,
16,
d0,
08,
03,
69,
0e,
ff,
00,
fc,
01,
2c,
f8,
f8,
0c,
2b,
09,
f1,
ed,
eb,
ba,
e5,
eb,
0d,
0c,
cd,
16,
07,
01,
a8,
0d,
a9,
c9,
1b,
f0,
1a,
1b,
fa,
60,
31,
18,
ac,
25,
08,
27,
0e,
09,
e0,
01,
f7,
e6,
f2,
e8,
e7,
f7,
c0,
cd,
f7,
c7,
53,
13,
29,
5c,
3c,
41,
33,
09,
d7,
e1,
ea,
cb,
0e,
fb,
f4,
eb,
ee,
fd,
b1,
f6,
06,
17,
0a,
e0,
d1,
ed,
16,
1f,
38,
37,
10,
08,
1b,
ca,
1e,
d1,
da,
fb,
e0,
da,
e9,
01,
f9,
db,
02,
02,
03,
ef,
f4,
fe,
13,
dd,
0a,
ac,
28,
fa,
fa,
3c,
ed,
2a,
ec,
db,
14,
f0,
ef,
ff,
22,
01,
e2,
e8,
e7,
c9,
38,
c3,
e2,
bb,
f2,
de,
e0,
09,
da,
13,
1f,
fb,
03,
0b,
e0,
d0,
dd,
e5,
16,
f5,
05,
09,
ed,
ae,
d6,
0e,
fa,
45,
48,
91,
de,
14,
14,
08,
2a,
ee,
29,
21,
2e,
2d,
19,
0d,
c4,
f5,
f2,
06,
ff,
e9,
22,
04,
e0,
bd,
0e,
ce,
1b,
48,
ff,
1b,
1e,
e2,
c8,
14,
f3,
e4,
07,
f7,
08,
0f,
fc,
04,
ff,
30,
09,
0f,
08,
e3,
20,
36,
e6,
11,
22,
0d,
26,
ea,
f5,
02,
08,
08,
03,
fb,
fd,
11,
e1,
f6,
ef,
00,
e6,
e8,
f8,
04,
2a,
17,
37,
fb,
03,
fe,
1c,
ff,
d7,
02,
19,
eb,
f3,
ee,
fb,
01,
05,
ff,
d1,
07,
f1,
fc,
11,
07,
00,
08,
e7,
e0,
f9,
f5,
0b,
09,
f7,
f9,
00,
3b,
09,
0a,
0d,
0f,
03,
f1,
00,
e5,
f9,
f5,
0c,
12,
04,
10,
f8,
fe,
15,
03,
01,
f7,
14,
fc,
fb,
d7,
fe,
08,
ec,
f4,
eb,
ed,
e0,
05,
17,
02,
f7,
e2,
c8,
0e,
f5,
f3,
ec,
f7,
11,
e3,
39,
09,
03,
2c,
eb,
03,
ef,
f6,
fb,
22,
d8,
04,
0b,
04,
fa,
21,
ec,
ee,
21,
f7,
e4,
10,
06,
ed,
f2,
eb,
10,
17,
f1,
00,
19,
16,
08,
02,
fd,
07,
ec,
14,
e9,
ea,
f6,
ff,
f1,
fe,
0c,
f2,
12,
fa,
d4,
e6,
0a,
19,
11,
04,
32,
11,
19,
31,
0a,
fa,
ff,
12,
02,
f0,
ea,
f3,
0b,
07,
05,
0f,
10,
0a,
db,
d6,
11,
d8,
f9,
f6,
02,
f9,
f4,
f5,
f1,
f7,
11,
02,
0c,
2e,
0d,
fb,
ed,
fd,
12,
da,
08,
1c,
f4,
11,
0b,
0d,
32,
e6,
e7,
eb,
fa,
e9,
0f,
a5,
ea,
7f,
1e,
e9,
0b,
09,
02,
fd,
fc,
27,
ec,
f4,
2a,
02,
ff,
ed,
ed,
ff,
fb,
f9,
e0,
0a,
f7,
00,
00,
e4,
0f,
f1,
17,
f9,
fa,
fb,
f4,
fa,
f2,
ee,
05,
e1,
fb,
e6,
e9,
07,
10,
f5,
02,
0d,
f5,
0a,
fd,
01,
e0,
dc,
e8,
01,
e6,
d8,
eb,
d9,
df,
01,
f9,
00,
ec,
dd,
ef,
e6,
cd,
f9,
f9,
fb,
f6,
ff,
0b,
02,
1c,
fe,
11,
fb,
ed,
ff,
f8,
f6,
01,
10,
d1,
07,
05,
08,
08,
f4,
07,
1c,
ed,
ea,
28,
03,
07,
f6,
f8,
ee,
05,
09,
07,
f1,
eb,
f0,
01,
ec,
f6,
f0,
ee,
06,
f2,
05,
fa,
f3,
f1,
0d,
2e,
e9,
f9,
e6,
ec,
09,
fb,
5b,
42,
8a,
ef,
0e,
19,
f5,
f1,
07,
18,
ef,
fe,
00,
d4,
01,
f6,
fa,
fd,
13,
ed,
ed,
f0,
06,
15,
05,
e1,
19,
00,
de,
27,
f8,
13,
25,
e5,
f6,
f2,
00,
03,
10,
13,
f4,
1b,
0b,
17,
04,
ea,
1d,
0a,
0d,
0a,
0d,
fb,
07,
f6,
02,
35,
0d,
ee,
01,
09,
02,
10,
f2,
dd,
de,
38,
15,
0f,
12,
04,
1d,
f6,
0c,
26,
fb,
02,
f4,
f9,
07,
ef,
f4,
0a,
18,
0d,
0d,
0c,
30,
f1,
06,
e9,
da,
d9,
e7,
f5,
01,
16,
03,
fa,
f5,
f1,
01,
d5,
0a,
e9,
f5,
0e,
06,
f6,
e7,
ac,
c6,
00,
0a,
0e,
ef,
d9,
f8,
ec,
c7,
09,
07,
25,
04,
fb,
f5,
e6,
14,
1f,
ce,
04,
e4,
f0,
06,
ec,
f6,
01,
f0,
00,
f6,
0d,
11,
11,
ee,
0d,
15,
0c,
eb,
f0,
eb,
e6,
04,
ea,
00,
fb,
fe,
e3,
02,
e6,
0b,
16,
12,
0a,
04,
dd,
3b,
fc,
07,
dc,
08,
05,
07,
f7,
0a,
dd,
fd,
fb,
00,
fe,
ee,
fb,
07,
1d,
f7,
05,
e1,
f0,
11,
fc,
05,
f0,
e8,
da,
0a,
0f,
1c,
ff,
1b,
fd,
f9,
cf,
de,
17,
e6,
12,
03,
01,
f0,
fd,
0f,
08,
10,
0e,
03,
f9,
05,
fa,
f5,
f6,
f4,
0a,
0d,
fd,
f9,
1e,
f4,
dc,
01,
d3,
05,
eb,
ef,
03,
06,
0b,
11,
fd,
e5,
1f,
fd,
13,
09,
e8,
f9,
f0,
ed,
20,
04,
ef,
f5,
1a,
e8,
dc,
20,
0d,
cc,
f3,
0f,
15,
e6,
df,
0e,
f9,
e6,
01,
06,
d4,
e6,
e7,
f6,
21,
fe,
f0,
20,
0e,
f5,
fe,
f0,
07,
03,
f4,
eb,
11,
f3,
ed,
f4,
e6,
e1,
0b,
a5,
54,
ee,
07,
fc,
00,
da,
13,
07,
e8,
d8,
eb,
02,
fa,
08,
01,
fc,
ed,
09,
94,
f1,
0d,
ff,
0c,
e3,
09,
f3,
fc,
d5,
af,
12,
01,
dd,
ef,
0c,
fc,
ed,
13,
ef,
08,
fc,
11,
f9,
fa,
03,
04,
c3,
f8,
ff,
0b,
df,
f6,
f7,
03,
00,
d7,
0d,
07,
fd,
fa,
f5,
1d,
fc,
f4,
17,
2c,
ea,
fd,
fb,
09,
02,
f9,
f8,
0c,
f3,
f5,
0c,
fc,
d7,
f2,
0d,
10,
e3,
10,
ec,
fd,
02,
07,
24,
f9,
cd,
fe,
13,
fa,
07,
08,
e9,
15,
1a,
20,
e8,
0b,
19,
27,
ed,
15,
04,
f0,
05,
ec,
db,
16,
09,
f9,
05,
ed,
f3,
16,
bd,
2c,
ec,
d4,
dd,
f7,
0f,
0f,
e4,
4e,
f4,
0c,
ed,
05,
08,
10,
f4,
f6,
ed,
00,
fe,
f3,
fc,
1a,
fd,
ff,
05,
f3,
0d,
00,
e4,
ef,
ec,
be,
f9,
ff,
ea,
c9,
20,
f4,
ed,
0c,
03,
f4,
f2,
e5,
e3,
0f,
f4,
e8,
fb,
dd,
f8,
fa,
e3,
01,
0f,
21,
f8,
ff,
1e,
04,
f1,
f5,
39,
07,
e9,
02,
0d,
ef,
0d,
00,
fb,
fa,
fe,
0b,
1d,
04,
0f,
ff,
06,
19,
ff,
f9,
11,
ff,
0e,
f4,
09,
0d,
f0,
0d,
14,
fc,
ec,
ed,
35,
fc,
d8,
f0,
43,
e7,
d3,
ed,
e7,
06,
05,
05,
e1,
14,
f7,
ef,
05,
13,
e6,
ed,
19,
fc,
ec,
15,
09,
15,
fd,
09,
ee,
e3,
df,
d2,
07,
20,
01,
0f,
08,
ea,
f9,
06,
eb,
fc,
0d,
d2,
f2,
d9,
19,
17,
bd,
ec,
f8,
0d,
04,
f0,
e3,
ef,
00,
f8,
fc,
1f,
fd,
09,
14,
05,
0e,
16,
7f,
f7,
0e,
00,
04,
09,
0a,
0a,
0b,
02,
ff,
ff,
f2,
ea,
09,
19,
02,
ea,
15,
0b,
12,
da,
0b,
01,
2c,
fb,
d2,
be,
ec,
f0,
0f,
00,
e6,
e9,
f1,
f5,
07,
f9,
f8,
15,
fd,
0f,
0e,
fe,
13,
c9,
f8,
21,
f9,
02,
03,
28,
ef,
c4,
ef,
2d,
fa,
e1,
fb,
1e,
b4,
fa,
3f,
e3,
d8,
f9,
05,
07,
27,
ff,
0e,
e1,
1b,
ec,
ea,
0f,
e1,
05,
df,
e3,
01,
28,
ff,
f5,
19,
ec,
f7,
fa,
04,
f9,
f8,
e4,
12,
e4,
e3,
ff,
0b,
08,
fd,
c3,
13,
0f,
fc,
de,
1b,
1b,
fc,
0d,
0c,
e1,
fc,
04,
e3,
fc,
0b,
e5,
e2,
14,
f1,
08,
e4,
f5,
0d,
f7,
f7,
0e,
f5,
11,
f5,
fc,
15,
00,
eb,
f2,
0b,
d9,
1d,
fe,
fc,
09,
e5,
0d,
fb,
fa,
f6,
1a,
11,
f4,
04,
0d,
00,
fd,
ff,
01,
f1,
03,
1a,
f1,
08,
10,
e3,
f7,
f6,
25,
fa,
ff,
06,
07,
56,
f6,
e0,
f8,
03,
fd,
a9,
14,
01,
e5,
06,
14,
f2,
0c,
05,
fc,
f5,
04,
cb,
db,
1c,
36,
11,
f4,
13,
42,
01,
ff,
0e,
02,
21,
11,
f7,
20,
0e,
dc,
b9,
0e,
05,
cd,
dd,
08,
21,
f0,
ea,
d9,
04,
25,
cc,
f7,
13,
dd,
ca,
e6,
09,
fa,
f8,
b6,
0d,
0a,
e5,
07,
de,
e6,
05,
ef,
da,
17,
e7,
c6,
f9,
ff,
0f,
1c,
0c,
0b,
fb,
f4,
0d,
e6,
fc,
f3,
f0,
f9,
03,
16,
ee,
07,
f4,
f1,
cc,
ec,
b5,
fa,
28,
c7,
0a,
fc,
12,
23,
e3,
25,
ed,
fc,
ff,
fc,
ec,
04,
11,
05,
1e,
a9,
d0,
e7,
de,
17,
fd,
1b,
f8,
06,
09,
e9,
e9,
e5,
f2,
fb,
e3,
fd,
fb,
01,
e6,
e9,
e5,
eb,
11,
1d,
e1,
0f,
d9,
de,
1b,
10,
09,
13,
f9,
f1,
0d,
eb,
e1,
02,
ee,
e6,
0b,
10,
e0,
e6,
ca,
09,
e2,
d9,
0a,
ff,
03,
f0,
ed,
ea,
0e,
09,
f9,
22,
f2,
1a,
fc,
f1,
d0,
ff,
f3,
e3,
1c,
11,
10,
ec,
16,
e8,
f1,
f8,
f8,
07,
f8,
fe,
e8,
f7,
81,
dd,
e6,
08,
02,
e8,
f9,
06,
12,
0a,
fa,
cf,
f4,
0e,
f5,
16,
f6,
11,
fd,
13,
12,
f0,
f8,
eb,
1b,
19,
15,
fd,
e8,
f4,
10,
f7,
fa,
47,
09,
f3,
f1,
f0,
eb,
02,
21,
e7,
0a,
18,
f7,
fd,
18,
1e,
00,
f5,
fe,
fa,
1b,
f2,
6a,
0e,
0e,
08,
d3,
ef,
ec,
f5,
0c,
b4,
cf,
fe,
09,
e8,
f6,
ee,
f3,
18,
fb,
f4,
f6,
eb,
0d,
02,
eb,
08,
ff,
14,
1a,
fe,
f9,
00,
0f,
bf,
d0,
f9,
b7,
ea,
0c,
01,
1c,
fc,
06,
0e,
00,
04,
08,
f9,
02,
00,
07,
0e,
02,
05,
23,
f3,
e5,
0d,
20,
f0,
12,
f2,
1d,
29,
e5,
04,
dc,
01,
fb,
ea,
09,
db,
e2,
13,
0c,
11,
19,
17,
09,
0b,
fc,
f1,
09,
02,
15,
06,
05,
0e,
ef,
18,
07,
f8,
0b,
cd,
09,
ed,
2f,
08,
1e,
06,
c2,
09,
e1,
d7,
fd,
17,
f6,
0a,
0f,
d7,
0a,
e8,
e6,
14,
df,
f1,
ed,
e8,
06,
06,
12,
1c,
08,
08,
de,
3b,
14,
18,
f5,
04,
00,
13,
00,
19,
04,
24,
38,
e5,
17,
f0,
34,
fa,
e8,
f2,
b8,
23,
fc,
09,
15,
f0,
fd,
f1,
f0,
03,
f7,
f6,
f4,
11,
da,
12,
fe,
e3,
f4,
30,
f8,
19,
0b,
f0,
16,
10,
de,
ce,
ee,
e5,
fe,
07,
11,
00,
12,
0b,
f6,
f1,
fb,
03,
f3,
12,
f7,
07,
24,
05,
16,
f6,
e9,
0c,
f2,
f8,
0c,
ce,
11,
05,
02,
13,
0d,
f8,
dd,
fb,
08,
eb,
27,
14,
00,
16,
f0,
e8,
0c,
17,
1e,
be,
04,
d9,
e5,
f0,
1a,
35,
f6,
e9,
1d,
03,
e9,
02,
ed,
da,
fc,
dd,
a9,
d7,
e6,
e3,
24,
f6,
e2,
f9,
f2,
31,
f5,
05,
08,
0d,
fa,
fe,
06,
f6,
f1,
e0,
ec,
e6,
fb,
f5,
1f,
07,
10,
ee,
d5,
da,
e0,
24,
05,
f8,
e5,
da,
2f,
da,
14,
3a,
23,
ed,
e2,
02,
d9,
20,
05,
da,
eb,
04,
f7,
f7,
10,
1a,
0e,
e3,
23,
07,
fa,
01,
ed,
00,
22,
f2,
f0,
18,
11,
e7,
07,
fb,
f6,
0b,
ee,
ef,
fc,
d5,
05,
fc,
05,
15,
00,
f1,
22,
f4,
f8,
11,
d9,
ec,
0e,
1b,
18,
ec,
15,
06,
f2,
fc,
d0,
05,
1b,
82,
2b,
06,
16,
05,
00,
e7,
ec,
0a,
eb,
fb,
f2,
0b,
18,
ef,
0d,
1e,
0c,
f9,
f2,
0f,
d1,
cf,
fe,
31,
fb,
06,
b9,
dd,
f4,
01,
01,
24,
e4,
d1,
00,
c3,
01,
03,
d9,
20,
cf,
fb,
24,
ec,
27,
04,
05,
25,
f7,
f2,
ff,
ee,
13,
c4,
d8,
0b,
f0,
e3,
00,
2c,
0d,
08,
1c,
c2,
04,
ea,
f0,
f9,
f8,
f6,
e9,
f9,
ec,
e8,
07,
02,
f7,
10,
0e,
11,
2c,
13,
d7,
02,
f6,
06,
b2,
eb,
f0,
1c,
06,
cd,
7f,
2b,
bd,
de,
fc,
e4,
e4,
f5,
ff,
01,
ec,
dd,
ba,
1f,
fd,
19,
09,
d2,
12,
f1,
f2,
d8,
ff,
f7,
de,
07,
e5,
d8,
eb,
44,
e0,
17,
08,
d9,
0c,
cb,
1a,
fb,
ef,
5e,
08,
09,
38,
02,
ed,
e6,
f6,
00,
5a,
12,
f5,
18,
fc,
0d,
02,
01,
ea,
f8,
b2,
ea,
99,
c7,
07,
19,
24,
2d,
08,
e8,
f8,
ee,
fa,
0c,
08,
14,
0e,
f4,
f4,
ff,
db,
f3,
f5,
c9,
d2,
ef,
bf,
f3,
f2,
31,
fd,
eb,
2e,
f5,
c0,
05,
f9,
d3,
08,
01,
f9,
03,
e7,
39,
08,
05,
14,
dd,
f8,
0a,
ba,
f5,
d8,
d5,
d8,
f6,
43,
33,
f0,
f3,
08,
f5,
03,
06,
f5,
41,
22,
e6,
1f,
05,
f0,
40,
34,
04,
03,
f4,
0b,
28,
09,
16,
1e,
02,
1d,
0e,
1a,
16,
49,
1e,
e3,
d5,
21,
f4,
e8,
f9,
0b,
0e,
b2,
ee,
35,
2c,
fd,
f5,
32,
03,
f2,
0d,
10,
13,
07,
f4,
f9,
d5,
03,
ec,
f4,
1d,
df,
1e,
2b,
eb,
16,
34,
0c,
07,
18,
00,
14,
f6,
d3,
ed,
02,
fe,
f9,
0f,
1f,
e7,
f1,
25,
e7,
f4,
04,
f4,
e6,
ef,
da,
0c,
10,
fc,
04,
ff,
06,
fe,
34,
16,
eb,
1e,
fd,
fa,
cc,
db,
01,
f5,
fb,
34,
15,
1c,
01,
e6,
f7,
03,
3a,
2d,
e3,
f8,
00,
fb,
f1,
f6,
25,
4f,
25,
ff,
f0,
fa,
0e,
07,
0d,
25,
54,
1b,
ef,
e3,
d0,
d6,
8f,
b4,
fd,
47,
40,
f7,
f9,
09,
1d,
a0,
e3,
09,
b8,
f5,
fb,
e1,
e9,
06,
28,
fb,
0c,
47,
f2,
ee,
ed,
f7,
d9,
db,
ff,
f5,
f9,
0f,
fc,
13,
26,
f7,
0c,
fe,
ec,
a9,
d2,
05,
eb,
f8,
f8,
d3,
eb,
ed,
5f,
09,
0e,
15,
ff,
f4,
c3,
e5,
06,
31,
0d,
c5,
c9,
e0,
e8,
d3,
fd,
ee,
ed,
0b,
e7,
16,
23,
0b,
f9,
ff,
fb,
18,
12,
18,
12,
1e,
f2,
f4,
fc,
25,
43,
bc,
f1,
f6,
ff,
de,
ee,
26,
ca,
f3,
f6,
e4,
e0,
dd,
c9,
0e,
ff,
0f,
01,
e7,
fa,
0e,
00,
1d,
1f,
f4,
0d,
0b,
0f,
13,
0a,
fa,
ff,
fb,
f4,
ed,
8f,
05,
09,
13,
12,
14,
08,
09,
da,
82,
c2,
d2,
17,
fb,
e0,
64,
33,
26,
f2,
2a,
13,
f3,
1a,
fd,
ca,
f1,
e4,
0b,
ed,
ec,
12,
f1,
fa,
e1,
fb,
d0,
13,
10,
07,
42,
2c,
04,
2b,
0b,
25,
4e,
f6,
e1,
db,
e7,
15,
fb,
ee,
ed,
f7,
08,
ef,
d1,
f7,
12,
ec,
ee,
06,
d0,
00,
0e,
f3,
1f,
2f,
ec,
12,
c1,
dc,
e5,
08,
fd,
05,
1b,
be,
fd,
f6,
34,
f0,
04,
e6,
e1,
e6,
ec,
f5,
08,
1f,
ef,
ef,
1c,
e5,
10,
11,
16,
0c,
ec,
06,
20,
d9,
fb,
28,
16,
04,
0d,
10,
e9,
00,
04,
e3,
08,
f4,
1c,
e0,
da,
08,
03,
12,
1f,
fa,
04,
ed,
ee,
d5,
01,
31,
f7,
25,
d3,
a1,
0d,
e2,
fc,
0d,
da,
ad,
d4,
fd,
f7,
ff,
f4,
00,
fc,
1d,
12,
0e,
0f,
26,
25,
bf,
cd,
2a,
f5,
1d,
e6,
4a,
59,
e1,
cd,
18,
e5,
02,
f0,
fe,
45,
ed,
24,
d5,
32,
54,
06,
f4,
03,
39,
e5,
c4,
14,
ea,
f9,
2b,
fd,
ef,
08,
f8,
0b,
ee,
d6,
0b,
ee,
cb,
f3,
03,
cd,
fe,
10,
10,
02,
fe,
fa,
fa,
f5,
18,
fb,
19,
f8,
0d,
f4,
fc,
19,
01,
ed,
e5,
0e,
08,
08,
ea,
05,
17,
0d,
0f,
f5,
fb,
0c,
04,
01,
06,
1b,
ed,
e6,
f0,
fa,
06,
11,
2f,
02,
ff,
e3,
f6,
02,
0e,
fc,
fe,
f7,
04,
00,
0d,
1c,
1c,
f6,
02,
03,
22,
21,
f6,
15,
f4,
02,
fe,
fd,
fe,
f5,
31,
e4,
ee,
06,
f0,
fe,
f5,
f6,
07,
d0,
e7,
ee,
b5,
f3,
04,
f2,
01,
f8,
02,
ec,
f5,
02,
dd,
fe,
0b,
04,
fd,
16,
f7,
ee,
ff,
de,
00,
f5,
f9,
db,
2b,
0a,
16,
0b,
13,
07,
fc,
02,
f6,
d8,
e8,
f1,
fd,
04,
03,
07,
06,
f3,
e1,
f3,
e3,
d5,
19,
01,
fb,
ff,
01,
ff,
f3,
f8,
01,
fe,
1d,
fe,
24,
ff,
16,
01,
f2,
22,
08,
1b,
f8,
13,
f9,
ff,
e3,
df,
d4,
df,
f8,
0a,
14,
f4,
ea,
0b,
01,
f3,
ec,
08,
ff,
e6,
e8,
19,
1a,
f6,
fb,
07,
00,
05,
0d,
02,
e6,
f3,
1f,
ed,
01,
ff,
fe,
fd,
04,
e4,
fe,
f4,
f1,
f0,
1b,
0a,
08,
eb,
34,
f5,
d7,
0a,
e8,
16,
0b,
ff,
f5,
04,
fe,
0b,
f6,
e8,
fd,
ff,
f7,
0f,
ff,
1d,
02,
dc,
04,
e7,
fd,
f3,
11,
24,
05,
fd,
10,
05,
f0,
f5,
06,
e8,
e1,
e6,
01,
0e,
fe,
00,
0d,
fd,
f5,
f7,
ef,
2b,
00,
1d,
01,
09,
00,
f2,
07,
e1,
0d,
0d,
12,
1b,
00,
09,
e3,
ed,
d9,
f1,
fc,
08,
03,
05,
fd,
07,
2d,
0c,
e9,
fd,
e6,
01,
00,
f9,
01,
18,
fb,
14,
23,
10,
f3,
01,
f8,
1b,
23,
e7,
ee,
fa,
0a,
f1,
08,
03,
f1,
02,
0b,
e7,
0e,
26,
ff,
08,
08,
f8,
dc,
e4,
e8,
ff,
d6,
fc,
0d,
03,
0c,
27,
04,
07,
19,
0f,
03,
f6,
0e,
fb,
fe,
03,
f8,
cb,
ca,
16,
0a,
27,
1c,
13,
02,
e1,
e4,
08,
f8,
fa,
03,
fe,
f3,
fb,
fe,
d4,
d5,
0b,
fb,
fa,
10,
0e,
d9,
e2,
1c,
1b,
fe,
02,
f9,
fe,
25,
04,
d4,
f6,
ef,
fc,
10,
fb,
12,
f5,
07,
fb,
dc,
f2,
ef,
06,
03,
ef,
e7,
ec,
e6,
f3,
ef,
ee,
0b,
fa,
ef,
e2,
e5,
19,
f0,
e8,
ee,
05,
f9,
ee,
fd,
1d,
f4,
06,
f5,
ef,
0e,
f5,
f8,
04,
e4,
12,
11,
ff,
12,
f6,
09,
08,
17,
fd,
e3,
f8,
d4,
0d,
1b,
04,
ea,
03,
e8,
fa,
fb,
f4,
0c,
0f,
03,
05,
15,
01,
dc,
e3,
03,
0a,
04,
03,
03,
fc,
f8,
fd,
e1,
fd,
0a,
07,
16,
f4,
d7,
f5,
06,
f5,
ee,
11,
e9,
0f,
e9,
dd,
dc,
ef,
e1,
ea,
ed,
02,
f2,
ff,
1c,
f5,
00,
e4,
f2,
06,
f8,
01,
0a,
01,
fd,
fc,
07,
0a,
01,
12,
00,
10,
e8,
04,
89,
81,
95,
11,
03,
fc,
e8,
e6,
0d,
fd,
e8,
ef,
f0,
ef,
f9,
f2,
f2,
ea,
0d,
07,
00,
fe,
15,
f4,
ed,
dc,
f3,
ff,
dc,
fc,
e2,
fb,
ef,
de,
07,
e2,
ff,
fc,
16,
f7,
ed,
ff,
2c,
f1,
ff,
02,
ef,
04,
05,
0b,
f0,
f6,
0d,
12,
24,
f6,
d3,
f5,
0d,
f2,
dc,
14,
d9,
08,
1a,
03,
f4,
0d,
01,
f4,
0b,
02,
f8,
e7,
e9,
07,
03,
07,
f8,
0f,
f8,
23,
1c,
c2,
fc,
e8,
fa,
fa,
d8,
ed,
fe,
f7,
fa,
01,
e3,
fb,
0f,
fa,
ee,
ec,
f7,
ed,
07,
f6,
ee,
ea,
c1,
cc,
12,
18,
0a,
f8,
20,
ec,
05,
fb,
f5,
fd,
b6,
ec,
fb,
0c,
07,
f5,
f3,
fa,
05,
16,
07,
08,
08,
f6,
01,
0e,
06,
02,
02,
f7,
ff,
0e,
eb,
fc,
f9,
eb,
ff,
cb,
f3,
f5,
be,
df,
e5,
1c,
06,
09,
68,
1e,
fb,
f5,
ef,
e9,
e7,
e6,
04,
12,
0a,
ee,
ed,
12,
fc,
01,
f8,
19,
0c,
e3,
df,
06,
07,
f0,
0a,
f6,
04,
f0,
01,
f4,
03,
f0,
01,
0f,
fa,
0a,
24,
03,
ee,
28,
1d,
fc,
e4,
0b,
fa,
ae,
e2,
f8,
d4,
0c,
05,
01,
04,
e7,
10,
0c,
0b,
f4,
f7,
0c,
17,
ee,
07,
0e,
02,
02,
04,
f8,
12,
12,
0b,
f7,
01,
0c,
08,
34,
00,
fa,
06,
0c,
10,
e5,
fc,
fb,
f0,
f8,
0b,
17,
10,
e7,
0d,
1e,
f4,
f3,
03,
0e,
f5,
0f,
fc,
19,
f5,
1e,
7f,
17,
01,
42,
12,
fa,
c2,
cc,
fa,
e8,
f8,
f4,
f6,
ee,
0e,
01,
f6,
10,
d3,
0d,
fa,
e9,
fb,
19,
44,
fd,
f5,
f0,
11,
ed,
ff,
07,
f4,
e2,
13,
01,
f4,
f7,
0b,
10,
06,
0f,
30,
19,
03,
16,
06,
14,
fc,
01,
f5,
de,
04,
e5,
ea,
11,
06,
ff,
11,
06,
03,
12,
fa,
04,
0b,
ef,
02,
f4,
09,
08,
f8,
ff,
0e,
ee,
f4,
fb,
f0,
0a,
e2,
fa,
0b,
11,
05,
fc,
11,
f9,
f0,
f8,
04,
f7,
ff,
f2,
e9,
0e,
f4,
05,
2a,
f4,
0a,
0e,
11,
f8,
17,
08,
03,
fc,
05,
04,
e7,
00,
fb,
f3,
f8,
ff,
d3,
0d,
f8,
e1,
f6,
f6,
e1,
ee,
ec,
f8,
f6,
03,
fb,
04,
18,
fa,
0d,
05,
ee,
06,
fc,
ff,
0b,
fe,
12,
0f,
f3,
15,
0f,
0d,
0c,
08,
f8,
03,
ed,
f1,
f1,
f0,
0e,
11,
ea,
ff,
06,
f8,
fd,
f0,
17,
2c,
21,
22,
ff,
f0,
f9,
02,
f1,
e1,
fd,
05,
f7,
0a,
08,
03,
f2,
11,
05,
04,
fb,
01,
f6,
e7,
f6,
fa,
f8,
19,
1a,
30,
ef,
f6,
1f,
e2,
ea,
e1,
00,
f3,
e6,
fd,
1d,
21,
13,
f9,
fb,
15,
f2,
df,
01,
fc,
f5,
ff,
09,
01,
fc,
e5,
e7,
04,
0f,
28,
07,
0a,
0d,
07,
fa,
ef,
13,
ff,
c5,
06,
04,
c5,
fe,
f2,
f5,
fe,
f9,
f4,
f6,
e9,
f8,
02,
f8,
df,
07,
ea,
03,
0d,
0e,
0d,
f9,
0f,
0b,
f3,
17,
36,
15,
04,
06,
0b,
f8,
dc,
da,
00,
d5,
d3,
fd,
dd,
d5,
04,
11,
15,
f8,
eb,
ee,
fe,
0d,
08,
13,
11,
ff,
00,
f9,
f3,
07,
fa,
f3,
12,
f7,
f7,
f6,
fc,
dc,
fa,
fe,
f5,
12,
18,
ee,
f1,
00,
ea,
f3,
fa,
f9,
fb,
f5,
fc,
00,
19,
00,
0f,
ec,
0f,
e0,
f4,
1c,
01,
f5,
fe,
fa,
11,
05,
03,
26,
0b,
ff,
d9,
04,
00,
f3,
f4,
11,
fb,
09,
02,
01,
e5,
09,
0a,
00,
fa,
12,
04,
01,
ed,
f9,
07,
df,
f8,
fd,
0a,
fe,
04,
e1,
eb,
f0,
e6,
05,
0b,
ea,
d7,
09,
06,
e3,
00,
f5,
02,
00,
1b,
00,
0a,
f9,
07,
01,
1d,
04,
f2,
ec,
f1,
0d,
05,
fd,
fc,
04,
e5,
f9,
1a,
04,
f5,
14,
04,
eb,
00,
11,
00,
fe,
f7,
ff,
00,
eb,
f5,
20,
ff,
f4,
d3,
ff,
05,
f5,
fd,
fa,
0d,
0e,
fa,
e9,
f5,
ea,
19,
09,
d4,
08,
e0,
0f,
e3,
0c,
f9,
81,
23,
0c,
f6,
03,
f7,
12,
ff,
fd,
f9,
1d,
f1,
de,
06,
00,
19,
f5,
ff,
fe,
06,
fe,
f4,
08,
f8,
f6,
01,
f3,
24,
04,
09,
00,
fc,
02,
05,
fd,
f2,
f3,
0c,
01,
e2,
02,
12,
ec,
ed,
11,
3f,
db,
07,
12,
f6,
14,
ef,
f7,
f5,
e6,
10,
fc,
0f,
fd,
fd,
02,
08,
14,
f0,
1c,
0a,
06,
0b,
fa,
fb,
07,
07,
dc,
f7,
05,
f8,
f7,
fc,
f9,
03,
09,
05,
f4,
f6,
00,
07,
e7,
fd,
06,
ef,
fe,
ee,
ee,
f5,
f3,
0b,
fd,
15,
0d,
ff,
03,
10,
fc,
ff,
00,
e9,
18,
ff,
e0,
1c,
f6,
e8,
04,
0c,
fd,
f7,
16,
fa,
ec,
fd,
04,
f5,
0c,
17,
ed,
06,
2a,
09,
f0,
06,
13,
fe,
e3,
fd,
f7,
0d,
ff,
11,
22,
f3,
fc,
19,
fd,
e6,
52,
ed,
12,
2e,
f5,
f8,
f6,
f8,
04,
e8,
d5,
04,
fa,
ee,
f6,
f6,
fb,
08,
de,
f7,
08,
f6,
eb,
07,
ee,
02,
fa,
ee,
08,
0c,
00,
f7,
dc,
e9,
1b,
09,
1e,
05,
f5,
f6,
08,
00,
f5,
10,
fe,
0e,
04,
fe,
15,
f2,
17,
10,
fa,
fa,
15,
06,
eb,
05,
06,
01,
f2,
fc,
0d,
d2,
f7,
0a,
ee,
0d,
fe,
01,
01,
f4,
00,
08,
1f,
f6,
f1,
14,
09,
f1,
e9,
f8,
e3,
ff,
fb,
fa,
09,
ea,
12,
0c,
d6,
1b,
01,
e9,
17,
f1,
04,
f2,
00,
06,
f3,
06,
11,
ff,
10,
f3,
f9,
0a,
08,
ee,
0d,
07,
e6,
04,
09,
ff,
f0,
fa,
f4,
ff,
ed,
03,
f6,
e1,
e6,
09,
e2,
f5,
f9,
00,
04,
fb,
f4,
f8,
01,
29,
fb,
fb,
16,
fe,
00,
1a,
fe,
fe,
00,
01,
09,
f3,
f5,
12,
f4,
e8,
15,
fc,
fd,
fe,
f2,
fe,
0b,
05,
fb,
01,
f8,
01,
01,
06,
fa,
08,
18,
e9,
0c,
e0,
f0,
fe,
f9,
08,
e4,
fa,
fd,
f5,
1c,
03,
f3,
09,
08,
16,
e3,
0a,
0f,
e8,
f5,
04,
fa,
01,
16,
fe,
f0,
fe,
f9,
f5,
f7,
02,
02,
f9,
d0,
0d,
19,
fe,
fb,
05,
0e,
f9,
fa,
fa,
f3,
05,
fa,
f0,
19,
f7,
f2,
0d,
0a,
fe,
11,
f0,
eb,
12,
ed,
fb,
ea,
17,
fd,
f7,
f2,
12,
09,
f2,
0b,
0b,
ff,
12,
f8,
e9,
13,
08,
fb,
0e,
02,
fc,
07,
03,
0d,
06,
f8,
f8,
0a,
18,
fc,
f3,
16,
ec,
f3,
09,
f5,
00,
02,
dd,
f9,
ec,
f3,
07,
11,
0c,
03,
07,
04,
02,
10,
d8,
00,
0e,
d8,
07,
f8,
0a,
00,
ee,
fb,
21,
00,
f2,
07,
fd,
0b,
0c,
f8,
0d,
11,
08,
ff,
09,
eb,
eb,
05,
04,
f3,
0c,
0f,
0f,
0b,
0e,
f5,
0f,
25,
eb,
05,
07,
ec,
06,
e8,
03,
08,
05,
f9,
09,
f5,
10,
fa,
ef,
12,
01,
19,
f9,
0b,
0e,
05,
ee,
ff,
f3,
fd,
1a,
f1,
e8,
0b,
05,
fa,
fb,
29,
fc,
f1,
ff,
05,
f6,
d9,
fb,
09,
e0,
1b,
e5,
a7,
17,
09,
f8,
02,
08,
ce,
01,
f7,
d7,
16,
00,
e0,
0b,
12,
0d,
04,
f4,
f5,
f3,
16,
1f,
ff,
07,
f6,
f2,
0c,
dd,
fb,
13,
ee,
f8,
18,
1d,
e6,
fd,
0c,
d5,
0e,
f9,
ee,
09,
00,
ff,
0a,
e8,
e5,
f9,
fc,
0c,
fe,
f9,
06,
e8,
f4,
0f,
01,
ff,
f7,
1a,
ee,
07,
fa,
d3,
00,
04,
f0,
00,
f1,
0d,
01,
2d,
1c,
00,
0b,
fc,
07,
fa,
ef,
fb,
e9,
ff,
f2,
f7,
0d,
0a,
09,
fe,
04,
ed,
f7,
04,
0c,
0f,
03,
fb,
0f,
0c,
0d,
e0,
1e,
0a,
ed,
04,
0c,
f8,
fb,
28,
24,
e2,
03,
ec,
f0,
08,
04,
0a,
81,
93,
0a,
c5,
cc,
fe,
15,
1e,
fe,
e9,
16,
fd,
dd,
06,
02,
07,
f8,
f6,
19,
e8,
f0,
25,
0e,
f9,
ff,
0b,
f4,
f8,
0f,
de,
02,
11,
06,
e6,
f7,
04,
c8,
08,
ed,
06,
04,
06,
06,
dd,
f5,
19,
21,
e8,
30,
1f,
08,
10,
08,
fd,
f7,
ef,
ff,
f6,
ce,
cb,
05,
f4,
02,
04,
04,
f6,
f1,
ea,
f9,
0c,
f8,
fc,
f8,
09,
f6,
07,
f1,
05,
f5,
ef,
f8,
fa,
fe,
0d,
ed,
10,
12,
18,
de,
fa,
2d,
e3,
0c,
15,
11,
01,
1e,
0f,
04,
1f,
fb,
e8,
10,
ca,
e7,
f8,
f0,
ed,
75,
47,
f9,
13,
1d,
01,
fb,
f5,
e9,
0c,
fb,
ea,
07,
f1,
e9,
f1,
0f,
17,
02,
2e,
ff,
fa,
19,
fe,
fd,
fe,
0b,
f1,
fa,
0e,
d7,
fc,
1a,
f1,
04,
f4,
f5,
0c,
ee,
1a,
1e,
f0,
f6,
f4,
fa,
fc,
27,
f4,
01,
09,
00,
03,
07,
01,
0d,
02,
1e,
f7,
1b,
28,
13,
0e,
11,
f2,
f2,
fc,
f7,
f9,
01,
f4,
0a,
0b,
f3,
00,
f4,
00,
fe,
08,
0a,
09,
02,
f7,
11,
0f,
fd,
ef,
0a,
16,
f0,
de,
1b,
fc,
d4,
19,
0e,
fb,
fc,
11,
07,
de,
ef,
f1,
04,
fa,
fe,
00,
fa,
02,
f4,
f2,
0d,
12,
e3,
e9,
0b,
06,
03,
40,
0d,
f5,
02,
fa,
fc,
12,
01,
f6,
13,
e9,
f3,
ed,
d8,
fd,
e0,
0c,
14,
e9,
33,
12,
ff,
fd,
01,
f0,
02,
00,
fc,
02,
df,
cb,
f7,
f8,
e6,
03,
00,
b9,
c3,
08,
17,
f4,
ff,
1f,
0d,
20,
ee,
15,
13,
c5,
e4,
12,
18,
f7,
0b,
1d,
ed,
08,
fb,
26,
f7,
1b,
f3,
00,
5c,
08,
0e,
07,
fc,
02,
e4,
01,
0c,
0c,
f0,
13,
17,
02,
f4,
f7,
f2,
0e,
0a,
21,
0a,
ef,
dd,
fd,
10,
f7,
f2,
2a,
17,
f7,
f6,
06,
fd,
f7,
fd,
03,
c6,
01,
0c,
f4,
f3,
05,
e6,
da,
ea,
14,
e1,
17,
0a,
04,
04,
09,
fb,
02,
eb,
df,
fc,
e8,
fc,
f5,
0d,
02,
ef,
f0,
fe,
fd,
fe,
04,
f3,
ee,
fc,
f8,
e0,
16,
0c,
d9,
27,
08,
fe,
ed,
12,
f3,
05,
20,
23,
07,
0b,
04,
f7,
15,
2e,
e4,
0b,
0e,
10,
03,
e0,
f6,
f9,
d5,
ee,
f9,
05,
05,
02,
f9,
f7,
eb,
fa,
fa,
de,
fc,
05,
09,
fd,
08,
f5,
fc,
f6,
ea,
03,
27,
10,
08,
f7,
fa,
15,
1d,
f8,
ec,
e7,
07,
09,
02,
f5,
43,
ff,
f1,
08,
d2,
ed,
12,
ec,
0a,
6b,
f7,
eb,
f4,
13,
ff,
fa,
f6,
21,
e2,
1b,
0a,
f2,
18,
0a,
06,
f8,
fb,
f5,
ee,
08,
17,
02,
f2,
f5,
f3,
04,
e2,
12,
19,
10,
02,
0c,
0d,
17,
0f,
c1,
3e,
1d,
e5,
fc,
fa,
f8,
01,
fb,
f8,
c5,
ef,
f3,
14,
10,
fc,
1d,
08,
d5,
4c,
30,
de,
e9,
10,
f9,
05,
05,
cf,
22,
00,
e9,
e6,
f7,
e9,
f6,
ff,
f9,
fb,
0e,
0c,
11,
00,
03,
10,
f2,
04,
ed,
f4,
f2,
08,
0a,
e6,
f2,
fd,
ea,
0c,
f8,
11,
00,
09,
e5,
0d,
04,
02,
01,
ed,
fd,
e4,
e4,
0b,
eb,
ea,
17,
f3,
da,
10,
12,
f3,
f2,
ea,
f1,
1c,
1c,
f7,
0c,
28,
0e,
07,
f6,
f7,
27,
f1,
fb,
04,
0f,
0c,
0b,
0c,
12,
e2,
0f,
24,
01,
f8,
f7,
1e,
1a,
17,
d7,
b8,
f2,
e5,
d7,
fe,
f1,
f1,
df,
eb,
f1,
fc,
01,
fd,
ef,
ff,
0b,
03,
f6,
ef,
09,
16,
fb,
ef,
17,
f1,
09,
e5,
1b,
26,
ed,
e9,
00,
02,
f9,
08,
03,
0a,
14,
f0,
f2,
f7,
08,
03,
09,
fc,
e5,
05,
19,
e6,
f1,
00,
0c,
f5,
02,
07,
f3,
f5,
ba,
ee,
e3,
fd,
02,
ef,
e8,
f0,
2e,
14,
de,
14,
02,
e3,
06,
0b,
05,
df,
0e,
f8,
1a,
10,
0a,
fd,
0e,
0f,
ee,
ef,
00,
08,
e1,
02,
26,
e0,
fe,
0c,
15,
05,
f6,
fd,
e0,
ff,
ee,
d8,
13,
f2,
e3,
d1,
c9,
02,
0c,
f2,
06,
02,
13,
17,
06,
ff,
f5,
f6,
04,
06,
09,
06,
04,
fb,
f5,
ff,
17,
15,
f9,
f6,
0c,
05,
ed,
ff,
18,
01,
0a,
01,
e8,
ff,
15,
20,
20,
01,
09,
60,
0d,
0a,
7f,
ed,
ee,
ed,
fd,
fa,
21,
fd,
f6,
00,
dc,
fb,
e6,
06,
09,
0c,
ff,
fd,
14,
e6,
1a,
f0,
19,
10,
01,
f6,
02,
0b,
1e,
02,
eb,
f1,
f8,
0b,
08,
f9,
fe,
15,
04,
0d,
f0,
10,
09,
e2,
07,
13,
f2,
fe,
f1,
f1,
ee,
ec,
f1,
03,
ec,
d7,
f9,
f8,
07,
ec,
f2,
0c,
f1,
e7,
17,
f3,
ef,
f0,
f7,
03,
f3,
05,
07,
15,
07,
f9,
db,
ff,
fa,
ff,
11,
09,
06,
00,
fe,
f8,
04,
f3,
13,
08,
0b,
f7,
f5,
fc,
06,
0c,
07,
ee,
f6,
06,
f9,
0a,
f0,
04,
ff,
fd,
08,
fe,
00,
f6,
02,
f0,
f7,
15,
15,
ee,
f7,
10,
01,
00,
f8,
f8,
04,
ec,
e0,
04,
ac,
dd,
f4,
0d,
fe,
eb,
07,
14,
fb,
e7,
0c,
09,
ff,
f7,
f1,
e8,
04,
09,
fa,
09,
0f,
07,
0c,
c8,
f1,
2a,
23,
d1,
f9,
fb,
00,
03,
02,
09,
0f,
0d,
fb,
0c,
10,
fd,
fd,
09,
28,
0c,
fe,
e1,
0e,
02,
f2,
e6,
13,
10,
05,
f2,
11,
fd,
f4,
0c,
0e,
f5,
ff,
fc,
04,
13,
e7,
f4,
22,
fc,
e5,
e3,
ec,
13,
07,
e7,
f8,
dd,
fa,
f4,
03,
fe,
fe,
05,
f6,
0d,
1c,
fb,
e5,
0e,
f2,
fb,
e9,
08,
02,
09,
0f,
07,
10,
fa,
03,
06,
11,
06,
ec,
15,
02,
e2,
03,
f9,
d3,
05,
00,
ee,
03,
e4,
fb,
03,
f8,
fc,
f8,
04,
fc,
08,
fe,
f7,
ff,
ea,
e7,
0d,
fd,
fb,
0a,
fc,
05,
f3,
f5,
05,
0e,
ff,
ef,
02,
02,
1d,
01,
fa,
09,
ff,
0a,
f6,
e1,
07,
1d,
11,
04,
09,
f6,
17,
07,
fc,
3b,
32,
09,
f0,
ea,
f4,
fe,
ff,
08,
16,
19,
04,
d2,
0d,
00,
e6,
fe,
ee,
02,
f1,
fe,
0f,
38,
14,
fd,
28,
01,
f3,
ef,
0e,
13,
fc,
d9,
1b,
04,
e8,
09,
17,
f0,
d4,
f6,
0b,
fa,
01,
f3,
ef,
e2,
da,
04,
e5,
ce,
11,
f6,
f7,
15,
fc,
15,
fd,
f9,
07,
07,
f9,
f2,
0c,
f5,
06,
f9,
ea,
0b,
14,
07,
07,
04,
10,
02,
01,
f8,
ed,
fa,
0b,
1c,
f7,
d0,
f8,
f8,
fe,
eb,
0b,
eb,
ea,
18,
13,
e7,
ff,
35,
f9,
17,
27,
fc,
17,
02,
e7,
0d,
eb,
e8,
ca,
eb,
27,
d0,
d4,
03,
14,
1b,
02,
fe,
df,
01,
16,
db,
30,
04,
d0,
11,
ee,
ed,
01,
fb,
e3,
0c,
ff,
e0,
1c,
ff,
23,
03,
f6,
1d,
ff,
f9,
dc,
fd,
0c,
da,
ea,
1a,
f8,
8a,
13,
17,
0b,
ef,
16,
d9,
ee,
f7,
d6,
f7,
fa,
fb,
09,
c9,
f2,
d0,
cb,
d8,
b0,
de,
db,
e8,
1b,
2d,
1f,
40,
fc,
06,
fa,
e8,
ee,
d5,
00,
ef,
2e,
0e,
ee,
f2,
f6,
01,
24,
05,
b7,
ea,
dd,
f8,
06,
01,
e4,
ba,
05,
ec,
c3,
c5,
20,
f5,
00,
0b,
06,
16,
cf,
fa,
d9,
08,
f7,
0f,
09,
f1,
f3,
1b,
14,
19,
0f,
ef,
fa,
ee,
02,
25,
f3,
d1,
f0,
fb,
04,
d3,
f9,
18,
ee,
3e,
2f,
1b,
0d,
fa,
17,
07,
f1,
06,
f0,
b7,
29,
2c,
e2,
0c,
e5,
19,
23,
bf,
ad,
33,
17,
d3,
fa,
20,
05,
1d,
00,
f0,
e6,
f6,
eb,
0f,
df,
e1,
f5,
16,
18,
11,
17,
0e,
0c,
14,
4a,
da,
09,
37,
e8,
1a,
26,
f7,
e2,
34,
22,
f0,
52,
4f,
f4,
fb,
06,
06,
e9,
0d,
12,
06,
08,
07,
e6,
d0,
1a,
12,
09,
08,
39,
f0,
11,
0f,
06,
e8,
e1,
18,
1e,
fb,
3e,
04,
ce,
05,
f3,
d7,
22,
ef,
fb,
19,
f4,
07,
09,
f9,
03,
ec,
e6,
1d,
35,
f6,
f7,
fc,
2d,
08,
ff,
ff,
20,
2b,
e5,
cc,
ec,
fe,
dc,
f5,
09,
eb,
f2,
26,
ee,
10,
ed,
d4,
ea,
d7,
01,
e6,
04,
00,
e3,
31,
df,
e0,
15,
1d,
f6,
0c,
f3,
09,
fb,
cd,
1a,
fa,
c1,
01,
28,
06,
ff,
16,
f8,
fc,
0c,
02,
f5,
df,
e7,
e8,
00,
e8,
dc,
14,
f4,
e1,
dd,
f6,
f5,
0e,
05,
15,
19,
f3,
12,
19,
15,
0c,
04,
b4,
d7,
4d,
fe,
fe,
2a,
04,
13,
1c,
0b,
29,
00,
0d,
fb,
05,
eb,
0b,
1f,
0b,
cf,
34,
58,
ec,
f0,
00,
06,
fe,
0c,
18,
20,
1f,
e3,
01,
e5,
13,
fa,
e8,
10,
00,
ee,
13,
fa,
f6,
f3,
05,
10,
05,
38,
10,
11,
fb,
f0,
f1,
f6,
e1,
01,
f3,
ed,
1e,
09,
1a,
0c,
e9,
c8,
0a,
3d,
fa,
fc,
0c,
3c,
f3,
fa,
eb,
f5,
08,
ed,
02,
08,
0c,
f5,
15,
dc,
de,
27,
31,
19,
07,
10,
f7,
f2,
e8,
ee,
0d,
f8,
f7,
04,
f0,
0d,
e6,
ff,
d6,
05,
ee,
12,
16,
e4,
e1,
e9,
f1,
c7,
f1,
db,
de,
0c,
ef,
f5,
1a,
29,
1b,
fc,
1c,
0e,
00,
df,
f6,
f7,
d9,
0d,
bd,
e6,
14,
ed,
dc,
f9,
fe,
ef,
d2,
0b,
20,
05,
0b,
fc,
f9,
ee,
ff,
de,
f6,
2a,
c4,
ec,
14,
04,
eb,
aa,
f5,
f9,
d0,
11,
f2,
03,
14,
f9,
f4,
fc,
e6,
e4,
c0,
ea,
15,
f4,
f4,
e4,
08,
0b,
18,
3f,
09,
0b,
2e,
e6,
da,
1e,
f4,
01,
f9,
16,
26,
21,
00,
23,
f0,
1e,
53,
ed,
10,
25,
eb,
0b,
17,
2c,
20,
1b,
32,
16,
f5,
0f,
de,
c6,
13,
fd,
81,
23,
dd,
d7,
e7,
e6,
f9,
f5,
f7,
0f,
0a,
d9,
e3,
fd,
fe,
cf,
29,
ea,
ef,
17,
08,
f9,
20,
1d,
03,
0d,
03,
f1,
2a,
01,
e5,
22,
0d,
27,
e9,
fd,
43,
d5,
fc,
e9,
ec,
03,
fd,
fd,
08,
e7,
e5,
05,
ef,
11,
e3,
e1,
12,
f6,
b3,
0d,
ef,
dd,
21,
0d,
d7,
f1,
f8,
92,
f3,
e3,
b5,
15,
fc,
ee,
00,
26,
26,
d5,
e1,
de,
fe,
0f,
f9,
0d,
01,
7f,
1f,
f7,
09,
fc,
f3,
03,
e9,
c8,
de,
26,
2b,
f4,
f4,
06,
01,
e4,
d6,
9e,
0a,
e5,
df,
2b,
da,
ed,
f2,
1e,
db,
f0,
04,
0c,
e5,
fb,
fc,
f6,
ef,
06,
f4,
e2,
ea,
f2,
05,
02,
05,
f6,
12,
14,
00,
21,
f1,
f8,
04,
f8,
02,
ed,
f1,
e7,
03,
11,
18,
18,
09,
0f,
e8,
f4,
09,
23,
28,
14,
00,
e8,
db,
4b,
fd,
b5,
fa,
06,
f0,
ea,
f5,
10,
06,
ea,
e8,
01,
eb,
f1,
03,
eb,
02,
e5,
05,
0b,
07,
fd,
ea,
f1,
fc,
f4,
16,
17,
ea,
01,
ff,
0f,
fd,
05,
0b,
2f,
e7,
ce,
0c,
ff,
00,
f9,
ef,
20,
fb,
fc,
f1,
d0,
ff,
da,
cf,
ef,
fe,
f3,
17,
13,
d8,
15,
fc,
ec,
14,
fe,
f3,
03,
fc,
f3,
f7,
f3,
04,
f9,
05,
15,
e9,
b4,
fd,
2c,
00,
0b,
0f,
1c,
f4,
c1,
23,
1b,
e0,
04,
1e,
12,
ea,
2b,
1b,
00,
f7,
dd,
fe,
ee,
1b,
fc,
10,
fd,
f2,
f8,
01,
07,
00,
20,
05,
05,
1e,
da,
e6,
34,
16,
f3,
0f,
d3,
fe,
20,
04,
fe,
e7,
fa,
04,
f5,
f0,
fe,
fc,
f4,
f0,
0a,
04,
e0,
fd,
fd,
c0,
f9,
f3,
0a,
04,
de,
08,
17,
a4,
de,
21,
de,
0a,
0a,
e0,
dd,
f0,
fc,
08,
10,
ea,
02,
17,
19,
f9,
06,
0d,
da,
f3,
14,
f7,
e5,
05,
06,
2c,
ce,
cd,
07,
13,
11,
28,
26,
19,
06,
0e,
03,
18,
04,
c2,
e3,
01,
03,
00,
05,
04,
ec,
f9,
1e,
04,
eb,
f9,
04,
d6,
e8,
43,
01,
17,
f4,
f4,
01,
13,
02,
ec,
f3,
e8,
d5,
d7,
fc,
f7,
01,
fc,
df,
e4,
09,
0b,
14,
fe,
ea,
fc,
06,
dd,
2c,
fd,
09,
17,
13,
15,
ee,
d8,
2d,
0a,
5f,
2d,
fe,
04,
06,
13,
df,
bb,
18,
13,
12,
0f,
fd,
f9,
1a,
36,
e6,
0a,
02,
ef,
0c,
17,
f9,
10,
e2,
fe,
32,
dd,
e6,
24,
00,
ed,
e2,
1c,
09,
cc,
07,
0d,
ee,
02,
fb,
15,
13,
50,
d9,
ee,
e3,
ef,
0c,
08,
1d,
f6,
e1,
01,
fc,
0f,
01,
f8,
f6,
03,
03,
14,
cb,
18,
0b,
f1,
eb,
09,
f9,
e1,
e6,
1e,
f6,
cf,
21,
fd,
01,
10,
29,
23,
1e,
f5,
eb,
f8,
13,
05,
fa,
ef,
ea,
06,
07,
16,
ea,
e7,
0c,
f9,
d8,
02,
12,
04,
f1,
fc,
04,
f4,
ed,
03,
d0,
e2,
cb,
fc,
07,
fa,
f8,
1c,
d8,
c3,
42,
08,
e8,
1f,
13,
f3,
ff,
0c,
ff,
e4,
f9,
e3,
f5,
0d,
e4,
ef,
f3,
fa,
ff,
20,
02,
f0,
0e,
f7,
f9,
1c,
de,
ee,
f8,
d9,
dc,
08,
0f,
fd,
15,
ff,
ff,
cc,
0c,
0b,
03,
db,
da,
fa,
d0,
07,
2d,
11,
f7,
06,
09,
0c,
12,
dd,
1f,
14,
08,
d4,
04,
ee,
03,
bf,
df,
2c,
e0,
0a,
29,
04,
e3,
f2,
fe,
cd,
eb,
dd,
ca,
03,
0a,
f8,
f6,
ee,
d4,
01,
fc,
0b,
10,
00,
e7,
fd,
f4,
cc,
ed,
f9,
d7,
f1,
02,
10,
fc,
0f,
13,
f3,
0a,
10,
2c,
ec,
fa,
0b,
d7,
1f,
02,
1a,
19,
df,
f5,
1d,
11,
33,
1b,
03,
1d,
14,
fa,
e1,
07,
00,
9d,
e7,
35,
c9,
e5,
df,
e0,
e4,
02,
fc,
ba,
fb,
20,
ec,
ec,
07,
dc,
16,
25,
d9,
d6,
0b,
30,
1a,
23,
e4,
07,
47,
e3,
17,
28,
d7,
00,
04,
f7,
fa,
e4,
0d,
00,
f4,
da,
1d,
18,
07,
05,
2e,
5b,
07,
d1,
e6,
cc,
da,
e0,
16,
8f,
a0,
1a,
16,
fa,
0c,
0e,
23,
fa,
cc,
15,
f6,
f3,
00,
ec,
e7,
cb,
e4,
f4,
fd,
ef,
f8,
e3,
12,
f9,
15,
13,
ed,
e6,
f3,
e4,
e3,
04,
01,
da,
c3,
14,
1b,
e6,
4e,
1e,
f5,
e9,
e0,
1f,
19,
17,
01,
f9,
0a,
0d,
09,
1d,
29,
f3,
11,
27,
e6,
c9,
fe,
18,
fb,
e9,
de,
fd,
ec,
0a,
fc,
d6,
0f,
06,
19,
e7,
14,
ef,
08,
21,
11,
2c,
19,
f0,
f1,
30,
14,
17,
d4,
11,
21,
21,
1b,
ec,
eb,
f6,
e0,
8e,
e0,
f9,
15,
0a,
f6,
81,
c2,
0f,
de,
db,
14,
01,
f2,
05,
16,
e9,
d0,
01,
e0,
02,
02,
09,
fb,
ec,
e8,
20,
4d,
1a,
13,
f2,
f5,
f4,
cb,
03,
1c,
e9,
de,
15,
1b,
fa,
ed,
c4,
ef,
06,
07,
f5,
0d,
f0,
14,
ec,
f5,
07,
e7,
e5,
0f,
20,
fa,
f5,
2c,
26,
04,
1e,
24,
1a,
08,
f4,
14,
1d,
ab,
04,
0d,
ff,
e8,
1c,
0d,
f7,
07,
f2,
fb,
e6,
e4,
06,
f8,
19,
31,
de,
eb,
2f,
f6,
0c,
f7,
1f,
0e,
0c,
0b,
14,
f9,
fb,
ee,
09,
1a,
15,
1a,
fe,
12,
d5,
1e,
d9,
cb,
02,
06,
0a,
09,
e8,
05,
e7,
d5,
ed,
17,
39,
12,
e9,
02,
08,
ac,
9e,
03,
1d,
1a,
d9,
54,
38,
19,
40,
ea,
f9,
f8,
fc,
2f,
c2,
f6,
43,
c6,
f3,
1f,
f7,
15,
f7,
d0,
03,
fb,
d5,
fc,
f8,
01,
ff,
f5,
f7,
fb,
f3,
06,
30,
ff,
fb,
f7,
0d,
00,
2b,
f4,
14,
40,
07,
eb,
f5,
21,
0a,
1b,
1b,
1e,
12,
f8,
07,
01,
ee,
fe,
0b,
e2,
c3,
ee,
d4,
ee,
1b,
f5,
e5,
0a,
f4,
03,
ea,
f3,
16,
e3,
0b,
35,
17,
e3,
01,
e9,
ef,
0b,
d3,
f0,
20,
19,
f4,
0f,
0e,
0c,
e5,
12,
f9,
ea,
22,
09,
bc,
d6,
e4,
d4,
ed,
18,
0b,
3b,
01,
0c,
29,
eb,
00,
ff,
ef,
05,
29,
32,
03,
f0,
e3,
0a,
e8,
e8,
e8,
f1,
e9,
d7,
e2,
e9,
32,
35,
1a,
07,
34,
fb,
f9,
f5,
10,
07,
1e,
25,
eb,
18,
1d,
1e,
2c,
18,
0f,
fb,
01,
db,
c4,
2d,
a8,
cc,
e7,
24,
3c,
25,
e3,
f7,
10,
c9,
de,
f9,
0b,
03,
02,
cd,
ed,
f0,
c6,
cb,
1f,
d5,
23,
0e,
00,
f5,
06,
db,
1d,
0c,
f7,
10,
f6,
05,
24,
04,
dd,
c4,
0f,
e9,
dd,
f1,
25,
0f,
07,
1e,
01,
08,
e0,
cf,
0a,
1d,
03,
d8,
10,
4d,
f1,
f7,
fd,
fd,
0d,
fb,
ec,
06,
fe,
0a,
f2,
ba,
f9,
0a,
10,
f9,
1d,
4b,
f9,
dc,
f6,
20,
c0,
29,
38,
12,
fa,
1b,
13,
fe,
f5,
09,
fb,
04,
f8,
fe,
37,
ff,
11,
f6,
f0,
e4,
04,
e8,
cb,
de,
e6,
ce,
e0,
e1,
fc,
39,
ca,
f2,
14,
fb,
f8,
fa,
06,
f7,
fe,
f4,
ef,
e1,
07,
fd,
12,
f7,
f3,
0b,
fa,
f8,
08,
f9,
de,
dd,
db,
e3,
10,
fc,
de,
e4,
f0,
ef,
23,
19,
ff,
1a,
26,
02,
0c,
0a,
12,
ff,
01,
a9,
fc,
fc,
ce,
e4,
07,
fc,
1f,
11,
8a,
15,
02,
e6,
13,
f2,
f8,
06,
00,
20,
fe,
0f,
0a,
09,
29,
f1,
fd,
e7,
e3,
f3,
00,
1a,
07,
ff,
f8,
ee,
ee,
df,
32,
f5,
0c,
e7,
ed,
05,
fd,
15,
14,
db,
ef,
f2,
f0,
02,
e7,
fc,
fb,
22,
29,
ff,
01,
e2,
06,
03,
1f,
06,
1e,
0c,
09,
f0,
f3,
03,
ff,
e0,
ee,
f6,
1e,
f6,
ff,
13,
ff,
04,
16,
fb,
d7,
f7,
08,
04,
19,
11,
1f,
f3,
fd,
81,
21,
f9,
10,
17,
fd,
28,
ff,
fe,
e7,
01,
fd,
f5,
15,
0d,
ff,
f9,
16,
e0,
fe,
02,
f7,
07,
f9,
fc,
04,
f7,
dc,
0c,
06,
f6,
1c,
00,
e3,
f8,
09,
dd,
fc,
13,
f1,
e6,
f5,
00,
f8,
01,
ea,
07,
f6,
2e,
f4,
08,
08,
ff,
09,
1f,
0b,
02,
e7,
08,
f2,
17,
ef,
f5,
e0,
ed,
f7,
0e,
06,
fd,
f3,
fc,
02,
e4,
06,
fc,
f3,
fc,
0a,
f6,
fe,
f8,
f5,
26,
0a,
f4,
f7,
02,
ff,
09,
f2,
c4,
2a,
08,
0e,
f7,
0c,
00,
f0,
04,
cd,
ef,
09,
ee,
15,
fa,
fb,
09,
fa,
13,
1b,
07,
fe,
fd,
fb,
fe,
05,
04,
21,
f3,
fe,
f4,
39,
ed,
1c,
ec,
0c,
da,
fa,
fa,
03,
20,
06,
02,
f2,
fb,
f5,
fc,
fd,
f0,
e7,
0a,
01,
0a,
10,
c5,
20,
06,
dd,
18,
f2,
ce,
03,
ee,
fe,
21,
e4,
e5,
fe,
12,
f3,
00,
f7,
f4,
e9,
fc,
0f,
11,
08,
0f,
00,
1c,
ea,
12,
05,
e3,
00,
01,
09,
0b,
23,
ff,
16,
04,
1b,
f2,
f1,
e9,
0f,
07,
15,
12,
01,
05,
08,
f2,
12,
fe,
1d,
e7,
04,
0a,
f7,
05,
ea,
05,
fc,
01,
ee,
f5,
fd,
de,
05,
05,
f9,
e1,
05,
d3,
09,
0c,
17,
04,
09,
01,
f8,
19,
f0,
eb,
09,
fc,
fe,
02,
17,
f4,
0e,
e8,
fe,
02,
f9,
1d,
ea,
e6,
0f,
dc,
27,
e7,
f2,
0c,
f3,
ed,
ec,
f5,
e9,
f7,
1f,
0c,
07,
f5,
e2,
16,
f7,
08,
f0,
e6,
ff,
f0,
ff,
f9,
03,
f3,
04,
24,
ee,
fe,
02,
f9,
f1,
17,
07,
f8,
fc,
fc,
00,
fc,
0c,
00,
02,
fc,
12,
f6,
c2,
f9,
23,
f8,
07,
df,
f7,
06,
22,
17,
f4,
f6,
0d,
11,
0f,
f6,
16,
ed,
00,
0e,
1a,
f8,
25,
02,
e3,
25,
df,
d9,
11,
f6,
fb,
e3,
02,
f6,
15,
22,
f2,
07,
ec,
0f,
16,
01,
00,
05,
ee,
e2,
ee,
eb,
11,
1b,
15,
f4,
13,
14,
f1,
f9,
f0,
19,
10,
1a,
f0,
0f,
c0,
ed,
f6,
e0,
02,
f9,
0b,
f7,
04,
f7,
da,
02,
1e,
0f,
f0,
13,
04,
11,
fc,
e6,
ea,
f8,
0e,
0b,
10,
0a,
ef,
33,
06,
f8,
23,
f8,
f6,
f8,
fd,
02,
90,
0c,
ed,
f5,
f7,
0c,
1e,
fb,
2b,
da,
c6,
fd,
d4,
1f,
15,
12,
ea,
f7,
c0,
eb,
ef,
2d,
11,
f8,
13,
12,
f9,
1a,
14,
19,
f9,
ea,
0f,
17,
06,
16,
b9,
fa,
ed,
ba,
0f,
fd,
05,
e1,
23,
ad,
f9,
03,
d4,
ee,
1c,
2c,
ff,
01,
af,
fe,
f0,
d7,
fa,
fe,
e4,
e8,
e5,
f9,
fb,
eb,
de,
08,
00,
08,
0a,
ff,
da,
ed,
fc,
0c,
fb,
00,
11,
e6,
05,
29,
08,
fb,
f1,
ed,
2f,
21,
1e,
01,
0d,
05,
1e,
e9,
06,
a8,
d4,
20,
cf,
c3,
f3,
1e,
d0,
ea,
e3,
0e,
f8,
bb,
e0,
11,
fa,
1f,
0b,
f7,
04,
0e,
dd,
bd,
05,
0a,
07,
06,
19,
07,
18,
d8,
f9,
09,
da,
1f,
06,
13,
f3,
e5,
e1,
03,
ef,
e7,
13,
fc,
0b,
4e,
ee,
ee,
f5,
dd,
da,
fa,
14,
ed,
58,
03,
bf,
de,
ed,
0d,
0f,
05,
02,
16,
f3,
de,
d0,
e6,
ff,
ef,
06,
fc,
00,
fa,
09,
f7,
fc,
0b,
fd,
05,
fb,
18,
f4,
c4,
f7,
12,
00,
f9,
f9,
ce,
14,
fc,
1f,
b8,
d6,
07,
e3,
0f,
0a,
05,
f8,
fe,
ff,
0e,
f3,
07,
ef,
fd,
10,
26,
dc,
00,
f1,
e3,
18,
12,
f5,
18,
f7,
20,
35,
08,
de,
de,
eb,
e8,
1f,
03,
1a,
cf,
f9,
4c,
0f,
f1,
0e,
fa,
f5,
51,
17,
dd,
20,
fd,
f9,
02,
12,
f0,
bb,
09,
07,
16,
25,
0d,
11,
cd,
f7,
e8,
81,
08,
ea,
eb,
1e,
de,
19,
10,
ea,
e8,
f5,
ff,
04,
f8,
00,
19,
fa,
0e,
46,
e3,
27,
e7,
e8,
05,
ce,
fb,
bd,
c4,
10,
f2,
10,
19,
e2,
de,
fd,
e4,
d3,
19,
f6,
f1,
e3,
1e,
ee,
f4,
f1,
e3,
fc,
f1,
01,
dd,
e2,
f1,
1f,
29,
f2,
01,
15,
00,
f6,
de,
e5,
17,
bf,
d4,
1a,
ed,
03,
1c,
08,
f8,
04,
f3,
aa,
10,
fb,
fa,
03,
04,
0e,
17,
f5,
0b,
0e,
14,
31,
ff,
1a,
44,
fe,
f4,
f9,
ef,
e6,
ee,
ed,
08,
f8,
0c,
ce,
ee,
14,
13,
14,
05,
09,
1f,
f3,
ee,
e4,
f8,
04,
05,
fe,
f8,
3c,
0e,
bc,
de,
ec,
ca,
0a,
07,
1b,
20,
f0,
6a,
37,
09,
00,
f9,
04,
d9,
ff,
29,
ea,
42,
00,
0b,
ea,
e9,
0a,
22,
0e,
d9,
0f,
fd,
e9,
02,
0a,
06,
e7,
fb,
31,
23,
1c,
04,
e8,
f6,
e9,
02,
2e,
b3,
28,
0e,
01,
f7,
eb,
fb,
43,
f0,
e7,
e1,
f3,
07,
d5,
1a,
37,
0d,
e7,
df,
ed,
da,
db,
13,
00,
03,
0e,
01,
f6,
03,
fa,
fb,
f1,
05,
fa,
05,
0a,
04,
af,
16,
20,
f7,
fc,
f4,
ee,
08,
47,
e4,
ea,
f2,
e3,
e9,
e5,
0b,
f7,
cf,
cb,
fd,
1e,
09,
e2,
fd,
c4,
e2,
49,
ec,
f2,
de,
fb,
10,
0e,
22,
ea,
06,
f9,
01,
e8,
05,
f8,
0c,
0c,
f2,
fa,
ed,
00,
ee,
e8,
09,
30,
00,
ed,
12,
c7,
0b,
f8,
e5,
0d,
07,
35,
e8,
e5,
14,
14,
fd,
f6,
00,
11,
cd,
fb,
0f,
48,
e1,
04,
eb,
0f,
0a,
f0,
09,
8f,
ba,
44,
f8,
19,
1b,
df,
d6,
ef,
20,
fd,
f1,
0c,
d4,
0b,
21,
ff,
fe,
d2,
ba,
02,
fa,
f5,
06,
12,
db,
fe,
35,
fd,
e4,
19,
25,
f5,
13,
fd,
09,
68,
dd,
c2,
09,
fb,
0e,
e3,
0a,
f2,
d0,
44,
39,
13,
be,
17,
db,
10,
1c,
dc,
f2,
04,
0f,
ef,
f8,
d0,
e4,
fc,
77,
f9,
ee,
ff,
cc,
22,
08,
19,
17,
2f,
21,
0d,
0e,
06,
fd,
f7,
07,
07,
dd,
0a,
f7,
f7,
10,
f2,
c1,
c9,
ea,
d9,
e6,
fc,
24,
e7,
f3,
d3,
02,
06,
db,
f3,
fa,
3e,
0c,
e8,
f0,
f0,
0d,
fa,
24,
0a,
f7,
e9,
09,
f2,
09,
e3,
ce,
ea,
d5,
0d,
2c,
0a,
fd,
e1,
fe,
99,
3e,
3e,
eb,
12,
ea,
d9,
ef,
02,
de,
0d,
f2,
f3,
f8,
e5,
fd,
09,
16,
f6,
11,
ef,
f1,
1c,
09,
01,
fc,
f1,
f2,
ec,
22,
e8,
ea,
15,
dd,
d3,
f4,
12,
58,
d6,
0e,
17,
06,
1d,
fe,
f2,
f5,
e8,
1f,
f9,
fa,
e9,
0a,
01,
e7,
08,
18,
01,
0d,
1d,
28,
e3,
f0,
17,
02,
7c,
ec,
fc,
fb,
1d,
ea,
dd,
d8,
03,
cd,
93,
f6,
f5,
04,
09,
e5,
32,
09,
15,
00,
01,
0a,
f8,
e5,
fd,
0a,
00,
e2,
05,
08,
06,
f4,
f6,
eb,
e5,
fa,
15,
fa,
fc,
ee,
f2,
f3,
05,
ed,
ed,
d9,
23,
f5,
f8,
10,
0a,
0a,
fb,
f4,
df,
0e,
02,
e9,
eb,
f6,
ee,
06,
f0,
fe,
d3,
f4,
1d,
e6,
ea,
00,
db,
ee,
f4,
f6,
02,
0a,
07,
2c,
14,
fd,
0e,
e0,
20,
00,
f9,
ef,
01,
db,
00,
05,
c8,
c9,
f4,
1e,
0c,
0a,
e2,
cf,
01,
f4,
f6,
f5,
e6,
0a,
f5,
12,
21,
19,
81,
f2,
f8,
06,
03,
11,
0c,
02,
fc,
0a,
17,
fc,
f0,
0a,
cf,
ec,
f8,
0d,
1a,
fe,
09,
03,
27,
10,
2a,
0e,
f9,
ee,
04,
ef,
19,
0c,
06,
49,
07,
fa,
e1,
e2,
0f,
05,
eb,
d7,
e4,
fb,
d6,
e8,
f3,
0d,
02,
f1,
20,
f9,
e8,
fc,
06,
04,
1c,
02,
0b,
ee,
00,
f4,
04,
e0,
07,
0b,
f3,
09,
f7,
ea,
e7,
1b,
07,
f5,
fc,
05,
f3,
0d,
1b,
f0,
02,
fc,
01,
0b,
e8,
03,
08,
05,
ee,
fe,
f9,
12,
e3,
fb,
21,
f0,
eb,
f3,
e3,
24,
1c,
e6,
f5,
3c,
08,
0c,
12,
fb,
f0,
02,
0e,
05,
f7,
d9,
b2,
d8,
0c,
ea,
b9,
0c,
1b,
f6,
ec,
ee,
f2,
08,
f7,
1e,
fa,
ff,
16,
23,
0c,
f0,
ff,
07,
ed,
05,
ed,
fa,
eb,
f5,
04,
0a,
63,
df,
fa,
0e,
f1,
06,
1f,
22,
f1,
ed,
69,
fa,
03,
17,
fe,
e6,
e1,
0e,
2f,
07,
0e,
02,
04,
0b,
0e,
ef,
eb,
04,
ff,
03,
13,
eb,
0e,
02,
05,
ff,
09,
e0,
02,
03,
0f,
e3,
0c,
09,
ed,
ea,
0f,
0a,
e4,
15,
0d,
04,
07,
fc,
3b,
1e,
f8,
fa,
fb,
f0,
eb,
ff,
fb,
0c,
01,
11,
f7,
dd,
f4,
d2,
2c,
f2,
e1,
f8,
f2,
09,
db,
eb,
e5,
f6,
04,
11,
e1,
fa,
ed,
06,
f7,
12,
1e,
10,
04,
fa,
08,
fb,
f0,
24,
04,
01,
ea,
0d,
d5,
f4,
f2,
fa,
05,
e4,
cb,
0d,
24,
fb,
09,
2f,
29,
d2,
ef,
d8,
fd,
d5,
e6,
ef,
0c,
c3,
18,
f4,
ef,
09,
c4,
ca,
0d,
04,
f1,
f7,
f5,
f1,
fa,
11,
f9,
0d,
19,
16,
23,
f4,
da,
10,
f5,
e8,
00,
e4,
02,
11,
0e,
ed,
fe,
fb,
f7,
06,
01,
f1,
fc,
e1,
ed,
05,
26,
0d,
09,
ee,
0d,
e0,
fc,
03,
fd,
0a,
16,
f9,
07,
0b,
fe,
06,
2a,
01,
29,
be,
16,
08,
e1,
f7,
df,
0a,
03,
ea,
de,
14,
f2,
f0,
1f,
22,
f1,
f4,
20,
03,
e3,
e5,
f1,
00,
34,
f5,
ea,
28,
46,
f4,
dd,
e7,
fe,
f6,
e7,
1c,
26,
ef,
10,
0c,
fe,
f9,
1f,
de,
f9,
e5,
0f,
f8,
fb,
fc,
10,
e2,
dd,
2f,
1c,
d8,
10,
0f,
14,
e3,
fe,
d8,
0e,
ef,
e9,
03,
19,
f9,
0d,
04,
fa,
04,
00,
0c,
03,
ff,
0b,
d9,
00,
ff,
f5,
fc,
f1,
ec,
0a,
f6,
f5,
f3,
ec,
32,
a4,
f0,
16,
bf,
f3,
f2,
dc,
13,
17,
af,
d9,
2c,
2d,
26,
df,
c5,
f9,
ba,
00,
4f,
d7,
66,
e7,
07,
13,
fe,
04,
06,
f0,
d9,
35,
32,
ec,
c8,
0d,
ad,
8f,
fa,
a1,
dd,
0c,
d8,
0a,
1e,
d4,
0b,
ff,
0c,
d4,
c4,
0e,
50,
ec,
dc,
c0,
2c,
19,
95,
2f,
e7,
f9,
f6,
db,
f2,
c4,
f6,
f8,
19,
fa,
14,
1f,
10,
2b,
06,
d9,
31,
db,
ff,
03,
20,
ae,
2b,
3e,
fe,
be,
2a,
04,
d9,
00,
e5,
30,
2b,
f9,
f7,
12,
f1,
e9,
0b,
dc,
4f,
19,
e7,
38,
05,
0e,
b0,
e5,
1b,
3b,
19,
11,
4b,
44,
f7,
cc,
e2,
02,
dc,
ec,
f7,
1b,
ed,
06,
34,
f8,
f1,
c5,
ff,
f5,
b9,
e2,
30,
13,
02,
1d,
a4,
fa,
0d,
ba,
18,
27,
1d,
02,
46,
ae,
fb,
34,
3a,
19,
d3,
f3,
cb,
12,
d2,
f6,
31,
f8,
1a,
0b,
b3,
17,
39,
77,
f3,
c5,
60,
bc,
eb,
fe,
10,
c1,
d0,
f0,
1f,
ea,
e8,
0b,
2f,
28,
f2,
ea,
f6,
fd,
da,
f5,
e3,
fe,
f7,
39,
ec,
db,
c6,
bf,
e5,
18,
bb,
1a,
cd,
18,
fa,
bb,
51,
ee,
25,
4e,
06,
31,
1b,
08,
0f,
3c,
f8,
dc,
12,
ed,
c6,
19,
1b,
ce,
e9,
e2,
d1,
0e,
0c,
e3,
04,
ef,
d8,
00,
f1,
03,
e5,
0c,
a1,
d6,
04,
09,
c4,
fd,
ed,
2c,
17,
d9,
1b,
02,
f5,
02,
e7,
ee,
24,
12,
03,
1d,
db,
e1,
07,
e4,
1c,
01,
18,
39,
bc,
01,
1b,
e5,
d7,
2f,
bd,
e6,
d0,
d7,
fd,
14,
8c,
f3,
e7,
0c,
f0,
c9,
01,
d2,
12,
0d,
24,
f7,
2a,
04,
dd,
20,
03,
0c,
0c,
03,
08,
e9,
fd,
fd,
f7,
f2,
c3,
34,
30,
17,
be,
f0,
01,
ee,
dc,
f3,
f5,
ed,
f1,
f5,
f0,
06,
86,
03,
19,
1a,
1d,
f5,
0f,
02,
20,
00,
0b,
2e,
a1,
f7,
fb,
25,
10,
c8,
04,
1b,
fe,
eb,
f4,
f4,
0f,
ca,
16,
26,
da,
fd,
dc,
0c,
0d,
28,
33,
43,
d4,
0d,
5c,
df,
eb,
ff,
06,
d7,
07,
3b,
d1,
1f,
a6,
04,
1f,
1e,
02,
18,
19,
fd,
12,
23,
f3,
16,
10,
fd,
fb,
22,
f6,
1a,
bc,
c7,
31,
08,
36,
2d,
d5,
f9,
ff,
76,
00,
f1,
e5,
da,
f4,
e8,
14,
e8,
18,
25,
1d,
e5,
08,
fc,
34,
06,
02,
00,
e3,
05,
e7,
f6,
22,
38,
27,
2d,
b9,
f4,
08,
12,
e8,
32,
b4,
c5,
d3,
d1,
f0,
fa,
d9,
1c,
b6,
a1,
11,
f5,
ea,
fd,
fd,
02,
34,
fa,
c1,
fc,
f6,
9d,
de,
08,
d4,
31,
f0,
02,
0e,
e9,
d0,
28,
de,
f5,
fd,
ea,
fa,
f5,
00,
08,
ec,
0e,
f3,
00,
1e,
fa,
48,
1f,
ad,
fa,
14,
ed,
fe,
dd,
0e,
f3,
ff,
07,
c7,
e1,
e9,
00,
81,
68,
c4,
c4,
dd,
ad,
0b,
03,
fc,
04,
40,
43,
0c,
f9,
f5,
00,
a5,
dc,
f1,
e6,
e0,
e2,
7c,
16,
10,
fa,
19,
16,
89,
20,
29,
fe,
1d,
e2,
1f,
34,
d0,
bc,
fb,
17,
96,
f1,
13,
d9,
10,
d1,
d2,
1f,
2e,
ef,
fe,
20,
22,
0a,
fb,
e4,
dd,
02,
23,
ee,
08,
e7,
e2,
ef,
19,
34,
0d,
15,
f6,
28,
e9,
f3,
20,
df,
f7,
18,
09,
e7,
ee,
db,
02,
f5,
fc,
e6,
16,
41,
4d,
04,
ed,
1e,
fc,
fc,
f0,
03,
f2,
fe,
39,
e5,
ee,
e7,
f6,
e4,
01,
f9,
fe,
08,
e5,
c6,
cd,
d9,
22,
23,
1d,
16,
2a,
14,
f7,
f7,
ea,
fe,
08,
07,
06,
e7,
0b,
01,
29,
f3,
1e,
0c,
02,
fc,
d9,
01,
06,
fc,
f8,
f4,
ee,
d6,
03,
f9,
e5,
07,
03,
fc,
03,
f2,
e4,
1a,
f0,
23,
e8,
ce,
fb,
e5,
11,
f8,
e9,
1b,
f1,
ed,
fb,
07,
32,
10,
16,
11,
ee,
f9,
eb,
05,
47,
14,
eb,
1c,
05,
1b,
e3,
ff,
db,
cb,
f0,
05,
03,
fe,
fd,
33,
0e,
ea,
0b,
f7,
fd,
0a,
12,
fd,
ca,
ff,
29,
19,
ef,
09,
1f,
18,
ea,
ed,
f6,
b5,
e5,
01,
fd,
02,
fd,
e7,
1a,
fa,
21,
fa,
ff,
07,
0c,
fa,
e4,
e4,
e9,
f7,
f9,
1a,
e3,
07,
fc,
d6,
17,
10,
c2,
04,
13,
fe,
15,
f6,
04,
b1,
20,
a3,
ce,
08,
04,
e6,
ea,
e7,
2f,
d6,
c8,
cc,
09,
43,
1a,
09,
ef,
f1,
03,
e3,
f8,
f4,
e3,
07,
ff,
fe,
f1,
fd,
b4,
39,
1a,
cf,
fe,
f0,
cf,
03,
21,
f9,
31,
e0,
1f,
ea,
fe,
12,
81,
20,
21,
17,
0a,
d7,
00,
fc,
fa,
04,
1a,
30,
18,
22,
0c,
e1,
e3,
1b,
f5,
dc,
e1,
02,
03,
0b,
1f,
02,
e9,
19,
26,
e3,
ff,
ee,
ff,
f4,
e7,
fd,
e1,
fa,
0b,
ec,
00,
ec,
fe,
03,
fb,
e9,
00,
eb,
19,
11,
f4,
fd,
0a,
12,
05,
22,
2a,
f8,
0f,
0a,
f7,
ea,
04,
e3,
db,
fb,
06,
fc,
06,
15,
f9,
30,
eb,
dc,
cb,
d7,
0d,
d0,
0f,
fe,
e1,
31,
f7,
3f,
21,
08,
08,
f6,
03,
e1,
f5,
09,
05,
37,
e1,
01,
01,
0a,
f5,
06,
eb,
08,
20,
f1,
0e,
02,
e7,
f5,
1c,
19,
ed,
61,
1f,
0c,
ff,
14,
0d,
f7,
d8,
f9,
da,
19,
00,
e6,
0b,
db,
44,
ae,
bf,
f6,
0a,
3a,
e8,
02,
06,
f4,
05,
f9,
f0,
00,
12,
2b,
1e,
f0,
20,
f3,
38,
34,
e9,
e9,
11,
03,
f2,
0b,
dd,
11,
11,
01,
01,
11,
f8,
1a,
fa,
fa,
fa,
14,
f7,
11,
fd,
08,
f6,
e1,
fc,
f5,
f2,
03,
d7,
ee,
12,
01,
ef,
fb,
e3,
f3,
ed,
fa,
0b,
fe,
26,
d7,
17,
ea,
fa,
e0,
ec,
ed,
0d,
ed,
3f,
ee,
17,
d8,
01,
07,
fc,
0f,
fd,
2c,
15,
03,
ff,
10,
21,
0e,
09,
e3,
f5,
00,
10,
18,
01,
f3,
f8,
ed,
24,
16,
1d,
d6,
17,
f3,
05,
f2,
0b,
de,
02,
e5,
de,
f2,
04,
e2,
14,
06,
ff,
e7,
ee,
02,
d5,
e4,
ff,
04,
f8,
02,
0b,
11,
e4,
01,
07,
f9,
f2,
03,
ef,
eb,
f2,
05,
01,
15,
0d,
d3,
03,
fe,
c7,
f9,
25,
c3,
00,
0d,
ec,
f1,
30,
f8,
ef,
03,
11,
fb,
02,
07,
f9,
00,
e7,
05,
f9,
ee,
d7,
fa,
cd,
e1,
1a,
fd,
fd,
bf,
cd,
e9,
fc,
0a,
14,
f4,
13,
dd,
28,
2b,
ea,
fd,
02,
f1,
1c,
01,
fd,
e2,
dd,
18,
f0,
e5,
08,
00,
06,
07,
06,
36,
3a,
e5,
04,
f0,
f3,
d2,
09,
e3,
b1,
ea,
f6,
d1,
f9,
01,
ff,
ff,
ff,
03,
05,
f8,
f1,
f6,
f4,
cf,
fe,
17,
0d,
1c,
08,
e1,
05,
05,
cc,
fb,
e3,
b4,
fd,
1e,
f4,
03,
07,
fe,
ec,
ee,
0d,
de,
f2,
ef,
e9,
f5,
fb,
15,
fd,
ea,
06,
f9,
00,
fc,
24,
0b,
e6,
08,
18,
14,
14,
ff,
e9,
ff,
ed,
03,
05,
05,
01,
02,
15,
04,
f1,
fa,
05,
02,
f2,
03,
14,
f8,
ed,
04,
d8,
ed,
13,
d8,
e2,
0c,
09,
1c,
0b,
f9,
f1,
f4,
f4,
fb,
eb,
f1,
0e,
e9,
e7,
3d,
e5,
81,
a9,
00,
df,
0d,
0d,
02,
12,
16,
d9,
e2,
06,
08,
12,
06,
16,
ec,
f1,
19,
06,
ff,
00,
08,
eb,
dd,
01,
0e,
18,
00,
17,
0a,
0d,
06,
f1,
01,
24,
10,
fe,
f7,
07,
11,
f8,
e9,
ff,
04,
f9,
e3,
f8,
0b,
f3,
f0,
06,
f9,
03,
0b,
e9,
03,
13,
07,
03,
fa,
f3,
0c,
39,
0e,
00,
07,
12,
08,
f6,
f9,
ef,
ee,
fe,
fa,
f5,
06,
e9,
09,
0f,
fd,
09,
16,
0f,
fc,
e7,
06,
03,
19,
17,
0d,
ec,
01,
f0,
07,
04,
fb,
27,
fa,
08,
3e,
02,
eb,
19,
f0,
0a,
f2,
18,
6f,
5a,
05,
1d,
2b,
00,
ed,
fe,
10,
dd,
ff,
fd,
f6,
04,
f6,
f9,
ff,
0e,
e9,
ec,
0f,
06,
f6,
f2,
d5,
1b,
06,
df,
05,
03,
f4,
01,
2b,
29,
f9,
21,
41,
13,
0f,
09,
f5,
e6,
0f,
07,
14,
0c,
f0,
04,
0d,
fc,
12,
fd,
01,
17,
3f,
ee,
f6,
f2,
f9,
16,
01,
d9,
06,
e7,
06,
fb,
ec,
fa,
01,
fa,
fd,
05,
ea,
0c,
f9,
0d,
0c,
14,
09,
ed,
03,
1d,
fd,
01,
0d,
ff,
e6,
05,
06,
e8,
f6,
10,
02,
e4,
fb,
e2,
f0,
00,
08,
ee,
01,
0d,
f6,
f3,
1b,
f7,
06,
0f,
ff,
00,
f2,
e5,
ef,
fe,
18,
00,
d4,
cb,
08,
f3,
f6,
12,
c4,
fc,
19,
fc,
d8,
1c,
fa,
fe,
f1,
1b,
f7,
f8,
22,
0c,
eb,
06,
0c,
f1,
fa,
f7,
e4,
ee,
ec,
dd,
03,
0c,
09,
e4,
f0,
04,
f7,
f0,
4d,
f2,
01,
0e,
ca,
c3,
f2,
ed,
ef,
e9,
01,
18,
02,
0a,
f7,
09,
12,
eb,
04,
0d,
08,
02,
e6,
fa,
f6,
e3,
e6,
f0,
eb,
0c,
1a,
08,
f6,
fd,
f4,
ff,
e5,
fc,
0a,
0d,
02,
f6,
f2,
fe,
08,
03,
f4,
ec,
07,
e6,
e2,
f1,
fe,
fd,
fc,
f9,
f6,
09,
15,
01,
da,
03,
df,
e4,
f9,
16,
02,
05,
fd,
00,
0e,
e1,
0b,
fc,
ea,
f3,
08,
0a,
10,
fe,
ff,
08,
f8,
1a,
04,
ef,
10,
06,
09,
f7,
26,
1b,
ed,
f2,
ed,
e8,
e1,
00,
00,
e6,
1a,
09,
02,
e5,
fb,
e9,
03,
16,
0b,
01,
fb,
19,
05,
fe,
fe,
15,
02,
0e,
09,
13,
0d,
10,
e0,
e8,
21,
02,
11,
fc,
ec,
01,
08,
ef,
16,
0d,
0f,
e9,
f6,
0f,
e3,
07,
12,
f5,
04,
18,
17,
d9,
08,
15,
f5,
e2,
06,
1b,
18,
e6,
11,
07,
05,
c6,
27,
05,
f7,
0e,
fa,
fe,
f9,
04,
15,
17,
0d,
0f,
e0,
da,
fb,
01,
e5,
08,
f7,
fe,
0e,
0e,
f0,
00,
05,
fc,
f0,
f6,
02,
ed,
d7,
ed,
fe,
f1,
ed,
00,
f9,
03,
f7,
13,
21,
10,
f4,
e2,
e2,
06,
de,
04,
0f,
29,
f3,
09,
0a,
f6,
04,
05,
06,
f5,
14,
f8,
e5,
fb,
06,
f1,
d7,
34,
f0,
f0,
fd,
04,
fe,
ea,
ed,
fe,
fb,
fb,
e1,
f8,
fc,
0a,
2e,
19,
08,
f6,
10,
fd,
f8,
fd,
0a,
ef,
df,
14,
0f,
02,
df,
ed,
02,
f2,
0b,
1e,
00,
f6,
2a,
0c,
fd,
fe,
08,
f7,
f8,
fa,
06,
2b,
f9,
06,
fa,
fd,
14,
32,
ff,
16,
fa,
ed,
04,
f4,
1c,
07,
0e,
04,
e6,
81,
d0,
fc,
d9,
ee,
19,
1a,
0f,
da,
da,
1c,
07,
eb,
07,
fb,
fe,
fa,
08,
02,
05,
0c,
f9,
16,
01,
ee,
02,
07,
f7,
f8,
ed,
e1,
e4,
fb,
ff,
ed,
f8,
ea,
f6,
10,
fe,
08,
e1,
fa,
e1,
d4,
88,
e0,
14,
fd,
06,
06,
d0,
f6,
e6,
e3,
de,
ed,
cd,
d0,
02,
06,
07,
0f,
f7,
06,
0d,
13,
07,
f8,
09,
f5,
06,
38,
f5,
fc,
fa,
ff,
03,
02,
19,
e8,
cb,
f2,
0c,
0b,
00,
f9,
00,
f2,
12,
2c,
1c,
fb,
08,
03,
12,
fd,
0e,
f1,
e3,
e9,
f6,
18,
f7,
09,
f4,
05,
0a,
2b,
13,
fe,
25,
09,
00,
20,
00,
03,
1c,
1b,
fb,
05,
fe,
03,
04,
fc,
13,
00,
c2,
f3,
d4,
e2,
13,
f8,
05,
fd,
e0,
05,
e8,
ed,
f7,
f0,
f2,
ee,
05,
24,
14,
fa,
10,
fe,
f7,
16,
ed,
0a,
04,
09,
10,
ea,
05,
17,
0b,
21,
03,
e3,
e5,
ef,
06,
e5,
00,
08,
ff,
e9,
da,
fe,
0d,
0e,
f0,
09,
fc,
06,
f9,
df,
ea,
f7,
04,
01,
ee,
fc,
ed,
f3,
08,
fa,
0e,
09,
01,
0c,
eb,
06,
05,
00,
07,
04,
f2,
fa,
f5,
0e,
fa,
e7,
ee,
e2,
14,
02,
0a,
05,
00,
05,
09,
0a,
11,
ff,
f0,
f9,
f5,
ef,
ec,
d9,
d2,
d2,
02,
02,
f7,
fa,
03,
ff,
f8,
c3,
f0,
03,
ef,
02,
05,
01,
02,
18,
eb,
08,
01,
eb,
fe,
fa,
f3,
f8,
18,
00,
fa,
f5,
f3,
0d,
e8,
00,
f7,
10,
fa,
f1,
00,
02,
07,
11,
0b,
16,
1b,
05,
0f,
ef,
f9,
f8,
f5,
ef,
05,
09,
ed,
07,
04,
ef,
fc,
f6,
fb,
f3,
0a,
0f,
2c,
12,
fb,
f5,
05,
0a,
12,
0c,
e8,
df,
f7,
0c,
f8,
fd,
18,
f3,
10,
ed,
fa,
06,
f1,
f2,
e2,
fb,
11,
ea,
ff,
36,
0e,
ee,
f2,
04,
e1,
f1,
fd,
04,
0a,
06,
1c,
15,
f4,
e3,
fb,
ff,
1f,
0d,
f6,
1e,
ff,
f7,
f2,
dc,
0a,
f3,
02,
f4,
f6,
f6,
ff,
f5,
f7,
ff,
21,
03,
fc,
03,
f0,
e8,
ef,
f6,
11,
30,
07,
13,
ec,
0e,
fe,
fb,
05,
0e,
db,
06,
00,
13,
02,
fd,
f3,
f6,
04,
ef,
05,
0a,
f1,
f5,
02,
e5,
06,
0d,
ea,
09,
15,
3b,
1d,
03,
01,
26,
05,
d2,
11,
14,
e3,
f0,
0a,
04,
12,
04,
d8,
f8,
16,
14,
09,
02,
de,
04,
0b,
0d,
18,
eb,
fe,
f6,
0b,
3f,
1d,
26,
c0,
fa,
03,
0b,
fb,
10,
15,
1a,
f8,
e8,
05,
fc,
eb,
03,
05,
0a,
fd,
fa,
16,
fc,
fb,
0c,
f4,
fc,
20,
03,
05,
d6,
f0,
03,
fb,
fc,
0e,
ff,
ff,
0e,
fc,
e7,
f4,
f7,
fa,
ff,
e9,
fc,
17,
ef,
03,
03,
00,
f7,
03,
04,
fe,
fc,
ed,
0f,
e7,
ea,
f8,
02,
e1,
f5,
ee,
0c,
04,
01,
e1,
ec,
fa,
05,
08,
03,
01,
14,
0a,
1e,
04,
ff,
1d,
15,
1c,
07,
dd,
08,
fd,
06,
ea,
f6,
f1,
11,
f9,
18,
18,
05,
1b,
f6,
f1,
fc,
fe,
d9,
dd,
f9,
ef,
de,
fb,
fa,
f4,
02,
ef,
fb,
02,
09,
09,
03,
fd,
15,
21,
1e,
1d,
0c,
00,
14,
05,
23,
db,
3f,
04,
f6,
0d,
f8,
c0,
e9,
f7,
26,
0f,
0a,
12,
cb,
df,
1d,
0f,
f5,
13,
ed,
e6,
10,
02,
1d,
06,
19,
27,
f2,
fd,
ed,
f6,
07,
0a,
24,
12,
d7,
fb,
19,
18,
37,
fe,
01,
ea,
ff,
04,
f0,
d8,
2d,
fe,
f3,
df,
22,
fb,
16,
05,
ee,
e0,
07,
eb,
be,
eb,
e8,
14,
e1,
0d,
05,
e5,
18,
13,
09,
fb,
06,
0b,
e9,
0e,
01,
ef,
d4,
14,
c0,
c0,
11,
ca,
e8,
f8,
ef,
04,
06,
17,
fb,
fb,
08,
0f,
10,
f3,
0a,
f2,
22,
0f,
f6,
02,
f6,
e1,
10,
fd,
bc,
1a,
f2,
e8,
f4,
de,
de,
f2,
1f,
04,
11,
03,
08,
d6,
0e,
24,
dd,
e2,
09,
f6,
f4,
0e,
1c,
12,
eb,
e7,
0a,
05,
03,
ed,
07,
f9,
eb,
f1,
04,
00,
00,
11,
ee,
ef,
15,
1c,
2d,
e9,
eb,
e3,
0e,
f7,
bf,
23,
2b,
f0,
ec,
09,
fd,
f4,
cc,
e9,
e3,
2b,
3b,
fc,
1a,
06,
fc,
0c,
fa,
ed,
fd,
f4,
f0,
f5,
00,
0b,
0a,
01,
11,
d4,
03,
23,
35,
ce,
0d,
0d,
02,
10,
ea,
02,
fe,
1d,
0d,
02,
e5,
0c,
e5,
e0,
1b,
13,
38,
10,
0e,
d6,
ee,
f8,
fd,
f2,
02,
e2,
07,
39,
41,
a0,
18,
19,
a7,
2d,
2a,
ac,
3a,
2d,
e6,
21,
ef,
1e,
ff,
fb,
1c,
1c,
fa,
e7,
06,
20,
02,
1b,
0e,
03,
08,
f8,
02,
ed,
f3,
d0,
04,
1a,
f6,
14,
14,
de,
f2,
fc,
eb,
08,
03,
cf,
07,
e3,
f9,
21,
0e,
ff,
12,
f7,
df,
03,
fd,
ef,
17,
e2,
05,
0a,
e4,
df,
10,
0a,
eb,
c8,
2f,
f7,
da,
f0,
27,
01,
17,
df,
09,
25,
f4,
16,
ed,
dd,
25,
11,
9e,
23,
33,
85,
23,
4b,
ce,
13,
15,
e7,
ea,
09,
ad,
13,
ee,
24,
f4,
1a,
00,
0f,
ed,
e7,
f2,
e3,
d9,
fc,
fc,
ff,
f3,
fe,
e6,
1d,
f4,
10,
fe,
ea,
0f,
0a,
fb,
15,
ec,
eb,
28,
08,
04,
f4,
eb,
2e,
21,
33,
f3,
02,
22,
14,
ea,
f2,
ff,
f2,
ef,
fa,
e8,
05,
f7,
3b,
02,
d0,
03,
01,
dd,
e7,
d2,
f7,
03,
02,
e0,
23,
ef,
e4,
34,
cb,
fb,
48,
e3,
cb,
4c,
f7,
e3,
48,
1c,
19,
15,
51,
15,
fc,
df,
b8,
d0,
23,
26,
86,
5d,
4b,
81,
0e,
27,
89,
d1,
e9,
01,
f8,
22,
05,
fb,
e5,
ff,
f2,
ee,
00,
1e,
24,
0b,
db,
cb,
0d,
f2,
fb,
f6,
f2,
e6,
ef,
03,
f3,
f8,
0d,
13,
ed,
0c,
2a,
dc,
f6,
f5,
e8,
24,
28,
fa,
1f,
12,
04,
e9,
d1,
e4,
0d,
f7,
14,
ea,
e3,
ee,
05,
27,
10,
ee,
1c,
fd,
1a,
e7,
06,
18,
17,
ee,
0c,
d3,
f2,
00,
27,
f2,
f9,
0a,
06,
fa,
d8,
00,
ea,
2a,
ef,
f1,
e0,
f9,
fa,
eb,
29,
05,
33,
f0,
fa,
02,
f2,
06,
0e,
12,
02,
02,
eb,
10,
0b,
fb,
0f,
07,
28,
02,
02,
e0,
fe,
07,
ef,
fc,
23,
fa,
2d,
ff,
ce,
19,
1a,
d9,
fd,
01,
f8,
e5,
c2,
eb,
0c,
10,
20,
09,
14,
fc,
f1,
03,
37,
fd,
01,
f8,
02,
15,
fe,
f9,
08,
cb,
15,
1f,
0f,
15,
d7,
f7,
14,
fe,
de,
e0,
e4,
dc,
ec,
f6,
f1,
0b,
00,
f7,
f7,
fc,
03,
fc,
f6,
0f,
e4,
02,
fd,
d9,
be,
23,
0b,
07,
01,
18,
e8,
23,
0c,
d7,
37,
cc,
dd,
f4,
f3,
eb,
eb,
07,
f3,
fd,
e6,
89,
19,
0b,
c7,
ec,
19,
13,
fe,
e5,
e3,
3f,
c1,
f2,
4f,
13,
4d,
dd,
11,
95,
01,
18,
c0,
0f,
27,
ce,
1d,
04,
fe,
f4,
f7,
2a,
05,
08,
f7,
23,
14,
0b,
e0,
db,
90,
c6,
e6,
ee,
0a,
ca,
16,
fd,
14,
d3,
17,
2e,
e2,
e0,
e8,
13,
0e,
1f,
37,
e5,
f1,
f8,
24,
f7,
10,
13,
03,
f3,
03,
0e,
02,
01,
07,
dc,
e4,
f8,
11,
ed,
f1,
d8,
16,
da,
b2,
dd,
10,
e6,
0d,
06,
21,
1c,
0b,
06,
15,
46,
f8,
b9,
e2,
f0,
ff,
e5,
01,
f9,
bf,
eb,
f5,
d5,
09,
fb,
e9,
05,
eb,
ea,
fc,
37,
f9,
df,
30,
05,
e3,
1f,
02,
d1,
ef,
1c,
06,
f0,
15,
d6,
da,
0e,
64,
e9,
0d,
3c,
06,
1a,
26,
0e,
e1,
36,
fa,
02,
26,
1d,
a9,
09,
ef,
fd,
62,
f1,
ee,
22,
0d,
10,
16,
cd,
fb,
0b,
f1,
16,
fe,
0f,
ed,
e2,
d9,
24,
14,
0d,
2c,
30,
f1,
fb,
16,
ee,
03,
f8,
ef,
fc,
0d,
1a,
05,
3f,
13,
16,
3f,
20,
e9,
02,
f4,
02,
07,
1a,
1f,
1d,
da,
00,
ed,
eb,
0b,
48,
16,
28,
01,
de,
0f,
fe,
ea,
f1,
e7,
dc,
e4,
d9,
f5,
06,
37,
2b,
f4,
1a,
21,
e6,
ed,
f4,
10,
08,
24,
0e,
fd,
28,
21,
d5,
32,
08,
06,
dd,
10,
15,
d8,
f4,
0d,
0a,
e8,
fa,
1c,
0c,
f6,
dd,
db,
60,
14,
ed,
39,
0c,
ee,
e3,
02,
1f,
f5,
0f,
0d,
02,
0e,
15,
7c,
f9,
f6,
2d,
0c,
fd,
be,
ef,
40,
04,
f5,
58,
76,
30,
11,
d6,
15,
ec,
24,
0e,
dc,
a3,
1d,
18,
c3,
00,
00,
02,
fc,
f8,
df,
fb,
d2,
d7,
f3,
0e,
fe,
ec,
04,
e6,
14,
fd,
de,
16,
1a,
00,
1e,
c1,
84,
e9,
e8,
d6,
03,
15,
23,
f1,
16,
22,
f3,
ed,
ef,
14,
18,
24,
f1,
c4,
d3,
c6,
e9,
df,
da,
34,
2d,
12,
27,
ed,
cb,
e9,
d1,
d2,
e8,
fa,
07,
07,
18,
0c,
e8,
ce,
00,
02,
1e,
f7,
37,
2d,
00,
0a,
d1,
fe,
ff,
d0,
11,
ed,
b7,
f3,
09,
ed,
fb,
e6,
9d,
f7,
1e,
33,
07,
e5,
e5,
01,
2b,
e5,
06,
18,
f1,
15,
fb,
d7,
ea,
fc,
f2,
dc,
f7,
2b,
1d,
eb,
fa,
0a,
36,
12,
00,
2f,
3d,
da,
21,
ef,
e6,
17,
5a,
26,
d1,
51,
27,
e5,
31,
0d,
e4,
e4,
f5,
da,
0b,
00,
db,
d2,
01,
31,
0c,
d8,
fc,
2a,
0e,
0a,
2e,
0a,
da,
f0,
09,
f1,
e0,
ff,
e9,
01,
e3,
16,
ea,
f2,
07,
e0,
05,
e8,
15,
33,
25,
23,
fa,
2d,
dd,
b5,
f4,
b0,
e7,
1e,
df,
fb,
17,
52,
26,
ff,
0d,
03,
d5,
cf,
e1,
03,
bb,
46,
fe,
81,
f4,
06,
f9,
09,
20,
f0,
00,
19,
c9,
09,
f8,
cb,
20,
ee,
e0,
3c,
fc,
f9,
0f,
02,
1d,
33,
eb,
ef,
06,
05,
2b,
f5,
1a,
f6,
3e,
25,
b8,
e8,
ef,
f1,
f3,
ec,
c9,
f5,
fe,
00,
0c,
ef,
07,
00,
ea,
1c,
1d,
e1,
d0,
13,
06,
00,
f6,
02,
0c,
f9,
c2,
09,
07,
e3,
16,
e9,
f2,
02,
02,
d1,
d7,
b9,
fa,
38,
ef,
fb,
2a,
02,
c4,
0e,
36,
d3,
eb,
e9,
05,
1b,
ee,
da,
fd,
05,
05,
fc,
f2,
17,
f8,
03,
07,
00,
f3,
00,
f1,
fc,
0b,
fa,
ef,
d6,
e3,
ef,
05,
01,
17,
f2,
05,
13,
03,
14,
1b,
eb,
fc,
f6,
ec,
0d,
08,
1a,
eb,
e4,
21,
1a,
14,
f7,
ef,
f6,
f2,
eb,
f0,
12,
04,
0a,
05,
eb,
05,
f1,
ef,
07,
f6,
fb,
24,
0b,
10,
03,
f1,
06,
dd,
f4,
00,
05,
f0,
fe,
fe,
fd,
f2,
ed,
01,
ed,
10,
11,
1a,
0c,
f4,
06,
ca,
f5,
fa,
e8,
06,
f4,
02,
16,
08,
13,
fd,
f4,
fe,
f8,
07,
f0,
ee,
fa,
f1,
27,
06,
00,
09,
04,
01,
fd,
0f,
05,
12,
08,
05,
07,
02,
1e,
fc,
ed,
ee,
06,
fa,
fb,
14,
f5,
ff,
09,
0e,
fe,
fa,
f4,
f5,
35,
fd,
10,
b6,
c6,
aa,
dc,
f5,
e9,
09,
0d,
0a,
ce,
ed,
c0,
ff,
04,
f8,
0e,
f8,
f8,
e1,
e6,
19,
24,
13,
35,
05,
ed,
f9,
df,
06,
19,
f6,
fb,
fd,
f3,
09,
01,
f6,
f5,
de,
1a,
05,
02,
e7,
f2,
fb,
08,
15,
f7,
05,
f7,
fa,
03,
f5,
f3,
fa,
fd,
f9,
07,
06,
0f,
08,
0f,
14,
d3,
e0,
ca,
1a,
02,
ed,
f6,
f9,
07,
f6,
fa,
15,
03,
f4,
08,
ff,
ea,
d8,
27,
19,
1a,
f3,
09,
fe,
fd,
fd,
0f,
ec,
1f,
e7,
f3,
04,
ef,
f8,
02,
fa,
1b,
08,
07,
02,
e7,
00,
fb,
01,
06,
f5,
fe,
fe,
f8,
17,
f2,
f1,
17,
08,
e5,
fb,
13,
cd,
e6,
e5,
f7,
f8,
f6,
fa,
eb,
f1,
02,
fb,
f8,
fd,
fa,
f8,
11,
07,
26,
f2,
f6,
01,
fb,
fc,
01,
07,
f3,
e0,
f7,
00,
06,
10,
07,
f4,
93,
ef,
21,
e5,
05,
06,
fb,
f2,
0a,
f2,
0b,
db,
e0,
03,
ea,
f9,
06,
07,
fd,
04,
0e,
05,
10,
13,
17,
0b,
10,
02,
d0,
ba,
ef,
dc,
e2,
1b,
03,
0f,
b3,
e0,
d6,
eb,
0c,
19,
f6,
05,
0d,
e1,
04,
df,
11,
01,
01,
ee,
f9,
16,
09,
f4,
cc,
07,
07,
f2,
ff,
02,
03,
ee,
f6,
0a,
f1,
04,
0c,
11,
00,
05,
f7,
eb,
f9,
14,
05,
0c,
ff,
e9,
0e,
fb,
ea,
0e,
f7,
fc,
0f,
fe,
13,
27,
13,
eb,
b0,
06,
f2,
ec,
13,
00,
fa,
1f,
08,
17,
11,
fc,
00,
00,
07,
e5,
0b,
29,
1e,
ef,
f9,
ef,
fc,
f9,
fc,
e9,
f6,
cf,
07,
01,
fa,
02,
0a,
fe,
cb,
e4,
cd,
06,
1a,
26,
10,
ed,
f1,
d7,
e4,
ed,
05,
f7,
e2,
04,
eb,
f6,
fe,
fa,
0b,
dd,
01,
f0,
08,
0c,
19,
f4,
ff,
d0,
05,
15,
04,
1f,
09,
00,
e6,
fb,
e9,
ff,
04,
08,
f0,
f7,
08,
ee,
f6,
c1,
15,
09,
03,
02,
fe,
f5,
de,
f3,
e3,
ff,
f7,
0c,
16,
05,
1a,
85,
d2,
9d,
bf,
fa,
d2,
fc,
0d,
08,
f9,
fe,
ec,
fb,
fc,
09,
ee,
01,
01,
ef,
16,
fc,
e7,
12,
fd,
fb,
0a,
fc,
d7,
ee,
d3,
1f,
17,
05,
f9,
0c,
09,
fa,
07,
0c,
09,
fd,
1b,
0f,
f5,
03,
04,
13,
10,
e3,
03,
ec,
f6,
fe,
f3,
fe,
d6,
ec,
02,
05,
04,
19,
08,
12,
e6,
1a,
f1,
f3,
09,
ef,
fc,
ff,
03,
f7,
06,
00,
01,
06,
03,
f2,
fc,
f4,
3c,
fe,
81,
06,
02,
e8,
ff,
03,
0a,
00,
03,
ed,
09,
16,
10,
f4,
f6,
ec,
03,
4d,
21,
f2,
0f,
0f,
0e,
20,
1a,
ea,
e8,
cf,
f8,
e0,
e6,
09,
f8,
0a,
11,
ed,
d6,
0d,
f9,
fd,
02,
1b,
02,
fa,
32,
16,
f1,
d3,
f2,
eb,
f8,
fc,
d8,
e0,
11,
f2,
06,
f2,
ec,
f1,
f4,
04,
99,
ff,
03,
4e,
f6,
f8,
e5,
f0,
f9,
14,
13,
0b,
d2,
ed,
15,
d4,
11,
44,
fb,
41,
ff,
34,
0d,
03,
20,
15,
03,
32,
09,
26,
10,
27,
09,
07,
ed,
0b,
d6,
d6,
20,
44,
11,
07,
07,
29,
fd,
d4,
08,
17,
13,
01,
ec,
fc,
ea,
29,
d1,
f0,
2a,
fd,
19,
ee,
f1,
e7,
d2,
ad,
e2,
1c,
18,
27,
09,
11,
05,
cf,
e5,
da,
fd,
b6,
fc,
0b,
2f,
ed,
fe,
ce,
0e,
06,
06,
00,
07,
f6,
ea,
0a,
bf,
fa,
fe,
16,
fe,
f5,
19,
ec,
f7,
04,
10,
e1,
e1,
f0,
07,
22,
f8,
d8,
0d,
fb,
e2,
15,
f8,
f9,
04,
02,
0f,
ec,
16,
f5,
eb,
fd,
ff,
15,
07,
10,
1b,
11,
09,
ea,
02,
0b,
08,
12,
14,
ff,
f5,
00,
ea,
0d,
f0,
e8,
dd,
0e,
f4,
f1,
20,
33,
17,
e1,
0d,
eb,
fc,
f9,
f4,
13,
f9,
ef,
0f,
17,
0a,
ef,
e9,
ef,
03,
d8,
15,
03,
ec,
fd,
03,
39,
11,
03,
e2,
06,
f3,
09,
09,
e6,
e6,
f1,
06,
ea,
fd,
13,
fb,
15,
f8,
f2,
ed,
fd,
fb,
0f,
f7,
f0,
0a,
ff,
04,
06,
0d,
f2,
0c,
08,
f0,
ef,
0c,
ca,
e9,
ff,
fe,
0c,
eb,
f8,
e6,
00,
f8,
05,
f7,
f4,
f7,
07,
fc,
01,
15,
37,
2b,
13,
f6,
01,
08,
06,
0d,
de,
ce,
04,
f1,
eb,
18,
f3,
06,
f7,
ef,
f8,
ef,
01,
19,
06,
f5,
d7,
f1,
0b,
07,
01,
03,
46,
04,
f8,
c8,
07,
ec,
b5,
e8,
0f,
ef,
05,
00,
02,
f3,
02,
ea,
d0,
fe,
f2,
05,
04,
1f,
05,
e2,
f1,
13,
e8,
d2,
02,
13,
56,
18,
12,
d8,
fa,
14,
0a,
f9,
c7,
13,
0a,
b4,
d4,
36,
33,
fa,
de,
0c,
14,
00,
fc,
1b,
07,
fb,
d9,
d5,
f3,
33,
0e,
e5,
08,
1a,
fc,
bd,
00,
0c,
fc,
05,
ce,
40,
ef,
fb,
cc,
f9,
09,
05,
f3,
07,
5c,
f1,
f7,
17,
02,
05,
17,
f7,
ff,
72,
fd,
fd,
da,
e8,
dd,
16,
ef,
0e,
e6,
f7,
f1,
e0,
fa,
0e,
0b,
f0,
f6,
f0,
ec,
f8,
f2,
11,
10,
4e,
14,
fb,
90,
ed,
02,
81,
f4,
08,
fd,
0b,
f8,
08,
28,
e7,
1f,
03,
f7,
fd,
fc,
14,
d9,
13,
f6,
ff,
05,
0e,
2c,
22,
ea,
3d,
e7,
e0,
0c,
f8,
ea,
ea,
e5,
d1,
f5,
cb,
f3,
d1,
cc,
de,
ef,
da,
d6,
01,
fb,
0d,
d1,
04,
04,
04,
ef,
f2,
07,
02,
eb,
08,
fc,
0a,
0b,
0a,
14,
f9,
1c,
23,
10,
ef,
06,
e9,
23,
11,
64,
03,
02,
f3,
00,
fb,
0e,
fd,
db,
f3,
f7,
ec,
d4,
e6,
20,
39,
f7,
0f,
fb,
ea,
ee,
03,
d3,
34,
0e,
03,
2e,
c4,
0f,
18,
57,
23,
e2,
f7,
f2,
f1,
1b,
31,
01,
cc,
ef,
fe,
fc,
17,
29,
11,
cc,
03,
f6,
0a,
02,
28,
1e,
ed,
d0,
15,
e5,
0e,
d8,
13,
f5,
f8,
15,
df,
ee,
fd,
e4,
df,
f2,
08,
05,
f3,
0c,
fb,
12,
00,
1d,
f6,
e8,
e2,
ec,
19,
f8,
ee,
1c,
e4,
17,
e9,
00,
1a,
01,
1d,
08,
0f,
f2,
fa,
14,
10,
fc,
be,
f7,
0a,
29,
1d,
06,
0d,
04,
ed,
d3,
f2,
0e,
37,
0d,
f4,
ee,
e9,
dc,
c8,
d6,
02,
e2,
fe,
de,
f1,
01,
d2,
ba,
f7,
fa,
d0,
01,
fc,
ef,
f3,
f9,
f4,
fe,
f0,
0e,
fe,
1b,
05,
fc,
ff,
17,
e0,
f5,
ef,
eb,
ef,
15,
f2,
f9,
de,
f9,
00,
e1,
f2,
f8,
e7,
f3,
fb,
1a,
21,
dc,
5b,
0e,
0c,
e8,
ec,
f2,
c8,
e0,
0d,
f6,
f8,
02,
f9,
f4,
ef,
1f,
e5,
fd,
f4,
08,
d8,
0d,
e8,
02,
e7,
ff,
e9,
ef,
f4,
11,
1f,
12,
f3,
34,
ff,
f3,
d2,
e8,
fa,
fc,
f7,
e2,
e6,
c8,
13,
0f,
1e,
09,
ec,
fe,
ef,
2f,
0d,
e2,
fc,
02,
04,
2d,
07,
1d,
c1,
ef,
04,
08,
04,
f6,
07,
08,
07,
e3,
f8,
14,
45,
18,
04,
eb,
14,
16,
cb,
00,
03,
dd,
ce,
fe,
f8,
15,
e9,
12,
06,
07,
cc,
ed,
e6,
25,
f9,
03,
e5,
00,
0d,
f5,
fe,
1f,
c8,
fe,
23,
cc,
12,
0e,
0c,
09,
f8,
f4,
eb,
18,
da,
f9,
03,
0a,
13,
f6,
fd,
04,
16,
fe,
10,
0a,
0b,
05,
0a,
06,
0f,
00,
e8,
f4,
10,
10,
fe,
f1,
f1,
f9,
f2,
e3,
e4,
09,
06,
09,
fc,
02,
f9,
20,
0e,
23,
ec,
1c,
fd,
04,
20,
00,
fa,
11,
fd,
ec,
07,
e9,
0b,
f7,
f9,
fa,
cd,
f3,
05,
0e,
10,
e0,
f2,
f5,
db,
dc,
f3,
d3,
df,
f1,
f2,
19,
fa,
f7,
1d,
f4,
e4,
d5,
ed,
0c,
f6,
09,
0d,
d3,
ef,
01,
fb,
f6,
02,
f0,
fb,
dd,
e3,
1f,
ff,
eb,
f9,
ff,
01,
01,
ef,
a6,
0b,
08,
f9,
1b,
f3,
df,
f4,
04,
f2,
21,
0f,
09,
17,
f2,
f7,
f3,
ef,
ee,
ea,
1f,
f9,
1c,
04,
fd,
f4,
17,
34,
e6,
ee,
ff,
e6,
ff,
ee,
f7,
24,
f5,
02,
16,
fb,
17,
fc,
fc,
fa,
f8,
bc,
dd,
03,
b7,
f4,
f5,
16,
09,
06,
f8,
04,
04,
10,
08,
00,
0d,
e5,
ee,
04,
e5,
01,
f1,
e8,
f3,
eb,
f5,
09,
18,
fc,
1a,
08,
12,
ef,
18,
07,
25,
c0,
0e,
11,
f8,
0f,
05,
e4,
fa,
04,
fd,
03,
f4,
f8,
fa,
1c,
d4,
f9,
19,
cc,
0c,
06,
f0,
13,
04,
05,
fe,
fa,
06,
fb,
03,
fd,
19,
f0,
17,
07,
f5,
0f,
fd,
11,
ef,
0d,
fb,
e1,
f5,
07,
f0,
19,
0a,
eb,
02,
08,
02,
0f,
07,
fc,
f8,
fd,
df,
f1,
f3,
fd,
fb,
ee,
f0,
03,
12,
f3,
13,
fd,
f9,
fa,
dd,
c1,
da,
fb,
db,
eb,
ed,
e9,
fb,
f4,
7f,
35,
e6,
14,
ff,
0a,
f7,
07,
19,
18,
0b,
0b,
09,
00,
ff,
12,
15,
10,
16,
1b,
12,
f0,
0c,
fd,
23,
12,
fa,
13,
ef,
0c,
c4,
f6,
02,
26,
f7,
cf,
13,
e5,
e5,
eb,
e5,
0f,
fc,
fa,
0a,
f2,
f3,
ff,
06,
10,
f8,
f1,
11,
00,
eb,
f3,
0e,
f9,
f7,
12,
06,
f2,
03,
f3,
da,
13,
ee,
0c,
05,
b3,
fe,
0e,
32,
42,
f0,
04,
ff,
06,
07,
1d,
1c,
e2,
01,
07,
0f,
01,
fd,
fa,
09,
e3,
3d,
0e,
f7,
ed,
03,
05,
e5,
e9,
05,
d7,
ec,
01,
e1,
f4,
fe,
02,
f4,
06,
d6,
d9,
00,
f4,
06,
03,
10,
f4,
e2,
0d,
03,
fe,
eb,
02,
f4,
b9,
ff,
ca,
a4,
27,
e9,
ef,
0f,
15,
18,
34,
d9,
bf,
01,
a7,
99,
dd,
ea,
0c,
0f,
08,
d9,
06,
f2,
d3,
f8,
1d,
ff,
fe,
25,
64,
f5,
f6,
ed,
ee,
3f,
0a,
ec,
ef,
bc,
ff,
fd,
bd,
e9,
13,
f0,
39,
eb,
d3,
01,
c9,
d6,
d0,
21,
04,
07,
2e,
ed,
ee,
18,
c8,
d6,
de,
ae,
c4,
ed,
a7,
dd,
0e,
e1,
ef,
ee,
c3,
0f,
0f,
ed,
20,
4f,
5d,
32,
ed,
25,
e9,
ec,
e6,
ce,
0b,
05,
26,
fe,
e1,
e5,
fd,
21,
f5,
e8,
ff,
fe,
05,
f4,
e0,
f8,
20,
09,
02,
fd,
0b,
e1,
0b,
19,
eb,
14,
15,
e3,
c4,
d3,
ff,
25,
fe,
01,
ea,
22,
0e,
18,
14,
12,
0a,
37,
1a,
dd,
1f,
24,
28,
02,
20,
16,
08,
c6,
ac,
dc,
d8,
d9,
08,
d9,
05,
fa,
e4,
fd,
1f,
eb,
ea,
24,
f6,
16,
0b,
d8,
08,
15,
eb,
f8,
12,
f9,
1d,
e9,
0d,
59,
12,
fd,
1c,
e7,
16,
2c,
eb,
e6,
f6,
0d,
fb,
df,
1c,
0c,
2a,
02,
d2,
93,
f0,
f1,
a9,
2b,
db,
0b,
eb,
e6,
b3,
fb,
16,
13,
05,
07,
01,
0a,
00,
d2,
f2,
0b,
fa,
09,
e7,
18,
e4,
e0,
2d,
09,
e0,
3b,
0e,
21,
1e,
01,
cc,
e4,
fb,
fa,
ea,
de,
f7,
f5,
ee,
15,
c5,
d4,
28,
12,
05,
05,
ec,
fb,
dd,
a8,
fc,
04,
25,
1f,
0a,
f1,
16,
f0,
d2,
dd,
12,
2a,
fd,
10,
05,
fc,
19,
2e,
25,
e8,
e7,
fd,
f3,
3a,
eb,
0a,
68,
fd,
27,
14,
07,
cb,
f2,
de,
ed,
e4,
ec,
fc,
0b,
14,
13,
fb,
f7,
f2,
d5,
31,
f1,
fe,
21,
26,
f5,
10,
65,
fc,
04,
11,
ed,
e9,
04,
cf,
14,
ef,
d2,
06,
2b,
2a,
27,
b9,
a4,
c5,
ff,
ee,
f9,
d3,
da,
b9,
ff,
1f,
2b,
0c,
fb,
f4,
23,
14,
ed,
07,
ed,
e4,
dd,
e2,
ff,
fc,
dc,
18,
31,
fe,
03,
2a,
1a,
1c,
e7,
a5,
c9,
3f,
03,
fd,
f2,
c5,
09,
ef,
bc,
ff,
f4,
f9,
34,
e8,
18,
0d,
ff,
32,
20,
e2,
f9,
de,
15,
45,
d9,
ec,
f8,
bc,
ea,
56,
bd,
be,
0c,
dc,
e4,
dd,
e2,
ac,
d0,
d5,
f9,
2a,
19,
d2,
08,
1d,
eb,
dd,
04,
f5,
27,
04,
e9,
df,
fd,
0f,
df,
f5,
f9,
08,
fe,
dd,
ff,
02,
0c,
44,
22,
0d,
10,
1a,
03,
28,
0c,
3c,
7f,
50,
10,
1e,
1c,
19,
dc,
0c,
e8,
d8,
26,
d2,
ec,
09,
0d,
f0,
f0,
19,
02,
e7,
d3,
af,
d7,
e5,
ee,
18,
f9,
c5,
01,
14,
2f,
03,
ed,
f4,
f3,
d8,
bf,
c5,
21,
39,
17,
f7,
54,
eb,
dd,
d4,
da,
1d,
2a,
dc,
01,
35,
ee,
fe,
02,
e5,
f7,
13,
2a,
12,
f7,
1d,
f7,
d3,
07,
3d,
26,
2b,
2b,
ff,
f3,
4c,
b9,
f9,
67,
ec,
b3,
1a,
e5,
22,
08,
cb,
0e,
0e,
f9,
e9,
27,
08,
f3,
0d,
03,
f9,
1f,
fb,
0d,
18,
e0,
fe,
fd,
f2,
0e,
ec,
d6,
04,
28,
1f,
23,
1d,
d2,
23,
42,
3b,
32,
20,
00,
2a,
f4,
07,
26,
fd,
ee,
11,
22,
3c,
0a,
05,
e7,
f9,
16,
34,
03,
e9,
18,
de,
e2,
21,
0a,
f2,
f8,
fd,
18,
3d,
24,
f6,
ff,
13,
ce,
f1,
fd,
f0,
d1,
ef,
34,
36,
04,
03,
fd,
f9,
fc,
0f,
fa,
06,
f6,
29,
fa,
06,
ff,
f3,
f6,
fa,
fc,
21,
0a,
fc,
fa,
19,
17,
04,
f8,
f8,
14,
1b,
f2,
df,
f5,
0b,
18,
f4,
f6,
16,
fe,
10,
f5,
e0,
f1,
11,
27,
13,
01,
f6,
04,
fb,
ec,
da,
c0,
01,
f5,
03,
e0,
e5,
b2,
1f,
0a,
16,
05,
0a,
01,
03,
19,
ee,
e3,
e0,
d9,
e4,
08,
e5,
09,
0c,
02,
1d,
06,
f9,
0a,
02,
f9,
03,
1e,
09,
0a,
fe,
ee,
ed,
f0,
1e,
e7,
ee,
e9,
ea,
0f,
07,
dc,
1b,
05,
f7,
ff,
d5,
f2,
e0,
07,
fc,
13,
fb,
ff,
f0,
fc,
1a,
f5,
fb,
f6,
f7,
e0,
fd,
09,
f6,
11,
f1,
18,
de,
f5,
ea,
f4,
f1,
e1,
2c,
f2,
14,
0d,
01,
fa,
da,
eb,
e6,
1e,
00,
0b,
06,
e7,
e9,
ec,
f7,
12,
15,
f7,
eb,
0f,
01,
3b,
0c,
fc,
01,
ef,
fb,
db,
1e,
0d,
09,
ea,
fb,
0d,
f9,
ea,
f8,
08,
ed,
05,
f4,
0a,
f9,
f6,
03,
0b,
0f,
fa,
f4,
fc,
fb,
f1,
02,
e8,
e0,
03,
0b,
f1,
ef,
07,
19,
fe,
ea,
10,
07,
f3,
fc,
02,
06,
f5,
1d,
0d,
08,
09,
20,
39,
13,
0a,
a0,
81,
e3,
9b,
c0,
f3,
09,
0b,
1f,
04,
e1,
10,
fd,
f6,
f5,
f7,
1a,
27,
1a,
01,
e6,
0a,
0a,
0e,
06,
fc,
e7,
f8,
fc,
f6,
f0,
ee,
17,
f4,
00,
fa,
e8,
08,
f4,
e3,
f3,
10,
02,
ff,
06,
f1,
17,
03,
23,
05,
f2,
03,
f7,
fc,
e9,
20,
10,
f2,
f6,
03,
fa,
ef,
19,
1f,
e5,
dc,
f0,
00,
e9,
ed,
0d,
07,
16,
0d,
0f,
09,
f9,
04,
0d,
19,
fe,
fe,
2b,
29,
0d,
e1,
21,
13,
fd,
f1,
e4,
0d,
e8,
10,
10,
09,
f7,
03,
12,
0a,
0b,
e2,
14,
02,
f2,
ff,
fe,
fc,
2a,
f2,
f9,
f5,
11,
fd,
f9,
f1,
ec,
f4,
e8,
de,
d9,
f8,
e3,
c0,
c1,
f7,
3f,
64,
24,
42,
15,
14,
0f,
01,
f9,
e0,
ff,
f4,
0d,
fc,
01,
0f,
ff,
fc,
db,
e4,
47,
1e,
fb,
03,
07,
f5,
fc,
18,
ff,
21,
1b,
0d,
f1,
0e,
06,
11,
e1,
ef,
19,
0d,
ee,
f2,
ff,
fc,
04,
e0,
fc,
ff,
f2,
03,
fa,
fd,
0f,
f3,
ff,
e1,
06,
05,
05,
04,
0e,
fd,
14,
e1,
bf,
17,
0e,
18,
03,
e2,
f6,
09,
42,
27,
0e,
e1,
f3,
f1,
10,
09,
0c,
fa,
02,
1b,
f6,
df,
19,
12,
e2,
ea,
dc,
f2,
f2,
fd,
06,
05,
f5,
13,
0a,
d9,
df,
d3,
e3,
ff,
1d,
15,
07,
0f,
04,
10,
ff,
0a,
03,
10,
02,
f0,
f6,
03,
e9,
04,
f6,
fd,
06,
06,
f1,
e1,
f1,
04,
e0,
12,
02,
03,
09,
eb,
f0,
c8,
e7,
ff,
05,
ff,
16,
0c,
0c,
11,
cb,
f3,
c2,
00,
08,
00,
f1,
05,
dc,
04,
3a,
f9,
1a,
f6,
08,
07,
08,
ec,
bd,
02,
ef,
28,
fb,
08,
0a,
fb,
0e,
f6,
d0,
f5,
0c,
ff,
02,
02,
ec,
e9,
d4,
18,
10,
0b,
0a,
fb,
05,
00,
ef,
06,
0b,
06,
fb,
e6,
ff,
fd,
f4,
f0,
12,
f0,
12,
1b,
13,
f9,
1a,
f1,
06,
e9,
bf,
f3,
ec,
e6,
09,
2d,
fb,
08,
da,
f7,
f2,
05,
fe,
08,
f3,
f5,
0e,
f8,
ea,
fb,
f3,
e6,
f5,
0f,
ee,
fb,
f7,
e1,
30,
04,
01,
f2,
fe,
dd,
05,
f9,
df,
ff,
00,
14,
10,
16,
fc,
e2,
17,
0b,
ea,
0d,
15,
f4,
de,
11,
32,
1a,
e0,
24,
2b,
f6,
ea,
c5,
06,
07,
d3,
0b,
09,
f8,
e2,
f6,
0d,
16,
06,
ef,
22,
10,
1c,
27,
1a,
09,
24,
f1,
b0,
11,
0c,
c7,
21,
d4,
ec,
f0,
ec,
0e,
00,
0b,
00,
13,
04,
13,
fd,
df,
dd,
58,
f1,
eb,
31,
d4,
d5,
ac,
fc,
d6,
e6,
12,
0e,
29,
f5,
12,
02,
fc,
2f,
fc,
e9,
ee,
fe,
df,
ff,
f5,
f6,
1f,
fc,
0d,
16,
f8,
fe,
0c,
03,
f7,
28,
11,
1e,
f1,
ed,
ec,
d6,
e8,
f5,
fa,
c7,
fe,
ef,
02,
0b,
10,
26,
30,
32,
33,
f1,
10,
ed,
f4,
ff,
fb,
0d,
08,
20,
00,
e4,
23,
fe,
09,
05,
09,
19,
e0,
00,
f4,
0c,
de,
e3,
15,
e4,
f9,
ea,
19,
0c,
13,
fe,
d2,
f6,
23,
3f,
02,
f7,
e8,
fd,
fe,
0c,
f8,
e6,
ba,
06,
2b,
1c,
50,
f4,
ec,
4f,
10,
e1,
f0,
03,
be,
f3,
fc,
f6,
15,
f3,
ea,
e6,
f8,
12,
df,
05,
ec,
dd,
1f,
26,
1c,
2b,
44,
15,
f1,
f1,
f3,
fc,
ee,
e8,
fb,
ef,
fd,
08,
fd,
08,
11,
06,
ce,
1d,
01,
e4,
0b,
dd,
eb,
f8,
ec,
08,
f8,
f4,
f7,
0d,
24,
0f,
2b,
2e,
ee,
23,
26,
d7,
1a,
f7,
1e,
fd,
c5,
ee,
e6,
02,
03,
09,
1a,
1c,
fd,
06,
02,
0a,
16,
1c,
f2,
04,
1c,
00,
ed,
f4,
0e,
22,
06,
f5,
d5,
fa,
e6,
ef,
18,
17,
ef,
0f,
fd,
01,
02,
ee,
e3,
fd,
ed,
12,
19,
d4,
15,
05,
fd,
0f,
e3,
f4,
05,
f0,
0f,
24,
fa,
09,
ea,
d3,
f0,
d2,
02,
f3,
2b,
f3,
21,
fd,
81,
f2,
c6,
d3,
21,
24,
c8,
26,
48,
e5,
1e,
0b,
f3,
0b,
1d,
eb,
eb,
13,
ed,
f0,
f3,
e0,
f9,
f5,
f6,
dc,
af,
aa,
f3,
0b,
23,
fa,
12,
27,
09,
0d,
18,
19,
0d,
19,
f7,
3f,
f2,
ff,
08,
e9,
fc,
1b,
fd,
0f,
07,
08,
da,
0f,
3f,
f7,
12,
34,
0a,
fb,
ef,
ff,
f8,
02,
02,
f4,
ef,
f8,
fd,
ee,
fb,
21,
f8,
e6,
ef,
07,
ea,
f9,
f5,
0b,
10,
fd,
05,
04,
fa,
d8,
ef,
30,
d4,
10,
4d,
13,
1b,
fb,
fe,
1a,
e9,
13,
1c,
ac,
ea,
db,
c8,
09,
16,
bf,
03,
e5,
df,
d1,
f8,
fd,
dd,
05,
ee,
df,
ca,
df,
03,
0c,
09,
23,
35,
2e,
f8,
f3,
f8,
f8,
0a,
f3,
ef,
09,
24,
f8,
f7,
1f,
e6,
fa,
0e,
08,
1f,
fc,
0d,
fe,
e6,
ff,
01,
cf,
15,
1c,
0f,
e1,
f4,
fb,
1c,
1f,
1b,
df,
f5,
f7,
e1,
26,
15,
02,
18,
fa,
e7,
fb,
e8,
e6,
f4,
1e,
e5,
f1,
e5,
09,
f4,
f8,
06,
2a,
06,
ee,
dc,
c1,
ee,
03,
f8,
05,
11,
13,
f8,
f4,
0e,
ea,
d8,
a8,
1a,
27,
85,
2c,
0d,
01,
02,
10,
07,
13,
28,
0e,
fe,
04,
00,
dc,
f4,
38,
07,
0a,
ee,
0a,
05,
ef,
f0,
2b,
33,
01,
0b,
23,
ff,
12,
16,
f7,
ef,
f2,
1d,
f4,
10,
0f,
e9,
d6,
01,
d9,
ed,
0c,
ce,
d8,
ed,
e8,
05,
16,
0b,
04,
31,
53,
04,
01,
f4,
e2,
ef,
e4,
30,
eb,
ea,
29,
de,
e8,
1a,
01,
f0,
0d,
fb,
ef,
46,
fb,
f2,
38,
03,
15,
0f,
ec,
fb,
d3,
09,
07,
08,
fd,
14,
16,
27,
ee,
f6,
0a,
01,
0c,
eb,
f9,
0c,
e4,
f3,
0c,
f3,
f8,
eb,
e3,
0f,
fe,
e4,
05,
06,
04,
fe,
00,
0d,
0a,
01,
0a,
0b,
fb,
fa,
07,
00,
f8,
ea,
05,
1b,
ea,
fa,
f5,
07,
09,
14,
09,
f4,
04,
0e,
e4,
00,
f0,
f9,
f8,
01,
0f,
f1,
81,
f1,
08,
1c,
ff,
03,
1e,
08,
f7,
fe,
03,
02,
05,
f7,
0a,
fd,
eb,
ec,
fe,
0a,
fe,
e4,
eb,
10,
fb,
f8,
df,
df,
08,
fa,
f3,
fb,
0e,
08,
f9,
f2,
08,
12,
0a,
0a,
f9,
e9,
04,
0e,
cc,
fe,
0d,
f4,
fd,
ef,
0c,
eb,
fb,
01,
15,
0b,
ee,
e6,
fb,
01,
11,
0e,
05,
e2,
0e,
f3,
fc,
07,
f8,
0d,
f3,
e2,
26,
01,
ee,
fe,
05,
ee,
f6,
00,
fe,
d6,
0a,
0c,
0f,
f6,
fd,
fa,
0e,
06,
ea,
13,
f8,
fe,
04,
0f,
0e,
ff,
f7,
dd,
f5,
f5,
0f,
f4,
fa,
17,
f5,
15,
56,
f6,
f3,
ff,
01,
f6,
f4,
0c,
ee,
db,
12,
0f,
fe,
fc,
fd,
f5,
f9,
fb,
20,
0d,
05,
da,
fd,
f3,
01,
0d,
e8,
af,
02,
23,
fc,
f1,
f2,
ec,
f9,
05,
43,
ec,
ff,
0f,
fe,
01,
fc,
fd,
fe,
0c,
05,
04,
0b,
f3,
0e,
f2,
f9,
09,
fe,
fa,
05,
0a,
fb,
12,
fb,
fa,
f4,
f3,
07,
0d,
0a,
09,
f9,
f3,
08,
f5,
b7,
07,
0b,
f7,
f4,
ed,
04,
0d,
f6,
ef,
01,
03,
fd,
00,
df,
ef,
08,
e5,
e2,
06,
eb,
ff,
04,
f2,
ff,
0d,
04,
f5,
08,
19,
05,
ef,
00,
fa,
fc,
05,
22,
fa,
f9,
09,
08,
fd,
f1,
02,
fa,
ff,
06,
f6,
05,
04,
11,
f4,
ff,
31,
13,
fb,
f1,
12,
0b,
fb,
fa,
fc,
01,
f3,
15,
06,
fc,
01,
e9,
f9,
11,
f0,
e5,
04,
13,
f4,
04,
02,
f5,
f5,
2b,
e9,
fd,
05,
f3,
02,
09,
1b,
fa,
0c,
a2,
f0,
13,
f2,
f1,
14,
05,
f2,
f3,
1e,
ff,
00,
f8,
ff,
1b,
0d,
0b,
ec,
02,
ea,
f5,
fd,
ef,
f7,
1b,
fc,
f4,
09,
10,
11,
0c,
fd,
1e,
03,
04,
25,
e8,
e8,
00,
08,
02,
12,
ed,
07,
f0,
e9,
06,
18,
f0,
f3,
10,
fa,
06,
ff,
d3,
02,
f9,
08,
ff,
09,
0e,
fa,
1f,
14,
06,
e7,
05,
f8,
0d,
11,
f0,
0f,
0a,
ec,
00,
07,
ff,
fe,
01,
06,
0a,
0c,
ee,
1b,
0f,
02,
fc,
dc,
ef,
11,
03,
f1,
14,
06,
01,
f9,
fb,
08,
f4,
01,
eb,
fc,
f0,
f2,
eb,
e4,
f7,
ed,
0f,
06,
09,
fd,
f3,
eb,
f1,
f5,
ed,
15,
29,
f1,
0d,
f9,
05,
00,
07,
01,
f4,
05,
f4,
01,
0f,
11,
03,
08,
0d,
11,
e5,
fc,
13,
05,
fd,
f9,
05,
1c,
ec,
f5,
09,
13,
fa,
14,
e9,
f9,
09,
18,
f2,
ec,
08,
fd,
f6,
dc,
0a,
ea,
3a,
e8,
f7,
c9,
fa,
e4,
fe,
fd,
e4,
f8,
11,
09,
fc,
fc,
ec,
08,
f3,
00,
18,
fa,
fc,
01,
0c,
04,
ef,
f0,
14,
07,
0b,
f5,
1e,
01,
fd,
f8,
05,
e5,
eb,
05,
00,
12,
fb,
eb,
e1,
ed,
e9,
ce,
eb,
02,
15,
ef,
09,
0b,
fa,
e2,
ed,
03,
07,
01,
0d,
f2,
ee,
f8,
ed,
e1,
f7,
f8,
f8,
04,
f0,
f6,
e7,
f4,
f5,
e3,
f0,
06,
e3,
f1,
01,
f0,
ef,
0f,
09,
ef,
ff,
14,
10,
f3,
fe,
e6,
fc,
13,
ee,
f3,
07,
35,
2d,
13,
de,
bb,
e3,
e0,
cd,
d7,
15,
f8,
fb,
ef,
17,
e8,
0a,
16,
e7,
09,
18,
07,
0e,
f3,
e8,
17,
10,
12,
14,
0e,
12,
06,
ef,
f8,
0a,
f3,
0a,
db,
6f,
fc,
e5,
21,
fc,
04,
1c,
05,
13,
ef,
ea,
23,
1e,
08,
25,
27,
ff,
e2,
07,
de,
ee,
eb,
eb,
01,
21,
fc,
f7,
e5,
21,
2c,
85,
06,
fa,
e6,
e3,
0e,
fc,
12,
15,
fd,
1e,
d4,
cf,
e0,
fa,
0b,
e5,
03,
1f,
10,
06,
ee,
03,
ef,
24,
f4,
ed,
cd,
18,
fd,
f5,
2d,
dd,
dc,
05,
e1,
d2,
df,
1e,
c9,
f8,
f8,
e7,
0c,
13,
ed,
ef,
19,
dd,
c7,
f0,
06,
f5,
ea,
17,
f3,
f0,
02,
04,
21,
09,
1a,
f0,
d8,
08,
fe,
2c,
17,
fc,
01,
06,
0d,
f4,
1f,
f7,
b6,
fc,
f2,
0d,
1d,
10,
df,
ea,
05,
c5,
e6,
da,
06,
16,
10,
6d,
25,
06,
4e,
0e,
e4,
08,
d9,
e8,
0f,
ff,
0d,
0d,
03,
12,
d3,
fd,
03,
99,
0c,
fa,
bd,
01,
23,
06,
18,
f8,
1b,
fb,
14,
34,
03,
11,
0a,
f8,
02,
1a,
f9,
05,
0b,
ec,
0a,
1a,
09,
fe,
ee,
e6,
f2,
f6,
01,
1d,
28,
0f,
00,
23,
e3,
f0,
ff,
e6,
21,
48,
2e,
f8,
b7,
ea,
1a,
fb,
0f,
00,
33,
00,
02,
ee,
07,
ff,
0d,
05,
ec,
ee,
09,
10,
d2,
0f,
f6,
e3,
fa,
ef,
b3,
05,
fe,
e2,
00,
fc,
d0,
e4,
fa,
0e,
f9,
f1,
28,
05,
23,
1f,
15,
f9,
04,
ef,
f3,
d3,
f1,
fc,
e3,
e5,
f1,
f8,
05,
e4,
fc,
0c,
fb,
f8,
0b,
f9,
df,
ff,
f4,
14,
16,
d5,
42,
ff,
09,
05,
00,
f9,
c5,
0b,
f4,
d3,
00,
f3,
ec,
e0,
f9,
d7,
ef,
10,
01,
15,
06,
07,
f4,
f2,
f3,
d6,
0f,
05,
f0,
00,
21,
16,
2a,
fb,
0f,
17,
d4,
14,
0e,
21,
11,
ff,
10,
13,
10,
12,
06,
f9,
dd,
1b,
da,
d3,
1a,
e7,
fb,
06,
f9,
07,
fe,
db,
20,
d6,
ee,
22,
09,
05,
dc,
f6,
f3,
2b,
ee,
f6,
24,
0a,
11,
25,
ec,
0f,
1e,
09,
f0,
ea,
fc,
e9,
e0,
09,
33,
07,
31,
12,
ff,
f5,
09,
e4,
ed,
f2,
c2,
0b,
ed,
e0,
32,
09,
f9,
06,
fc,
f1,
d8,
e8,
09,
e8,
0f,
20,
04,
e6,
f3,
d4,
06,
21,
ee,
06,
ed,
f5,
00,
18,
03,
36,
6d,
34,
f9,
f7,
f9,
03,
fe,
0e,
fb,
e8,
15,
f8,
d9,
f5,
d9,
e2,
e6,
13,
1f,
06,
01,
19,
0e,
eb,
55,
ee,
fc,
07,
de,
00,
dd,
08,
13,
e0,
f9,
0c,
f3,
f7,
de,
eb,
03,
fa,
0e,
f0,
1f,
29,
07,
f6,
ff,
03,
e6,
f4,
ee,
1e,
41,
ff,
08,
fc,
0f,
0c,
3d,
1f,
d7,
22,
f4,
12,
16,
e6,
17,
13,
04,
f6,
de,
eb,
21,
34,
fe,
18,
0a,
1b,
f0,
d5,
fb,
f7,
0d,
19,
f1,
00,
25,
dc,
f1,
12,
f1,
0f,
f2,
f8,
05,
d0,
de,
d0,
e6,
26,
ed,
fc,
14,
ee,
f4,
f1,
e3,
dd,
f2,
03,
fb,
14,
f6,
01,
08,
0e,
ec,
02,
05,
e2,
00,
30,
02,
fe,
f7,
0e,
0d,
2a,
15,
f9,
2c,
05,
ea,
f8,
27,
09,
f2,
f6,
0a,
05,
f7,
33,
14,
f2,
06,
7f,
f7,
ef,
22,
df,
e2,
b6,
e1,
f5,
f2,
00,
ef,
eb,
fe,
f5,
ec,
fd,
0e,
fa,
f9,
14,
07,
05,
fb,
f8,
0f,
11,
08,
08,
f3,
17,
f6,
08,
f5,
ec,
f7,
07,
09,
00,
e4,
0a,
07,
fd,
0f,
f5,
f0,
08,
ff,
25,
ec,
09,
13,
00,
08,
e1,
fd,
fa,
fe,
f8,
f3,
fa,
fe,
07,
f0,
0a,
0c,
81,
09,
f6,
08,
08,
17,
05,
ef,
fd,
d4,
0d,
00,
e7,
03,
0c,
0b,
fd,
0d,
1e,
0c,
03,
ff,
16,
f3,
f8,
0b,
14,
0e,
f6,
0e,
14,
01,
05,
00,
01,
ff,
e0,
01,
f9,
fd,
e8,
fc,
f6,
f8,
f0,
27,
f0,
06,
04,
ff,
e4,
ea,
13,
fb,
01,
fe,
fa,
08,
01,
07,
04,
05,
0c,
f4,
0c,
fa,
0b,
04,
f5,
fc,
02,
fd,
e3,
f0,
12,
f5,
fb,
0f,
00,
f0,
f9,
07,
06,
f7,
ed,
09,
0f,
f1,
0d,
03,
ee,
ed,
f8,
11,
e6,
f2,
fa,
ff,
fc,
03,
d7,
f6,
11,
f3,
0c,
f3,
e4,
06,
5a,
e7,
f5,
1c,
0d,
fc,
03,
05,
00,
f6,
f4,
fc,
0d,
f9,
10,
ff,
f4,
fc,
fd,
01,
02,
ef,
f8,
04,
01,
fd,
ff,
fb,
f0,
05,
ff,
03,
07,
02,
ff,
f1,
df,
04,
05,
e1,
01,
01,
05,
fd,
04,
12,
02,
fa,
fe,
01,
06,
f4,
04,
0b,
c8,
fb,
0a,
12,
f5,
fe,
f2,
0e,
0a,
d4,
03,
10,
1f,
0a,
fe,
0d,
ff,
ff,
0d,
f9,
f6,
f6,
fb,
f4,
f5,
09,
0b,
fa,
fa,
05,
00,
ed,
fc,
fe,
ec,
fc,
08,
f9,
ff,
06,
05,
fb,
f6,
fa,
04,
fc,
07,
fc,
10,
fb,
00,
02,
0e,
04,
0a,
f0,
03,
ee,
00,
eb,
e8,
f6,
06,
d6,
0d,
06,
f0,
ff,
ea,
0e,
08,
ff,
12,
06,
0a,
02,
0e,
fd,
08,
05,
fc,
d0,
09,
05,
fe,
fb,
04,
0a,
f3,
f7,
dc,
0f,
f8,
f4,
f6,
00,
00,
f0,
f4,
2a,
e3,
fd,
0a,
07,
00,
ed,
e6,
08,
16,
fe,
f2,
1a,
fa,
f7,
07,
0c,
06,
fb,
07,
08,
fa,
f6,
04,
ee,
14,
16,
d9,
04,
f3,
f9,
dc,
0b,
f9,
f1,
00,
f5,
03,
f8,
fd,
01,
f5,
fa,
f8,
0c,
e7,
ff,
fd,
00,
05,
fa,
0c,
07,
ec,
fc,
eb,
f3,
0a,
fd,
ff,
1b,
09,
f5,
ec,
01,
fd,
ee,
f6,
f8,
16,
f1,
e8,
f8,
0c,
02,
f5,
15,
f7,
02,
f8,
06,
1a,
07,
04,
19,
06,
03,
0b,
04,
ff,
ef,
12,
fe,
07,
0e,
fc,
dd,
0e,
0e,
eb,
ff,
06,
fe,
ff,
f7,
e6,
02,
e7,
21,
e6,
05,
16,
09,
08,
f5,
14,
0f,
ec,
0c,
fa,
02,
03,
f2,
01,
02,
11,
fe,
03,
fb,
08,
02,
0b,
00,
12,
0b,
ec,
fb,
f9,
01,
ee,
05,
02,
fc,
fe,
04,
e3,
fc,
04,
01,
0d,
ee,
0e,
03,
e0,
08,
09,
0b,
03,
f0,
0f,
0d,
fc,
27,
06,
e7,
17,
00,
02,
23,
ec,
fe,
dd,
17,
f6,
ec,
22,
02,
03,
16,
07,
e1,
02,
09,
f4,
01,
07,
11,
12,
00,
fb,
fa,
f9,
ef,
e3,
08,
f3,
ff,
f7,
09,
eb,
fb,
fc,
f4,
f5,
fa,
0e,
06,
d5,
ed,
16,
fa,
e5,
fe,
07,
0c,
0b,
20,
f9,
0b,
10,
05,
05,
03,
1b,
f8,
df,
e3,
fe,
fc,
e9,
0e,
fa,
fb,
06,
08,
f2,
fe,
10,
ec,
10,
0b,
fa,
f2,
12,
f5,
04,
00,
f8,
fc,
f7,
fa,
00,
00,
19,
e4,
ff,
05,
e5,
f0,
f7,
d3,
e5,
00,
ed,
12,
e9,
d5,
02,
32,
96,
1a,
3a,
d6,
0b,
20,
e7,
a1,
f5,
e1,
a0,
35,
ef,
cf,
0a,
e9,
f0,
09,
06,
33,
0a,
db,
cf,
f7,
43,
01,
38,
28,
95,
26,
fb,
fd,
10,
12,
ff,
e3,
01,
e1,
db,
07,
0c,
27,
15,
48,
f5,
1d,
16,
ef,
23,
05,
0c,
ea,
1d,
fb,
11,
08,
23,
2f,
d3,
07,
1f,
30,
d9,
17,
e9,
d5,
fe,
e2,
16,
e2,
f8,
d4,
e6,
2f,
0e,
d9,
06,
0e,
f0,
02,
fc,
0e,
29,
eb,
22,
f1,
ff,
10,
24,
fd,
ca,
e6,
d1,
14,
1e,
e6,
13,
18,
2e,
df,
fd,
05,
df,
e9,
0f,
fc,
f4,
15,
08,
d6,
05,
1a,
dc,
03,
e2,
dd,
ea,
06,
13,
e7,
0c,
d4,
fe,
07,
0b,
01,
d8,
fc,
ed,
ca,
11,
fa,
13,
0a,
f2,
b3,
b1,
05,
e9,
03,
08,
00,
ec,
c5,
ee,
16,
9f,
bb,
44,
eb,
ea,
9a,
b3,
e2,
84,
c4,
17,
dc,
e5,
03,
ef,
ed,
16,
12,
f9,
0b,
ed,
0b,
11,
f0,
e7,
fc,
eb,
10,
e9,
24,
f3,
0c,
03,
01,
fe,
f4,
e9,
3c,
11,
0d,
f2,
19,
05,
2a,
6b,
16,
03,
2d,
04,
0c,
00,
02,
1b,
08,
e4,
fa,
13,
09,
0f,
33,
2b,
e9,
1b,
31,
0d,
f1,
04,
f0,
f9,
0f,
eb,
ed,
42,
0e,
ea,
e8,
32,
ff,
f7,
f6,
fd,
c6,
03,
1d,
e7,
e5,
08,
fe,
df,
2b,
0d,
f4,
fb,
05,
04,
ea,
f2,
fc,
17,
f8,
ff,
ef,
31,
05,
f3,
d6,
09,
11,
e9,
fb,
fb,
f9,
fb,
f6,
05,
e3,
e7,
22,
f3,
12,
d8,
f1,
fb,
f0,
ca,
ec,
01,
20,
13,
0b,
f0,
ef,
1d,
37,
19,
23,
02,
16,
df,
11,
17,
d7,
52,
21,
01,
fa,
d4,
df,
eb,
cc,
c8,
06,
f9,
ee,
03,
24,
33,
06,
e7,
b9,
11,
d6,
0c,
ec,
dd,
01,
da,
ae,
07,
26,
20,
55,
08,
ff,
00,
e1,
f9,
03,
f2,
fa,
ec,
05,
1a,
fa,
2b,
31,
ca,
13,
29,
00,
e9,
e5,
fc,
e4,
ef,
f3,
f2,
3c,
20,
34,
06,
00,
f6,
f2,
03,
0a,
4c,
e8,
09,
10,
f5,
f8,
eb,
fe,
2e,
f5,
e9,
fd,
da,
e1,
03,
f8,
ee,
04,
14,
06,
ef,
27,
e9,
05,
e5,
f9,
d5,
81,
1e,
02,
d4,
1c,
01,
38,
fd,
1f,
20,
1c,
1c,
1d,
f0,
ea,
e0,
f3,
31,
08,
1e,
fc,
ec,
16,
c6,
cc,
ec,
03,
06,
05,
16,
11,
27,
fd,
29,
2b,
ee,
35,
19,
c3,
12,
19,
1c,
ff,
13,
db,
14,
26,
23,
0b,
fe,
db,
df,
f5,
ea,
20,
1b,
0e,
16,
27,
1e,
fd,
07,
f4,
0a,
ce,
03,
2a,
fe,
0c,
ee,
fb,
f6,
34,
0c,
ef,
d9,
e6,
21,
f3,
0d,
20,
0b,
fc,
08,
05,
04,
28,
f0,
db,
2d,
0f,
d3,
36,
14,
dc,
18,
ba,
ef,
d4,
c3,
35,
ea,
f6,
18,
e5,
fa,
f1,
02,
07,
11,
fe,
26,
fe,
2b,
00,
0d,
0a,
c9,
ee,
1a,
d1,
ce,
ed,
18,
20,
ce,
0e,
34,
ee,
fa,
2c,
da,
f4,
f1,
21,
3b,
38,
0a,
0d,
10,
e4,
cd,
c1,
0d,
e6,
f1,
eb,
53,
ef,
eb,
15,
f8,
fc,
21,
f6,
18,
e0,
f7,
e2,
d3,
f4,
01,
47,
01,
e6,
3c,
fa,
2e,
04,
b1,
ea,
df,
ef,
c0,
fb,
12,
07,
fe,
08,
db,
42,
25,
19,
2b,
12,
13,
13,
dd,
dc,
e5,
da,
08,
1e,
15,
0d,
ec,
f6,
a8,
05,
9a,
0c,
34,
f8,
11,
02,
fa,
ec,
17,
1d,
00,
08,
f0,
f5,
0c,
e8,
1d,
db,
07,
f4,
d8,
de,
e6,
0a,
08,
3c,
e9,
30,
f4,
08,
ec,
09,
f2,
0b,
09,
fb,
0c,
05,
d7,
16,
e4,
09,
25,
06,
20,
30,
0b,
f6,
eb,
0e,
0a,
14,
08,
fe,
08,
0d,
ff,
05,
f5,
ea,
14,
c3,
a3,
98,
2b,
18,
15,
05,
16,
fb,
17,
3e,
1c,
fe,
14,
0a,
d7,
ff,
f2,
e6,
ec,
fb,
df,
dc,
ce,
fc,
11,
22,
e2,
1a,
d9,
fe,
08,
e4,
f9,
f9,
ec,
e4,
32,
fb,
f8,
e6,
d1,
08,
25,
00,
dd,
e1,
a4,
fb,
02,
04,
1c,
ed,
0f,
f9,
ef,
2a,
19,
ee,
1d,
13,
00,
e9,
f1,
ea,
e9,
fb,
1a,
18,
0e,
1d,
fa,
e7,
50,
d4,
c4,
1c,
d2,
f8,
02,
f5,
2f,
35,
dd,
e4,
fb,
fb,
26,
eb,
ba,
5f,
15,
24,
f5,
e4,
52,
f6,
ff,
13,
f6,
e8,
ef,
09,
09,
06,
f4,
15,
f1,
b3,
e8,
bd,
17,
f9,
15,
00,
1e,
f1,
ed,
01,
f1,
14,
fb,
11,
e8,
e2,
12,
52,
c6,
81,
00,
f1,
0a,
00,
01,
03,
f8,
01,
1d,
e4,
0a,
e8,
05,
0a,
02,
09,
13,
de,
f5,
ec,
ed,
f0,
03,
f1,
04,
4b,
e0,
01,
f7,
f9,
01,
20,
fc,
ed,
e7,
04,
d4,
1f,
f2,
0a,
1d,
01,
02,
08,
ed,
e8,
0e,
dd,
fa,
fe,
0b,
ac,
b4,
c2,
f0,
ee,
f0,
07,
14,
16,
11,
db,
16,
f1,
bc,
e1,
0a,
fa,
f3,
03,
1b,
f8,
ee,
26,
e6,
01,
fc,
04,
f1,
b7,
fe,
fe,
02,
0c,
e2,
f0,
fe,
21,
96,
bb,
07,
ed,
cd,
f1,
01,
f5,
27,
16,
38,
10,
20,
07,
ea,
21,
18,
d9,
13,
eb,
f9,
e6,
0c,
f6,
e0,
f3,
e0,
cc,
fc,
d9,
14,
f5,
28,
d1,
e7,
c2,
e7,
48,
ff,
c0,
ef,
26,
11,
0f,
e0,
d4,
ce,
00,
00,
eb,
04,
fa,
f0,
1d,
f2,
c2,
e2,
09,
f2,
21,
f1,
12,
ee,
3e,
09,
ef,
2c,
fe,
0c,
f1,
1a,
10,
eb,
03,
d6,
06,
f0,
26,
fd,
37,
d6,
e1,
ea,
fc,
ff,
05,
0d,
01,
16,
05,
f7,
30,
f2,
02,
fa,
e7,
f9,
18,
eb,
2a,
3b,
e4,
e0,
da,
f9,
f2,
1b,
18,
29,
25,
07,
e9,
08,
02,
1c,
ee,
e7,
f0,
da,
f1,
e4,
04,
00,
fd,
fb,
ef,
ec,
ed,
1d,
f3,
0c,
e1,
da,
0d,
f0,
03,
13,
e5,
f8,
12,
f6,
10,
06,
f4,
0e,
bb,
f1,
07,
06,
02,
fd,
00,
2d,
2a,
21,
c3,
f8,
b0,
fc,
e8,
e3,
19,
cf,
0c,
00,
fd,
f1,
17,
fb,
07,
cf,
b1,
c2,
0b,
0a,
14,
ef,
f3,
fb,
2f,
eb,
13,
19,
f6,
0f,
1a,
ef,
13,
22,
d0,
2a,
f2,
f8,
06,
ea,
f0,
04,
1f,
1b,
d4,
ef,
f6,
de,
ed,
eb,
06,
0f,
04,
17,
fa,
05,
02,
ee,
ed,
02,
d8,
f2,
54,
0b,
f1,
e4,
fa,
d4,
0a,
ee,
30,
e8,
08,
fc,
18,
e9,
39,
f5,
d2,
1c,
eb,
f0,
39,
02,
d9,
f3,
08,
ed,
c0,
2b,
08,
27,
01,
04,
13,
0c,
10,
27,
29,
15,
04,
21,
ee,
fc,
f2,
0f,
f3,
1f,
27,
0e,
21,
0b,
fd,
fd,
fd,
09,
33,
e9,
f6,
20,
05,
e7,
07,
e6,
2f,
ec,
f6,
0a,
f9,
ea,
de,
cb,
04,
00,
13,
f6,
f7,
fc,
2e,
11,
fc,
e0,
d8,
05,
fd,
df,
13,
fa,
ef,
06,
00,
00,
f8,
1a,
f0,
00,
19,
e3,
d5,
e3,
a8,
ec,
f7,
00,
07,
dd,
da,
d1,
1e,
f1,
e3,
1f,
ea,
e9,
ed,
ff,
05,
03,
03,
e7,
14,
fa,
e3,
03,
d6,
2a,
f7,
81,
e1,
1b,
ec,
cb,
01,
40,
de,
f2,
d4,
f8,
09,
06,
0f,
f3,
1f,
f2,
c1,
d1,
06,
06,
da,
05,
fe,
17,
15,
fa,
06,
01,
0d,
0a,
05,
01,
06,
f5,
15,
e8,
c6,
f9,
fc,
07,
19,
2f,
ce,
ce,
d1,
f2,
0e,
12,
06,
f6,
ec,
da,
07,
dc,
cb,
21,
0a,
00,
f4,
10,
d6,
d5,
ef,
57,
22,
d5,
0c,
22,
00,
f7,
13,
30,
07,
e4,
ec,
d4,
15,
2b,
13,
f8,
e3,
c9,
f2,
35,
1f,
e9,
ef,
fd,
e3,
3f,
48,
eb,
00,
21,
ff,
ff,
0a,
14,
2a,
38,
11,
fb,
f8,
20,
44,
ff,
f8,
f9,
03,
14,
e3,
e1,
10,
16,
f7,
f8,
d4,
07,
01,
f7,
ef,
f1,
09,
ff,
f1,
30,
3f,
f0,
e0,
23,
fe,
f8,
1a,
05,
a1,
a2,
0f,
17,
0a,
33,
0e,
c5,
e5,
2b,
fd,
dc,
f4,
0a,
da,
1b,
14,
fd,
d3,
02,
f7,
f4,
14,
20,
d1,
0f,
fc,
06,
0e,
ec,
ff,
fd,
05,
df,
f3,
15,
bf,
ae,
28,
f7,
02,
0a,
16,
13,
00,
c7,
e3,
05,
01,
ec,
1f,
17,
09,
f3,
fa,
dc,
0e,
19,
19,
07,
33,
00,
dd,
dc,
01,
f5,
f1,
ec,
e1,
03,
2b,
0a,
e9,
f2,
05,
0d,
1c,
09,
43,
e9,
08,
e8,
d4,
00,
09,
12,
00,
14,
01,
f5,
df,
00,
21,
ef,
09,
eb,
02,
31,
c9,
d6,
0e,
fe,
2c,
ee,
29,
f2,
f0,
0b,
49,
0e,
e0,
ff,
03,
fb,
09,
30,
03,
17,
e7,
0e,
fb,
f0,
1e,
f9,
f7,
17,
ef,
95,
f0,
e4,
f2,
ef,
d9,
d8,
22,
cf,
f5,
ec,
ef,
f1,
f3,
36,
fc,
f3,
f0,
f1,
0c,
e7,
fb,
0d,
d0,
ee,
0f,
0c,
46,
f8,
07,
3a,
f0,
17,
fd,
ed,
1a,
ea,
fa,
e3,
f8,
01,
11,
ec,
1d,
b8,
15,
f4,
04,
15,
0a,
ef,
f4,
db,
e5,
30,
f3,
d8,
fb,
16,
f7,
eb,
0e,
f7,
47,
00,
17,
09,
ef,
07,
31,
02,
b0,
ba,
eb,
fd,
09,
c8,
0d,
ee,
fa,
0e,
e5,
fa,
f0,
ec,
01,
1e,
0f,
f1,
e6,
f0,
f0,
fd,
ed,
05,
09,
3a,
06,
ba,
25,
10,
d1,
fa,
f3,
0b,
c1,
17,
fa,
9e,
1c,
fa,
24,
e0,
cf,
05,
f2,
5b,
26,
12,
e1,
09,
14,
07,
0c,
26,
bf,
99,
0e,
06,
1a,
fb,
19,
e4,
f2,
fe,
1f,
00,
e3,
18,
ef,
ed,
0f,
0f,
ba,
e7,
e9,
fe,
07,
f1,
e2,
e9,
f1,
e2,
47,
f6,
05,
0e,
eb,
11,
0c,
b8,
e3,
4d,
03,
03,
fa,
21,
ec,
3e,
08,
12,
bc,
0c,
0f,
e0,
0e,
1b,
e6,
f2,
e7,
d3,
f5,
06,
fe,
f1,
0b,
06,
f5,
30,
d0,
fb,
1c,
16,
15,
13,
df,
00,
20,
1d,
fd,
ed,
1f,
f7,
08,
fd,
eb,
1c,
06,
04,
f8,
19,
05,
36,
13,
0a,
eb,
26,
ef,
14,
22,
19,
f0,
d2,
f7,
03,
da,
e6,
09,
1f,
0b,
21,
10,
04,
dc,
f6,
03,
d6,
fb,
07,
1d,
04,
17,
23,
59,
11,
e9,
0b,
ee,
d6,
1f,
45,
53,
b5,
fe,
f5,
ea,
0b,
07,
f2,
eb,
e9,
ee,
ea,
05,
eb,
f9,
22,
01,
06,
1c,
10,
f2,
0a,
f1,
0e,
f6,
24,
09,
08,
13,
00,
02,
0a,
09,
01,
fb,
f9,
f2,
0e,
ef,
f0,
ed,
f8,
fd,
0b,
1c,
c6,
f1,
09,
e1,
f2,
03,
0e,
12,
f3,
e2,
cc,
0b,
ef,
15,
f3,
13,
1d,
ea,
38,
48,
0a,
fa,
e5,
f9,
1f,
04,
05,
fb,
0c,
f7,
ec,
0b,
d6,
03,
17,
f9,
2e,
e2,
ee,
db,
02,
fa,
f6,
fc,
10,
f8,
c2,
0b,
f7,
01,
f4,
21,
f7,
11,
1f,
f6,
fe,
eb,
09,
fd,
f9,
d6,
0c,
fd,
b8,
02,
0f,
07,
f3,
ca,
00,
f9,
4d,
39,
0b,
0b,
cc,
f4,
08,
0f,
f6,
19,
05,
1a,
01,
f9,
e8,
24,
16,
f5,
0d,
ee,
0a,
d5,
ec,
02,
0a,
09,
16,
ef,
e4,
f5,
ff,
1d,
13,
0b,
e5,
2a,
f9,
ff,
23,
f9,
eb,
f9,
f4,
03,
ea,
01,
14,
05,
0b,
cb,
fd,
03,
12,
e0,
81,
a8,
18,
ef,
33,
05,
fb,
f1,
14,
ed,
ca,
f8,
f2,
2c,
06,
08,
f4,
0c,
44,
ff,
ff,
f6,
e8,
09,
19,
eb,
0d,
cd,
bc,
03,
f5,
23,
03,
29,
07,
f5,
81,
b9,
ff,
c0,
0c,
f4,
ef,
03,
13,
0e,
ff,
06,
02,
11,
fd,
18,
eb,
f3,
ee,
e9,
18,
ff,
fd,
ff,
f5,
fd,
1b,
0c,
d3,
fa,
f9,
0b,
f1,
08,
08,
28,
d4,
b5,
f4,
d1,
2d,
fb,
06,
09,
f6,
0d,
04,
15,
04,
fd,
0a,
f6,
16,
f5,
ea,
e6,
fe,
f8,
13,
1c,
0c,
e9,
1b,
e4,
e4,
f1,
e2,
2b,
f7,
e9,
0c,
fa,
1d,
ec,
fe,
19,
23,
01,
f5,
ed,
f1,
f5,
f3,
e4,
f4,
06,
f0,
f8,
ec,
c5,
a1,
2d,
d3,
01,
f0,
02,
eb,
e2,
0c,
fc,
1e,
fa,
07,
f5,
06,
f8,
f8,
17,
d9,
dc,
0f,
ec,
fa,
02,
0f,
fc,
fb,
cc,
28,
04,
0c,
1b,
08,
d5,
ec,
f7,
59,
13,
0a,
2d,
ea,
f0,
fe,
11,
f5,
18,
20,
f4,
04,
ef,
ff,
f9,
08,
fb,
ef,
0a,
ec,
0c,
06,
0a,
e7,
f7,
0d,
09,
f6,
ea,
e5,
1b,
f7,
0d,
06,
f2,
d7,
fd,
06,
0a,
0c,
f2,
fb,
00,
06,
f3,
bb,
fc,
e0,
0b,
fc,
06,
08,
12,
e6,
fa,
e5,
03,
ec,
03,
04,
0a,
1d,
b1,
10,
04,
eb,
1e,
0c,
e5,
02,
03,
39,
40,
05,
f2,
d1,
06,
06,
ec,
02,
f9,
e0,
f4,
fc,
09,
f1,
ec,
f1,
fe,
f5,
03,
e1,
ec,
16,
01,
0b,
e1,
01,
05,
c7,
f3,
f5,
30,
04,
f1,
f5,
0d,
12,
e8,
fe,
e9,
0a,
f2,
0e,
f0,
03,
16,
0e,
fc,
04,
09,
fb,
f2,
0a,
f5,
fe,
f5,
13,
fe,
ef,
14,
14,
0b,
e6,
07,
ef,
fd,
01,
01,
fd,
fb,
f7,
03,
f4,
01,
e9,
0c,
12,
fb,
fc,
ef,
fc,
06,
02,
e9,
f2,
f5,
03,
09,
04,
08,
c8,
f0,
17,
fa,
fe,
04,
ef,
e4,
04,
10,
cf,
fa,
fb,
0c,
09,
0c,
1a,
17,
e1,
03,
ee,
df,
06,
ff,
ef,
f7,
f5,
01,
27,
f0,
10,
fd,
19,
16,
f9,
1e,
1e,
d3,
d7,
eb,
1a,
0f,
00,
19,
f9,
eb,
27,
09,
24,
0c,
11,
02,
05,
fc,
dd,
cd,
06,
12,
00,
13,
fc,
f5,
03,
f8,
dc,
f8,
ff,
eb,
12,
f8,
02,
03,
21,
47,
11,
1e,
f6,
fa,
11,
d4,
ef,
f6,
06,
f7,
04,
f4,
fe,
e5,
e7,
42,
c1,
00,
fe,
e6,
f9,
df,
a5,
fe,
c8,
8d,
1e,
ea,
f4,
15,
cc,
f2,
0a,
ef,
1a,
e7,
ff,
f6,
ff,
03,
0f,
0b,
e5,
f1,
05,
e9,
e6,
f2,
ea,
fd,
f1,
0d,
31,
24,
0c,
e6,
25,
f9,
3d,
19,
13,
26,
1d,
fb,
ec,
ea,
0e,
ec,
0a,
f6,
33,
0a,
e3,
2c,
02,
e3,
28,
df,
eb,
e4,
ca,
ea,
f4,
05,
0c,
df,
10,
0a,
21,
04,
00,
f7,
de,
ff,
00,
fc,
ef,
0d,
07,
f8,
09,
f1,
fc,
eb,
ee,
fa,
12,
f4,
05,
f1,
d0,
e1,
14,
ea,
cc,
1d,
20,
ef,
fd,
f1,
08,
df,
ea,
e6,
e7,
0c,
f5,
f9,
ec,
fc,
f7,
e2,
fb,
05,
e6,
e9,
b1,
f9,
f2,
dd,
e2,
f5,
32,
0f,
1b,
02,
f7,
03,
ed,
0b,
0d,
ed,
fd,
1d,
e8,
ef,
08,
ed,
e9,
11,
4d,
19,
ef,
48,
0a,
07,
e9,
ff,
17,
19,
01,
d8,
1b,
f7,
fe,
3c,
f7,
1d,
0d,
fb,
09,
94,
1e,
fa,
f5,
e3,
d6,
14,
f6,
e6,
08,
f7,
02,
22,
fc,
10,
eb,
0e,
f2,
0c,
f3,
02,
ee,
14,
f6,
ca,
1b,
09,
e4,
f8,
0b,
05,
e5,
ec,
f8,
f6,
07,
03,
09,
12,
cb,
fd,
1a,
fe,
1b,
1d,
15,
07,
fc,
19,
fb,
d6,
54,
05,
e3,
25,
f6,
f0,
0c,
f5,
e5,
e1,
fd,
0b,
03,
fc,
03,
eb,
05,
f2,
0f,
13,
fd,
11,
10,
ef,
1b,
18,
0b,
e8,
12,
e7,
07,
0c,
fa,
d5,
f0,
00,
04,
04,
0a,
dd,
0b,
e7,
1d,
fb,
01,
1d,
f5,
eb,
1d,
15,
1c,
e6,
0c,
fc,
e4,
0a,
ec,
e5,
db,
01,
f7,
e3,
e9,
1c,
ec,
2c,
22,
ce,
0f,
04,
fe,
f9,
1f,
05,
09,
f3,
f7,
f3,
18,
05,
f0,
cd,
f3,
01,
fc,
03,
ef,
2e,
19,
fa,
e5,
e2,
ea,
ea,
e3,
f0,
e7,
07,
27,
27,
0b,
f1,
f0,
12,
12,
f3,
f4,
1b,
dd,
00,
0c,
de,
0d,
10,
0f,
09,
e9,
18,
f2,
0a,
06,
f8,
12,
0f,
f5,
e8,
03,
04,
14,
0c,
17,
f4,
e1,
e5,
19,
f2,
d1,
15,
27,
fe,
2d,
0e,
f9,
07,
fd,
e6,
ff,
fa,
01,
f5,
1f,
14,
ee,
05,
f0,
1d,
0b,
fd,
f1,
df,
09,
f4,
ee,
f2,
fc,
ff,
fb,
20,
ef,
20,
17,
b4,
07,
23,
01,
e9,
e0,
fe,
01,
f3,
0f,
fb,
0c,
01,
f8,
ee,
ff,
0f,
f1,
0d,
f0,
f8,
eb,
05,
fc,
0e,
00,
f0,
1e,
ff,
07,
0e,
ff,
05,
f2,
f0,
0a,
81,
fb,
fe,
b8,
f2,
18,
2c,
00,
de,
f0,
d8,
08,
f9,
ed,
0d,
cc,
10,
ed,
d0,
eb,
e2,
ff,
f9,
05,
f4,
14,
de,
f5,
14,
ce,
f3,
08,
0c,
df,
ef,
f9,
e7,
f8,
0e,
e8,
fb,
29,
ca,
f9,
28,
e8,
16,
06,
e2,
0f,
0f,
e3,
ef,
fa,
ef,
0b,
12,
12,
eb,
11,
38,
f6,
c0,
5a,
bd,
00,
2c,
cb,
f5,
fc,
f1,
e6,
0b,
09,
02,
dc,
ef,
06,
db,
00,
28,
21,
06,
fb,
3c,
de,
f6,
11,
1e,
ea,
c2,
f7,
02,
f4,
1b,
e2,
e6,
fa,
05,
af,
c8,
0e,
05,
25,
fb,
d1,
f7,
03,
d7,
21,
ea,
e0,
00,
d4,
23,
04,
ef,
f6,
f9,
e5,
06,
06,
da,
f1,
1b,
d9,
05,
14,
d4,
10,
07,
18,
ef,
0e,
ff,
d5,
0b,
01,
c6,
ff,
f9,
03,
f3,
49,
f2,
ef,
fc,
b6,
e6,
f3,
fe,
09,
18,
00,
f5,
f6,
02,
fd,
10,
07,
f6,
0f,
b0,
fd,
e6,
d7,
ef,
08,
ed,
fa,
f5,
e5,
02,
ef,
f4,
f1,
01,
fb,
06,
01,
07,
02,
f5,
04,
fe,
f5,
f5,
0b,
f4,
0a,
13,
09,
f5,
fa,
fc,
f1,
fa,
02,
fc,
f2,
f3,
1e,
ea,
06,
ea,
fc,
b7,
0c,
3d,
dc,
1f,
1b,
fa,
08,
fe,
ea,
06,
f9,
00,
dd,
01,
ef,
03,
f4,
f4,
14,
fe,
07,
ee,
12,
ff,
ea,
f5,
03,
f2,
0a,
0d,
09,
09,
f0,
12,
f2,
0b,
0b,
fa,
04,
ec,
07,
eb,
0f,
ff,
fa,
17,
07,
0a,
08,
00,
ee,
04,
fb,
00,
f4,
fd,
f0,
ea,
f7,
02,
ff,
14,
09,
0b,
02,
fb,
04,
ec,
01,
ff,
01,
f7,
0d,
fc,
f7,
08,
09,
03,
06,
fa,
08,
03,
06,
05,
08,
fd,
ff,
ea,
07,
15,
c6,
16,
0b,
09,
fd,
0a,
02,
ec,
19,
01,
db,
07,
0c,
ea,
13,
f5,
fb,
56,
f3,
bb,
20,
07,
f6,
f7,
ec,
f0,
fa,
0a,
f0,
02,
fc,
ff,
01,
04,
f7,
0c,
16,
f7,
e8,
10,
f4,
fb,
ff,
04,
e9,
c3,
14,
f4,
f8,
06,
25,
13,
f1,
7f,
f5,
8a,
22,
ed,
af,
13,
11,
0e,
14,
07,
fa,
fa,
fe,
00,
f9,
15,
0a,
01,
00,
12,
05,
12,
0f,
04,
03,
0c,
f4,
bf,
01,
fc,
f9,
fd,
08,
fe,
fc,
f2,
ea,
d9,
00,
04,
02,
f8,
02,
f8,
0e,
ec,
ff,
00,
f6,
0a,
06,
fb,
f6,
f0,
ee,
f8,
f8,
e3,
ea,
01,
05,
f8,
09,
f7,
0a,
f5,
f2,
f6,
f6,
04,
03,
17,
03,
09,
03,
e8,
fb,
03,
fa,
0d,
19,
0c,
ec,
0d,
f9,
f9,
f7,
02,
13,
d4,
09,
01,
ff,
01,
f0,
f5,
f1,
f6,
0f,
e8,
09,
0f,
14,
0b,
f2,
fb,
f1,
0e,
17,
f6,
f6,
06,
0c,
00,
fe,
04,
00,
0f,
08,
e7,
0a,
08,
fa,
1d,
09,
98,
04,
60,
b7,
05,
1b,
0c,
fe,
04,
fc,
f8,
01,
ee,
f4,
fd,
f5,
0a,
06,
ea,
e8,
fc,
ee,
05,
02,
05,
f1,
fa,
f1,
15,
11,
06,
05,
f9,
05,
01,
04,
03,
09,
ff,
f2,
ea,
fc,
fe,
09,
10,
fc,
e8,
03,
00,
fc,
f7,
0d,
13,
0e,
05,
0a,
fb,
02,
f7,
0f,
05,
0e,
05,
11,
ed,
f9,
f8,
09,
fe,
0d,
05,
f3,
f2,
f7,
00,
00,
f8,
02,
00,
f7,
fa,
06,
d7,
0c,
ef,
e2,
f0,
fe,
f0,
f6,
04,
07,
0a,
0d,
06,
11,
eb,
f1,
11,
1f,
f8,
e6,
14,
15,
e5,
09,
f3,
fa,
e8,
12,
ef,
fa,
12,
f7,
13,
f6,
0c,
18,
f7,
0b,
03,
e3,
07,
03,
ea,
0e,
fd,
07,
f5,
fe,
fe,
fc,
04,
18,
0b,
00,
20,
12,
f5,
ee,
06,
fd,
07,
fa,
0f,
fb,
03,
08,
fd,
fa,
fc,
02,
ef,
0a,
42,
f3,
ff,
0c,
ef,
09,
01,
00,
04,
ff,
03,
e9,
0f,
0d,
03,
01,
fe,
0a,
dd,
04,
08,
ee,
03,
f7,
04,
02,
f6,
f3,
14,
f8,
05,
07,
fd,
17,
fe,
f4,
ff,
0e,
f5,
fe,
f7,
ff,
f0,
f2,
f5,
dc,
06,
f6,
c0,
02,
0e,
ed,
02,
08,
14,
fc,
0c,
f5,
06,
01,
0b,
fe,
fe,
cf,
ee,
0d,
03,
0d,
0d,
ec,
e6,
ed,
15,
fc,
f3,
1e,
fd,
08,
09,
f0,
26,
23,
d9,
0f,
03,
05,
ec,
02,
f3,
2a,
db,
31,
f6,
f5,
15,
07,
e1,
ff,
17,
f9,
03,
e1,
e4,
0d,
e9,
e1,
f7,
f8,
c2,
f0,
f0,
c1,
ee,
04,
0f,
f6,
ff,
f1,
07,
e6,
e3,
06,
f7,
c4,
03,
f1,
0d,
f0,
16,
7c,
17,
e7,
ff,
f2,
f2,
11,
f8,
ff,
e6,
e9,
0b,
d3,
01,
08,
f2,
09,
14,
0b,
06,
00,
f6,
ff,
04,
ff,
f6,
0a,
eb,
f8,
03,
00,
03,
fd,
e1,
13,
fb,
e2,
13,
01,
c4,
09,
08,
09,
09,
1c,
38,
0d,
09,
0a,
f1,
05,
f0,
ec,
f8,
0f,
f4,
0c,
d9,
0c,
0c,
e3,
0a,
03,
e4,
09,
f9,
e1,
04,
f8,
d6,
0e,
08,
e0,
16,
ff,
01,
f9,
06,
f7,
03,
0b,
da,
0f,
02,
f0,
fb,
03,
fb,
04,
22,
02,
0e,
0b,
00,
fb,
0a,
fa,
05,
fa,
dc,
01,
0a,
04,
ef,
0b,
0c,
0e,
03,
06,
05,
04,
36,
ec,
07,
0d,
0a,
ff,
b4,
fb,
0c,
06,
04,
05,
02,
04,
02,
fc,
03,
15,
04,
ff,
04,
f3,
ed,
05,
e6,
e8,
f2,
f9,
00,
f0,
04,
fa,
f9,
33,
f0,
fe,
35,
fc,
04,
05,
0b,
e3,
a5,
06,
fc,
ee,
fe,
00,
fe,
fe,
0d,
f6,
0c,
0f,
09,
f5,
13,
0c,
fb,
08,
05,
fb,
01,
03,
ff,
06,
1a,
03,
18,
26,
1c,
f2,
83,
1c,
0c,
db,
20,
1e,
e7,
1e,
eb,
c3,
f7,
0a,
1b,
06,
24,
52,
f9,
15,
cc,
19,
fa,
d9,
fc,
f6,
d3,
13,
03,
f0,
03,
07,
d1,
0a,
ff,
d3,
03,
01,
26,
05,
f9,
0c,
fc,
cf,
ea,
e7,
11,
00,
0b,
05,
ea,
03,
f2,
d3,
ef,
eb,
08,
f0,
02,
24,
ef,
df,
16,
dd,
08,
01,
fa,
06,
f2,
00,
00,
00,
08,
09,
f7,
f8,
03,
0a,
01,
f0,
04,
02,
ec,
d9,
ff,
00,
f3,
06,
fc,
eb,
09,
fe,
0a,
f9,
ff,
05,
00,
f8,
fc,
00,
0a,
fd,
fc,
21,
08,
03,
07,
1a,
fa,
f8,
11,
03,
fd,
12,
f9,
fc,
1d,
01,
f2,
f7,
00,
fb,
16,
08,
16,
2b,
0b,
19,
e1,
04,
14,
e5,
02,
03,
cd,
e4,
22,
03,
10,
0a,
fb,
07,
f4,
e7,
fa,
21,
4d,
f8,
00,
0f,
f5,
f3,
d2,
f5,
fd,
06,
02,
01,
24,
fd,
06,
22,
f3,
24,
ec,
ec,
13,
f6,
01,
16,
ea,
0e,
07,
0f,
05,
00,
09,
03,
25,
24,
13,
f1,
a6,
3c,
f5,
b3,
2b,
e8,
a7,
32,
0e,
10,
f4,
02,
04,
f3,
f2,
f6,
f8,
02,
05,
15,
05,
00,
06,
e0,
e1,
dd,
0a,
ee,
ee,
f4,
e9,
ff,
01,
f2,
fd,
f1,
ad,
01,
06,
ec,
0b,
eb,
cd,
09,
fe,
ac,
2c,
e9,
d8,
11,
ed,
f2,
fd,
fb,
f7,
03,
fc,
09,
f3,
09,
0a,
00,
26,
f7,
1b,
05,
f8,
08,
03,
cb,
f3,
01,
d2,
05,
0f,
f5,
0b,
09,
f4,
14,
f3,
f5,
07,
14,
0a,
09,
fc,
fe,
f0,
fb,
f0,
f2,
f9,
06,
fc,
eb,
01,
ef,
0e,
14,
04,
fe,
09,
f9,
e9,
fe,
eb,
f1,
ea,
0f,
07,
f5,
fe,
11,
fb,
01,
1e,
d7,
0b,
17,
b4,
16,
00,
81,
11,
01,
f3,
08,
03,
e8,
15,
fe,
e1,
16,
0a,
f2,
17,
0c,
10,
0a,
04,
e5,
00,
fe,
ea,
0d,
fe,
00,
07,
f6,
d6,
fb,
ea,
fc,
fd,
06,
fe,
fb,
ee,
15,
ee,
fa,
f9,
16,
03,
fb,
10,
09,
08,
0a,
04,
be,
0f,
00,
f2,
0c,
1a,
27,
0a,
22,
b4,
f7,
00,
cc,
e8,
d2,
fe,
0e,
ff,
e7,
eb,
17,
20,
fb,
f9,
ed,
fd,
f2,
01,
f5,
c8,
fb,
9c,
03,
f2,
0c,
10,
e1,
b8,
dc,
e6,
e4,
17,
03,
cc,
ed,
11,
20,
e4,
0c,
f4,
ed,
0b,
05,
f5,
dd,
cf,
e1,
21,
ef,
06,
34,
26,
03,
16,
0e,
0e,
81,
04,
f6,
f1,
17,
e8,
fb,
e9,
ea,
db,
11,
fe,
eb,
f5,
23,
fc,
f6,
b8,
f1,
f1,
c5,
0e,
0b,
15,
ed,
e9,
f8,
cc,
d1,
17,
ed,
de,
1c,
0e,
03,
ff,
fc,
f7,
dd,
cb,
08,
02,
28,
07,
e5,
37,
02,
01,
0e,
03,
fd,
13,
16,
37,
d0,
05,
0d,
dd,
13,
f8,
f5,
d1,
ce,
34,
1c,
0a,
ee,
f2,
f8,
df,
e1,
28,
c5,
eb,
e5,
00,
22,
e6,
16,
3f,
1e,
c9,
0b,
01,
06,
07,
0e,
dc,
1c,
d9,
07,
15,
c8,
0f,
0a,
13,
19,
02,
22,
2d,
46,
df,
ce,
d6,
ff,
b3,
ec,
b0,
2d,
ed,
12,
38,
02,
27,
22,
e3,
15,
09,
12,
1e,
da,
1c,
f0,
0e,
04,
fc,
d7,
d6,
13,
34,
e0,
f9,
d8,
e1,
04,
f3,
cf,
0b,
e3,
f8,
07,
03,
ea,
c1,
49,
06,
fa,
0f,
e9,
08,
e0,
fc,
19,
c8,
e8,
16,
ea,
0e,
e7,
f6,
71,
b6,
bc,
3c,
de,
fc,
e7,
f3,
06,
27,
f7,
0b,
f2,
2d,
dc,
e7,
f9,
19,
ea,
01,
e9,
f8,
0a,
1c,
0d,
fa,
05,
ed,
e8,
a3,
c4,
e0,
f0,
f1,
f4,
02,
f3,
f5,
0e,
06,
08,
dc,
da,
22,
af,
b6,
17,
d0,
c1,
5c,
1d,
cb,
1d,
f7,
1a,
ea,
f3,
13,
cf,
eb,
11,
fb,
07,
0f,
1c,
76,
23,
42,
c0,
f3,
0d,
f6,
14,
fd,
0f,
3f,
10,
00,
ef,
19,
f7,
f5,
ec,
e9,
f6,
24,
06,
ef,
43,
cf,
ae,
f4,
4d,
e0,
f8,
29,
f2,
f8,
fe,
fb,
f6,
37,
d6,
15,
d2,
e9,
f7,
f0,
d4,
1d,
ed,
d8,
1f,
e3,
15,
d3,
12,
36,
14,
3c,
3a,
f5,
d8,
00,
fa,
f6,
18,
2a,
e3,
0d,
0b,
04,
df,
0d,
c4,
e2,
1d,
da,
cf,
d8,
f9,
d9,
23,
15,
0b,
fa,
f0,
e5,
18,
fb,
f1,
2d,
fd,
e3,
2d,
c4,
df,
2d,
f2,
04,
f4,
de,
23,
30,
c3,
f6,
16,
08,
26,
fd,
c6,
ee,
c9,
01,
e6,
e4,
1c,
f5,
1c,
05,
c8,
3e,
f3,
d4,
fb,
01,
ef,
d8,
04,
47,
84,
45,
1d,
e1,
c5,
f5,
06,
15,
10,
bd,
e3,
f4,
fb,
08,
f1,
13,
e7,
05,
e4,
08,
ff,
f0,
20,
2e,
fc,
d2,
f9,
e1,
bb,
29,
ba,
e3,
f4,
f6,
f9,
e3,
1c,
0f,
e2,
fe,
3b,
17,
db,
d9,
ed,
91,
21,
3c,
db,
05,
0b,
ee,
0c,
26,
d2,
ea,
0b,
de,
f2,
0a,
ec,
02,
1c,
1d,
e0,
f9,
14,
f9,
f8,
ec,
ec,
08,
31,
f5,
04,
29,
09,
e0,
f2,
1f,
cc,
d7,
ec,
ce,
eb,
02,
d3,
1e,
e8,
eb,
03,
f5,
f9,
e6,
34,
06,
f0,
d2,
2b,
d2,
22,
11,
f2,
11,
de,
10,
06,
d7,
28,
04,
e2,
ce,
25,
13,
e1,
af,
db,
13,
11,
d4,
09,
27,
0c,
ed,
c1,
07,
e0,
e6,
0c,
fc,
ec,
eb,
07,
d2,
fe,
ef,
1d,
11,
cf,
0a,
1a,
ce,
30,
30,
f4,
e4,
0e,
e1,
27,
26,
04,
0f,
0e,
ee,
f8,
e4,
02,
ef,
19,
cf,
40,
dd,
08,
ec,
ea,
e7,
bb,
f7,
fc,
cc,
fd,
fe,
d9,
05,
e0,
d9,
fa,
e9,
f9,
f4,
f4,
1b,
e9,
01,
07,
0d,
02,
09,
05,
fe,
17,
f7,
0b,
24,
03,
0e,
f9,
02,
01,
d4,
f4,
f2,
ef,
f6,
00,
ee,
ec,
07,
f5,
14,
ea,
fe,
fe,
fd,
06,
03,
f7,
d6,
ed,
fa,
e8,
04,
02,
10,
d5,
f9,
f1,
fc,
02,
ec,
02,
02,
22,
fc,
02,
ea,
f3,
0b,
d7,
f3,
fd,
f3,
0f,
0c,
0b,
0b,
1b,
fb,
08,
f2,
0a,
f1,
f3,
f0,
f1,
08,
16,
04,
11,
f6,
07,
ed,
fe,
f9,
04,
f4,
e1,
09,
18,
00,
f5,
0d,
fa,
00,
f6,
f8,
02,
d9,
06,
0b,
f9,
02,
f8,
df,
ed,
0d,
01,
15,
ff,
f4,
f1,
f6,
0a,
02,
fc,
12,
f7,
0a,
db,
19,
09,
f4,
01,
fb,
d9,
f4,
fa,
16,
ff,
fb,
10,
f1,
e9,
06,
e4,
16,
08,
24,
f8,
e7,
fd,
f9,
1c,
fe,
03,
e9,
e8,
00,
0e,
e0,
e6,
ed,
0a,
ff,
e3,
f5,
0a,
f4,
02,
07,
f2,
11,
0e,
1c,
f7,
06,
08,
09,
09,
14,
08,
f8,
01,
fe,
08,
18,
11,
e0,
45,
f6,
04,
ee,
fd,
eb,
eb,
f0,
e6,
e5,
13,
06,
fa,
0a,
05,
e2,
ed,
08,
51,
0c,
00,
0c,
0a,
fd,
de,
00,
e9,
c5,
e0,
00,
28,
08,
f7,
2f,
fe,
0d,
e9,
f7,
03,
f7,
f2,
0a,
04,
02,
f2,
d8,
f2,
0a,
18,
1c,
f8,
ef,
f1,
06,
05,
f9,
02,
1b,
f0,
f8,
f0,
e6,
e8,
e7,
fe,
14,
19,
0f,
11,
1a,
11,
04,
df,
fa,
0c,
d0,
f7,
f4,
e3,
ec,
00,
fa,
ff,
05,
08,
fd,
f4,
ee,
f8,
0d,
f2,
f8,
f6,
0e,
f4,
08,
18,
ff,
f6,
e2,
f5,
ff,
e7,
02,
fc,
f6,
10,
fc,
df,
01,
05,
db,
0e,
04,
01,
fc,
20,
df,
16,
fe,
d1,
f6,
05,
47,
11,
ff,
f7,
0f,
fb,
fd,
06,
fe,
1b,
0d,
0c,
cf,
e9,
02,
f1,
04,
fa,
e9,
fe,
0c,
f9,
07,
f7,
14,
ff,
f9,
f0,
00,
e4,
0d,
fc,
fa,
0f,
fd,
01,
16,
ff,
fd,
0c,
fe,
05,
d0,
08,
10,
ef,
03,
e9,
f3,
e9,
00,
0c,
0f,
0b,
21,
10,
03,
2e,
00,
1c,
d0,
18,
0f,
fe,
0e,
11,
06,
ff,
0c,
f7,
04,
16,
ef,
17,
16,
f5,
12,
fd,
cb,
08,
f2,
d4,
f0,
f9,
fb,
09,
fe,
d8,
ee,
f9,
ec,
f5,
f0,
81,
ef,
e9,
31,
00,
f5,
4a,
fa,
ff,
ee,
fa,
01,
d2,
f2,
f2,
06,
ee,
05,
d7,
01,
02,
e2,
f7,
f2,
0b,
0d,
f8,
ff,
ff,
04,
08,
fb,
fb,
fd,
ed,
0f,
0c,
0d,
09,
da,
f1,
11,
ec,
07,
08,
f2,
f7,
fb,
de,
f0,
ee,
fb,
e5,
f7,
fc,
04,
fc,
08,
0d,
f2,
ed,
f1,
fa,
e1,
fb,
05,
04,
f5,
f6,
0a,
ff,
fa,
0e,
ff,
f4,
01,
04,
0d,
d8,
0e,
ec,
fc,
16,
f6,
09,
00,
f8,
f9,
f6,
17,
08,
20,
06,
d0,
00,
fc,
f5,
f6,
0b,
14,
da,
ff,
f7,
fc,
f3,
01,
f7,
f9,
2a,
07,
f3,
08,
f3,
07,
ef,
05,
f6,
1f,
e8,
e2,
26,
de,
e7,
e9,
e5,
01,
e5,
f8,
f6,
ec,
06,
f2,
fd,
fc,
f3,
00,
ef,
05,
14,
05,
fb,
0b,
fb,
06,
e4,
ed,
07,
3f,
2d,
09,
0c,
03,
01,
e9,
06,
fe,
f5,
12,
fb,
ec,
fa,
0c,
2d,
15,
fd,
28,
0b,
1b,
f7,
27,
eb,
26,
ee,
19,
fe,
d3,
19,
fa,
0e,
0a,
e1,
e7,
fa,
28,
09,
06,
43,
fe,
07,
c1,
14,
01,
be,
29,
13,
19,
de,
0c,
fe,
d9,
07,
c7,
2b,
ff,
f5,
23,
fc,
30,
ff,
c9,
34,
d6,
00,
be,
15,
05,
f1,
0b,
0a,
cd,
ff,
ff,
e3,
00,
03,
e9,
43,
0a,
39,
22,
eb,
d7,
d9,
ff,
e5,
23,
07,
1c,
cb,
02,
e8,
15,
00,
0b,
ea,
e6,
3e,
f8,
01,
12,
10,
0b,
e4,
0b,
f0,
00,
f9,
05,
1a,
0c,
f8,
d3,
13,
fb,
33,
0d,
ef,
09,
e6,
fc,
c5,
01,
ff,
c3,
fd,
1c,
e2,
df,
01,
18,
ef,
dd,
32,
de,
19,
0b,
d1,
23,
02,
14,
f4,
3e,
25,
0f,
22,
0a,
0c,
07,
f9,
df,
07,
eb,
fe,
f0,
fc,
02,
03,
14,
0d,
f0,
e1,
01,
d3,
e9,
ed,
27,
04,
e2,
2d,
f5,
03,
04,
00,
fe,
f2,
ec,
22,
e6,
1f,
d5,
0b,
1a,
f2,
f0,
ed,
04,
81,
b7,
10,
e7,
d7,
0a,
ee,
0d,
0b,
20,
f2,
fa,
0a,
f2,
f7,
10,
14,
e9,
10,
f6,
eb,
15,
ee,
15,
12,
f5,
f3,
f2,
d2,
fd,
f3,
07,
0c,
f0,
f1,
0f,
18,
14,
11,
00,
00,
ed,
01,
fd,
08,
bc,
07,
1a,
08,
fe,
0e,
d4,
2a,
03,
c7,
08,
09,
fa,
d5,
03,
19,
10,
21,
ef,
f4,
09,
f1,
19,
09,
f0,
15,
ee,
0d,
e2,
e0,
09,
0b,
f6,
08,
f3,
09,
c7,
18,
fe,
0a,
00,
d4,
0b,
1e,
d1,
e8,
ff,
08,
12,
e9,
f7,
e4,
42,
02,
02,
10,
f3,
0f,
e5,
1f,
f9,
e9,
e8,
ef,
0e,
ed,
e2,
11,
0c,
ea,
28,
ee,
27,
10,
05,
1a,
08,
fe,
13,
fe,
df,
d4,
e0,
fe,
c9,
ef,
f2,
00,
da,
0e,
e8,
df,
11,
19,
0b,
df,
0c,
38,
0d,
f9,
06,
05,
ce,
dd,
01,
fb,
04,
f2,
2f,
d6,
e8,
0e,
0c,
ef,
03,
e3,
fc,
e8,
ce,
11,
1a,
08,
12,
de,
ed,
f0,
21,
f9,
f2,
e4,
ff,
ff,
ea,
14,
fa,
01,
0e,
26,
47,
2a,
03,
f5,
f9,
fc,
f7,
fd,
1c,
e4,
04,
1b,
fd,
15,
f0,
d2,
12,
fe,
05,
f0,
ea,
06,
31,
ed,
c4,
02,
ff,
f9,
0b,
0b,
09,
bd,
01,
eb,
0c,
fa,
f8,
0b,
05,
1a,
ae,
f7,
84,
83,
16,
fe,
f0,
08,
10,
ef,
f4,
48,
e3,
0e,
ea,
09,
01,
12,
fe,
13,
03,
04,
03,
ea,
fd,
09,
fa,
05,
05,
e8,
fe,
0f,
e8,
05,
ef,
2e,
25,
1e,
d5,
df,
f5,
dc,
f0,
fe,
f6,
f9,
fa,
fb,
dc,
16,
42,
c7,
06,
f3,
ea,
08,
fa,
15,
cf,
de,
0b,
07,
f7,
eb,
e9,
bc,
05,
d9,
1c,
eb,
f7,
e6,
27,
fa,
f3,
09,
0b,
fc,
e7,
f9,
0e,
05,
0a,
0b,
0e,
fe,
f1,
2c,
18,
03,
f4,
d2,
15,
2d,
15,
29,
f3,
03,
e1,
0c,
e8,
e4,
ac,
f7,
13,
04,
f2,
f0,
ff,
09,
e3,
07,
08,
e7,
ef,
15,
05,
d6,
de,
cb,
dc,
08,
20,
19,
22,
e8,
fc,
fb,
04,
07,
03,
04,
e8,
f8,
f8,
d5,
f0,
c1,
17,
f2,
0f,
15,
10,
c6,
dc,
19,
c7,
f8,
f9,
fb,
0e,
20,
c3,
05,
e2,
de,
18,
da,
14,
06,
fd,
da,
f2,
ef,
c4,
0d,
04,
d7,
e8,
05,
f5,
e6,
19,
33,
16,
06,
07,
0c,
f4,
13,
f9,
08,
1a,
00,
19,
f8,
fb,
9b,
d0,
fe,
e3,
dc,
e2,
3c,
04,
fd,
f8,
20,
0d,
d7,
dd,
02,
0c,
11,
fe,
dc,
4b,
16,
d0,
4b,
01,
e4,
02,
eb,
13,
f8,
cf,
13,
ff,
ef,
df,
14,
0f,
09,
c8,
14,
13,
f2,
e7,
2e,
e1,
15,
e3,
f8,
fe,
40,
25,
d8,
08,
01,
fe,
f6,
ec,
ef,
13,
7e,
dd,
1e,
17,
cf,
15,
18,
e7,
53,
eb,
32,
c0,
0f,
f7,
45,
01,
00,
03,
36,
24,
0c,
ee,
ef,
1d,
42,
ff,
19,
f7,
fa,
02,
f5,
fc,
f7,
ef,
0a,
03,
f0,
fb,
f4,
02,
06,
f2,
12,
e5,
b4,
be,
fd,
16,
12,
f8,
1a,
d3,
e2,
e8,
81,
ff,
0b,
f6,
16,
f9,
cd,
d5,
22,
e5,
f7,
31,
1a,
f2,
f2,
07,
f7,
29,
e9,
e9,
fc,
e3,
eb,
f8,
da,
f8,
f5,
d4,
ee,
ed,
0a,
0d,
e3,
c9,
08,
ef,
14,
25,
fe,
36,
fd,
df,
b5,
d6,
1a,
b7,
ed,
fe,
e9,
f4,
0c,
42,
40,
c4,
d9,
06,
f9,
bd,
cd,
e2,
10,
13,
13,
e0,
0d,
1e,
f9,
fd,
f6,
de,
e8,
1c,
0b,
1b,
c9,
2e,
17,
20,
15,
1d,
06,
b3,
f5,
1a,
17,
0b,
05,
dc,
0e,
e0,
bf,
de,
e4,
ff,
fd,
2d,
e4,
e8,
df,
e3,
12,
06,
e2,
19,
12,
38,
02,
b7,
1e,
00,
d9,
04,
fa,
fa,
17,
09,
fc,
d8,
fd,
37,
14,
fe,
2b,
ed,
19,
06,
f0,
ee,
ff,
10,
02,
33,
11,
2e,
0e,
a7,
1b,
ec,
0f,
0d,
e3,
e3,
e2,
26,
fa,
dd,
30,
f3,
f4,
f2,
0c,
0c,
1b,
24,
d9,
1b,
30,
ed,
04,
df,
fa,
04,
ce,
f7,
1a,
05,
03,
f2,
c5,
f2,
eb,
c2,
ef,
10,
1c,
19,
ec,
cb,
03,
98,
c8,
cf,
ed,
30,
16,
1e,
40,
e4,
1a,
c9,
f9,
0e,
f9,
08,
fb,
0d,
f4,
ea,
d5,
21,
ed,
c1,
0e,
12,
16,
0e,
24,
ee,
e3,
f9,
ee,
e9,
09,
18,
d1,
3c,
ee,
0e,
17,
0b,
21,
06,
1a,
2e,
f3,
1e,
1e,
ed,
ec,
ee,
0c,
a2,
19,
25,
e5,
71,
31,
24,
11,
f4,
12,
fb,
e1,
06,
28,
fb,
13,
fe,
0a,
0b,
d9,
d3,
0d,
0c,
f8,
e5,
e8,
22,
18,
07,
e0,
22,
22,
dc,
ea,
f3,
ef,
ff,
1f,
1c,
fa,
29,
f7,
fe,
ef,
f2,
fe,
fd,
c2,
26,
e4,
06,
dd,
f3,
e6,
f0,
00,
e9,
11,
0b,
ef,
eb,
f0,
eb,
01,
04,
16,
15,
dd,
08,
f4,
e9,
ba,
13,
54,
c7,
3a,
3a,
13,
19,
1c,
04,
b9,
cf,
05,
81,
c7,
de,
df,
25,
f6,
16,
f7,
fb,
03,
e1,
10,
f7,
0a,
e7,
3a,
24,
14,
1c,
ef,
18,
28,
10,
0f,
1d,
ed,
d2,
d0,
04,
da,
01,
f6,
ef,
ec,
12,
dd,
f5,
09,
17,
ff,
e4,
0d,
20,
18,
ad,
c7,
2f,
ff,
cc,
f9,
09,
dd,
11,
0f,
32,
1b,
1d,
00,
f3,
4d,
0a,
0c,
fd,
f9,
ca,
dc,
3f,
0b,
01,
05,
01,
cf,
dd,
39,
e9,
ed,
02,
03,
5b,
1c,
f0,
33,
d9,
04,
07,
fa,
10,
29,
e2,
1e,
d2,
e8,
ed,
ff,
0b,
19,
0d,
07,
e2,
c1,
43,
0a,
1d,
0b,
1d,
fb,
16,
e2,
14,
0b,
18,
fc,
10,
2a,
4a,
1c,
fc,
b4,
ea,
f5,
ec,
12,
00,
25,
18,
db,
d0,
fa,
eb,
dd,
f8,
07,
06,
1f,
55,
49,
57,
03,
f3,
00,
da,
51,
e0,
33,
4e,
ca,
1b,
f0,
f6,
ec,
d3,
f8,
e0,
c3,
fc,
fb,
f0,
f6,
24,
09,
00,
0a,
4a,
15,
ef,
00,
07,
f4,
18,
f7,
f1,
c1,
ea,
10,
f9,
25,
fd,
e4,
06,
20,
02,
c6,
11,
31,
f4,
e7,
d4,
f8,
0b,
b2,
02,
ff,
f4,
e7,
03,
f7,
08,
10,
fd,
e6,
08,
e2,
ee,
08,
dc,
0e,
e8,
81,
d4,
0a,
c2,
1f,
1d,
f5,
e8,
e8,
c0,
09,
00,
e0,
db,
e5,
e9,
04,
f0,
07,
2e,
0b,
dc,
13,
f7,
00,
05,
f7,
f9,
f1,
f4,
ed,
1c,
ef,
fb,
ed,
05,
3c,
fa,
e8,
ed,
14,
f3,
e2,
e5,
f7,
4a,
29,
10,
da,
f0,
f9,
df,
12,
df,
fd,
25,
df,
d9,
0c,
04,
f8,
fa,
e2,
01,
f4,
fd,
fa,
e1,
fa,
f9,
04,
d5,
0e,
e8,
f4,
ea,
0e,
18,
22,
fe,
fa,
f9,
0c,
04,
f9,
fd,
e9,
13,
e7,
fb,
04,
0c,
15,
e9,
16,
f1,
ff,
16,
fc,
b6,
cf,
1f,
0e,
39,
10,
3c,
fe,
1f,
22,
0f,
fa,
e3,
d0,
02,
f1,
15,
f8,
f7,
02,
14,
fc,
10,
f6,
0e,
0a,
fc,
0c,
ff,
fb,
07,
26,
f9,
f1,
fd,
0e,
ff,
0b,
f3,
f0,
f2,
0d,
f3,
ed,
fd,
ff,
0e,
00,
0a,
16,
0d,
05,
0d,
19,
f0,
e2,
ed,
dd,
0e,
