memory_initialization_radix=16;
memory_initialization_vector=
fd,
fd,
e1,
00,
b9,
0d,
ff,
f3,
1b,
fe,
f2,
1f,
0d,
fb,
fc,
0d,
2a,
e5,
11,
06,
0b,
fd,
f7,
e7,
fc,
22,
ed,
11,
ef,
db,
0d,
13,
06,
ec,
f5,
db,
fa,
ea,
08,
00,
13,
fc,
ee,
14,
07,
f9,
ef,
04,
fd,
d1,
02,
04,
05,
09,
fd,
ff,
e9,
15,
3a,
fb,
fc,
39,
ef,
f7,
ca,
07,
20,
d9,
14,
f5,
09,
df,
0b,
07,
f4,
fc,
1f,
81,
ee,
c3,
11,
f3,
21,
03,
13,
1b,
ff,
fa,
ee,
f4,
fd,
1d,
fd,
00,
cc,
22,
06,
e4,
03,
e8,
22,
f9,
01,
e6,
00,
e2,
0a,
ef,
f6,
dd,
16,
11,
f8,
07,
09,
0a,
f6,
08,
10,
e7,
0a,
39,
f6,
ff,
42,
e4,
ff,
01,
ef,
fa,
1c,
ce,
0f,
e2,
fd,
0a,
ff,
01,
f6,
fb,
1b,
05,
04,
09,
01,
0f,
17,
fa,
d9,
c8,
0f,
f7,
f8,
06,
12,
e9,
06,
f7,
12,
ef,
16,
0c,
01,
20,
16,
f2,
ff,
0e,
05,
14,
f7,
05,
0f,
ee,
14,
f1,
10,
08,
05,
f3,
fb,
e3,
ef,
00,
dd,
01,
fd,
df,
2e,
f6,
06,
f8,
09,
f2,
d8,
05,
d3,
ff,
f4,
0c,
f5,
09,
da,
0e,
ff,
ef,
00,
fa,
fa,
f2,
e7,
e6,
fc,
03,
fc,
0c,
fb,
0c,
ed,
03,
06,
e6,
02,
f7,
fb,
f7,
f7,
02,
e7,
1b,
20,
fe,
f0,
fe,
04,
0c,
0b,
fd,
e2,
0f,
fd,
03,
0c,
f8,
fa,
fc,
07,
15,
ed,
f9,
e0,
f7,
06,
e9,
f9,
17,
f5,
f2,
f9,
ed,
1e,
0b,
e6,
2c,
0c,
f6,
f7,
f8,
f5,
09,
03,
3e,
e9,
fb,
f3,
e4,
02,
0c,
22,
01,
de,
fd,
00,
23,
15,
00,
1e,
f4,
fb,
18,
01,
14,
ff,
fc,
ef,
e6,
24,
fa,
ea,
f3,
11,
a9,
f7,
f2,
03,
29,
03,
02,
16,
fa,
51,
1c,
05,
dd,
f2,
00,
11,
0f,
0c,
20,
dd,
07,
f5,
2c,
fe,
0b,
f5,
02,
af,
fb,
f8,
08,
fe,
f9,
0f,
f8,
d1,
ef,
ec,
e9,
10,
04,
f9,
18,
16,
07,
00,
f8,
fe,
14,
02,
fc,
34,
fb,
0d,
c0,
e3,
f4,
ef,
0b,
01,
f2,
f9,
0b,
2c,
49,
06,
d3,
aa,
0c,
fb,
fc,
16,
a0,
d0,
f6,
56,
15,
08,
f9,
fd,
f4,
26,
eb,
12,
f8,
f8,
0b,
f7,
0e,
23,
e4,
e6,
f0,
18,
0e,
06,
0a,
fa,
f8,
a8,
f1,
ef,
09,
18,
fe,
f4,
f3,
08,
45,
0c,
f3,
08,
de,
f7,
fe,
fe,
fe,
81,
e1,
fb,
37,
21,
0f,
16,
12,
16,
2b,
e0,
0a,
f7,
f8,
17,
0e,
fb,
0f,
c5,
b7,
05,
02,
02,
06,
fb,
ff,
07,
fd,
f0,
00,
f3,
ef,
fd,
09,
f9,
16,
19,
2e,
f3,
12,
fb,
17,
ff,
08,
fe,
f1,
e0,
12,
d2,
f7,
04,
f7,
09,
fa,
02,
e0,
00,
db,
f6,
f1,
01,
f8,
fd,
e3,
29,
05,
bf,
df,
f6,
ee,
f4,
fc,
f0,
f9,
f7,
e2,
09,
f7,
f1,
0b,
0b,
40,
1c,
00,
ee,
f8,
fb,
f2,
05,
0e,
d0,
09,
06,
03,
14,
00,
08,
03,
f8,
d8,
eb,
fe,
16,
4f,
fd,
f8,
01,
fc,
fe,
f5,
13,
10,
24,
fa,
1c,
f8,
da,
a7,
13,
05,
07,
04,
07,
1b,
14,
0a,
10,
ff,
24,
e8,
f8,
f8,
e3,
f1,
0c,
f2,
06,
01,
2a,
02,
09,
e5,
00,
f3,
2b,
16,
11,
15,
0f,
fc,
23,
0a,
0b,
dd,
f2,
12,
17,
0a,
00,
e6,
ea,
11,
18,
0b,
f0,
1a,
f6,
01,
fb,
0b,
05,
24,
db,
e4,
dd,
ec,
11,
14,
16,
0b,
1c,
f4,
f7,
f3,
ff,
f0,
e6,
ff,
f1,
10,
fb,
07,
e2,
f3,
eb,
dd,
f9,
ff,
f8,
12,
15,
0a,
0e,
09,
02,
f7,
01,
eb,
1e,
02,
16,
18,
fb,
01,
16,
0b,
38,
e3,
05,
ec,
e4,
f8,
19,
12,
19,
81,
f0,
dd,
f9,
e2,
0b,
f8,
0f,
19,
46,
08,
c4,
d6,
24,
13,
03,
ed,
1e,
de,
11,
d7,
e0,
09,
07,
f1,
f5,
ee,
e2,
18,
01,
59,
d0,
fa,
02,
08,
fa,
f7,
0b,
f3,
fb,
fa,
0e,
fa,
f7,
0b,
fa,
e8,
f9,
17,
09,
eb,
05,
f7,
01,
e2,
ff,
14,
1e,
16,
01,
05,
05,
03,
c8,
c7,
d6,
00,
0b,
10,
06,
c9,
c9,
2e,
2a,
12,
cc,
16,
03,
06,
02,
ed,
d4,
e7,
f0,
07,
1b,
15,
13,
38,
22,
fd,
d9,
d3,
de,
ef,
09,
28,
19,
1f,
d8,
cf,
f7,
c2,
fa,
13,
2b,
1d,
ef,
d9,
08,
15,
cf,
0b,
08,
0e,
1d,
f3,
cf,
02,
04,
19,
07,
05,
01,
02,
03,
11,
bb,
f2,
cf,
0d,
06,
0c,
05,
f9,
f6,
f7,
fb,
04,
ed,
ed,
fc,
fe,
24,
f4,
0b,
eb,
0f,
03,
0b,
ed,
f0,
08,
28,
25,
01,
13,
e4,
0c,
08,
02,
03,
df,
dd,
01,
f1,
da,
ff,
06,
d6,
ef,
ec,
fe,
09,
25,
1f,
14,
27,
03,
11,
d9,
8e,
ef,
bc,
06,
08,
ff,
09,
00,
0e,
f3,
13,
10,
f5,
0c,
0a,
0e,
10,
cd,
ec,
fc,
19,
fc,
04,
e8,
de,
26,
e7,
cf,
18,
0b,
e4,
ec,
10,
01,
17,
af,
e8,
ff,
49,
eb,
fa,
12,
fe,
e9,
91,
05,
f6,
e0,
f4,
00,
f7,
0d,
f5,
06,
02,
17,
5c,
0c,
0e,
13,
f9,
fc,
02,
fc,
0b,
0b,
fc,
0f,
fb,
fb,
04,
06,
06,
05,
38,
03,
f5,
03,
06,
ed,
27,
fd,
09,
f8,
ff,
0a,
fd,
01,
07,
da,
03,
08,
d8,
ff,
f0,
10,
15,
f0,
45,
0a,
f7,
40,
22,
fd,
f2,
1c,
06,
18,
14,
f5,
1a,
0e,
10,
18,
f9,
0b,
fb,
06,
f6,
ca,
e4,
fc,
fc,
fd,
10,
05,
fa,
fe,
cf,
01,
12,
09,
fb,
0f,
db,
08,
f3,
ed,
07,
07,
02,
f7,
0f,
f8,
f3,
0d,
02,
01,
0d,
06,
fb,
f5,
01,
05,
00,
08,
11,
f2,
10,
03,
0a,
f6,
06,
f3,
ef,
17,
01,
03,
fe,
09,
e5,
0f,
14,
d6,
f0,
05,
e8,
11,
fb,
81,
02,
0d,
f8,
05,
09,
3c,
02,
09,
ed,
de,
07,
ef,
f8,
00,
2a,
04,
f9,
1f,
09,
fb,
f1,
0a,
09,
ea,
fe,
03,
0d,
ed,
03,
f0,
12,
f5,
06,
15,
07,
07,
fc,
06,
1f,
0d,
06,
08,
12,
0f,
eb,
ef,
fb,
df,
fa,
06,
1d,
0a,
fa,
26,
ff,
fd,
fe,
e9,
10,
06,
00,
02,
e9,
03,
f6,
10,
fc,
ff,
0e,
0b,
fe,
1f,
0e,
15,
16,
f9,
fc,
01,
f8,
03,
24,
ed,
f4,
06,
e6,
0c,
17,
01,
06,
20,
ce,
ff,
08,
f1,
0a,
01,
f9,
0d,
e3,
f8,
f4,
f3,
f4,
02,
1e,
00,
03,
29,
03,
0f,
20,
12,
f9,
1a,
f8,
e3,
db,
06,
f1,
c6,
08,
0a,
12,
fc,
0e,
08,
f4,
f9,
da,
f1,
01,
ee,
fd,
0a,
d0,
ef,
06,
f8,
05,
fa,
fb,
f9,
00,
e3,
04,
ef,
34,
fa,
05,
dc,
02,
fd,
48,
ef,
f6,
50,
e2,
e9,
00,
ed,
d0,
44,
f0,
fc,
d9,
df,
00,
f2,
fb,
1f,
c9,
3a,
07,
fa,
f6,
0a,
d7,
10,
0b,
ca,
f6,
08,
ed,
ed,
f4,
fd,
05,
1a,
1b,
f2,
f9,
f7,
ea,
f9,
f0,
ff,
da,
f5,
f8,
03,
ff,
ff,
f8,
19,
17,
e2,
e9,
1a,
0d,
aa,
db,
f3,
16,
16,
06,
e6,
ff,
2b,
ef,
10,
02,
09,
f6,
03,
8d,
f6,
15,
3b,
14,
0f,
12,
04,
22,
f4,
fe,
2d,
d6,
fb,
02,
05,
0b,
f5,
e1,
f3,
03,
f9,
08,
16,
0a,
f6,
2f,
3f,
08,
1d,
13,
0b,
ff,
fe,
04,
e8,
23,
ff,
03,
e1,
f5,
03,
e4,
00,
ee,
81,
0c,
f4,
fa,
f3,
e7,
02,
03,
e2,
bd,
20,
fb,
c7,
f9,
07,
f5,
fa,
d6,
d9,
44,
f0,
db,
01,
08,
fe,
f2,
09,
db,
07,
ff,
e9,
e5,
08,
f8,
02,
e9,
35,
08,
0b,
ef,
fa,
0b,
f7,
fc,
f8,
eb,
0a,
ee,
f4,
07,
04,
16,
f2,
f8,
b5,
0f,
1a,
dd,
01,
f7,
fe,
f6,
09,
c8,
f1,
0a,
f2,
ff,
fd,
0f,
07,
f7,
0f,
d9,
0f,
57,
f6,
00,
f7,
fb,
e9,
18,
14,
fe,
33,
e5,
04,
08,
e6,
e6,
ee,
16,
07,
c5,
17,
f2,
05,
fa,
0d,
e8,
f1,
1e,
be,
0b,
08,
fe,
ec,
fe,
05,
06,
04,
09,
fe,
fe,
00,
fe,
06,
02,
fa,
ff,
14,
fe,
ff,
f4,
10,
06,
d6,
ef,
1a,
00,
cb,
15,
0a,
f4,
2a,
c0,
fc,
fc,
3a,
05,
0c,
ee,
fc,
07,
3a,
ea,
09,
ed,
08,
eb,
f3,
e5,
ef,
ad,
da,
09,
f0,
e7,
0b,
0f,
06,
04,
ee,
19,
14,
d8,
1c,
e3,
1a,
fe,
10,
bf,
e9,
ea,
ea,
08,
1a,
08,
26,
14,
40,
ed,
ef,
81,
ca,
15,
21,
f5,
09,
ff,
13,
13,
ed,
03,
ff,
1d,
dc,
d6,
bb,
0e,
fe,
e4,
0a,
ec,
0e,
04,
de,
fc,
f1,
17,
0a,
0f,
0f,
24,
ed,
45,
af,
ea,
10,
3b,
ea,
fc,
ef,
ff,
1e,
2b,
4c,
04,
88,
de,
01,
0f,
03,
02,
0a,
22,
19,
e5,
fb,
08,
04,
ed,
02,
2e,
0b,
f2,
0f,
a7,
04,
0e,
11,
f4,
d4,
19,
e6,
ff,
d5,
fe,
08,
0c,
00,
e7,
14,
07,
09,
fb,
0d,
fd,
0f,
f1,
2e,
0a,
0f,
fb,
e9,
03,
f1,
fa,
e2,
05,
16,
07,
09,
dc,
df,
24,
0e,
00,
18,
11,
fb,
9a,
d3,
0d,
f2,
07,
ff,
ee,
45,
10,
52,
d7,
ea,
ef,
18,
21,
b3,
ce,
fd,
fd,
eb,
ff,
0a,
01,
e5,
2b,
e6,
ff,
38,
c8,
10,
11,
06,
e5,
49,
fd,
ec,
36,
ef,
e8,
09,
ec,
0a,
31,
d9,
fd,
0a,
08,
0c,
34,
20,
04,
21,
ff,
eb,
ed,
08,
fc,
f9,
1f,
fb,
32,
e0,
0b,
0e,
36,
ff,
09,
03,
04,
23,
1a,
f1,
f5,
20,
03,
fa,
f5,
ff,
34,
d2,
00,
ec,
16,
f3,
df,
f4,
26,
29,
20,
10,
19,
f1,
ef,
f6,
02,
15,
2a,
dc,
f0,
ef,
2f,
ff,
02,
0f,
07,
1b,
d2,
08,
25,
1a,
f9,
ee,
e8,
09,
1b,
e2,
fa,
32,
1e,
17,
31,
fa,
d5,
fd,
29,
1c,
c9,
04,
15,
07,
07,
c9,
b0,
ea,
f9,
7b,
28,
09,
02,
10,
eb,
d7,
03,
07,
f0,
e5,
ff,
00,
df,
0c,
ff,
e1,
0e,
18,
2a,
0a,
02,
2d,
f1,
d5,
48,
eb,
b8,
03,
1c,
41,
f2,
05,
c4,
26,
00,
f0,
18,
df,
49,
37,
1c,
f0,
4d,
15,
ea,
39,
0a,
d5,
05,
29,
20,
df,
0e,
1a,
28,
eb,
c7,
15,
1b,
01,
07,
18,
1c,
08,
d2,
23,
0e,
e6,
d9,
33,
f8,
ff,
f3,
18,
00,
00,
f7,
3d,
f4,
14,
e8,
0e,
f5,
b6,
f9,
25,
1d,
b8,
04,
24,
06,
fe,
a2,
e6,
0b,
d8,
1e,
0d,
fb,
01,
00,
e1,
0b,
3e,
7f,
03,
fc,
09,
11,
f9,
04,
fb,
f7,
0c,
e3,
11,
28,
1a,
00,
d9,
04,
fc,
f3,
fd,
f7,
06,
01,
c9,
01,
e8,
ea,
1d,
00,
0d,
01,
0a,
ef,
fa,
1a,
18,
d3,
1d,
ec,
ce,
26,
06,
ce,
f6,
12,
18,
92,
e2,
f9,
ca,
ec,
f9,
05,
00,
48,
e6,
09,
00,
01,
35,
2f,
17,
ff,
89,
11,
fc,
02,
16,
2c,
f0,
f2,
22,
d4,
fa,
09,
08,
09,
f4,
27,
fe,
00,
1d,
c5,
16,
05,
02,
2a,
24,
3c,
e9,
18,
18,
0b,
0f,
0b,
f0,
f3,
d6,
18,
ec,
a8,
25,
1a,
41,
d2,
f2,
ec,
e6,
dc,
23,
f3,
fd,
e1,
f7,
df,
e1,
26,
08,
ef,
07,
0f,
ff,
1b,
f8,
f1,
1a,
e1,
f7,
ef,
07,
0d,
00,
ef,
11,
19,
d4,
e1,
d6,
09,
19,
12,
08,
e1,
fd,
eb,
f6,
f5,
0b,
f9,
03,
09,
03,
f7,
eb,
3f,
ff,
01,
fa,
f7,
2c,
16,
fa,
06,
34,
e1,
c8,
e7,
21,
dd,
eb,
0d,
29,
ec,
06,
2a,
10,
07,
de,
f7,
21,
fd,
eb,
15,
02,
e8,
db,
f9,
08,
4c,
ec,
24,
05,
12,
0b,
0a,
20,
0e,
1f,
fb,
1b,
fd,
fd,
de,
02,
ed,
cc,
27,
f5,
02,
ed,
fd,
e8,
03,
0b,
02,
09,
f4,
fc,
04,
21,
f8,
fc,
fb,
fa,
f4,
e9,
e5,
f3,
1f,
fc,
02,
05,
00,
fe,
1a,
03,
03,
e9,
0a,
06,
fb,
09,
03,
1b,
f4,
01,
ed,
f7,
f3,
fb,
f8,
0c,
15,
08,
fb,
fd,
fd,
03,
f2,
02,
f2,
08,
f9,
ff,
02,
fb,
fc,
07,
08,
fc,
1f,
e1,
fa,
ff,
13,
fc,
01,
ff,
0b,
e9,
eb,
02,
fd,
0a,
ff,
f7,
fd,
f9,
06,
07,
ff,
ce,
06,
06,
f6,
01,
0f,
e3,
f0,
0d,
02,
0b,
01,
f5,
fe,
07,
f3,
03,
03,
f7,
f0,
01,
08,
07,
0c,
f5,
f6,
f9,
13,
01,
0e,
fe,
ff,
05,
f7,
f8,
f8,
ed,
09,
fd,
f3,
fe,
04,
fd,
f0,
f4,
eb,
fc,
f8,
15,
04,
08,
b2,
f4,
fb,
eb,
fe,
10,
fb,
01,
00,
ea,
f8,
f9,
fb,
0c,
09,
15,
f5,
0d,
81,
12,
05,
fd,
07,
00,
04,
07,
09,
fd,
ef,
05,
f5,
07,
07,
14,
f9,
15,
ba,
fe,
fe,
04,
fc,
04,
0c,
07,
04,
d2,
07,
08,
f0,
f5,
02,
06,
04,
08,
e1,
06,
00,
f5,
e5,
fb,
0a,
02,
fe,
de,
fe,
08,
0f,
01,
fc,
fe,
fd,
09,
db,
0f,
ef,
06,
04,
fc,
08,
fd,
01,
0a,
fb,
fd,
fd,
07,
fc,
fe,
03,
16,
d9,
08,
fe,
f4,
02,
02,
ff,
00,
fe,
ee,
f4,
05,
04,
0d,
00,
fa,
01,
fd,
09,
0d,
05,
12,
0c,
06,
02,
fa,
0b,
d5,
f6,
00,
01,
02,
02,
0a,
09,
11,
f9,
f2,
0f,
f9,
03,
fd,
f9,
06,
fa,
1f,
e5,
0c,
fb,
fe,
09,
ff,
fd,
fd,
e5,
0d,
fd,
f9,
0d,
05,
11,
ff,
04,
f7,
ec,
f8,
fe,
01,
eb,
1d,
0b,
0e,
36,
d2,
f4,
e8,
e0,
fe,
ed,
13,
1c,
d2,
10,
fe,
bc,
fc,
06,
0d,
04,
e4,
09,
02,
fb,
fd,
0b,
15,
26,
04,
ee,
f4,
f7,
f5,
d6,
f7,
0b,
03,
06,
fa,
14,
f6,
f8,
10,
06,
fa,
20,
14,
f3,
1e,
ef,
08,
e1,
08,
08,
e2,
f0,
17,
3d,
07,
ef,
ea,
0d,
09,
18,
d9,
09,
a8,
17,
00,
f7,
0c,
fc,
0a,
28,
f3,
59,
e3,
ef,
0b,
d4,
f6,
2f,
f2,
1e,
ce,
1d,
ec,
e3,
f2,
00,
f1,
f5,
0f,
f0,
f1,
fb,
04,
0a,
ff,
04,
ed,
20,
fb,
dd,
00,
19,
f2,
fd,
f2,
03,
03,
fe,
2e,
23,
1c,
12,
15,
dd,
e6,
e8,
5c,
b8,
f7,
f5,
fd,
0b,
e4,
10,
0c,
d8,
e9,
07,
f9,
da,
f9,
3b,
f4,
12,
8b,
f3,
f8,
f5,
f9,
ec,
f3,
05,
ea,
ce,
fd,
f6,
1e,
ee,
f3,
ec,
e7,
f5,
1b,
b7,
f6,
e5,
ff,
ee,
15,
09,
f2,
c4,
31,
fd,
f5,
34,
20,
ec,
f3,
e6,
ee,
f8,
f4,
da,
d7,
1a,
f4,
ff,
19,
2c,
81,
06,
04,
eb,
f5,
fe,
1c,
04,
25,
e1,
0b,
1b,
af,
07,
0a,
18,
16,
1c,
f9,
12,
ed,
ef,
ed,
ce,
fa,
f3,
d8,
ea,
23,
df,
06,
eb,
04,
00,
f9,
f8,
f3,
f2,
f3,
e0,
ed,
15,
f3,
f9,
e2,
24,
15,
22,
e7,
ff,
fb,
ea,
ff,
fd,
0f,
e1,
fe,
09,
f3,
f1,
1e,
f6,
1f,
e6,
f6,
f6,
d6,
07,
03,
f6,
cb,
01,
e0,
ed,
fd,
fd,
0e,
f7,
f6,
e9,
d6,
e7,
f8,
fe,
f1,
ed,
1d,
fd,
fb,
92,
fe,
0c,
0e,
de,
0c,
50,
d9,
1d,
12,
ff,
f2,
1a,
e0,
2b,
ef,
fd,
d0,
e0,
db,
f3,
08,
0f,
1d,
cf,
ea,
30,
d2,
fc,
e5,
ee,
f7,
1b,
eb,
15,
ee,
9c,
eb,
fd,
ec,
1e,
fb,
0c,
f2,
ab,
01,
11,
23,
f1,
f2,
fe,
e3,
fe,
04,
dd,
ee,
fa,
01,
f3,
07,
e7,
f9,
ed,
2f,
0b,
e8,
e4,
07,
12,
f7,
16,
30,
02,
d4,
e6,
0d,
22,
ef,
c4,
01,
1a,
0f,
04,
dd,
da,
07,
00,
1e,
f3,
9e,
15,
34,
06,
ea,
03,
f3,
df,
e7,
0c,
2c,
18,
ea,
0e,
0a,
ec,
18,
06,
d7,
0c,
ed,
0f,
00,
e9,
eb,
04,
03,
16,
f2,
e4,
fb,
ca,
f8,
ea,
c2,
f3,
02,
c5,
0c,
ed,
fc,
ef,
ef,
fc,
f1,
d1,
4f,
cc,
ef,
d7,
de,
18,
d5,
f4,
d0,
51,
13,
11,
0d,
fd,
d6,
3d,
ec,
04,
e6,
f7,
fb,
03,
f8,
da,
c8,
e5,
00,
d6,
2f,
15,
f0,
ee,
22,
9b,
23,
26,
2d,
00,
f0,
f0,
1c,
cb,
e5,
05,
eb,
e0,
e8,
02,
02,
fc,
e1,
1c,
fe,
d9,
fb,
de,
f6,
0d,
fa,
f1,
e9,
f9,
ea,
e9,
cc,
f6,
07,
e5,
12,
de,
03,
08,
e4,
f9,
ef,
2f,
f8,
df,
03,
01,
4e,
d8,
13,
01,
0a,
fc,
32,
29,
09,
f0,
f5,
ec,
1d,
02,
02,
20,
03,
1d,
01,
d8,
f3,
0e,
08,
f7,
1f,
e3,
0d,
ec,
d6,
26,
fb,
04,
fd,
ee,
15,
ec,
04,
50,
1d,
fe,
ef,
fd,
0c,
98,
f2,
0d,
13,
ff,
10,
01,
f8,
08,
e4,
fb,
d9,
ef,
08,
f1,
f4,
05,
0e,
df,
fb,
c7,
7f,
f7,
02,
1b,
06,
08,
fd,
15,
0f,
13,
f6,
ee,
09,
17,
18,
b1,
20,
dd,
e0,
f2,
16,
f8,
fe,
eb,
32,
0e,
fc,
e5,
cb,
0e,
bf,
f0,
e1,
d9,
de,
81,
bc,
c5,
e2,
df,
fb,
ea,
b7,
f5,
c4,
27,
31,
d8,
2c,
f7,
1d,
14,
fb,
68,
22,
0b,
21,
11,
21,
10,
1f,
1e,
f6,
c5,
e6,
e7,
12,
ef,
cd,
df,
ed,
0b,
25,
26,
0a,
12,
e2,
f9,
0c,
1c,
07,
16,
26,
22,
e1,
f4,
fc,
00,
14,
34,
99,
10,
ef,
d5,
04,
ef,
fe,
ff,
f7,
76,
64,
16,
ed,
fa,
ea,
f9,
ff,
ee,
e7,
02,
2b,
d5,
fb,
d1,
f3,
f0,
41,
d7,
02,
d7,
02,
fa,
fd,
f9,
f7,
e8,
c0,
e8,
05,
ea,
df,
e0,
06,
fd,
c5,
ec,
de,
26,
d3,
f7,
03,
19,
d3,
4d,
2c,
dc,
ce,
e6,
10,
17,
e2,
f5,
fb,
e5,
22,
1b,
2b,
18,
3a,
28,
10,
cd,
0e,
17,
08,
01,
09,
ea,
0f,
ff,
ac,
ce,
f7,
d8,
e8,
0e,
d1,
0f,
0b,
c0,
52,
0a,
fd,
43,
02,
1b,
f9,
11,
cb,
ff,
f3,
e2,
0e,
01,
d4,
e0,
f6,
fe,
4b,
fb,
05,
06,
16,
ea,
00,
ff,
3a,
fa,
c9,
0d,
05,
f9,
f9,
1b,
05,
b0,
04,
00,
17,
ff,
14,
f0,
24,
0c,
01,
dc,
fd,
0c,
05,
f1,
f4,
01,
0c,
c7,
5e,
e7,
03,
06,
f8,
11,
fe,
13,
08,
a1,
f7,
01,
15,
ee,
fc,
1e,
03,
0d,
e6,
02,
07,
f9,
f1,
f5,
07,
e6,
4b,
29,
dc,
f5,
f3,
d0,
e9,
ed,
ce,
e6,
31,
f2,
09,
fa,
0c,
de,
16,
fc,
11,
39,
3c,
24,
16,
02,
f0,
e5,
e2,
26,
33,
f0,
fe,
e7,
f8,
25,
ca,
f1,
de,
ad,
fa,
02,
11,
ec,
ed,
18,
13,
24,
cc,
21,
ea,
ff,
0d,
e7,
21,
1f,
43,
a5,
0d,
0b,
90,
09,
16,
c6,
ee,
fd,
f3,
1f,
e1,
4b,
1f,
f3,
1e,
e5,
02,
12,
f6,
15,
f3,
de,
08,
05,
ec,
e1,
08,
02,
d9,
f2,
22,
fe,
04,
f9,
ea,
1e,
fd,
00,
2e,
06,
18,
02,
09,
fc,
dc,
ec,
0b,
df,
f1,
f8,
2e,
24,
e8,
0e,
ca,
fd,
3d,
10,
27,
b5,
f2,
ec,
40,
07,
f4,
44,
f5,
01,
11,
0e,
08,
b8,
cb,
dc,
c0,
e2,
fd,
e9,
f1,
f3,
29,
1c,
03,
23,
f6,
10,
ed,
f8,
ec,
1d,
0a,
fb,
04,
fb,
01,
da,
e4,
fc,
00,
00,
f6,
1a,
10,
15,
cc,
f0,
0f,
fd,
00,
ef,
1b,
1a,
f9,
17,
ec,
db,
39,
ad,
05,
11,
f9,
17,
f0,
06,
08,
f9,
2e,
f5,
c7,
ea,
db,
2a,
fd,
08,
1e,
f3,
17,
0b,
0d,
ff,
cb,
00,
04,
a7,
ce,
ff,
38,
15,
db,
24,
f5,
1e,
04,
d0,
ef,
33,
0c,
ee,
d7,
f4,
03,
ed,
21,
04,
0b,
09,
01,
cc,
fc,
ff,
98,
db,
f3,
7f,
31,
0c,
e3,
04,
fa,
a2,
01,
03,
ea,
f3,
06,
f9,
fc,
10,
aa,
01,
09,
0a,
16,
03,
03,
ff,
0a,
01,
e9,
f0,
e0,
e6,
00,
f5,
0c,
e8,
1d,
f5,
dd,
2e,
f4,
fe,
dd,
12,
e8,
24,
fb,
fe,
11,
da,
0f,
e5,
03,
17,
a6,
34,
f9,
ee,
f5,
ef,
28,
08,
0b,
27,
18,
15,
b9,
d9,
13,
d4,
10,
04,
ca,
06,
f4,
05,
fe,
fc,
18,
fe,
fc,
13,
0c,
2e,
de,
ee,
12,
fe,
05,
0b,
f8,
22,
16,
e2,
00,
e1,
bd,
f9,
c8,
dd,
1f,
01,
d8,
f2,
14,
12,
e1,
ff,
5f,
02,
0f,
0a,
f8,
e1,
e8,
07,
ed,
ae,
ef,
de,
60,
f6,
e4,
d1,
f1,
ed,
e1,
db,
d0,
7a,
c7,
f4,
df,
02,
fe,
d0,
25,
fc,
bc,
1f,
eb,
15,
2d,
ea,
e9,
d3,
0d,
01,
fd,
0e,
f4,
f9,
07,
f0,
e6,
09,
d0,
ed,
cb,
03,
fc,
f7,
23,
e4,
f5,
06,
f1,
eb,
18,
03,
e7,
f7,
f4,
fb,
d3,
1e,
14,
44,
e5,
f6,
15,
05,
f3,
11,
f9,
e3,
ea,
19,
e9,
e6,
10,
16,
b4,
26,
f5,
fb,
06,
04,
e6,
ff,
24,
11,
02,
f9,
1a,
db,
ff,
fe,
cd,
0f,
e3,
f4,
2e,
dc,
05,
47,
04,
1a,
e4,
1c,
f1,
12,
f1,
fb,
e9,
11,
07,
da,
ff,
02,
0d,
10,
15,
e6,
f5,
05,
f8,
81,
fe,
fb,
00,
19,
15,
f8,
fe,
f2,
0f,
0c,
c9,
11,
0d,
0f,
db,
f0,
00,
ef,
f7,
ec,
bb,
00,
f9,
ea,
1d,
0e,
36,
f5,
14,
0e,
00,
fa,
d7,
f6,
06,
ac,
33,
0c,
c0,
fa,
1b,
10,
f9,
00,
f9,
f5,
f6,
fc,
02,
ed,
10,
fc,
ce,
02,
05,
06,
fe,
f6,
1b,
2c,
e3,
10,
f2,
fb,
fd,
f7,
07,
01,
6e,
ef,
f8,
14,
24,
ff,
00,
f9,
0e,
35,
0c,
fe,
fc,
13,
0a,
01,
1a,
fe,
01,
18,
1c,
0e,
f3,
ef,
dd,
0c,
f7,
24,
0a,
08,
22,
23,
f2,
03,
fd,
20,
16,
f0,
00,
1b,
11,
09,
f4,
05,
0d,
31,
d4,
04,
1d,
ff,
e9,
2a,
04,
d9,
3d,
d9,
03,
11,
39,
0d,
13,
1a,
cb,
d7,
22,
1d,
a4,
0a,
f0,
dd,
ec,
f3,
46,
07,
fa,
d8,
e7,
e4,
c4,
07,
f3,
8f,
df,
eb,
02,
04,
df,
25,
17,
fa,
f1,
0b,
ea,
e3,
20,
f4,
fc,
06,
11,
30,
20,
e6,
19,
20,
21,
1c,
09,
12,
1f,
07,
e1,
33,
0a,
05,
f2,
0e,
08,
f7,
fc,
12,
d6,
14,
ef,
13,
fd,
e3,
d5,
f6,
fe,
fa,
cb,
03,
05,
ff,
f1,
dc,
15,
02,
e4,
fd,
f6,
05,
f9,
d7,
32,
ea,
e2,
10,
0c,
03,
e7,
fe,
0a,
fb,
ed,
05,
de,
ef,
fb,
fd,
18,
fc,
d5,
dc,
04,
ff,
e3,
fa,
fd,
03,
ff,
59,
05,
f5,
17,
55,
fa,
1d,
0a,
ef,
fa,
f0,
0c,
07,
fc,
00,
ff,
f7,
f3,
03,
ce,
fa,
f7,
fe,
0b,
fa,
f8,
04,
f3,
0e,
f6,
06,
f5,
f1,
02,
0c,
fc,
f5,
fc,
f6,
ed,
06,
e1,
eb,
f2,
d3,
d9,
e4,
07,
c8,
f3,
0a,
17,
f7,
07,
39,
06,
f8,
0f,
fc,
ef,
e6,
03,
22,
81,
cb,
09,
10,
e0,
f7,
f7,
01,
f5,
e6,
ee,
0a,
dc,
ff,
fa,
ee,
fd,
ed,
e8,
06,
f5,
ed,
13,
f6,
ee,
03,
fb,
d8,
fe,
0d,
ef,
de,
01,
fa,
f9,
f0,
08,
0a,
16,
c9,
f8,
08,
08,
0c,
12,
00,
17,
0a,
0b,
dd,
00,
03,
eb,
ef,
33,
08,
09,
da,
04,
13,
05,
f1,
f9,
27,
0b,
fd,
f3,
17,
e9,
ca,
08,
0b,
d4,
10,
2f,
ee,
e7,
03,
fa,
fd,
fb,
20,
ef,
00,
19,
d5,
f4,
fc,
01,
11,
23,
22,
f7,
30,
10,
02,
0b,
fe,
fa,
14,
f5,
f5,
1a,
13,
01,
26,
f1,
f3,
3e,
fe,
fd,
14,
0f,
df,
f2,
fd,
e0,
c8,
03,
21,
e1,
fa,
03,
24,
06,
f7,
14,
30,
ff,
18,
f0,
fa,
fb,
f5,
0f,
04,
03,
07,
0b,
ec,
11,
13,
07,
03,
23,
07,
00,
16,
01,
e1,
c5,
09,
ef,
82,
dc,
0a,
8e,
e2,
12,
2f,
00,
25,
1b,
e0,
d7,
2d,
e2,
fc,
00,
1e,
d8,
f0,
08,
f9,
1a,
f1,
d8,
e9,
e8,
14,
2a,
f1,
18,
44,
de,
fb,
09,
11,
ca,
1d,
f9,
eb,
ff,
19,
26,
d1,
0b,
04,
e0,
07,
e4,
e4,
09,
05,
af,
10,
d9,
9e,
18,
1a,
00,
e3,
cb,
ec,
fe,
fc,
ec,
f4,
01,
b7,
ed,
da,
e7,
33,
2d,
d2,
fa,
02,
dd,
e8,
35,
06,
0d,
e4,
04,
0d,
0c,
ee,
f7,
3b,
02,
03,
f5,
bf,
0d,
0e,
ee,
f7,
0c,
e5,
f9,
21,
22,
fd,
20,
25,
0f,
f1,
32,
fc,
28,
7f,
e3,
12,
24,
f2,
fe,
dd,
f0,
e9,
de,
f2,
f1,
05,
01,
22,
f3,
f5,
22,
17,
e8,
fb,
01,
d9,
23,
e5,
03,
e5,
e3,
0d,
ff,
f2,
f4,
1a,
15,
f6,
16,
65,
04,
26,
1d,
06,
f5,
93,
23,
b4,
bf,
16,
fc,
fa,
02,
01,
ff,
0a,
19,
fd,
fb,
09,
37,
eb,
eb,
d6,
02,
02,
e4,
29,
1b,
2f,
e9,
e8,
06,
f9,
e0,
ac,
11,
0c,
9c,
2d,
04,
ed,
1d,
d5,
36,
f3,
f2,
ef,
e1,
1b,
e7,
14,
05,
1a,
11,
00,
fb,
f8,
dd,
cc,
fe,
1a,
d3,
ee,
fb,
05,
f3,
25,
e7,
12,
31,
d8,
02,
10,
dc,
15,
fc,
1f,
02,
20,
05,
00,
0f,
ff,
23,
09,
14,
ff,
e5,
38,
f5,
f6,
0a,
17,
1e,
0a,
fe,
00,
05,
fd,
16,
29,
00,
01,
dd,
17,
d5,
de,
0d,
ee,
d1,
1c,
d2,
3a,
03,
2c,
5f,
ee,
1d,
fa,
ff,
27,
fe,
0b,
08,
e3,
10,
05,
bc,
fe,
11,
06,
17,
33,
c9,
17,
2f,
dc,
fd,
fe,
0e,
db,
05,
34,
f7,
e7,
cf,
88,
13,
1e,
13,
e3,
9a,
e7,
0c,
aa,
e4,
fe,
0e,
22,
fd,
e3,
06,
08,
d3,
25,
fe,
f0,
02,
fc,
d2,
c1,
f3,
23,
04,
fb,
16,
06,
db,
81,
e5,
0f,
ea,
0c,
f2,
07,
08,
f2,
18,
dd,
29,
02,
f0,
06,
0a,
0d,
09,
e7,
f0,
fa,
0b,
04,
02,
20,
18,
08,
e8,
bb,
fe,
ed,
d4,
08,
ef,
0c,
1b,
0b,
29,
f4,
3f,
43,
08,
0a,
01,
f6,
dd,
d9,
08,
b8,
e5,
f4,
fd,
08,
f9,
cf,
c6,
fe,
f9,
27,
1a,
14,
04,
10,
03,
05,
09,
d6,
fa,
0e,
1d,
00,
1d,
f8,
df,
f5,
06,
27,
fb,
ee,
f7,
f8,
14,
ee,
e9,
0d,
05,
00,
05,
01,
fe,
18,
21,
11,
c7,
bc,
10,
0c,
08,
dd,
0b,
e2,
1f,
00,
17,
eb,
f9,
07,
04,
2f,
19,
06,
04,
11,
fb,
0a,
eb,
ed,
0d,
29,
fa,
04,
03,
f8,
17,
0e,
0a,
14,
1c,
04,
12,
0b,
1e,
0e,
03,
05,
0c,
17,
d9,
fe,
16,
fb,
f8,
11,
11,
02,
e7,
fe,
2e,
0f,
05,
f5,
fe,
2d,
2d,
fc,
ee,
1b,
01,
06,
eb,
fb,
1f,
3c,
18,
e6,
f7,
ec,
11,
fe,
e4,
18,
f6,
1c,
1f,
1a,
1e,
06,
ee,
f1,
26,
02,
1e,
f5,
0c,
01,
13,
0d,
02,
f1,
dc,
db,
10,
52,
15,
f9,
ed,
ed,
e2,
e9,
d8,
fe,
28,
de,
10,
1b,
16,
ec,
0d,
cc,
f1,
09,
f6,
25,
ed,
0c,
26,
3c,
48,
e4,
0f,
0c,
11,
33,
0e,
11,
07,
15,
e5,
18,
d8,
f6,
d7,
f8,
f6,
93,
d1,
04,
17,
0d,
02,
1b,
fd,
0f,
f6,
ef,
da,
e6,
db,
0a,
12,
e8,
fe,
f4,
9f,
11,
23,
1b,
fa,
ed,
12,
e1,
0e,
04,
08,
07,
ee,
e2,
e2,
1e,
0a,
b2,
3d,
01,
e1,
3a,
ff,
f4,
f3,
f3,
b7,
f2,
18,
18,
fa,
01,
e6,
fa,
de,
a6,
04,
1a,
b6,
fb,
ff,
f1,
08,
04,
ef,
f4,
08,
ec,
1d,
f8,
1d,
f4,
cf,
e7,
d0,
06,
fa,
e6,
f4,
fd,
04,
ff,
fb,
2c,
f0,
e3,
d8,
f6,
00,
0f,
ef,
09,
c2,
0c,
0e,
ce,
fe,
01,
f7,
24,
f8,
13,
01,
df,
e0,
0f,
08,
eb,
06,
37,
e6,
fa,
fc,
13,
f9,
d3,
ff,
ef,
d8,
17,
eb,
c8,
fb,
fd,
d9,
08,
fd,
fd,
23,
12,
dd,
ff,
0f,
f4,
f8,
ff,
0c,
e2,
fd,
2e,
d9,
02,
ec,
fd,
ee,
b5,
13,
e5,
fa,
2d,
03,
2b,
03,
09,
e0,
3a,
f1,
f5,
e9,
03,
f9,
e0,
32,
35,
d2,
17,
ed,
f8,
07,
dc,
f7,
1c,
c2,
fe,
f2,
da,
05,
0b,
f0,
fd,
26,
2b,
04,
ef,
19,
ec,
e8,
fa,
eb,
20,
0a,
12,
fe,
17,
fd,
fe,
fd,
ef,
f6,
08,
81,
fd,
fb,
b3,
ec,
05,
09,
25,
4c,
d0,
03,
f5,
e4,
14,
09,
16,
f9,
21,
12,
ed,
25,
15,
05,
02,
de,
fa,
31,
02,
01,
1a,
c9,
05,
19,
fd,
fc,
37,
ef,
0f,
eb,
09,
f7,
f2,
f5,
09,
ee,
14,
f6,
f4,
f8,
0f,
0d,
0a,
11,
d6,
25,
ff,
e9,
21,
fe,
ee,
ed,
06,
0b,
c8,
1c,
fe,
fd,
04,
f8,
f9,
31,
f8,
30,
0e,
f7,
f1,
eb,
0c,
01,
07,
41,
30,
1c,
18,
11,
f7,
0c,
2c,
f8,
dc,
d8,
17,
05,
27,
f8,
f3,
00,
e8,
f2,
f6,
0a,
0a,
0a,
08,
1d,
0f,
05,
13,
10,
f7,
e5,
1b,
fc,
ec,
f4,
d2,
81,
d8,
2a,
fd,
f6,
f0,
f3,
fe,
0d,
d9,
11,
04,
f6,
1b,
ff,
17,
10,
e3,
b3,
e0,
0f,
13,
ef,
0a,
02,
00,
e5,
d1,
f1,
ec,
ef,
e9,
02,
fc,
0e,
e1,
1d,
fe,
0e,
e5,
12,
f6,
08,
0c,
e5,
f5,
00,
05,
08,
13,
f6,
f5,
0f,
08,
e9,
ca,
06,
03,
0f,
09,
07,
f9,
14,
1c,
05,
fe,
14,
3c,
03,
f4,
06,
ef,
c8,
f6,
0e,
ec,
0b,
00,
02,
06,
18,
e7,
da,
e9,
e8,
fb,
f8,
fe,
fd,
00,
bd,
e9,
18,
f5,
fc,
07,
fe,
09,
ef,
ce,
e0,
07,
f1,
02,
11,
10,
17,
df,
15,
dc,
e9,
ee,
de,
08,
e5,
05,
1f,
f6,
0e,
ef,
ed,
0b,
12,
f9,
00,
10,
cd,
ff,
ff,
0f,
03,
f9,
ff,
14,
06,
c6,
d3,
f8,
fe,
ed,
07,
eb,
e7,
01,
6a,
2f,
0f,
04,
16,
05,
e6,
ec,
3c,
57,
26,
f9,
06,
0e,
10,
fa,
fb,
0d,
17,
09,
01,
fe,
f8,
fa,
01,
e7,
09,
0d,
03,
fc,
f4,
f8,
fb,
ee,
07,
1f,
29,
19,
f8,
08,
00,
0f,
ed,
fc,
19,
27,
13,
f3,
03,
07,
ff,
20,
01,
d4,
e2,
05,
0f,
f6,
fb,
fe,
08,
06,
cd,
f5,
ff,
06,
1d,
ef,
07,
10,
f9,
11,
f0,
02,
03,
0c,
fc,
15,
fa,
f8,
0a,
26,
1e,
f0,
f0,
ec,
d6,
ff,
1a,
fd,
13,
e6,
06,
1a,
f7,
f3,
f3,
fd,
3a,
20,
01,
05,
0f,
01,
02,
06,
fc,
12,
e3,
fa,
04,
f8,
f4,
ff,
ee,
0a,
fe,
07,
10,
0b,
15,
fa,
f2,
ea,
fd,
05,
e9,
fb,
eb,
ff,
06,
ff,
be,
fe,
0b,
02,
ba,
01,
19,
d8,
00,
71,
e6,
e5,
20,
24,
15,
e9,
28,
16,
f7,
e8,
11,
1e,
0d,
f4,
ee,
24,
00,
ca,
0e,
36,
f9,
18,
1e,
10,
26,
13,
4a,
fb,
ec,
f7,
f2,
eb,
fc,
fe,
10,
cc,
ea,
e8,
ca,
16,
11,
d0,
f2,
eb,
be,
0a,
17,
04,
15,
16,
49,
39,
ea,
3e,
2e,
13,
5c,
0a,
0c,
ef,
dc,
ec,
b4,
d8,
1a,
c6,
3a,
1d,
07,
2a,
12,
1c,
ff,
2a,
12,
30,
15,
ac,
09,
ef,
f4,
1d,
ef,
20,
ec,
ed,
1f,
16,
1a,
56,
04,
00,
1d,
f1,
0f,
f6,
08,
f2,
33,
f2,
0e,
ea,
0a,
ec,
ef,
fd,
ec,
9a,
1d,
03,
37,
c0,
15,
47,
e9,
f7,
eb,
28,
01,
34,
38,
03,
00,
e2,
28,
14,
13,
d5,
a2,
f5,
fc,
f2,
19,
ed,
f3,
d9,
02,
f0,
01,
0f,
1a,
d1,
fe,
10,
f6,
09,
16,
01,
e4,
fd,
08,
03,
09,
0d,
d5,
fe,
2a,
ee,
f7,
1b,
ec,
35,
ee,
0a,
0d,
d6,
06,
34,
3b,
cd,
eb,
16,
02,
03,
d7,
05,
19,
e7,
ed,
02,
28,
1f,
14,
f2,
06,
3d,
eb,
f2,
1e,
02,
0f,
55,
e9,
09,
24,
ff,
38,
e6,
10,
ea,
c3,
f2,
f3,
cf,
2a,
f2,
ed,
fb,
12,
01,
fa,
0c,
ea,
ea,
14,
11,
fc,
ef,
ce,
dc,
00,
d8,
c6,
ff,
d7,
e9,
00,
ed,
14,
0a,
f3,
ce,
e5,
ac,
1f,
20,
0d,
f5,
1f,
50,
18,
fa,
81,
06,
12,
da,
d5,
09,
16,
ef,
ef,
01,
12,
1e,
0f,
2e,
1b,
1d,
f9,
0c,
09,
f0,
e2,
b2,
de,
fc,
09,
ff,
f0,
0b,
1b,
10,
d8,
14,
ed,
fe,
fa,
fb,
27,
0b,
27,
30,
eb,
f8,
02,
f0,
e8,
f0,
05,
19,
3e,
fe,
01,
1f,
20,
f1,
00,
fd,
1d,
dd,
19,
0c,
0a,
00,
e9,
fa,
ed,
d4,
ab,
20,
fe,
1a,
2a,
12,
08,
08,
e9,
ef,
f2,
0a,
e3,
fd,
04,
11,
e6,
49,
42,
f2,
f9,
f8,
f7,
19,
3b,
01,
06,
09,
e4,
ed,
f3,
d4,
0a,
0b,
f9,
07,
dc,
f6,
ff,
c9,
dc,
11,
20,
f6,
16,
6d,
e7,
f5,
3f,
a8,
fb,
da,
03,
d6,
14,
03,
f7,
2a,
ef,
f9,
01,
f3,
0e,
fb,
ec,
f7,
dd,
fe,
ec,
f3,
05,
22,
d8,
02,
fc,
ee,
20,
ed,
e0,
09,
19,
db,
12,
ff,
e3,
10,
f4,
20,
f7,
df,
d6,
24,
ef,
e7,
0f,
e7,
cc,
03,
15,
7f,
f9,
f5,
0a,
0b,
0a,
dd,
ea,
0b,
ac,
f0,
eb,
fd,
18,
0d,
9d,
03,
e3,
20,
41,
eb,
1c,
10,
1e,
33,
fb,
f0,
ca,
d8,
fb,
d0,
da,
01,
f8,
00,
42,
cf,
e7,
01,
f1,
f7,
23,
ef,
f9,
de,
a2,
fb,
ff,
15,
01,
2a,
26,
01,
0d,
17,
d9,
06,
f7,
ed,
1f,
f2,
03,
f9,
0a,
ff,
01,
1a,
22,
15,
12,
f0,
ea,
f1,
0c,
fa,
08,
fc,
fd,
0b,
f8,
ee,
b0,
ee,
e3,
14,
11,
fa,
ff,
09,
eb,
09,
08,
f1,
40,
05,
0d,
f3,
fa,
11,
03,
0d,
f2,
02,
14,
01,
ec,
fb,
f7,
36,
0b,
0c,
06,
fc,
bc,
e7,
fc,
0b,
1f,
f4,
f8,
32,
31,
ee,
fa,
08,
fe,
9c,
f1,
20,
e5,
1f,
f1,
e2,
01,
2f,
31,
0c,
07,
cd,
21,
ee,
06,
0b,
16,
31,
ed,
f4,
d3,
ea,
12,
13,
eb,
08,
fc,
0a,
fd,
e3,
12,
fd,
2c,
ee,
1f,
10,
e1,
e7,
f1,
20,
22,
09,
1e,
e7,
95,
3b,
e8,
0c,
06,
fd,
ff,
f7,
0d,
3e,
fa,
05,
f3,
e4,
ef,
eb,
eb,
09,
f4,
f7,
02,
00,
00,
04,
f2,
f6,
d6,
0f,
0e,
fc,
2f,
fe,
ee,
20,
12,
24,
07,
f5,
15,
f8,
ff,
f4,
29,
ec,
fd,
3e,
21,
fc,
2e,
f5,
01,
16,
16,
02,
c0,
41,
f7,
e9,
ec,
fc,
f5,
00,
0c,
56,
33,
24,
f5,
d8,
11,
1f,
20,
ed,
bd,
ee,
f2,
eb,
04,
f2,
1d,
ea,
1e,
e2,
1b,
f9,
00,
23,
05,
05,
ff,
ec,
9c,
f8,
f2,
02,
fc,
0e,
ea,
fa,
04,
de,
38,
09,
11,
00,
0f,
1b,
f3,
21,
3b,
3c,
07,
16,
f6,
fa,
e4,
03,
d9,
02,
af,
ee,
03,
01,
1a,
e1,
de,
db,
e6,
18,
14,
f7,
00,
f9,
f3,
10,
0c,
e4,
eb,
00,
e5,
d6,
02,
e9,
02,
e0,
ed,
fe,
f7,
f7,
ff,
08,
2d,
01,
f6,
f1,
f5,
08,
05,
f9,
11,
02,
18,
0a,
f7,
f2,
f9,
ef,
01,
06,
0a,
f4,
14,
e5,
cd,
f5,
f8,
11,
e8,
15,
f9,
07,
03,
d4,
eb,
e6,
03,
08,
04,
15,
17,
e0,
e6,
03,
d6,
0e,
07,
cf,
de,
ea,
00,
f8,
e5,
ea,
17,
f4,
33,
f5,
1c,
f3,
e4,
ef,
ee,
07,
08,
0b,
e8,
f5,
81,
97,
0a,
d0,
07,
fb,
ce,
0c,
fe,
e3,
fe,
02,
19,
01,
06,
38,
f3,
ff,
f9,
eb,
f0,
fa,
fe,
1c,
0f,
05,
3f,
1e,
b2,
0f,
f8,
07,
19,
2b,
fd,
0d,
88,
ff,
0c,
11,
fd,
08,
f9,
f7,
09,
94,
df,
0b,
fd,
16,
00,
2c,
1d,
27,
4e,
03,
0f,
0f,
fe,
fc,
e8,
f7,
ec,
f2,
f3,
fb,
d8,
f8,
11,
f6,
f9,
f2,
a8,
c0,
0f,
dd,
07,
2b,
e6,
2b,
e3,
ce,
ff,
f6,
0b,
14,
15,
10,
fd,
bb,
d2,
c2,
07,
fa,
10,
01,
e7,
eb,
e6,
02,
18,
0e,
f4,
e9,
33,
25,
1e,
e3,
dd,
e9,
fa,
0c,
10,
fb,
09,
0f,
08,
da,
e7,
e2,
0d,
29,
fc,
15,
0b,
e2,
e6,
ce,
ed,
e7,
e6,
12,
ec,
1e,
f7,
f9,
19,
0d,
1c,
0e,
08,
09,
1e,
ef,
dd,
ca,
f9,
03,
26,
05,
20,
1a,
e7,
17,
e1,
ef,
06,
f4,
1d,
21,
0d,
ac,
e7,
0e,
fa,
20,
0a,
0c,
09,
ee,
d9,
08,
f3,
01,
04,
fb,
e0,
11,
17,
33,
19,
e4,
13,
fb,
06,
05,
fa,
08,
91,
81,
c9,
2d,
0d,
0e,
d6,
f7,
c5,
10,
2e,
0f,
01,
02,
0a,
d6,
da,
f3,
12,
32,
0b,
fd,
1e,
fc,
f4,
e6,
fa,
23,
4d,
33,
f7,
06,
12,
e8,
fa,
11,
f0,
f3,
d1,
fb,
f9,
19,
18,
fb,
18,
e5,
fa,
fc,
23,
f9,
ef,
18,
1a,
33,
f0,
06,
05,
00,
f4,
dc,
03,
01,
1b,
df,
ff,
06,
14,
fa,
11,
f7,
14,
0d,
ff,
66,
15,
f1,
ea,
f0,
f3,
f5,
f0,
d2,
fb,
09,
f7,
13,
fc,
f1,
f1,
fa,
19,
41,
2e,
e7,
12,
f6,
f4,
1b,
e6,
f0,
13,
e5,
ee,
0f,
f2,
ee,
d4,
ef,
35,
3f,
40,
fa,
0e,
f4,
1f,
29,
10,
89,
ac,
b4,
07,
06,
f9,
27,
ec,
08,
e5,
e7,
f6,
f6,
d8,
13,
08,
1c,
26,
b2,
de,
c1,
11,
03,
f4,
f2,
17,
05,
e8,
c7,
de,
f3,
e7,
e5,
0f,
1b,
27,
ab,
f8,
c0,
03,
ed,
ee,
04,
da,
e0,
02,
b2,
01,
02,
29,
2e,
00,
c6,
e8,
09,
3b,
12,
15,
03,
55,
06,
1d,
e7,
01,
fb,
e8,
0a,
fc,
ea,
0a,
32,
08,
e3,
48,
2a,
e6,
14,
f3,
fb,
f1,
f8,
d0,
21,
10,
f0,
ed,
2f,
e7,
ef,
fe,
f7,
09,
13,
0a,
2a,
09,
01,
fb,
1d,
01,
17,
f5,
19,
e9,
d8,
f4,
37,
19,
07,
dd,
b6,
0a,
98,
00,
15,
dc,
dc,
25,
2d,
db,
05,
7f,
ac,
fd,
1b,
03,
11,
06,
f8,
17,
fe,
f4,
f1,
ff,
22,
15,
8d,
06,
fb,
03,
0d,
03,
1f,
fe,
0c,
6d,
0b,
1f,
0c,
f4,
f1,
10,
ed,
f1,
1e,
fd,
fc,
f7,
23,
fe,
29,
0b,
04,
d9,
06,
fd,
eb,
b9,
ed,
ea,
04,
f8,
4f,
1c,
e4,
56,
ea,
f5,
f5,
1b,
e0,
82,
18,
10,
0a,
12,
07,
ee,
db,
00,
5b,
14,
fb,
44,
08,
0d,
1b,
e7,
19,
d0,
00,
15,
06,
cd,
05,
d9,
da,
02,
ec,
ed,
11,
16,
17,
2c,
37,
f5,
fa,
08,
0f,
05,
18,
c8,
fb,
d1,
f4,
fc,
d0,
16,
ec,
dc,
f3,
ff,
e6,
0b,
0f,
f8,
26,
0d,
f2,
ee,
00,
f2,
f8,
09,
c1,
0e,
0c,
df,
fb,
f0,
f0,
f7,
f9,
29,
15,
f7,
07,
02,
01,
0b,
e7,
15,
cc,
f1,
f1,
fb,
f1,
f4,
09,
1b,
0d,
e5,
10,
09,
01,
36,
fa,
db,
f1,
fe,
fe,
21,
f5,
f2,
32,
1b,
e7,
07,
12,
2b,
17,
1a,
34,
f5,
20,
00,
f2,
1c,
a1,
e8,
f1,
02,
07,
10,
e6,
f0,
13,
00,
33,
18,
ee,
f8,
fd,
d8,
0b,
19,
a4,
d1,
13,
91,
e3,
fa,
06,
21,
14,
b6,
0f,
0b,
e7,
f4,
fa,
21,
ff,
f0,
03,
0f,
f2,
f6,
06,
fb,
f3,
d7,
ef,
f1,
17,
31,
11,
ff,
1a,
fc,
e7,
f4,
f4,
05,
f5,
05,
f7,
15,
f9,
f3,
e2,
06,
0a,
dc,
23,
0a,
00,
15,
fa,
1f,
f5,
03,
f7,
17,
f7,
ed,
13,
1a,
e4,
16,
e1,
1a,
23,
fb,
e7,
0f,
0e,
1f,
7f,
0f,
2d,
35,
f4,
de,
14,
e5,
0c,
35,
15,
38,
e9,
03,
00,
d6,
f3,
d0,
39,
3b,
ca,
30,
fc,
f7,
00,
1a,
e5,
06,
ee,
e2,
20,
0c,
e4,
24,
f2,
f1,
14,
01,
f8,
d7,
ff,
0f,
e8,
f1,
d2,
dc,
f4,
00,
fb,
f0,
f5,
d9,
f0,
f8,
e9,
ed,
f0,
e8,
02,
ea,
08,
15,
13,
63,
01,
12,
1f,
f5,
f4,
d2,
09,
e1,
3d,
17,
e8,
ef,
f2,
f0,
01,
fd,
ea,
b1,
16,
f4,
12,
f4,
1f,
a2,
f0,
c8,
9f,
e4,
05,
01,
f4,
04,
d7,
df,
01,
21,
f9,
f5,
18,
ff,
03,
99,
06,
d2,
cf,
03,
e9,
03,
f3,
e7,
0d,
e6,
fb,
fa,
e8,
fc,
fd,
f5,
18,
f4,
08,
e0,
f7,
f7,
e9,
06,
06,
0c,
e2,
05,
f9,
2e,
f4,
fb,
fe,
ef,
f9,
de,
ec,
f8,
f9,
15,
06,
05,
03,
01,
ca,
00,
ee,
f6,
ec,
1a,
be,
03,
ee,
2d,
f1,
24,
cd,
fd,
06,
eb,
03,
05,
03,
ef,
fe,
ad,
c9,
fd,
ca,
01,
ef,
f4,
23,
e6,
12,
07,
fd,
ef,
f2,
fa,
fe,
f6,
f4,
22,
f3,
11,
18,
f3,
0c,
ed,
fc,
00,
03,
e8,
d9,
07,
0e,
18,
c9,
f8,
ec,
f9,
fc,
e8,
10,
ea,
ff,
de,
02,
1d,
db,
ef,
19,
f9,
e9,
fa,
38,
0a,
16,
65,
13,
05,
11,
04,
01,
1b,
0c,
3f,
16,
cc,
f5,
ef,
1a,
1d,
d4,
e8,
fb,
e0,
47,
8a,
ca,
2b,
02,
fa,
13,
c7,
25,
37,
f3,
16,
03,
0a,
18,
f9,
c1,
d6,
07,
14,
fe,
4c,
19,
e1,
02,
e5,
c1,
1b,
04,
f7,
ce,
17,
30,
09,
e5,
f6,
00,
e8,
ef,
08,
e7,
11,
f2,
ed,
2b,
2b,
86,
1c,
4d,
1a,
c8,
d1,
da,
e5,
3a,
d7,
ef,
ea,
12,
08,
0b,
ec,
2e,
f3,
0c,
02,
2e,
e5,
ed,
02,
16,
c3,
fa,
06,
00,
e5,
f8,
ff,
d5,
fc,
19,
00,
1f,
dc,
14,
14,
d6,
0a,
29,
f4,
16,
c2,
ef,
16,
28,
12,
f6,
14,
af,
c1,
f2,
fb,
0c,
d1,
06,
e5,
34,
54,
eb,
10,
06,
07,
13,
f5,
f2,
ab,
c4,
3e,
f1,
18,
0a,
be,
30,
19,
3f,
fc,
ac,
2b,
e8,
d4,
e1,
db,
0d,
5a,
02,
cd,
41,
0d,
e0,
ec,
fc,
2b,
7f,
d2,
ef,
d9,
c7,
08,
d8,
da,
06,
07,
33,
43,
1f,
e9,
e6,
16,
04,
01,
2f,
1c,
98,
d1,
19,
42,
2b,
ec,
ff,
ec,
f8,
29,
2f,
00,
dd,
13,
0c,
fb,
fc,
1b,
12,
0a,
e5,
1a,
0a,
0a,
12,
43,
fa,
e1,
d1,
e4,
2a,
1c,
e8,
06,
00,
1b,
04,
0d,
d2,
f6,
e5,
fa,
11,
0e,
0e,
f5,
d7,
08,
40,
01,
e9,
00,
fa,
de,
f4,
30,
08,
ee,
f0,
19,
25,
ef,
f3,
e3,
34,
1b,
b9,
11,
3b,
fa,
87,
01,
38,
b6,
f8,
37,
12,
17,
30,
d1,
08,
2e,
4e,
fd,
a8,
27,
ea,
ef,
c8,
22,
58,
35,
fb,
c2,
dc,
ea,
e9,
0c,
25,
3c,
0b,
d3,
e2,
e2,
05,
f0,
d6,
ff,
03,
19,
0d,
ee,
0a,
f8,
ec,
02,
fa,
0c,
fa,
0b,
fe,
fc,
03,
03,
12,
0e,
08,
fe,
e7,
03,
f9,
01,
05,
07,
2b,
03,
07,
fa,
01,
02,
ee,
ec,
f3,
da,
0c,
fd,
22,
fe,
f0,
f8,
03,
f6,
16,
05,
ff,
fb,
f3,
02,
ef,
00,
03,
f5,
f9,
f8,
f9,
05,
00,
f0,
f2,
fa,
06,
1a,
f4,
eb,
f7,
ef,
e3,
00,
f4,
00,
fa,
02,
01,
f6,
ff,
09,
f4,
f5,
e2,
af,
06,
11,
20,
f7,
13,
08,
fc,
f3,
f2,
14,
f9,
06,
01,
f8,
fb,
f5,
dc,
0d,
fe,
06,
08,
fa,
1b,
04,
03,
f9,
05,
09,
11,
13,
fe,
ff,
02,
12,
1d,
ec,
09,
ec,
0d,
02,
fb,
f1,
02,
40,
fb,
07,
e4,
01,
f9,
f9,
f6,
f9,
ed,
ea,
fb,
01,
00,
00,
ec,
02,
02,
33,
ef,
fd,
e1,
00,
f7,
fe,
14,
13,
10,
d6,
01,
fb,
00,
00,
03,
0f,
05,
c8,
14,
08,
d7,
09,
f4,
11,
0e,
15,
d8,
06,
14,
f6,
f9,
fe,
0d,
f5,
04,
e5,
fc,
17,
0a,
19,
fd,
07,
08,
03,
01,
0f,
00,
03,
02,
f3,
09,
fa,
03,
ca,
f8,
f9,
07,
09,
05,
03,
fe,
f8,
0d,
ea,
fc,
02,
07,
f3,
07,
f8,
fc,
81,
09,
01,
08,
06,
0b,
f5,
f9,
f5,
11,
f3,
06,
fe,
0d,
06,
02,
03,
07,
02,
08,
fc,
00,
eb,
04,
17,
08,
10,
05,
03,
f7,
0a,
fe,
0b,
01,
03,
df,
b5,
05,
f5,
f8,
0a,
02,
f5,
ff,
05,
e8,
0f,
06,
1c,
fa,
04,
0e,
12,
fd,
fb,
f3,
00,
14,
05,
04,
22,
eb,
ff,
fe,
01,
05,
22,
fb,
f1,
f5,
0a,
0f,
03,
0e,
00,
03,
09,
e8,
fe,
2b,
bc,
fb,
41,
10,
22,
f6,
e2,
dd,
0c,
9c,
81,
dd,
16,
11,
f5,
d5,
01,
f3,
18,
e9,
56,
09,
15,
25,
f7,
21,
fd,
14,
f7,
a6,
ed,
1c,
f9,
ee,
1c,
24,
23,
8e,
f1,
f1,
e9,
d3,
17,
ea,
ef,
10,
54,
26,
03,
ee,
eb,
0d,
09,
21,
fe,
c7,
1f,
12,
21,
fa,
09,
d5,
00,
c0,
d0,
e6,
3a,
17,
04,
f4,
fa,
1c,
cc,
d9,
1a,
29,
1d,
4f,
f7,
07,
04,
d7,
11,
f6,
26,
f0,
e6,
fe,
fc,
e3,
1e,
22,
b6,
ec,
bd,
0a,
f2,
fb,
00,
e4,
dc,
23,
1a,
f0,
eb,
f2,
f0,
03,
06,
e8,
fe,
08,
cc,
da,
15,
ea,
07,
13,
28,
18,
e2,
a7,
0d,
19,
19,
14,
cc,
45,
26,
11,
15,
f6,
36,
32,
04,
05,
e7,
e9,
fa,
fd,
fa,
08,
07,
e8,
e4,
4a,
40,
ff,
12,
fb,
db,
13,
0b,
a9,
89,
e7,
21,
f8,
0b,
0e,
e4,
d0,
c1,
13,
0b,
df,
f8,
f9,
ee,
d8,
e4,
b2,
04,
09,
00,
cb,
10,
f6,
ee,
f9,
1a,
55,
23,
0f,
dc,
ff,
16,
09,
f1,
a3,
ad,
25,
08,
3b,
19,
19,
12,
e6,
00,
cd,
1f,
12,
ec,
26,
04,
0e,
e3,
e9,
01,
09,
19,
f3,
f2,
e6,
fc,
01,
27,
1b,
17,
f3,
0a,
0a,
f9,
04,
f5,
f1,
96,
ac,
01,
34,
f4,
0d,
04,
0a,
25,
45,
25,
f0,
fb,
fe,
eb,
d7,
01,
b7,
eb,
1b,
14,
35,
f4,
d8,
04,
21,
0c,
2e,
00,
fc,
19,
2f,
e3,
da,
ed,
0e,
5a,
43,
17,
f7,
01,
21,
23,
e9,
f8,
60,
f4,
1d,
3b,
34,
f9,
33,
fa,
4b,
f2,
e3,
fe,
cd,
28,
07,
ff,
fa,
f5,
d8,
e0,
08,
4a,
e4,
fc,
0f,
04,
fd,
68,
fe,
c5,
d6,
e6,
f8,
f8,
00,
1e,
0c,
e3,
24,
eb,
f8,
00,
f2,
fb,
fe,
f6,
f2,
0e,
f0,
08,
f6,
01,
ec,
10,
0d,
09,
fb,
e5,
fe,
03,
03,
01,
e1,
ff,
f0,
17,
e9,
f5,
eb,
09,
fe,
f5,
c3,
fd,
f4,
81,
27,
08,
0d,
03,
ff,
0a,
18,
13,
d5,
02,
fc,
fd,
f7,
f6,
c4,
d4,
08,
cd,
b4,
f3,
fe,
f6,
0e,
48,
0a,
1e,
09,
d8,
0c,
12,
fe,
f7,
20,
00,
00,
0a,
06,
12,
0e,
07,
11,
09,
1e,
15,
04,
05,
0b,
f6,
09,
04,
fc,
fe,
eb,
e4,
ee,
f6,
03,
e7,
f7,
de,
fe,
df,
02,
27,
ff,
01,
0e,
fd,
1d,
d6,
e7,
e8,
fb,
f8,
11,
01,
28,
25,
32,
dc,
2d,
dc,
ea,
f7,
f3,
f9,
ea,
ed,
09,
f0,
d9,
ff,
01,
ed,
18,
f1,
f8,
f3,
c6,
04,
0d,
fa,
06,
08,
fd,
07,
10,
1b,
e6,
09,
09,
0a,
10,
fb,
0b,
35,
ae,
35,
16,
18,
18,
03,
db,
02,
16,
10,
0e,
07,
07,
e6,
fc,
21,
0a,
0a,
fa,
f9,
04,
e2,
02,
da,
29,
cb,
dd,
20,
d2,
0a,
03,
18,
fa,
1a,
f2,
f6,
b2,
ec,
e3,
f5,
10,
ec,
24,
ea,
eb,
ed,
cf,
f5,
06,
03,
07,
ec,
1b,
fe,
02,
06,
f9,
ff,
00,
fb,
18,
0f,
05,
31,
f0,
02,
17,
fb,
f7,
f5,
f5,
09,
ba,
fd,
0c,
03,
0a,
f7,
c0,
16,
21,
44,
21,
02,
e7,
f4,
02,
23,
18,
14,
1a,
f5,
ec,
ee,
01,
ff,
32,
fe,
07,
f4,
00,
f9,
e6,
f4,
09,
06,
0e,
e4,
c4,
04,
12,
e6,
38,
f1,
a4,
07,
16,
34,
03,
2b,
e4,
13,
d4,
99,
d0,
05,
ac,
01,
0c,
26,
df,
e9,
7f,
d3,
de,
54,
dd,
e6,
cd,
17,
da,
f6,
f9,
da,
b0,
fc,
1c,
be,
f9,
09,
9d,
07,
fe,
de,
01,
cc,
fb,
f4,
9d,
ef,
16,
d5,
f5,
f9,
01,
07,
ee,
d6,
22,
26,
e1,
0f,
26,
0e,
f1,
e6,
9e,
c3,
ea,
27,
ee,
03,
f8,
e2,
05,
f9,
c3,
05,
04,
00,
10,
10,
e2,
15,
01,
3c,
ed,
f7,
e4,
ea,
e2,
07,
e7,
c3,
96,
1c,
0e,
d1,
0e,
0c,
0b,
00,
28,
b3,
05,
16,
a8,
15,
f0,
01,
03,
cd,
e2,
cd,
c3,
f0,
dd,
f2,
10,
22,
ee,
35,
28,
2c,
ee,
ef,
0d,
22,
ff,
13,
37,
cb,
1b,
2b,
10,
ec,
f9,
f6,
1b,
bc,
08,
f7,
eb,
f0,
1a,
06,
0b,
12,
ba,
06,
db,
ed,
11,
29,
29,
03,
de,
df,
3f,
38,
00,
f7,
fb,
c5,
fb,
fa,
fe,
16,
e5,
fe,
f8,
f2,
f8,
08,
d6,
39,
1c,
b8,
04,
ea,
f6,
dc,
e8,
d2,
89,
2f,
04,
e7,
31,
1a,
f6,
e9,
d9,
45,
2c,
db,
07,
18,
08,
f8,
19,
f7,
26,
fa,
1e,
52,
e1,
22,
08,
f3,
f5,
2d,
23,
10,
ef,
da,
f4,
f3,
07,
0c,
39,
e2,
f2,
01,
07,
f5,
f5,
05,
10,
b5,
12,
1d,
f8,
04,
07,
03,
0b,
e2,
41,
e7,
08,
00,
f3,
ef,
15,
ea,
8f,
e1,
e3,
d8,
eb,
28,
f3,
0a,
07,
c1,
03,
ff,
e1,
f8,
fc,
0e,
fc,
1c,
e1,
bc,
f6,
f1,
e8,
04,
d8,
11,
e8,
ee,
bf,
0c,
f4,
fe,
12,
f6,
d2,
fd,
c2,
1c,
07,
28,
0f,
ed,
f4,
00,
ff,
12,
16,
e6,
00,
fa,
ee,
04,
f7,
00,
24,
d4,
fd,
f8,
fa,
f8,
05,
f6,
05,
f6,
ed,
06,
fb,
00,
fc,
01,
07,
07,
2b,
81,
00,
0f,
14,
09,
fb,
ff,
00,
0b,
eb,
ef,
f1,
f9,
fb,
f9,
04,
f5,
1a,
ba,
f2,
0a,
fa,
f5,
f6,
1b,
04,
ed,
13,
ec,
0b,
0d,
f0,
fc,
07,
01,
00,
2b,
ef,
05,
f0,
f5,
09,
07,
00,
f5,
1a,
ff,
0d,
0e,
f4,
05,
ee,
f2,
02,
01,
13,
f4,
f7,
00,
f7,
ff,
f9,
f6,
ff,
08,
09,
fd,
05,
02,
fa,
03,
1f,
d8,
08,
fb,
fd,
06,
09,
ec,
01,
e2,
ff,
29,
07,
f4,
f7,
f8,
0f,
05,
ed,
ba,
22,
00,
03,
0e,
fb,
00,
f2,
22,
e7,
eb,
ff,
e5,
00,
17,
d6,
f8,
ea,
29,
0a,
f8,
f2,
02,
0d,
fd,
07,
f1,
e8,
14,
08,
f1,
10,
ff,
05,
fd,
e4,
5f,
f3,
01,
06,
f6,
05,
f9,
f4,
ff,
36,
d7,
f3,
fd,
01,
01,
07,
00,
d6,
03,
0e,
06,
01,
f8,
f8,
03,
fb,
05,
00,
f1,
02,
f7,
fb,
03,
05,
f8,
df,
30,
0c,
06,
04,
f8,
f1,
13,
f4,
e1,
1c,
f9,
01,
fe,
fc,
15,
f9,
07,
ea,
f1,
08,
05,
ef,
fc,
f7,
05,
fe,
00,
ec,
0d,
0b,
fe,
08,
f8,
fe,
fe,
ef,
10,
08,
05,
f4,
04,
ff,
00,
0d,
fd,
0f,
03,
05,
0c,
fe,
fa,
f9,
f6,
11,
e1,
e4,
11,
fe,
03,
fe,
19,
01,
f1,
25,
f6,
ee,
14,
0d,
f3,
0c,
00,
f8,
ee,
f9,
02,
f5,
06,
f1,
ff,
fc,
f5,
06,
f4,
0f,
06,
f9,
14,
eb,
08,
18,
f2,
fe,
ff,
f8,
0b,
11,
fd,
11,
1b,
30,
e5,
01,
ee,
0e,
08,
0e,
f6,
fa,
81,
d4,
0e,
06,
13,
01,
fc,
07,
fe,
0e,
ff,
04,
f6,
01,
f1,
f0,
13,
04,
4f,
00,
18,
1d,
fd,
ff,
09,
0d,
e5,
e2,
fe,
01,
17,
09,
01,
f3,
fd,
04,
0d,
29,
01,
fc,
eb,
0b,
08,
fa,
f8,
fb,
fd,
ff,
1c,
14,
07,
fb,
ed,
e8,
a4,
df,
f8,
ed,
12,
06,
f8,
0f,
10,
f4,
1b,
2c,
f0,
fc,
0b,
17,
fc,
fa,
d3,
0e,
07,
f7,
09,
03,
f3,
f8,
14,
fe,
c7,
fd,
00,
0d,
0f,
ff,
04,
da,
b9,
0d,
f5,
10,
08,
18,
07,
f4,
e4,
c3,
11,
f1,
17,
e8,
f5,
e9,
df,
1f,
39,
08,
14,
0c,
fc,
02,
06,
ea,
df,
00,
03,
04,
f4,
0c,
04,
33,
0e,
06,
01,
fb,
1a,
13,
f3,
0b,
fb,
07,
2a,
06,
2b,
01,
e7,
f4,
fd,
06,
10,
fd,
b8,
c5,
f4,
f2,
0b,
05,
14,
ff,
fd,
c2,
d9,
fa,
dc,
fa,
06,
f6,
0d,
01,
f8,
f8,
21,
f9,
10,
ff,
00,
09,
e2,
ea,
dc,
01,
ff,
0a,
0f,
f5,
fa,
10,
0c,
d9,
00,
f8,
e5,
0e,
02,
06,
f9,
e9,
d6,
04,
fb,
f9,
0a,
e4,
f0,
fb,
f7,
f7,
05,
cb,
ff,
06,
e6,
05,
1b,
0c,
d8,
f6,
fc,
0d,
06,
fb,
f8,
04,
ee,
e9,
03,
c4,
d8,
f5,
f9,
1d,
e9,
13,
1d,
ef,
f6,
f9,
0c,
f8,
e3,
fb,
0d,
d3,
02,
12,
07,
fd,
f1,
0d,
04,
73,
62,
f0,
e6,
d8,
03,
00,
09,
06,
fc,
12,
0c,
15,
16,
01,
0d,
02,
0d,
a6,
eb,
f7,
eb,
e3,
0a,
e9,
e9,
f4,
27,
e2,
10,
17,
ff,
17,
08,
f8,
06,
3f,
d9,
f4,
f5,
fc,
fc,
04,
09,
08,
26,
3b,
fc,
93,
e4,
06,
0e,
fc,
13,
16,
fd,
11,
0c,
f5,
06,
04,
e9,
04,
d1,
f2,
f9,
ed,
f7,
00,
08,
09,
d1,
be,
15,
fd,
04,
05,
0a,
08,
fe,
03,
39,
f4,
f0,
0d,
f4,
05,
f9,
e6,
0d,
cf,
f6,
0e,
f1,
01,
fd,
ec,
e6,
f7,
81,
34,
02,
d9,
24,
08,
01,
10,
2f,
3e,
00,
1c,
10,
cb,
0c,
07,
ee,
f0,
06,
e2,
fb,
01,
e7,
f5,
e6,
00,
f8,
eb,
11,
ee,
15,
14,
fc,
f7,
ff,
ee,
ec,
23,
03,
cf,
08,
03,
0d,
ff,
e1,
f4,
0a,
f7,
f8,
fd,
f9,
f0,
ee,
0f,
cf,
dc,
01,
0d,
1c,
f9,
fb,
f2,
ff,
19,
eb,
fa,
ee,
07,
fc,
f6,
f5,
03,
ff,
fe,
11,
0b,
f7,
07,
f0,
08,
ff,
14,
00,
f4,
d0,
f9,
02,
f0,
ff,
ee,
3f,
ec,
01,
f7,
e4,
09,
fd,
fb,
07,
0a,
1b,
f4,
11,
f6,
f5,
ed,
f5,
ec,
ef,
0d,
fd,
cf,
f5,
f8,
03,
ff,
e9,
e1,
09,
ee,
f8,
0f,
0c,
06,
01,
27,
f0,
f4,
f6,
07,
e5,
19,
f3,
18,
fb,
2a,
08,
ff,
f6,
f9,
04,
0b,
f4,
13,
19,
d6,
08,
ee,
02,
0e,
05,
04,
25,
ef,
14,
16,
f8,
fc,
01,
1c,
f2,
f9,
11,
45,
f6,
ee,
dc,
04,
0a,
08,
f8,
09,
d6,
0f,
3c,
0b,
08,
10,
00,
0b,
00,
f7,
0a,
e3,
bd,
05,
f6,
f4,
10,
17,
d8,
00,
31,
15,
f6,
2f,
05,
ff,
ef,
1d,
0f,
1b,
fa,
ff,
f6,
f8,
01,
31,
2a,
0f,
fd,
03,
0a,
19,
dd,
f6,
e2,
e7,
f0,
10,
f7;
