00000431
00000399
00000c23
0000072e
00000351
0000055d
000001dd
000009d0
0000036e
0000066e
000004ef
00000548
00000b6b
00000177
000002cf
000005be
00000942
00000d38
00000a51
000004d1
0000056e
ffffff01
0000075d
00000668
000001a0
00000d71
000004b4
000004c6
0000044c
00000678
00000175
000007b2
000004e8
0000086f
00000b25
0000149a
00000a74
0000078a
00000360
00000574
00000bba
00000d49
000002c0
000003c7
00000091
00000e93
00000519
000003b7
00000427
00000480
000003df
0000038c
000005ca
000006eb
000001c4
00000232
00000af5
0000027d
00000468
00000bd5
00000bcc
00000b09
00000ee7
000003c3
