000009be
00000a23
0000094d
0000094e
00000738
0000084d
000007ea
0000058f
0000049f
000004c1
00000410
0000034a
00000547
000003d8
0000030c
00000300
00000acd
00000a6c
000009dc
000009aa
0000093b
00000766
00000650
00000423
0000066f
000003d3
00000496
00000497
0000042f
000005a9
00000ef2
00000f20
00000a54
000008b0
00000a0b
00000870
000007fd
000006e1
00000690
000006e5
000005f1
000005d3
00000419
00000442
0000038f
00000485
00000439
000003f5
00000938
0000078a
0000072e
00000827
0000069a
0000070b
000004f2
000004ca
00000575
0000051f
00000439
0000034c
000003ac
0000035e
00000329
00000321
