03
f9
01
ff
81
fe
01
7f
01
dc
c6
b5
e8
e1
f1
ab
b0
81
eb
9d
d5
9f
aa
a3
d8
81
bb
f6
db
fd
10
7f
16
f8
ca
f7
0b
fe
00
fb
81
00
01
fc
fa
fd
b1
fd
0d
7f
1a
fc
eb
f3
14
7f
21
fe
eb
01
ea
f7
e2
0a
60
02
6a
7f
66
5a
30
79
fa
f0
f9
e0
7f
e0
f4
03
fb
d4
be
c7
ba
81
a1
d4
c7
c2
03
05
fe
fe
81
0b
07
07
03
1b
62
25
4c
1f
65
19
7f
2b
17
fb
1e
e7
81
d5
0e
69
21
08
fa
06
48
81
38
09
f4
09
ef
22
ee
1a
7f
14
f3
e8
fe
2a
64
2c
3f
7f
39
28
13
2b
05
fe
03
fd
81
f9
fc
65
00
a2
ae
81
92
d5
99
ad
a2
8a
20
30
3b
7f
e8
6a
31
64
43
0c
40
0c
39
7f
3e
0e
58
23
f6
f5
fd
09
81
10
00
08
01
07
fd
07
07
81
72
05
f2
10
fc
c0
02
1e
81
2e
f6
da
e7
17
26
10
31
45
3c
17
7f
2e
00
f5
f7
f4
81
a1
01
01
f8
18
3d
22
4e
74
59
30
7f
55
29
5c
20
2e
3c
5b
35
7f
40
03
7f
05
02
8b
ff
fe
fb
ff
21
52
2f
36
7f
36
16
47
30
25
05
de
7f
03
a5
24
f1
e2
30
7f
3f
0e
bd
0e
ff
a9
fd
26
c2
f6
67
81
f1
28
ca
fb
32
3b
37
61
7f
5f
3b
55
3f
0e
24
0f
19
81
18
0f
0a
0e
0a
fd
03
7f
92
01
10
f4
03
39
7f
39
58
67
61
34
49
53
2f
50
4b
42
60
66
44
7f
51
00
08
02
0e
81
04
01
05
04
19
7f
20
e7
81
ec
d9
ca
d1
ff
66
00
03
81
ff
fe
05
fe
0b
09
12
55
7f
50
08
44
17
ff
1e
02
1c
81
10
07
11
08
11
a3
0e
20
81
15
18
d3
1d
f3
df
fd
0f
81
17
fe
be
02
01
32
05
31
7f
45
1f
23
27
c9
93
be
bb
dd
aa
8d
cd
81
fe
9a
0d
df
1f
de
09
7f
fb
9c
bf
81
b0
c5
a3
e3
c9
c5
e9
a6
c5
93
a7
81
c8
b3
a6
de
7f
3c
1d
69
4c
e6
67
10
d5
81
ca
9c
ec
b1
b3
86
ad
00
7f
fb
4f
f5
75
11
6a
12
fb
51
01
f1
7f
ee
f8
e0
fd
f0
ca
29
f3
81
5f
f2
cb
1c
16
39
20
30
7f
44
12
50
18
0e
dd
10
e6
d7
e1
1b
7f
18
fe
95
02
01
7f
00
08
02
05
e0
ae
e8
c6
81
bf
ec
bd
d7
1b
23
3a
57
7f
51
23
64
3c
e8
e7
db
c7
81
b3
15
2a
1c
08
81
02
02
5c
01
02
0e
ff
b6
9a
b1
87
a5
81
c4
89
89
bc
8b
b4
97
c9
81
9b
86
85
fb
f3
f4
f2
81
e6
00
d0
07
22
15
23
1c
81
14
18
24
1c
d8
c3
ca
a1
8d
81
a0
83
99
2f
69
26
64
2a
65
34
7f
51
f6
d3
e5
0e
7f
26
00
0e
06
40
7e
3b
22
75
12
81
81
85
fe
0e
fc
d5
7f
ef
fc
12
f5
13
3a
23
54
7f
4c
2e
62
47
2f
4f
2e
7f
47
7e
21
73
39
06
7f
12
77
3e
7d
28
73
3f
fb
fd
ff
23
7f
21
f5
16
ff
f8
64
f5
cd
7f
dd
fb
38
f8
ee
7f
ef
4d
55
64
28
47
35
f3
18
e6
92
7f
ab
f5
05
ec
ef
02
f0
e4
81
ce
fa
cb
f1
cf
b4
c1
bb
dd
a5
ab
81
94
08
e4
06
eb
81
e9
01
1e
fd
