memory_initialization_radix=16;
memory_initialization_vector=
0000044a,
000000f9,
fffff8e7,
00000332,
000001a9,
000000f7,
00000d96,
000001ed,
00000186,
fffffe19,
000000d2,
000002e3,
00000191,
0000027b,
fffffaed,
00000043,
00000382,
0000026b,
fffff4ec,
ffffff44,
00000bdc,
00000288,
000002d2,
00000080,
000003ae,
0000045c,
000002ae,
fffff875,
00000462,
00000293,
00000309,
ffffff5a,
fffffc0b,
00000bcb,
0000012a,
000000f8,
000000f5,
fffffc3c,
fffffe16,
fffffd70,
00000a51,
00000310,
0000019c,
fffffcf4,
000000a1,
00000301,
fffff314,
fffff7fb,
00000195,
fffff97e,
0000038a,
00000e83,
fffff904,
fffffd39,
00000260,
fffffeb3,
000000d6,
000001df,
000002cd,
fffffb30,
00000416,
00000230,
00000434,
0000024d,
00000481,
fffff6f8,
00000332,
00000198,
000000c2,
fffff82d,
fffff9d3,
0000003a,
fffff56e,
0000074d,
fffffc3d,
00000308,
00000452,
000001d4,
000003a0,
0000013a;
