memory_initialization_radix=16;
memory_initialization_vector=
0000025a,
fffffe6b,
000004b8,
000014ec,
fffffb49,
00001505,
000009c8,
fffffc19,
fffffd3e,
fffff98d,
fffffa26,
000002c8,
fffffe7f,
0000099f,
00000dba,
00000d20,
ffffe42f,
00002c1e,
fffffb77,
fffffe51,
fffffd54,
00001c07,
00001104,
0000127f,
00001a8e,
fffffdcc,
fffffeb3,
000002fb,
00000634,
00001f52,
fffffe51,
00002001;
