memory_initialization_radix=16;
memory_initialization_vector=
00000cb8,
00000a36,
00000c50,
00000b0d,
00000ab2,
0000081a,
000009dd,
00000891,
00000997,
000007ac,
00000670,
000005ee,
0000047f,
000003bd,
00000361,
0000055e,
00000c19,
00000c3c,
00000bde,
00000b3e,
00000b0f,
00000b83,
00000ae8,
00000786,
00000753,
00000a98,
000006d0,
00000600,
00000578,
0000057f,
00000596,
0000063b,
00000cad,
00000ae5,
00000cec,
000009e3,
00000846,
00000a0f,
000008e2,
00000a28,
000008b1,
000008ec,
00000967,
000005d9,
000003d8,
0000037b,
000002f1,
000004d3,
00000a51,
00000b95,
00000d81,
00000a3a,
00000981,
00000a4f,
00000827,
00000b55,
00000735,
000007a0,
0000077c,
0000055e,
0000045e,
000003de,
000003f2,
00000578;
