memory_initialization_radix=16;
memory_initialization_vector=
01,
da,
9e,
de,
f0,
06,
31,
ce,
0d,
0a,
b2,
fa,
05,
05,
f4,
d9,
d4,
05,
14,
f4,
fd,
f4,
d5,
13,
05,
07,
ea,
21,
11,
06,
07,
e5,
0e,
cc,
3a,
1a,
23,
03,
07,
e3,
17,
04,
dd,
42,
32,
e9,
04,
cb,
2f,
c3,
b7,
eb,
e2,
7f,
0f,
f6,
1b,
e8,
1e,
fb,
1a,
fc,
3a,
3a,
fb,
91,
ea,
f1,
f7,
31,
44,
f6,
e0,
f9,
49,
07,
db,
49,
31,
08,
e9,
06,
e4,
bc,
05,
05,
01,
14,
1b,
34,
2d,
ea,
03,
49,
05,
11,
f4,
2d,
db,
02,
2d,
0e,
1b,
f7,
04,
0b,
ec,
5c,
3e,
16,
f4,
32,
03,
0d,
f4,
e3,
03,
08,
f7,
be,
ec,
21,
03,
4a,
fc,
01,
f7,
08,
ff,
f9,
e6,
0f,
28,
15,
03,
0a,
0d,
00,
1a,
12,
12,
0f,
03,
10,
0a,
0a,
21,
fb,
e3,
ee,
20,
0d,
fa,
f8,
01,
07,
07,
e7,
09,
0c,
1c,
03,
f4,
02,
e8,
f7,
02,
e7,
0b,
fd,
fe,
eb,
1e,
f2,
d2,
f5,
e9,
0d,
12,
e7,
01,
03,
f4,
dd,
2a,
fc,
10,
fe,
d8,
ea,
f8,
07,
f8,
02,
81,
eb,
e2,
f2,
08,
f1,
08,
16,
f8,
fa,
00,
1e,
0b,
e5,
10,
f8,
13,
0f,
0c,
e9,
08,
ed,
15,
17,
00,
e1,
ff,
19,
ed,
1d,
ec,
fa,
15,
01,
fc,
fd,
b7,
0a,
fc,
fa,
10,
19,
fe,
0b,
f1,
03,
04,
10,
13,
fa,
12,
01,
12,
fd,
f7,
f6,
51,
04,
ff,
0e,
02,
14,
fa,
05,
02,
e1,
f3,
fe,
03,
f7,
13,
03,
17,
0e,
0b,
19,
1b,
10,
f9,
06,
02,
0c,
fb,
fd,
16,
0f,
e7,
fe,
17,
08,
0f,
0e,
fe,
0b,
10,
2c,
ff,
03,
21,
05,
08,
fe,
0c,
fd,
ea,
08,
8b,
fd,
04,
cd,
0c,
f1,
ef,
02,
f8,
d5,
06,
f7,
1c,
0f,
f3,
c9,
03,
ff,
00,
06,
ef,
03,
12,
ff,
03,
01,
0c,
f8,
e6,
02,
02,
ef,
fd,
ce,
f9,
06,
12,
f8,
0a,
fc,
f7,
10,
f9,
f2,
05,
14,
f4,
fd,
0d,
ff,
07,
ec,
fb,
29,
dd,
05,
fb,
f1,
32,
f3,
fb,
fa,
fe,
0f,
2f,
fb,
03,
f1,
14,
0a,
fe,
14,
18,
fd,
17,
1a,
07,
f9,
f4,
06,
fb,
fc,
e9,
0d,
14,
81,
1a,
ee,
e9,
f4,
08,
d5,
f7,
3f,
dd,
1a,
ec,
cc,
19,
f7,
3d,
18,
15,
39,
1c,
12,
17,
10,
16,
15,
f0,
02,
1c,
03,
02,
0c,
03,
c5,
02,
11,
34,
ea,
38,
f4,
09,
f2,
f5,
31,
fe,
0f,
e8,
4f,
14,
e3,
0a,
f1,
c5,
31,
f0,
14,
00,
f8,
d2,
f1,
07,
02,
58,
d4,
04,
fa,
f8,
0d,
11,
eb,
ef,
0e,
0d,
ff,
d7,
e9,
17,
e4,
3b,
f2,
ec,
f6,
ff,
0b,
0b,
fb,
f9,
fe,
26,
d6,
24,
e5,
14,
fa,
ee,
f9,
19,
f5,
ca,
0b,
0d,
fe,
ed,
f2,
30,
ed,
0e,
15,
69,
1d,
0b,
79,
16,
c9,
25,
1c,
04,
24,
f0,
e9,
01,
d7,
e8,
da,
ce,
fe,
e0,
f6,
0a,
f1,
03,
0b,
04,
f4,
24,
11,
23,
40,
06,
01,
08,
d1,
61,
fe,
be,
e9,
05,
33,
12,
02,
09,
05,
fe,
16,
f8,
24,
18,
f4,
e3,
d9,
01,
c7,
fc,
ee,
db,
dd,
0d,
fd,
0b,
fd,
f3,
21,
cb,
73,
03,
ff,
e3,
03,
e6,
fb,
04,
f7,
d1,
d4,
37,
dc,
1a,
ee,
2d,
14,
fa,
f2,
f1,
dc,
24,
f2,
09,
10,
04,
e4,
fc,
11,
de,
e2,
03,
bc,
0e,
f9,
ec,
d9,
0f,
0a,
33,
16,
f8,
fc,
f8,
21,
fe,
0c,
0e,
f4,
ef,
06,
0d,
e8,
d2,
fd,
f9,
0f,
16,
05,
15,
00,
fe,
0c,
ee,
ef,
f6,
da,
eb,
2b,
0d,
d8,
b9,
d4,
d8,
00,
ff,
f8,
1f,
f7,
20,
0b,
03,
05,
f7,
d4,
1b,
e3,
1a,
12,
d8,
f8,
19,
1d,
6d,
1a,
43,
2a,
ed,
0b,
e9,
f8,
fd,
20,
1a,
f2,
f3,
e8,
81,
1c,
1e,
00,
0b,
40,
06,
06,
16,
e0,
ef,
ed,
f0,
fa,
17,
ed,
2b,
df,
f2,
ef,
fb,
10,
02,
07,
fd,
00,
0a,
3a,
f8,
0d,
fc,
fb,
19,
3b,
07,
10,
e2,
1a,
f3,
ff,
15,
f2,
fd,
11,
08,
f9,
0c,
06,
01,
f6,
0c,
06,
01,
f8,
15,
08,
fd,
07,
03,
03,
f9,
02,
02,
ed,
12,
0f,
02,
f3,
ec,
ec,
df,
06,
07,
05,
f6,
ea,
f9,
06,
0b,
fb,
15,
fd,
09,
f9,
f7,
f0,
0b,
26,
f8,
f3,
0b,
f7,
01,
09,
fc,
cf,
01,
f3,
fc,
00,
2a,
fc,
f7,
0e,
ec,
2f,
e2,
d8,
10,
e8,
06,
03,
17,
09,
e1,
46,
e9,
12,
16,
fc,
b2,
11,
e6,
01,
18,
e9,
f6,
0c,
db,
07,
ea,
01,
00,
e4,
f5,
05,
cf,
e6,
fe,
16,
f8,
fd,
b6,
03,
06,
fa,
de,
06,
02,
03,
fd,
3e,
10,
d4,
0d,
31,
d9,
36,
e1,
e2,
fe,
fb,
98,
f4,
00,
e0,
29,
02,
03,
0a,
fc,
f2,
28,
02,
e3,
02,
11,
02,
4b,
cf,
0c,
77,
2f,
0f,
12,
f2,
02,
15,
09,
f3,
f3,
2f,
3c,
30,
f0,
2e,
e1,
e9,
05,
0a,
0b,
ef,
10,
e4,
da,
f7,
1b,
dd,
04,
f3,
22,
fa,
02,
e5,
fb,
bc,
fa,
cb,
31,
26,
2e,
81,
eb,
0f,
f3,
24,
f7,
13,
ec,
14,
02,
1e,
0f,
07,
fc,
0b,
f3,
f9,
16,
05,
ff,
24,
3a,
18,
f0,
f1,
e9,
1c,
0d,
06,
f1,
0a,
16,
0c,
d3,
e7,
0f,
1d,
e0,
fb,
ef,
0d,
0e,
12,
01,
f3,
09,
f2,
f5,
0f,
fc,
dc,
00,
1a,
f5,
09,
c7,
f4,
0e,
30,
f3,
ee,
20,
ef,
15,
18,
12,
1a,
cb,
dc,
0c,
f6,
3a,
0f,
dc,
ea,
fb,
25,
08,
e9,
0b,
f5,
1b,
3c,
f8,
1b,
af,
0c,
1f,
09,
0b,
1c,
e5,
3f,
ff,
eb,
09,
09,
cd,
81,
ce,
ff,
08,
10,
01,
0d,
1b,
bf,
f7,
08,
04,
fd,
4f,
d6,
19,
f4,
ef,
01,
08,
f9,
f5,
fb,
11,
15,
2c,
3b,
ee,
0b,
f6,
f3,
2b,
13,
0a,
2b,
54,
f6,
0b,
ff,
38,
06,
fb,
08,
03,
16,
28,
c3,
fc,
15,
f7,
20,
9f,
3c,
00,
28,
bd,
d8,
f0,
09,
14,
ef,
08,
20,
df,
f5,
fd,
ef,
d3,
f9,
18,
37,
0a,
13,
22,
00,
9b,
d4,
c3,
3e,
21,
e4,
da,
26,
18,
0e,
be,
3b,
f5,
01,
09,
f7,
f6,
2b,
27,
fe,
29,
15,
1c,
18,
cb,
26,
09,
ab,
1c,
f7,
23,
dd,
df,
03,
f9,
33,
23,
24,
52,
31,
41,
03,
e1,
3f,
0c,
04,
c1,
fd,
e0,
3f,
07,
eb,
b6,
01,
24,
20,
ea,
28,
16,
3d,
54,
f1,
d8,
ed,
f6,
bd,
0f,
97,
2e,
f4,
1e,
1a,
f7,
cb,
15,
54,
1a,
09,
e7,
ce,
07,
d9,
f6,
ef,
fe,
fa,
ae,
03,
12,
1d,
2d,
17,
f9,
e4,
d3,
56,
e4,
f4,
02,
f2,
26,
2b,
f4,
d9,
e0,
e8,
a7,
2c,
fa,
f5,
f7,
04,
00,
05,
d8,
15,
f0,
ef,
0a,
0b,
04,
14,
07,
e5,
f7,
15,
f5,
d5,
c1,
f6,
f7,
f2,
18,
e8,
07,
d9,
f5,
04,
68,
f4,
ed,
e7,
e8,
e1,
12,
ed,
45,
da,
e2,
35,
91,
0b,
17,
f6,
f9,
ff,
e8,
f8,
f0,
1b,
fc,
e7,
9e,
39,
27,
e1,
3b,
11,
e8,
d6,
cc,
5d,
25,
12,
14,
fc,
f3,
db,
19,
f0,
f7,
0b,
fe,
0c,
22,
fd,
02,
1c,
ee,
e7,
fa,
2f,
f2,
07,
2f,
12,
c9,
08,
1b,
23,
08,
32,
51,
1f,
fd,
34,
f9,
08,
ff,
12,
f9,
9b,
07,
f7,
ff,
7f,
05,
10,
3e,
11,
03,
d6,
fa,
f4,
f4,
e8,
f1,
ef,
1a,
01,
08,
02,
0e,
ff,
eb,
d8,
fe,
e9,
16,
21,
e9,
fd,
23,
fb,
dd,
e0,
0c,
ff,
fb,
06,
0a,
0e,
d3,
cf,
fa,
01,
ec,
fe,
11,
10,
0f,
2e,
14,
f0,
1f,
fe,
fb,
0c,
4c,
09,
09,
fb,
0a,
ea,
01,
ee,
24,
f3,
c0,
ff,
fc,
ce,
69,
2a,
f5,
15,
0a,
28,
0b,
f2,
fe,
01,
0a,
09,
05,
1e,
df,
db,
1c,
c7,
f4,
fe,
16,
f7,
04,
ee,
e8,
0b,
04,
f8,
15,
04,
eb,
00,
00,
f4,
fd,
f6,
f9,
da,
22,
0b,
13,
f8,
28,
ff,
ff,
f9,
f6,
ff,
f6,
13,
01,
ff,
03,
fb,
f6,
1c,
01,
f6,
03,
f8,
06,
ee,
f6,
f7,
09,
0d,
2b,
1a,
f9,
00,
fb,
09,
15,
fa,
37,
01,
0f,
f1,
26,
ef,
e7,
1b,
ff,
02,
0c,
e9,
ea,
f2,
07,
f7,
f6,
fb,
00,
1a,
f7,
fb,
f4,
3a,
01,
0e,
03,
81,
ec,
f9,
15,
26,
08,
e4,
f9,
0a,
f8,
02,
eb,
0b,
f6,
f9,
14,
1c,
12,
04,
f0,
d4,
f3,
f5,
03,
f4,
fd,
d3,
1b,
04,
e7,
10,
ea,
15,
01,
f9,
f5,
fa,
f3,
03,
f8,
1c,
08,
02,
ff,
f5,
f7,
fc,
15,
fd,
e9,
07,
08,
ff,
01,
06,
05,
06,
ef,
0f,
02,
f8,
df,
0c,
03,
0d,
11,
fd,
0f,
fe,
fe,
00,
f3,
ff,
fe,
09,
fc,
f9,
f2,
07,
10,
fb,
e7,
05,
0b,
05,
06,
e6,
02,
01,
f8,
f4,
f8,
f6,
ff,
fc,
fd,
11,
f7,
d5,
dc,
f3,
11,
f3,
f1,
fa,
d8,
eb,
f1,
55,
1c,
e0,
03,
f6,
43,
03,
0b,
fa,
fc,
08,
30,
e6,
05,
cf,
f7,
d1,
07,
ea,
f9,
dc,
c9,
0c,
f8,
09,
24,
fc,
0d,
0c,
0d,
45,
2d,
cf,
0e,
0d,
22,
01,
df,
23,
e8,
7f,
04,
11,
c2,
eb,
c5,
fd,
f1,
16,
ee,
f0,
f5,
33,
fb,
fa,
15,
f5,
32,
ea,
12,
11,
53,
34,
ec,
94,
eb,
10,
0d,
fe,
e8,
2f,
16,
12,
df,
f7,
f7,
21,
f4,
0c,
1c,
fc,
fe,
fd,
0a,
eb,
ed,
01,
18,
17,
fd,
02,
11,
fa,
08,
3d,
e4,
22,
f3,
07,
00,
2f,
ef,
0c,
fc,
f6,
e8,
14,
03,
d2,
10,
1b,
f7,
07,
f6,
09,
fb,
05,
f8,
ff,
f9,
fd,
ff,
fd,
e1,
f6,
33,
11,
fc,
f9,
07,
10,
09,
06,
0f,
fa,
10,
f7,
fc,
f1,
f6,
17,
03,
f9,
11,
00,
05,
0a,
fe,
f9,
0a,
11,
01,
27,
f1,
f8,
06,
09,
00,
0b,
01,
fb,
1e,
05,
f6,
fd,
13,
e0,
09,
fc,
21,
0d,
0b,
ec,
ef,
0c,
24,
0f,
d8,
0a,
0a,
0c,
f2,
e8,
0b,
f4,
fd,
c1,
f5,
10,
f5,
f6,
fb,
1e,
eb,
f4,
e8,
df,
fd,
f6,
ef,
08,
0c,
1f,
f8,
fa,
fc,
e7,
08,
ee,
f4,
05,
01,
ed,
e4,
09,
e2,
0e,
e2,
ea,
f6,
ef,
da,
09,
06,
f5,
03,
21,
da,
0e,
00,
d5,
13,
06,
f0,
0c,
21,
10,
ff,
ee,
fb,
03,
e3,
0c,
1a,
db,
f7,
fc,
ef,
e8,
06,
fb,
03,
f9,
e5,
f9,
e8,
12,
08,
fd,
e7,
fd,
f6,
0d,
ef,
03,
ef,
fd,
fd,
d3,
21,
f7,
f2,
2f,
07,
f8,
fd,
01,
09,
ff,
10,
f1,
f6,
eb,
2d,
06,
05,
e6,
ee,
e6,
1b,
fe,
f1,
33,
e9,
1b,
05,
08,
e1,
f5,
eb,
00,
ef,
f7,
24,
1b,
fc,
ef,
fd,
0e,
c3,
02,
02,
16,
d2,
7f,
da,
00,
ee,
1f,
e1,
10,
0f,
fd,
01,
03,
ee,
fa,
cf,
df,
f9,
8d,
00,
ba,
fd,
09,
22,
42,
f2,
09,
2a,
d1,
49,
03,
d7,
29,
06,
eb,
f5,
e2,
e4,
00,
15,
0a,
e9,
ff,
c7,
cf,
1d,
d6,
ca,
23,
f8,
0b,
13,
ca,
29,
1c,
f9,
ea,
f5,
ce,
f8,
0f,
f4,
e4,
1b,
fc,
0f,
06,
dc,
d1,
0b,
d4,
e7,
38,
02,
ea,
29,
e6,
32,
25,
13,
ec,
1b,
f0,
e5,
2b,
0d,
f5,
ed,
ef,
f6,
fd,
fb,
e0,
f4,
0b,
18,
20,
f4,
f7,
d7,
2d,
04,
0b,
06,
c1,
06,
f8,
0e,
f0,
ec,
b4,
33,
15,
33,
fe,
00,
f2,
f3,
06,
07,
e8,
eb,
ef,
ee,
23,
17,
d1,
fc,
fc,
13,
19,
03,
f3,
33,
ca,
15,
03,
1c,
3b,
cd,
0a,
27,
f3,
f3,
e4,
d4,
a8,
df,
ed,
07,
0b,
f9,
fc,
01,
f4,
fb,
81,
39,
f1,
ec,
df,
e3,
ef,
f1,
d7,
d1,
de,
ff,
90,
fb,
12,
0f,
21,
13,
9e,
fc,
e2,
ba,
f9,
e9,
9d,
1d,
bf,
eb,
f5,
db,
22,
d6,
e2,
11,
f0,
f5,
f5,
39,
de,
e6,
0d,
e2,
07,
37,
d0,
f4,
ed,
ed,
f3,
c4,
de,
22,
15,
14,
18,
2e,
f3,
f8,
43,
eb,
dc,
5e,
fd,
4b,
46,
d8,
d3,
0b,
ff,
18,
0b,
17,
12,
05,
f7,
08,
da,
16,
eb,
26,
00,
11,
01,
ed,
07,
fa,
20,
a2,
1f,
f3,
0d,
1d,
13,
e0,
38,
0a,
f8,
c8,
eb,
0b,
de,
fd,
d5,
34,
3a,
fe,
40,
0e,
35,
0e,
e7,
17,
13,
14,
ee,
fe,
f9,
ed,
1d,
07,
07,
ff,
00,
fd,
ed,
02,
07,
0d,
ee,
d6,
fc,
02,
ec,
16,
f9,
fd,
f8,
0c,
e0,
dd,
eb,
e7,
fb,
f1,
f9,
c2,
18,
dd,
d9,
fc,
22,
f5,
fd,
18,
01,
fb,
17,
3a,
0d,
f9,
ed,
05,
f7,
f5,
08,
ea,
f3,
07,
11,
23,
19,
81,
14,
f6,
09,
e8,
0b,
f5,
29,
00,
04,
0d,
ff,
bc,
20,
0f,
0c,
dc,
1a,
08,
00,
03,
ec,
ea,
04,
e3,
13,
fe,
00,
12,
f7,
15,
ca,
24,
18,
02,
ef,
13,
fb,
0c,
fa,
0c,
cf,
20,
0a,
ef,
c9,
15,
29,
fe,
e2,
fb,
f6,
0a,
07,
05,
04,
10,
ed,
39,
11,
f4,
f4,
e9,
eb,
22,
0f,
f9,
f5,
03,
fc,
06,
f6,
0c,
fa,
f2,
0c,
f6,
f8,
12,
e1,
f9,
06,
09,
08,
02,
01,
fc,
ee,
f9,
ff,
fe,
1e,
1e,
07,
05,
0a,
1d,
00,
07,
02,
fd,
0f,
de,
13,
07,
01,
0d,
d7,
16,
11,
16,
f7,
00,
f0,
f4,
06,
e0,
f5,
d8,
05,
99,
f1,
05,
26,
3b,
c0,
24,
0f,
e6,
e4,
fc,
ee,
f9,
de,
9d,
23,
38,
f2,
fc,
f2,
1f,
2b,
c2,
e0,
e6,
ec,
47,
e8,
d7,
16,
df,
e1,
03,
fb,
fa,
e5,
b3,
14,
15,
e3,
df,
18,
ed,
14,
13,
37,
ff,
2e,
d1,
fa,
f4,
d0,
e9,
e1,
1a,
07,
1a,
29,
01,
24,
1d,
e5,
ff,
ca,
e0,
21,
a7,
ee,
c8,
0f,
0b,
2a,
20,
24,
13,
06,
28,
20,
ef,
b5,
06,
14,
ca,
dc,
fa,
05,
02,
32,
b1,
06,
eb,
e2,
2c,
cc,
49,
54,
28,
f9,
e1,
13,
cc,
e4,
20,
ee,
f3,
4e,
1d,
1e,
09,
25,
ce,
ec,
ba,
f0,
0a,
f0,
c9,
05,
03,
ed,
f2,
c0,
24,
f5,
38,
e9,
c9,
38,
19,
f9,
4b,
08,
3c,
da,
07,
e8,
e7,
2b,
e2,
26,
f1,
e5,
e5,
26,
ed,
b3,
2e,
10,
12,
cf,
43,
f4,
b1,
03,
f9,
5b,
ee,
f3,
03,
b6,
e4,
0f,
cd,
e7,
01,
fc,
d8,
fa,
14,
e9,
21,
ca,
de,
cf,
20,
0a,
ff,
06,
f3,
1c,
42,
e6,
10,
02,
81,
05,
0c,
06,
ec,
bc,
c6,
d3,
1e,
de,
ea,
e4,
f8,
d6,
f0,
05,
47,
b5,
1c,
02,
ba,
fe,
26,
cf,
20,
02,
f8,
fe,
2d,
ff,
fe,
fd,
01,
d9,
04,
31,
de,
d2,
c7,
03,
3e,
f1,
32,
0e,
07,
05,
c6,
e7,
ea,
07,
0c,
04,
5c,
d1,
13,
81,
60,
e7,
1e,
e8,
7b,
fa,
ec,
04,
e3,
5f,
e6,
fe,
f8,
b6,
fd,
01,
e4,
e1,
e7,
03,
44,
10,
34,
f3,
b3,
1e,
f4,
17,
21,
01,
01,
ff,
0e,
11,
fc,
49,
1b,
1c,
f1,
01,
36,
b9,
10,
07,
f0,
be,
fa,
e7,
59,
41,
d7,
e3,
10,
09,
e7,
9d,
10,
01,
05,
c9,
ff,
02,
14,
f4,
31,
26,
d1,
17,
03,
1b,
10,
35,
e7,
f1,
f5,
e2,
f4,
4a,
1d,
da,
cb,
ee,
12,
13,
06,
36,
f0,
f5,
1c,
0b,
b3,
02,
27,
e2,
ea,
10,
3f,
00,
13,
df,
f2,
f8,
f3,
12,
02,
fe,
f1,
e3,
df,
e6,
0b,
0b,
11,
23,
b8,
eb,
ec,
f0,
f0,
0a,
fa,
fc,
0b,
0a,
1b,
e5,
ff,
04,
0b,
ec,
d2,
3d,
23,
1d,
21,
b3,
0f,
f3,
e5,
eb,
21,
fd,
02,
f4,
fa,
db,
28,
dd,
df,
f2,
01,
0a,
dc,
ff,
0a,
ee,
d4,
02,
fb,
08,
46,
0d,
f6,
13,
0c,
eb,
08,
28,
e3,
dc,
eb,
f9,
0a,
d2,
d1,
0d,
17,
f3,
fd,
e7,
fd,
11,
08,
06,
03,
b5,
f1,
09,
b6,
27,
d1,
cd,
25,
08,
1e,
fa,
e7,
f8,
1c,
01,
10,
27,
f4,
f5,
05,
ef,
f2,
e5,
05,
18,
ea,
f5,
08,
0a,
23,
0a,
e5,
19,
e6,
05,
e5,
fa,
f4,
06,
f5,
09,
06,
15,
ea,
03,
fa,
d6,
cd,
04,
09,
f6,
0b,
0f,
d3,
18,
04,
d4,
fe,
08,
d1,
fd,
ed,
e7,
16,
e8,
fe,
f5,
f9,
4e,
f3,
33,
12,
1a,
f3,
ee,
b6,
08,
fc,
ca,
0e,
09,
10,
0c,
2f,
05,
25,
81,
05,
02,
0b,
d6,
f7,
0a,
c3,
f6,
0f,
0d,
03,
f1,
22,
e8,
f5,
dc,
02,
14,
09,
06,
e5,
07,
f9,
e6,
f6,
fe,
05,
ff,
0f,
07,
ea,
34,
08,
fa,
15,
11,
03,
fa,
f7,
07,
03,
1c,
35,
15,
d2,
df,
bf,
08,
ef,
04,
0f,
fb,
1e,
0a,
dc,
fa,
29,
1d,
ea,
19,
da,
53,
c1,
ea,
bd,
ed,
06,
91,
06,
6b,
d5,
ff,
09,
13,
0f,
fd,
e8,
de,
41,
24,
11,
be,
ec,
f1,
13,
fb,
11,
4a,
25,
0d,
0d,
50,
be,
cd,
17,
07,
5b,
13,
0f,
0a,
10,
e9,
dd,
fd,
32,
2d,
e9,
d6,
ec,
f0,
1a,
4b,
2a,
0a,
fa,
e3,
16,
15,
d6,
02,
3f,
e5,
e3,
8d,
07,
e8,
33,
e2,
17,
55,
19,
ed,
17,
ef,
7f,
c6,
44,
d9,
53,
31,
11,
16,
1a,
c8,
d7,
50,
04,
b8,
e1,
c3,
4a,
e4,
9e,
0e,
d6,
33,
06,
98,
9e,
f4,
88,
1e,
de,
fe,
16,
06,
04,
fd,
1d,
f4,
10,
b9,
1d,
23,
ff,
d2,
b6,
f7,
0b,
0a,
f6,
07,
1c,
4b,
d4,
03,
08,
e1,
f9,
d4,
16,
0d,
24,
08,
71,
f6,
64,
1b,
db,
df,
06,
07,
03,
ea,
05,
ca,
f7,
fd,
18,
05,
27,
f5,
fd,
06,
0f,
20,
ff,
dc,
28,
fb,
d3,
19,
06,
d9,
07,
e1,
2d,
10,
2c,
23,
e7,
e2,
3f,
1e,
21,
09,
11,
da,
f3,
ff,
e6,
d7,
29,
f3,
ef,
fa,
1d,
0a,
f8,
1f,
02,
0e,
08,
d0,
b9,
01,
ee,
ee,
fd,
04,
ed,
ea,
22,
20,
1c,
f3,
c1,
de,
98,
da,
d0,
ef,
db,
f9,
13,
9a,
bc,
fe,
11,
d3,
ee,
05,
f9,
e2,
d7,
40,
cc,
ed,
ec,
25,
fe,
1d,
e5,
23,
ea,
f6,
10,
e3,
c7,
f5,
e6,
fa,
2c,
dd,
11,
46,
de,
ff,
0c,
fe,
f6,
fc,
ed,
2f,
28,
fc,
e6,
22,
03,
f8,
ce,
df,
a5,
18,
e2,
e6,
db,
11,
e0,
cc,
fa,
23,
e9,
ee,
15,
eb,
ef,
04,
dc,
cd,
ed,
a5,
34,
42,
11,
49,
fc,
1a,
0a,
f5,
53,
1e,
11,
07,
11,
3c,
dd,
e6,
e0,
e3,
e6,
b2,
e9,
0a,
d4,
fe,
06,
16,
e6,
ed,
0a,
14,
85,
05,
4b,
25,
00,
dd,
23,
f1,
d2,
17,
dc,
22,
03,
04,
b2,
7f,
f2,
2b,
0d,
12,
e1,
e2,
19,
04,
fb,
0b,
d4,
f8,
d8,
d4,
8c,
ec,
29,
0e,
f9,
40,
25,
ff,
f5,
ec,
48,
1c,
0f,
e0,
ca,
cc,
f2,
ab,
de,
dc,
ea,
ca,
b0,
29,
f8,
f0,
1f,
f0,
fa,
d9,
e6,
38,
23,
d1,
2c,
1f,
e0,
b7,
f3,
d4,
13,
f8,
29,
ab,
08,
e2,
1c,
fe,
d6,
17,
29,
03,
ff,
fb,
eb,
01,
2e,
81,
f3,
e6,
21,
ce,
14,
d2,
cd,
eb,
b2,
03,
08,
f2,
0e,
10,
e2,
11,
3b,
c2,
da,
0b,
2a,
26,
d6,
07,
04,
00,
ed,
21,
23,
f7,
f9,
0a,
ca,
fd,
08,
f6,
1a,
0d,
fb,
11,
21,
f2,
cc,
2c,
fc,
df,
cd,
17,
1b,
d4,
07,
07,
29,
e2,
14,
1a,
16,
ec,
0f,
0f,
f7,
ce,
ca,
02,
f1,
12,
01,
e1,
f1,
ff,
04,
1b,
f3,
e6,
fc,
1f,
0a,
29,
14,
0b,
f5,
0b,
25,
e4,
dd,
f4,
f9,
aa,
fd,
d7,
24,
c9,
12,
25,
12,
15,
f7,
44,
21,
01,
27,
f9,
ec,
d9,
ed,
45,
ed,
d2,
23,
29,
a3,
2b,
fe,
2f,
1a,
03,
f4,
b9,
b4,
e7,
f8,
1b,
f0,
f0,
04,
f9,
c4,
d9,
f9,
ce,
c0,
d0,
ff,
2a,
e0,
04,
1c,
df,
22,
c2,
ff,
b5,
06,
e1,
ca,
07,
24,
b1,
ca,
35,
be,
e1,
df,
10,
e5,
2a,
c1,
05,
c4,
08,
17,
33,
50,
fe,
fd,
e5,
e2,
ed,
14,
fc,
13,
d5,
34,
1e,
fe,
09,
e9,
dc,
48,
db,
00,
41,
01,
20,
2c,
0d,
03,
f1,
da,
2d,
f8,
f5,
ef,
df,
00,
28,
1a,
fa,
f8,
ac,
b4,
24,
ef,
29,
19,
20,
21,
11,
01,
f5,
15,
07,
00,
de,
19,
fa,
01,
e8,
f9,
f0,
43,
16,
de,
d5,
20,
17,
05,
ec,
02,
4b,
25,
12,
a0,
f1,
ec,
fe,
f4,
e7,
e4,
fe,
00,
b3,
00,
de,
1c,
21,
e9,
f3,
10,
12,
59,
e5,
99,
1a,
1b,
1b,
0f,
04,
10,
fc,
27,
fd,
0e,
24,
16,
03,
2b,
d6,
0d,
c1,
f3,
fb,
04,
e7,
24,
f4,
cf,
ff,
0c,
f1,
05,
08,
e7,
d3,
d0,
fe,
06,
28,
03,
ef,
ee,
d6,
e1,
5d,
cc,
01,
7f,
b3,
d8,
0a,
39,
ed,
f9,
f5,
27,
12,
0e,
10,
e9,
10,
16,
ee,
06,
2e,
f8,
e8,
11,
06,
e8,
fd,
f8,
eb,
fa,
0c,
f5,
08,
fd,
ee,
13,
fb,
01,
36,
03,
f6,
fd,
ff,
09,
e1,
15,
06,
20,
0a,
f8,
05,
de,
ec,
e7,
fd,
ec,
ef,
f6,
06,
05,
ee,
20,
fc,
07,
fd,
ff,
24,
25,
f8,
ff,
e1,
0c,
15,
f1,
0d,
f2,
d7,
ff,
cc,
0b,
30,
f5,
03,
0b,
ce,
b2,
29,
0f,
0b,
15,
ee,
24,
14,
e7,
e9,
e2,
23,
ef,
e9,
f7,
0c,
fa,
15,
fa,
1f,
0d,
fa,
e9,
d3,
1f,
14,
10,
e4,
f3,
e3,
0c,
f1,
cd,
15,
db,
f2,
01,
0f,
16,
03,
04,
1c,
04,
09,
1d,
10,
ef,
ea,
0c,
f5,
02,
0e,
f3,
e6,
fb,
16,
fb,
e9,
dc,
3a,
c3,
07,
fe,
10,
7f,
17,
ed,
08,
e4,
1b,
17,
f9,
f1,
18,
ea,
0e,
cf,
0c,
0a,
00,
3d,
f6,
ad,
33,
ff,
18,
fa,
fc,
fd,
ef,
2f,
2e,
1c,
f5,
b8,
02,
fd,
ec,
06,
f1,
f2,
42,
1b,
1b,
23,
f8,
fe,
f3,
14,
1d,
eb,
0b,
00,
e1,
0b,
15,
09,
f2,
03,
05,
f8,
04,
13,
0e,
fa,
03,
e6,
06,
fe,
f3,
fb,
1f,
16,
f4,
1f,
ed,
de,
f0,
28,
f4,
f1,
0d,
f6,
10,
f2,
fe,
f0,
f9,
05,
ef,
05,
04,
10,
e9,
04,
ee,
08,
fc,
0e,
1e,
f0,
fa,
02,
0e,
f3,
0b,
0e,
e4,
f9,
fb,
f2,
02,
fc,
00,
e9,
0d,
19,
fb,
03,
fa,
ed,
e9,
07,
ec,
fb,
ee,
04,
00,
25,
14,
07,
e3,
eb,
33,
ec,
f9,
0f,
0c,
7f,
f3,
18,
09,
ff,
fb,
ed,
f4,
be,
04,
f6,
1c,
f9,
ec,
06,
e0,
0a,
f0,
30,
0a,
fb,
ec,
30,
ef,
ef,
01,
ef,
05,
1c,
ff,
f1,
1a,
13,
d2,
15,
09,
ec,
01,
03,
13,
d3,
08,
0f,
f5,
f9,
01,
24,
27,
f3,
01,
fa,
fd,
21,
24,
f6,
01,
f2,
fe,
e8,
ec,
05,
eb,
fd,
f2,
06,
ed,
0c,
10,
13,
f7,
e3,
d5,
fe,
b0,
1c,
db,
00,
41,
f9,
03,
01,
b4,
1a,
e3,
6f,
0b,
a0,
f8,
0c,
fd,
fe,
ee,
ed,
f7,
f1,
8f,
ff,
16,
fe,
ca,
f1,
33,
e1,
ee,
03,
2e,
f8,
31,
b0,
03,
e8,
03,
26,
fe,
e8,
02,
fe,
01,
fe,
17,
ef,
09,
fa,
01,
0a,
f8,
17,
f8,
f5,
01,
fb,
1a,
f0,
f7,
f1,
1f,
ff,
f1,
0e,
fc,
f8,
f0,
d3,
ea,
14,
fe,
0e,
f4,
05,
0b,
ee,
00,
fb,
f9,
fb,
fb,
0e,
11,
04,
03,
1c,
18,
1f,
f5,
f9,
18,
e3,
2c,
10,
f8,
14,
06,
09,
02,
f8,
f1,
e0,
0d,
06,
e7,
05,
f9,
0d,
30,
e3,
02,
ed,
e4,
fe,
f0,
c6,
fb,
f0,
e6,
fb,
1d,
fc,
f3,
f2,
16,
07,
f9,
13,
07,
00,
07,
ee,
13,
ed,
ff,
4f,
fb,
10,
08,
c0,
f6,
ef,
f9,
f6,
c8,
c0,
00,
04,
12,
02,
ee,
15,
fb,
e0,
58,
c3,
07,
ba,
0d,
5a,
fd,
fb,
04,
d3,
1c,
f6,
d3,
1b,
f7,
31,
0b,
04,
fc,
09,
ff,
33,
f5,
01,
e3,
20,
0d,
23,
f8,
03,
49,
03,
ac,
07,
25,
df,
fe,
0f,
42,
0e,
fc,
04,
06,
09,
1e,
06,
04,
df,
f6,
ef,
f4,
0c,
07,
ec,
20,
7f,
fb,
f7,
a4,
fb,
0a,
f5,
df,
14,
22,
2e,
05,
d2,
d0,
f4,
37,
f9,
02,
f6,
f6,
0d,
f1,
08,
15,
0c,
02,
22,
11,
17,
19,
fb,
05,
fa,
e3,
c4,
17,
c2,
13,
bd,
10,
00,
0a,
bf,
03,
ea,
20,
05,
5d,
02,
fc,
27,
03,
f0,
e2,
09,
f0,
28,
fa,
13,
0d,
e9,
09,
03,
f1,
37,
b6,
0b,
01,
19,
e9,
07,
f5,
fa,
0d,
15,
f3,
17,
e3,
0c,
f8,
33,
1d,
11,
e0,
f2,
c2,
bb,
be,
d5,
d5,
2d,
ee,
e6,
f2,
0a,
de,
eb,
e7,
d7,
24,
e2,
39,
ec,
19,
62,
15,
9d,
ea,
15,
b2,
01,
1b,
09,
a9,
0a,
06,
f3,
ef,
06,
de,
ff,
e2,
c8,
30,
d0,
08,
22,
c3,
4d,
8d,
ec,
28,
0a,
20,
13,
ce,
c4,
a7,
b1,
f3,
d7,
12,
db,
c9,
e3,
15,
70,
93,
ea,
eb,
31,
b0,
1d,
67,
3e,
ac,
1c,
14,
67,
c4,
f3,
06,
79,
3e,
34,
eb,
0b,
00,
21,
e5,
10,
c9,
f3,
15,
15,
fa,
09,
c4,
d2,
c5,
01,
db,
c1,
26,
49,
2c,
e2,
1b,
e6,
0e,
32,
10,
2e,
ff,
0a,
e3,
66,
0b,
eb,
b7,
b0,
ce,
39,
09,
06,
da,
0f,
0f,
b0,
15,
15,
9a,
14,
02,
f7,
18,
d5,
fb,
3e,
28,
19,
43,
fd,
bf,
f4,
f0,
13,
ea,
0f,
34,
c6,
c1,
fa,
ec,
2b,
ce,
e8,
33,
0d,
19,
34,
f1,
ef,
81,
f5,
f7,
f8,
0f,
fe,
11,
ed,
d5,
04,
0f,
3a,
0d,
23,
f3,
31,
30,
03,
17,
03,
f8,
e8,
00,
ee,
00,
24,
12,
fc,
fe,
75,
cd,
c6,
06,
02,
f1,
f8,
0e,
fd,
f5,
fa,
dd,
f8,
00,
01,
f9,
f4,
05,
ed,
02,
e5,
f4,
f7,
e1,
e9,
0b,
0e,
0e,
f0,
06,
f4,
03,
f5,
ef,
fd,
02,
03,
0a,
ec,
00,
ec,
0e,
f5,
f7,
03,
f1,
07,
0a,
03,
f6,
fe,
07,
f2,
03,
04,
f2,
03,
0a,
f8,
01,
13,
0b,
f6,
fc,
ff,
19,
de,
01,
04,
e6,
f0,
f3,
ff,
de,
0b,
ee,
02,
02,
f0,
f3,
f6,
03,
00,
08,
e8,
fc,
fe,
04,
05,
f6,
05,
11,
0a,
ec,
1b,
06,
fa,
28,
0a,
f7,
fc,
01,
01,
06,
06,
e7,
f2,
03,
14,
ff,
09,
e8,
fd,
0e,
08,
f2,
01,
15,
f5,
10,
08,
06,
d5,
f0,
e7,
02,
f5,
03,
16,
12,
02,
f0,
f5,
31,
ce,
27,
d8,
ea,
f6,
97,
e5,
f8,
7f,
17,
03,
cc,
f8,
0f,
f8,
16,
1e,
0d,
ee,
db,
ea,
dc,
f2,
f5,
04,
12,
1e,
fd,
fb,
1a,
1a,
03,
02,
f4,
f7,
04,
06,
ed,
19,
f3,
00,
13,
de,
f3,
f4,
e1,
d7,
e2,
e4,
bc,
06,
fa,
02,
f2,
2e,
11,
03,
f1,
18,
07,
f9,
e4,
f6,
49,
0c,
d8,
01,
ec,
26,
e2,
fe,
47,
cd,
ee,
12,
2c,
ee,
10,
0b,
3b,
27,
11,
1a,
11,
d7,
e7,
05,
ff,
f4,
fc,
fa,
f7,
0d,
df,
ec,
e0,
46,
10,
de,
f2,
ec,
f5,
f6,
d8,
ef,
f5,
11,
06,
f1,
2c,
ed,
08,
16,
d8,
0b,
13,
e7,
18,
47,
ea,
41,
db,
02,
df,
21,
35,
f8,
11,
f4,
07,
c8,
fa,
c0,
f0,
0a,
03,
7f,
38,
de,
0a,
2f,
e2,
53,
e1,
e4,
26,
f9,
c8,
16,
28,
36,
d3,
c1,
e3,
e5,
e5,
0b,
f9,
04,
d5,
ee,
ef,
af,
15,
fb,
e5,
0e,
1c,
ec,
04,
e8,
5b,
fa,
40,
04,
12,
09,
d5,
f3,
2f,
f4,
b5,
1d,
5a,
e1,
19,
b8,
eb,
0b,
b3,
e1,
06,
fd,
e9,
0e,
0b,
e5,
01,
f4,
ef,
2a,
17,
10,
ff,
f8,
0e,
f6,
13,
fd,
1f,
00,
0d,
03,
f6,
0b,
02,
fd,
1d,
f3,
f0,
03,
f3,
04,
e9,
ff,
0c,
f3,
f3,
0f,
05,
1c,
de,
11,
e5,
06,
1f,
2a,
03,
15,
13,
ea,
e5,
fc,
02,
f3,
f2,
2b,
03,
f1,
02,
06,
0d,
eb,
01,
04,
cc,
0b,
f3,
c1,
06,
e7,
25,
f5,
1e,
03,
81,
27,
61,
f0,
0c,
f3,
f6,
fc,
20,
12,
10,
16,
0d,
d9,
f3,
f5,
ea,
f8,
ef,
29,
ed,
0b,
f7,
ed,
23,
f9,
e4,
ed,
f3,
fa,
10,
f8,
2a,
c8,
10,
09,
cb,
f0,
ea,
ba,
0f,
02,
98,
20,
0c,
fe,
ed,
f3,
fb,
fb,
d5,
ec,
f3,
02,
0c,
f6,
fe,
0f,
e8,
31,
fe,
02,
02,
31,
e2,
bb,
12,
15,
1c,
0b,
eb,
f7,
03,
1b,
41,
02,
1c,
1a,
c2,
39,
dd,
30,
00,
0d,
00,
f4,
e9,
03,
d7,
e2,
1f,
e2,
ef,
f0,
01,
0a,
35,
33,
10,
fa,
ed,
10,
1e,
16,
38,
0e,
ce,
29,
16,
cd,
2c,
e3,
27,
9f,
1f,
e7,
16,
0d,
10,
09,
1c,
0c,
f1,
13,
2e,
fe,
07,
05,
ec,
f1,
f1,
34,
f2,
13,
f3,
c2,
ef,
18,
fe,
11,
0c,
f6,
f8,
f6,
1c,
ef,
0b,
ee,
06,
0c,
0a,
f5,
fe,
f6,
e3,
17,
e8,
06,
06,
01,
16,
15,
f7,
e0,
04,
18,
26,
03,
02,
f9,
06,
05,
e7,
0e,
f3,
f6,
36,
fb,
ef,
f5,
0a,
02,
f4,
15,
03,
f6,
ed,
fc,
fb,
09,
2a,
f1,
02,
d7,
f4,
f2,
f9,
eb,
01,
0f,
eb,
1c,
08,
04,
fa,
01,
1d,
0e,
1a,
fb,
ff,
24,
ff,
d5,
f5,
e9,
f1,
15,
09,
07,
04,
fd,
ed,
e5,
e9,
00,
ed,
03,
e4,
fc,
cc,
fe,
0a,
d5,
fa,
0b,
e9,
ff,
ec,
ed,
06,
ee,
06,
0b,
16,
fb,
e9,
ee,
f9,
e2,
0a,
17,
01,
e3,
0d,
33,
e8,
10,
13,
fd,
11,
f4,
ff,
09,
09,
03,
fa,
09,
0f,
2c,
ea,
eb,
22,
db,
e2,
00,
05,
f9,
91,
dd,
ee,
1a,
13,
1f,
ee,
c9,
eb,
00,
f8,
bf,
0e,
fe,
b2,
fb,
e7,
f5,
df,
ef,
bf,
b3,
d8,
e3,
fd,
dc,
e3,
41,
fe,
0f,
00,
f4,
25,
df,
f5,
d0,
c9,
7f,
01,
d3,
ff,
db,
10,
f4,
e9,
e4,
fd,
0e,
de,
eb,
e0,
ae,
d0,
fd,
e6,
e0,
e1,
07,
ba,
03,
e4,
d3,
09,
27,
46,
2a,
f4,
04,
3b,
1f,
2f,
ec,
11,
d7,
2c,
e9,
df,
f7,
f4,
e2,
01,
0f,
18,
0d,
29,
e9,
31,
01,
f1,
15,
dd,
b4,
18,
f2,
f9,
01,
ec,
05,
16,
f2,
da,
13,
d7,
01,
17,
e9,
01,
f2,
1a,
cf,
02,
ef,
3e,
f6,
08,
01,
e6,
cf,
0d,
30,
f5,
e7,
26,
ed,
16,
36,
09,
3f,
dc,
d7,
f8,
f0,
3f,
ec,
13,
fa,
26,
3f,
e0,
0c,
da,
16,
00,
f6,
eb,
13,
ce,
f0,
1e,
af,
ce,
b6,
f4,
08,
08,
c5,
31,
1b,
f6,
f5,
ee,
f7,
d9,
2b,
ea,
03,
12,
d9,
18,
20,
3b,
ed,
16,
49,
01,
93,
0c,
05,
fd,
2f,
08,
0b,
22,
0d,
06,
d4,
2f,
d2,
d5,
f1,
dc,
d9,
a1,
c0,
c9,
e1,
f6,
df,
ff,
f5,
e4,
f8,
c8,
1f,
11,
04,
12,
fe,
2a,
18,
45,
0e,
ab,
d4,
c7,
c3,
18,
09,
ee,
10,
e0,
ac,
81,
eb,
0c,
04,
12,
fa,
ae,
06,
f1,
0f,
3d,
eb,
e8,
eb,
ea,
f7,
0b,
eb,
26,
ff,
e3,
21,
ff,
fa,
ff,
09,
00,
0f,
07,
0b,
ed,
c7,
ed,
ed,
dc,
04,
11,
0d,
17,
eb,
ed,
fb,
21,
26,
df,
31,
0d,
42,
27,
14,
fe,
df,
0e,
0e,
08,
0a,
22,
e8,
f3,
12,
de,
fa,
ef,
f7,
c9,
ff,
f5,
22,
01,
10,
b0,
da,
01,
ce,
4c,
d1,
24,
4e,
d7,
25,
e4,
23,
df,
dc,
f5,
19,
27,
d8,
f1,
f3,
2e,
08,
20,
ed,
c9,
fa,
0d,
de,
de,
81,
f1,
08,
cd,
ef,
ba,
f7,
f0,
f2,
c0,
62,
f2,
08,
c4,
de,
f0,
e4,
2d,
08,
39,
13,
3c,
18,
e1,
35,
f3,
04,
1f,
ba,
ed,
08,
e7,
f6,
1a,
01,
05,
27,
08,
d5,
0e,
52,
f2,
3c,
4d,
37,
b4,
48,
fa,
fa,
53,
ed,
5a,
ed,
49,
04,
bf,
04,
35,
00,
2c,
04,
0a,
07,
cf,
f0,
25,
3a,
1e,
ca,
ea,
0f,
f3,
35,
0e,
0b,
fd,
03,
fd,
f7,
03,
d3,
df,
37,
e7,
e0,
19,
41,
b9,
f5,
9d,
e6,
2d,
1f,
ea,
01,
05,
10,
e2,
f0,
01,
1e,
ce,
25,
f7,
f7,
fd,
1b,
d3,
03,
08,
e9,
0b,
ed,
18,
02,
0e,
3b,
2b,
e5,
e1,
03,
07,
fa,
0e,
13,
00,
04,
1e,
13,
19,
1c,
08,
1e,
21,
fc,
0c,
13,
24,
36,
ea,
07,
f8,
e4,
1c,
f3,
32,
19,
1a,
f7,
f4,
d4,
16,
24,
17,
ea,
10,
ed,
0f,
f3,
26,
f6,
e0,
0d,
39,
fc,
04,
35,
f9,
bb,
cb,
13,
31,
81,
f8,
f8,
10,
30,
e8,
24,
06,
fb,
be,
9b,
eb,
2a,
d4,
db,
db,
35,
5d,
08,
e5,
ef,
05,
57,
dd,
1b,
dd,
15,
09,
b0,
fb,
e5,
02,
26,
29,
0a,
14,
42,
1d,
e1,
1d,
f2,
3f,
d8,
d5,
31,
e5,
3a,
c2,
1a,
17,
04,
37,
34,
f2,
e6,
49,
fa,
dd,
19,
e1,
d2,
30,
11,
ec,
06,
f1,
53,
0a,
f3,
47,
ff,
9d,
05,
f3,
cc,
2a,
fa,
02,
ec,
ff,
12,
31,
e2,
db,
a7,
2a,
48,
36,
f4,
ec,
35,
19,
e8,
2e,
0e,
d5,
f5,
38,
18,
16,
22,
27,
f8,
fa,
dc,
d3,
f9,
d5,
18,
e1,
1d,
08,
01,
97,
32,
d8,
1f,
41,
1a,
2d,
c5,
09,
3f,
f1,
e4,
d9,
f1,
19,
e7,
32,
e6,
11,
e3,
3b,
0d,
0a,
01,
da,
36,
0c,
03,
0f,
f6,
ee,
d9,
4c,
2d,
ec,
e7,
81,
ca,
f9,
e1,
be,
0b,
28,
22,
20,
2c,
43,
0a,
13,
c9,
e9,
29,
2c,
19,
e7,
bd,
24,
d5,
24,
3f,
1b,
aa,
9f,
cd,
26,
14,
02,
02,
da,
fc,
e8,
0b,
e8,
3c,
d7,
12,
6c,
e4,
c7,
f2,
02,
52,
29,
52,
66,
f0,
0e,
20,
2f,
3b,
d8,
00,
fb,
ec,
98,
63,
d4,
27,
d1,
f6,
1b,
1f,
2c,
e5,
cd,
25,
25,
e6,
6d,
40,
fd,
2c,
1b,
da,
0d,
1a,
f2,
30,
0f,
c8,
e4,
e2,
22,
45,
fa,
b7,
2a,
d2,
e4,
0e,
04,
f4,
f0,
df,
fb,
3e,
0e,
2c,
2a,
78,
ca,
cc,
58,
1d,
49,
b2,
f2,
d6,
f1,
fb,
ee,
77,
3c,
8e,
81,
16,
eb,
11,
b3,
27,
de,
0e,
e5,
0c,
04,
e6,
ab,
18,
da,
e6,
09,
16,
12,
64,
f4,
13,
d1,
30,
3d,
e7,
b9,
bb,
e0,
0d,
1f,
74,
4b,
01,
ef,
2d,
32,
f0,
2a,
17,
12,
16,
38,
52,
dd,
25,
0d,
05,
09,
eb,
fd,
02,
48,
f9,
f7,
f7,
e5,
e7,
02,
29,
21,
01,
d1,
ec,
cb,
0c,
10,
de,
c7,
f4,
4d,
ec,
e2,
16,
fe,
fb,
18,
df,
ff,
30,
07,
08,
23,
db,
10,
d7,
12,
f8,
2f,
09,
0d,
f1,
fe,
15,
d8,
fc,
b9,
4c,
f1,
e7,
ec,
32,
ba,
00,
c7,
f4,
f6,
08,
11,
e7,
f4,
f1,
17,
17,
d8,
f5,
1b,
e4,
ec,
f5,
09,
e7,
11,
ee,
02,
ee,
13,
dc,
fa,
03,
f2,
fa,
ff,
01,
eb,
0b,
f9,
df,
ee,
03,
0c,
f0,
ee,
f7,
ed,
1b,
f4,
13,
f8,
05,
f3,
fe,
f9,
13,
d1,
cc,
1d,
ef,
ee,
0d,
00,
10,
fd,
e8,
1a,
db,
00,
f1,
13,
f2,
f3,
e1,
f4,
17,
04,
d5,
07,
1d,
f9,
02,
3a,
0c,
09,
de,
14,
16,
e7,
20,
db,
fd,
c7,
29,
ea,
d9,
2d,
e6,
ee,
f0,
ee,
f4,
cc,
e5,
0c,
fe,
e2,
2a,
f7,
fa,
fa,
07,
12,
f2,
18,
04,
d9,
fd,
24,
db,
23,
f5,
f1,
81,
d2,
e1,
de,
f3,
19,
27,
fb,
fc,
ef,
10,
f2,
f7,
0c,
1d,
16,
04,
38,
05,
fa,
0c,
e1,
00,
ca,
da,
f4,
0d,
e0,
d7,
fc,
26,
f1,
08,
08,
dd,
09,
00,
ee,
cd,
f2,
e3,
e3,
12,
fc,
de,
e5,
04,
e6,
23,
07,
1c,
f6,
e7,
f4,
18,
fc,
1c,
f6,
ed,
dd,
07,
ff,
02,
c8,
03,
23,
2c,
01,
08,
e0,
ff,
18,
26,
da,
00,
ef,
fd,
f2,
ed,
f3,
fa,
0f,
0a,
e1,
22,
f1,
f6,
f2,
ef,
05,
07,
11,
e7,
fd,
e8,
03,
fb,
df,
0d,
09,
e9,
f2,
dc,
10,
e4,
fd,
f6,
2c,
0d,
09,
23,
fe,
f2,
39,
d7,
04,
25,
e4,
03,
f5,
d8,
c4,
f7,
19,
d7,
f0,
00,
02,
f8,
bc,
f8,
18,
e3,
ff,
26,
f0,
fb,
ca,
ff,
e7,
16,
05,
dd,
d8,
d5,
1a,
20,
0a,
d2,
fb,
f8,
f2,
df,
48,
fc,
00,
f7,
14,
f6,
09,
f7,
e0,
0d,
e4,
ad,
02,
ed,
00,
e7,
e8,
f2,
f1,
f1,
13,
0f,
09,
e7,
07,
f2,
81,
06,
fe,
fb,
1c,
05,
e0,
18,
e2,
c5,
ec,
10,
eb,
0e,
f6,
fa,
13,
0f,
09,
ee,
fc,
2a,
d3,
07,
e6,
0e,
14,
14,
f4,
05,
04,
23,
ff,
0e,
f4,
08,
f4,
06,
f9,
02,
10,
06,
f2,
fd,
0b,
0f,
e6,
0c,
11,
0c,
09,
11,
f4,
04,
f5,
df,
0b,
fe,
fe,
12,
0b,
04,
e5,
1d,
01,
25,
06,
02,
05,
0c,
21,
06,
10,
27,
06,
0d,
fb,
f6,
01,
e7,
0e,
05,
fe,
14,
0d,
e0,
ee,
f1,
b2,
b7,
f6,
de,
e5,
11,
10,
f9,
30,
12,
24,
ea,
3e,
dc,
b0,
1b,
c8,
9d,
10,
0e,
e3,
e9,
ed,
0f,
dd,
f5,
06,
e4,
3d,
05,
0d,
15,
16,
cc,
00,
24,
0a,
d6,
fc,
f3,
e8,
eb,
20,
08,
fd,
dd,
16,
bc,
ed,
3e,
d6,
0c,
ee,
f2,
13,
c8,
02,
1d,
e8,
d8,
25,
0e,
34,
fa,
dd,
00,
cc,
f5,
03,
06,
f0,
f7,
19,
dc,
c7,
45,
a4,
04,
0a,
f8,
f5,
f9,
da,
f5,
e7,
05,
3c,
09,
fb,
03,
07,
df,
36,
dd,
05,
f8,
3b,
23,
16,
0c,
dd,
25,
dc,
eb,
c9,
f9,
e1,
36,
1d,
00,
37,
12,
ea,
02,
31,
12,
1a,
bf,
f3,
fb,
0b,
dd,
0d,
05,
2b,
d9,
11,
f0,
16,
fe,
ec,
e5,
87,
cd,
4d,
28,
dc,
4d,
ee,
0b,
55,
07,
04,
f9,
d6,
2a,
ff,
ad,
ef,
b3,
b6,
24,
03,
0d,
52,
1d,
dd,
03,
c7,
42,
1d,
2a,
d7,
df,
1f,
c7,
d6,
e8,
c5,
d1,
26,
ca,
cd,
01,
15,
ed,
9e,
c9,
f2,
f3,
09,
e5,
ff,
7f,
06,
13,
b8,
fb,
b5,
ee,
0e,
ee,
15,
f6,
06,
20,
44,
2f,
f5,
c0,
00,
ee,
18,
fe,
fe,
e4,
0c,
0e,
f6,
f7,
e6,
1f,
1e,
24,
c7,
e6,
1c,
9f,
43,
21,
d7,
fe,
15,
fe,
fa,
e0,
0d,
1a,
de,
22,
bd,
b3,
eb,
fd,
f7,
1b,
bc,
10,
0e,
0a,
25,
0e,
13,
fb,
f8,
f3,
0a,
27,
bc,
29,
2a,
22,
05,
14,
fb,
ed,
17,
e7,
07,
0a,
3c,
f6,
3f,
cd,
0a,
fd,
fb,
fa,
00,
ee,
fa,
16,
17,
00,
0e,
fe,
fe,
f0,
00,
15,
23,
0e,
d6,
06,
e5,
05,
29,
42,
18,
ea,
06,
0c,
0c,
14,
08,
cd,
0a,
d0,
1f,
1a,
e7,
f9,
d8,
62,
17,
ff,
08,
81,
0e,
03,
24,
05,
02,
f8,
0c,
ee,
b1,
f0,
e8,
02,
d6,
dd,
10,
db,
fe,
f1,
13,
fb,
0c,
2f,
c8,
ef,
2b,
f7,
ec,
0b,
03,
2d,
ec,
e6,
fc,
04,
eb,
fb,
f9,
2f,
f4,
0f,
ef,
f7,
f6,
e2,
1d,
ec,
19,
f5,
f4,
1a,
fb,
fc,
03,
f7,
df,
f1,
fc,
cd,
da,
d9,
03,
17,
f1,
fc,
f5,
0a,
13,
e5,
f8,
1b,
01,
25,
3a,
33,
20,
02,
b7,
ee,
f3,
81,
05,
03,
08,
27,
e7,
fd,
0f,
08,
1a,
d6,
c4,
18,
23,
5a,
b6,
10,
09,
0f,
d6,
2c,
ff,
f7,
f8,
f7,
1c,
08,
04,
fb,
f2,
e9,
06,
df,
f6,
d8,
f7,
00,
f9,
e3,
f9,
3f,
c9,
d0,
d5,
ff,
1e,
0e,
de,
ec,
ff,
d7,
f9,
f4,
f9,
17,
eb,
f0,
04,
08,
15,
04,
f3,
01,
25,
1c,
28,
b7,
f9,
04,
ff,
14,
d5,
f5,
e2,
e2,
13,
eb,
ff,
0c,
0c,
f1,
ee,
0e,
1f,
fd,
02,
1f,
08,
d8,
f3,
f3,
20,
ed,
0b,
ef,
f8,
d1,
1d,
d4,
ec,
f7,
f0,
fb,
ea,
1f,
0c,
12,
0d,
06,
00,
e7,
1e,
f7,
02,
f5,
d5,
e4,
f9,
01,
f9,
03,
21,
0c,
0d,
fd,
1f,
15,
e4,
ff,
f4,
f8,
d8,
09,
d6,
f8,
da,
f2,
e7,
fe,
0c,
df,
fc,
11,
ff,
a7,
0e,
fe,
08,
2d,
e4,
13,
25,
91,
b0,
00,
c8,
d1,
fa,
d8,
d5,
1e,
e9,
0e,
d8,
ee,
d7,
15,
19,
f2,
19,
e1,
11,
0b,
ea,
4e,
07,
09,
df,
ec,
f6,
07,
ef,
c7,
e8,
f9,
08,
11,
0a,
05,
ee,
ef,
eb,
eb,
eb,
ee,
0f,
0a,
09,
0b,
f3,
d7,
e8,
2a,
fd,
1e,
ea,
ea,
86,
f0,
1f,
f9,
06,
f8,
0a,
19,
11,
eb,
ee,
0a,
05,
f6,
fe,
02,
f5,
13,
12,
11,
01,
f4,
08,
fa,
e5,
01,
fd,
ee,
eb,
03,
24,
f3,
22,
f6,
06,
f8,
1c,
f3,
01,
d5,
fc,
1f,
18,
db,
33,
04,
d8,
f1,
e7,
fd,
06,
d7,
f7,
e7,
de,
08,
da,
15,
19,
0b,
f6,
fe,
ff,
f3,
0e,
0a,
d2,
21,
1d,
22,
04,
23,
1a,
07,
0c,
11,
ec,
07,
1b,
07,
fb,
f1,
e0,
0a,
f3,
00,
eb,
e3,
f7,
0c,
28,
07,
01,
f5,
ec,
1b,
11,
03,
e6,
81,
f9,
e0,
12,
da,
0e,
09,
f0,
f2,
fd,
1c,
09,
05,
ff,
ef,
2d,
e2,
d2,
13,
d7,
05,
f4,
f0,
11,
07,
08,
0e,
fb,
10,
f0,
d3,
0c,
16,
f6,
1b,
15,
04,
15,
07,
f4,
37,
fb,
05,
21,
ed,
02,
07,
05,
10,
fe,
f6,
00,
02,
fa,
24,
ef,
d7,
f8,
00,
f9,
1e,
0a,
13,
fb,
f6,
19,
8a,
07,
ef,
4a,
0d,
ed,
04,
36,
16,
15,
25,
f7,
1b,
f9,
c1,
f7,
fd,
0a,
f7,
10,
f4,
22,
03,
a1,
fe,
28,
17,
e0,
0e,
d6,
06,
19,
1a,
08,
ea,
ff,
0f,
fe,
ff,
ff,
fa,
d6,
fd,
e6,
11,
18,
f5,
01,
ed,
fd,
f4,
27,
05,
ea,
f7,
ca,
ec,
09,
fd,
f5,
0c,
f3,
f5,
16,
fb,
f8,
f8,
f9,
f1,
11,
11,
06,
02,
e5,
fd,
e3,
24,
e5,
08,
f7,
01,
22,
f5,
ee,
0d,
f6,
14,
f6,
e9,
f9,
fe,
2c,
e7,
eb,
1b,
c2,
43,
ec,
fc,
1b,
26,
11,
e7,
f8,
bd,
ab,
d2,
a0,
d0,
1e,
b3,
e6,
0c,
1b,
09,
dd,
f1,
fd,
0b,
f7,
14,
1f,
1e,
d0,
ed,
fe,
13,
d9,
fd,
11,
c3,
f3,
2c,
10,
e6,
4b,
f8,
f7,
f9,
1c,
13,
0d,
18,
ea,
fa,
f3,
ed,
e3,
fe,
0e,
0d,
f2,
0c,
ee,
3e,
03,
07,
ea,
0b,
ef,
fb,
04,
2b,
2b,
ba,
bb,
fa,
f7,
e0,
0a,
ff,
81,
c2,
4e,
24,
ed,
07,
f2,
0f,
db,
dd,
f3,
e6,
be,
ef,
ec,
0f,
1d,
13,
02,
08,
04,
c5,
15,
16,
ef,
db,
28,
24,
f2,
0d,
e9,
27,
eb,
10,
df,
c2,
f1,
de,
fb,
0b,
17,
14,
27,
44,
b8,
e6,
04,
a5,
11,
07,
f6,
ee,
20,
20,
2f,
fd,
eb,
c1,
27,
0b,
f4,
25,
f6,
0c,
f3,
0e,
fd,
13,
c5,
fc,
e6,
d7,
93,
e3,
bc,
2b,
23,
bc,
ea,
cc,
07,
0d,
d1,
4c,
12,
2a,
f5,
f4,
18,
bc,
e9,
ed,
81,
0c,
12,
21,
10,
0c,
26,
17,
fe,
ef,
15,
2c,
45,
15,
1e,
fd,
0b,
07,
1d,
fb,
c0,
f2,
fb,
01,
84,
e9,
dc,
da,
ed,
2c,
f7,
08,
0d,
14,
24,
b7,
c9,
fc,
1d,
b9,
f5,
01,
e9,
f5,
f5,
41,
00,
10,
f1,
eb,
d4,
1d,
f3,
fe,
dd,
03,
e4,
e9,
c9,
01,
fc,
fd,
f5,
8b,
3e,
d0,
cd,
2f,
03,
fc,
14,
30,
4f,
09,
fc,
6d,
04,
1a,
1d,
2e,
3c,
d8,
0c,
ba,
ec,
5d,
04,
1b,
c9,
ec,
e8,
d4,
13,
ed,
01,
19,
f0,
0d,
49,
bf,
eb,
39,
1c,
17,
1a,
47,
ba,
e6,
10,
29,
21,
f7,
22,
c5,
08,
fe,
f9,
ed,
ff,
94,
b7,
0f,
10,
fa,
f0,
fe,
ee,
f3,
0e,
f2,
14,
fd,
b1,
06,
eb,
0d,
f4,
d9,
01,
f2,
f9,
eb,
0f,
11,
e0,
01,
05,
1e,
11,
f9,
cf,
26,
02,
ff,
07,
e7,
e9,
f2,
ed,
f6,
03,
00,
09,
ea,
06,
0a,
00,
e9,
fc,
1d,
0f,
02,
f6,
1f,
06,
0a,
12,
fe,
01,
08,
e2,
e5,
03,
1b,
1b,
21,
e9,
ff,
81,
e3,
10,
f7,
14,
d3,
f3,
f1,
ff,
05,
1a,
00,
e8,
0e,
10,
07,
f1,
f3,
ff,
f5,
f6,
fd,
37,
f7,
f8,
01,
f7,
ef,
06,
02,
fc,
16,
e8,
ee,
1c,
11,
00,
f7,
09,
02,
09,
fd,
27,
f0,
e3,
14,
e5,
12,
fa,
15,
df,
12,
e4,
08,
0a,
fe,
17,
26,
11,
ea,
06,
00,
fd,
a3,
e0,
07,
f7,
ea,
db,
fe,
23,
3e,
12,
eb,
dd,
f0,
01,
f7,
08,
ff,
05,
f8,
0b,
f2,
b5,
0b,
c9,
f2,
fc,
09,
81,
e9,
ff,
03,
de,
f8,
eb,
db,
e5,
fa,
fb,
15,
15,
f1,
df,
1d,
e7,
0c,
fd,
ea,
f1,
2f,
1c,
02,
f7,
e4,
28,
0d,
f8,
f7,
f2,
23,
f9,
02,
fc,
e5,
d3,
fd,
e5,
d2,
e8,
4c,
12,
fa,
fe,
02,
d6,
05,
ef,
f6,
f2,
09,
0d,
00,
f8,
f7,
0a,
0f,
d3,
fb,
f2,
10,
10,
f4,
d8,
0b,
1d,
1b,
08,
e8,
ec,
f8,
ff,
fd,
08,
0e,
03,
f9,
f8,
09,
02,
f5,
fe,
1c,
06,
02,
ff,
0f,
0e,
02,
04,
f6,
f5,
22,
e8,
f6,
02,
06,
02,
0b,
f9,
07,
04,
fd,
02,
ed,
06,
05,
04,
ff,
f4,
00,
0a,
09,
ee,
0b,
06,
03,
f1,
ea,
0d,
03,
f6,
f1,
01,
ee,
fd,
fb,
f3,
02,
00,
f6,
f5,
0d,
05,
f7,
0a,
0a,
01,
eb,
00,
0f,
ff,
fd,
fc,
fb,
ee,
1c,
02,
09,
00,
05,
fc,
ff,
fe,
0f,
07,
fd,
0a,
1e,
08,
ed,
00,
ec,
f2,
d4,
f6,
09,
1f,
ff,
06,
fb,
0e,
07,
12,
19,
03,
e4,
23,
06,
f8,
06,
e5,
f8,
26,
f7,
39,
02,
fb,
0a,
06,
f9,
f3,
04,
0a,
fd,
e2,
f3,
f0,
cf,
f1,
ff,
11,
fd,
0e,
06,
d4,
fc,
ff,
f7,
eb,
e6,
fd,
ec,
1e,
f4,
03,
06,
d3,
ec,
e8,
04,
fb,
16,
ee,
fd,
f3,
01,
d1,
16,
df,
fa,
48,
81,
f3,
04,
e5,
01,
f1,
2a,
fa,
2c,
e5,
e7,
2c,
fc,
03,
e9,
1b,
1b,
14,
ff,
de,
10,
0f,
f3,
e5,
23,
34,
0b,
2d,
17,
ff,
3e,
f4,
db,
1f,
04,
0b,
e5,
e4,
fe,
09,
04,
15,
f5,
13,
e1,
0a,
b9,
f2,
e7,
13,
ed,
18,
da,
00,
01,
25,
19,
16,
05,
08,
04,
fe,
f6,
f4,
ed,
09,
03,
f7,
32,
e4,
f5,
f8,
0b,
12,
a2,
df,
2a,
dd,
ef,
fe,
3d,
28,
cf,
f9,
09,
06,
00,
e5,
07,
b3,
0e,
fe,
17,
0a,
23,
ea,
fe,
fe,
19,
d3,
45,
f4,
f0,
ed,
f5,
00,
0c,
ee,
ed,
ff,
1a,
fd,
07,
02,
07,
29,
eb,
06,
f6,
ec,
fa,
0a,
00,
2c,
f9,
a9,
20,
ec,
c1,
22,
f8,
05,
fc,
e6,
0b,
d6,
0e,
ff,
94,
f4,
26,
f6,
22,
3c,
09,
17,
da,
c6,
37,
81,
f6,
de,
33,
2f,
13,
20,
0e,
fe,
fd,
05,
e2,
c0,
22,
fa,
c0,
20,
f9,
1b,
03,
ef,
e3,
69,
8e,
26,
0d,
03,
08,
00,
fb,
e5,
53,
0a,
f0,
35,
f6,
03,
25,
dd,
e9,
d3,
1d,
ea,
02,
e3,
f8,
11,
fa,
cf,
03,
f4,
0d,
f1,
e6,
fe,
f6,
fe,
ed,
04,
04,
ff,
02,
0a,
0e,
0a,
fe,
f1,
1a,
fa,
f5,
09,
01,
f7,
f4,
ed,
fb,
01,
f7,
00,
f4,
08,
f9,
00,
f3,
ff,
0e,
0c,
02,
f5,
11,
00,
09,
0f,
04,
0a,
fe,
eb,
ed,
04,
11,
18,
15,
ef,
04,
4d,
eb,
0b,
fb,
15,
2e,
f8,
fc,
fd,
01,
0c,
04,
fa,
0d,
fc,
09,
f9,
fc,
ff,
f8,
ff,
fe,
81,
eb,
ff,
03,
f7,
f7,
00,
00,
01,
12,
ee,
f2,
05,
ea,
03,
03,
0c,
fd,
06,
ff,
1d,
f7,
f4,
01,
f8,
09,
fc,
0f,
e9,
ee,
ec,
00,
03,
00,
0c,
18,
03,
f2,
09,
fe,
fc,
cd,
ec,
08,
ec,
e9,
e7,
f6,
0e,
eb,
07,
fa,
ed,
e8,
fd,
fa,
0b,
f8,
ed,
fc,
eb,
f5,
f9,
0e,
1f,
ff,
f0,
fa,
3a,
df,
17,
01,
e7,
f3,
f9,
d4,
e8,
fd,
f7,
08,
0b,
fd,
fd,
0f,
ef,
05,
e2,
1a,
0b,
b7,
09,
f8,
f6,
ef,
13,
10,
fd,
f2,
1c,
e1,
f7,
07,
fa,
e7,
f2,
ed,
f4,
e9,
ff,
19,
05,
f0,
17,
f2,
de,
e5,
e3,
bd,
1b,
40,
18,
ed,
ed,
eb,
f8,
10,
ca,
f5,
07,
0e,
15,
f8,
f1,
14,
e1,
21,
f8,
ce,
de,
04,
11,
4b,
f6,
1b,
f5,
13,
3d,
08,
e5,
0e,
f2,
bc,
ea,
17,
c3,
1c,
01,
f2,
eb,
08,
01,
1a,
ff,
06,
0f,
de,
dc,
f3,
f2,
da,
ee,
fc,
e5,
01,
0d,
ed,
04,
84,
fe,
16,
03,
12,
f0,
21,
01,
eb,
06,
f8,
1f,
dc,
2e,
f9,
30,
e6,
2e,
fc,
f2,
eb,
ff,
db,
f7,
ec,
fd,
ec,
07,
e3,
1d,
ff,
fd,
e9,
df,
05,
25,
f9,
fe,
26,
26,
e2,
fd,
de,
15,
f4,
14,
44,
dd,
07,
01,
07,
fa,
19,
e8,
f8,
08,
00,
25,
f5,
47,
18,
00,
00,
0d,
3f,
01,
fe,
e2,
4c,
09,
00,
eb,
f9,
d2,
f9,
f5,
f7,
f0,
ea,
e9,
de,
d1,
20,
4c,
ee,
55,
06,
e1,
e1,
ff,
df,
06,
02,
1f,
20,
11,
c5,
4c,
25,
03,
02,
34,
f0,
1d,
fb,
04,
06,
ee,
fa,
0b,
1b,
08,
b4,
48,
ef,
7f,
ed,
f2,
0f,
e5,
b2,
0a,
01,
06,
41,
db,
0b,
0b,
1e,
fc,
58,
e8,
28,
e7,
eb,
1c,
ef,
1e,
e8,
f9,
5a,
f4,
d6,
da,
0e,
15,
be,
40,
ff,
2c,
4a,
ac,
1b,
01,
ee,
0f,
c9,
16,
a8,
c0,
e1,
0b,
0b,
12,
14,
11,
0a,
1e,
02,
13,
f9,
b3,
d6,
0b,
d1,
f7,
fe,
1b,
e4,
0f,
87,
10,
d9,
e3,
2c,
04,
3a,
01,
e9,
f5,
15,
05,
20,
cc,
fc,
f0,
0e,
ff,
ca,
c9,
f5,
de,
d8,
f4,
66,
16,
d4,
f3,
ff,
23,
f8,
ec,
32,
e6,
2e,
05,
19,
ef,
01,
04,
0b,
ea,
18,
c7,
98,
f8,
33,
0a,
b9,
e5,
f7,
0f,
11,
13,
df,
ae,
0c,
e7,
e0,
16,
1e,
15,
e1,
1d,
39,
9f,
0f,
0a,
e8,
0c,
01,
fa,
e6,
e2,
03,
19,
e4,
e7,
11,
d0,
34,
03,
f9,
06,
fe,
17,
ce,
fc,
3c,
d6,
f3,
04,
f6,
07,
e4,
ff,
29,
f4,
f1,
fe,
11,
ca,
10,
ec,
e9,
e3,
bf,
08,
1c,
14,
17,
1c,
04,
fb,
2b,
31,
22,
fa,
29,
c4,
3f,
37,
00,
e2,
81,
13,
05,
19,
ec,
f3,
03,
d8,
58,
fa,
0f,
1e,
05,
4c,
13,
0d,
16,
ea,
11,
0c,
05,
f5,
f5,
ec,
f0,
f0,
fc,
06,
03,
0e,
09,
06,
f1,
ff,
06,
ee,
08,
22,
e4,
0f,
0b,
1d,
2d,
da,
1a,
05,
ed,
06,
fc,
f9,
08,
04,
ee,
00,
fb,
f8,
ee,
ea,
11,
c9,
fe,
07,
03,
ed,
f7,
ea,
06,
fc,
0f,
15,
0b,
f2,
12,
ea,
d8,
f9,
19,
1d,
0d,
07,
fc,
eb,
09,
15,
0d,
00,
bf,
f6,
0f,
fd,
f7,
ee,
0d,
22,
ec,
f3,
f1,
f9,
07,
f0,
15,
c6,
f0,
00,
fe,
d8,
06,
f1,
00,
23,
06,
22,
d7,
fe,
12,
e4,
e4,
d7,
fc,
f4,
ba,
fe,
0a,
e9,
0e,
f2,
f1,
14,
12,
03,
05,
07,
ee,
14,
df,
f6,
c6,
ea,
02,
06,
f6,
22,
e7,
31,
0f,
e9,
08,
f5,
0e,
0d,
c3,
05,
14,
0b,
0e,
d6,
f7,
35,
09,
e0,
05,
46,
eb,
f6,
09,
0a,
07,
08,
fd,
f1,
e3,
ef,
ea,
ee,
fb,
f3,
44,
14,
06,
26,
f0,
54,
f2,
81,
c1,
e9,
ff,
e9,
32,
c5,
e9,
dc,
de,
fb,
0a,
0a,
18,
f9,
ee,
d8,
bf,
f0,
d1,
f0,
30,
03,
fe,
0a,
fa,
11,
fa,
fe,
e9,
04,
25,
04,
f3,
04,
10,
00,
f9,
fc,
05,
19,
06,
f7,
e7,
01,
0f,
df,
02,
09,
ba,
fd,
03,
17,
18,
f8,
f8,
ed,
02,
92,
10,
09,
0b,
e0,
f0,
e4,
fc,
1a,
ff,
06,
fa,
02,
1b,
f7,
11,
0f,
00,
16,
fe,
e9,
fb,
f0,
fc,
20,
00,
00,
fc,
0d,
ec,
08,
7f,
1c,
10,
ff,
00,
c5,
fc,
e5,
e9,
15,
02,
16,
e9,
12,
0a,
fb,
32,
0a,
08,
05,
fd,
0a,
fa,
06,
0d,
08,
fa,
f0,
59,
ee,
fb,
03,
f2,
f4,
0d,
01,
05,
fd,
05,
e5,
eb,
01,
fe,
fb,
ef,
06,
36,
f4,
11,
08,
03,
fd,
10,
fd,
03,
f9,
07,
0c,
fa,
11,
08,
05,
fe,
10,
25,
f5,
f4,
f8,
24,
ec,
11,
09,
c6,
18,
f8,
ff,
20,
08,
05,
04,
e0,
fd,
0e,
15,
fc,
f4,
fa,
f6,
fd,
02,
f9,
f6,
fc,
23,
fd,
0a,
09,
16,
0e,
fc,
05,
1f,
ec,
0a,
fd,
f1,
15,
02,
f0,
07,
09,
03,
f2,
0c,
10,
1b,
f1,
01,
18,
ec,
fe,
13,
05,
0a,
28,
fe,
f9,
fa,
08,
d7,
02,
e1,
ea,
02,
22,
0f,
f5,
ee,
f5,
16,
06,
c5,
f2,
da,
1c,
0b,
02,
d0,
fa,
2e,
25,
fd,
da,
d9,
f2,
0e,
e5,
06,
1e,
08,
03,
b9,
14,
09,
e5,
07,
17,
01,
fd,
ef,
1c,
0e,
05,
f8,
f3,
db,
2d,
e2,
fc,
0a,
f0,
0b,
fc,
f6,
fc,
2c,
f8,
f6,
e7,
ef,
12,
03,
15,
e7,
02,
f7,
13,
48,
05,
f2,
11,
f2,
ef,
02,
0a,
fa,
ee,
e2,
81,
09,
e6,
e6,
ff,
ff,
f2,
f3,
f8,
1e,
ee,
1a,
fc,
09,
d8,
f3,
02,
00,
02,
ec,
ee,
eb,
41,
1d,
09,
fd,
f2,
0e,
fc,
10,
4a,
0d,
fb,
f2,
26,
09,
fe,
f5,
e2,
02,
ee,
fe,
fe,
3e,
fd,
14,
18,
0c,
e2,
f4,
db,
14,
2a,
d0,
0c,
0e,
dc,
21,
0b,
2f,
1f,
09,
06,
ee,
de,
0e,
f2,
d2,
0c,
de,
09,
15,
f8,
00,
13,
fe,
03,
02,
09,
f7,
2d,
f3,
ec,
0f,
f0,
fc,
1a,
f4,
f5,
3a,
18,
11,
22,
0f,
cf,
f2,
28,
ea,
ea,
95,
f7,
f7,
f6,
f6,
11,
ff,
2e,
a2,
44,
20,
f3,
0f,
fb,
e1,
f4,
f4,
ea,
e5,
27,
f3,
ec,
fd,
0c,
f6,
cc,
e9,
35,
07,
14,
0d,
0b,
f6,
f1,
d2,
f7,
d3,
08,
fc,
e0,
26,
d9,
c8,
29,
f9,
ec,
15,
01,
08,
1b,
bb,
17,
7f,
aa,
a8,
f3,
fb,
1c,
ff,
03,
f3,
03,
0a,
e6,
08,
31,
0c,
19,
d2,
15,
09,
aa,
15,
ec,
2a,
fc,
f9,
19,
0d,
13,
14,
f7,
0d,
10,
b5,
e2,
29,
16,
1e,
ed,
45,
03,
04,
ed,
14,
02,
02,
f7,
45,
22,
0c,
21,
e3,
1a,
e7,
fb,
d0,
f1,
10,
cf,
d2,
f3,
36,
04,
34,
08,
00,
e9,
10,
18,
ea,
1a,
fc,
27,
fd,
09,
0f,
f0,
05,
f2,
fa,
28,
18,
e2,
fb,
23,
df,
d0,
1e,
0f,
0d,
e2,
02,
d2,
ea,
02,
1f,
04,
19,
36,
db,
f4,
c4,
01,
0b,
07,
0d,
f3,
11,
f8,
f8,
05,
13,
0c,
1c,
07,
18,
f3,
e1,
fc,
13,
ed,
11,
e8,
d4,
05,
16,
03,
41,
f8,
de,
07,
0d,
fb,
f5,
1a,
dd,
f6,
0a,
df,
ff,
fa,
0e,
ee,
20,
0d,
e2,
14,
f9,
00,
ed,
0a,
13,
07,
d6,
08,
f0,
01,
e2,
08,
dc,
1b,
09,
17,
f0,
d7,
24,
d9,
00,
cb,
bf,
f9,
df,
d1,
09,
06,
08,
c6,
f7,
f1,
01,
0b,
b5,
2f,
0e,
cc,
03,
08,
ff,
2e,
0e,
e5,
fb,
e2,
0a,
f5,
1f,
09,
25,
02,
08,
05,
03,
02,
08,
c0,
cc,
ea,
fb,
1b,
19,
05,
d5,
d5,
1a,
f6,
24,
0c,
f2,
0a,
cf,
07,
01,
29,
e5,
dc,
17,
1e,
ff,
39,
e6,
0b,
43,
fd,
f3,
f6,
a9,
fd,
e9,
12,
34,
07,
16,
13,
1c,
03,
21,
e3,
f7,
ef,
02,
12,
db,
f2,
12,
a0,
ee,
09,
ea,
f8,
f6,
0c,
b0,
05,
e3,
ff,
1f,
ea,
a8,
e6,
0b,
cf,
cf,
d6,
20,
02,
ec,
4e,
20,
d3,
04,
ee,
f8,
f3,
f6,
dc,
be,
18,
6d,
05,
3c,
e3,
f5,
d9,
cd,
d6,
0e,
d4,
cf,
ee,
db,
f0,
08,
17,
0d,
02,
1f,
1b,
e1,
14,
e5,
fd,
fb,
1b,
1a,
cc,
ff,
07,
ff,
27,
fd,
d4,
24,
d4,
ce,
ef,
04,
09,
fe,
c9,
02,
1f,
e6,
eb,
e5,
7f,
03,
24,
df,
07,
c4,
f7,
ef,
42,
cd,
f0,
ff,
18,
e4,
19,
f0,
26,
18,
00,
3a,
e6,
0b,
e9,
0e,
2a,
0b,
fe,
d9,
eb,
00,
fd,
03,
fc,
19,
f8,
4b,
07,
08,
00,
e0,
95,
d5,
0c,
b8,
fc,
f1,
05,
f9,
e6,
dd,
07,
d8,
e4,
e9,
2e,
fb,
d8,
f8,
00,
eb,
f3,
f1,
00,
00,
06,
e9,
f4,
de,
0d,
f2,
32,
08,
09,
1f,
fb,
1b,
04,
de,
24,
21,
01,
d7,
ef,
fa,
de,
f9,
ee,
f1,
37,
22,
e5,
04,
f7,
0a,
ec,
f4,
02,
02,
eb,
f3,
0c,
13,
fe,
06,
18,
35,
0e,
e9,
17,
ea,
0d,
0e,
1d,
d7,
eb,
e8,
d3,
f3,
01,
fa,
06,
1c,
00,
23,
13,
1c,
ff,
00,
00,
ce,
f8,
0e,
cc,
04,
f5,
0d,
e1,
18,
f0,
0c,
16,
f3,
fd,
ec,
f8,
04,
fb,
09,
f0,
c0,
0a,
d1,
09,
d7,
fd,
0e,
e5,
06,
19,
23,
01,
da,
0d,
0f,
f1,
26,
d4,
01,
00,
03,
0b,
03,
e5,
bd,
cd,
f5,
13,
05,
24,
ff,
26,
02,
ea,
15,
4b,
12,
31,
14,
42,
0e,
e3,
1a,
e2,
02,
21,
0e,
7f,
f1,
ee,
da,
04,
17,
f0,
11,
f7,
dc,
1d,
00,
f4,
ff,
f7,
18,
f3,
f1,
e7,
f4,
f0,
0a,
19,
0a,
02,
ee,
1a,
24,
0e,
f7,
06,
fb,
fe,
d9,
f7,
fb,
e8,
f9,
06,
e9,
fb,
f4,
0a,
de,
fe,
fe,
00,
03,
e0,
c1,
27,
e4,
11,
17,
09,
0a,
08,
02,
e9,
fc,
ee,
30,
df,
d0,
0a,
f2,
ea,
e1,
e7,
09,
04,
ff,
fc,
e0,
ee,
1f,
14,
f2,
e1,
be,
03,
f1,
1e,
fb,
0a,
20,
02,
03,
ff,
fe,
f7,
f5,
f4,
f4,
0d,
02,
3f,
fc,
02,
c7,
15,
f0,
e7,
f9,
f9,
c6,
f8,
11,
e9,
0d,
ff,
2f,
0f,
1c,
02,
fb,
0e,
01,
05,
00,
0e,
ed,
1b,
0b,
f5,
0a,
f5,
12,
f7,
06,
12,
fd,
81,
0f,
10,
ec,
22,
15,
50,
fd,
fc,
d8,
df,
31,
df,
d5,
2a,
1c,
12,
f9,
23,
03,
e5,
97,
f3,
f1,
04,
ba,
1f,
4b,
09,
26,
1b,
e2,
ff,
f0,
fc,
f5,
2c,
ee,
05,
14,
03,
c2,
05,
2e,
0a,
f7,
1b,
0d,
e6,
4b,
0a,
13,
0e,
0d,
12,
0b,
e6,
18,
bd,
26,
d9,
fd,
de,
dc,
d1,
f0,
ed,
05,
07,
dd,
0f,
f8,
10,
2d,
e4,
00,
fc,
ff,
12,
0f,
21,
fb,
01,
07,
17,
f8,
df,
de,
e4,
ff,
13,
fd,
da,
f7,
fc,
0d,
11,
f6,
10,
04,
17,
f8,
21,
f1,
f4,
d8,
f9,
fe,
23,
e8,
2d,
1b,
01,
fa,
fb,
e6,
07,
0a,
f2,
e6,
0a,
f4,
ee,
f3,
10,
f1,
18,
0d,
fc,
ec,
07,
fb,
f6,
fb,
10,
25,
ec,
b7,
0d,
37,
02,
07,
0d,
f4,
06,
ff,
08,
e1,
17,
d8,
f6,
0f,
ed,
07,
0c,
ff,
18,
fa,
10,
1b,
29,
fe,
e4,
f0,
f9,
2b,
13,
db,
0a,
95,
11,
f8,
08,
1e,
11,
d8,
f9,
e9,
0a,
ed,
13,
1c,
06,
22,
fc,
fb,
07,
fd,
e0,
03,
f4,
d5,
0b,
db,
17,
ee,
f0,
27,
e0,
21,
cf,
20,
13,
2e,
2c,
8b,
f6,
ee,
fb,
13,
12,
0a,
e1,
c5,
ef,
f4,
fd,
e1,
0f,
31,
17,
18,
02,
e4,
0a,
81,
e9,
0e,
0b,
0a,
0d,
1a,
02,
f4,
12,
cc,
dc,
29,
14,
19,
14,
1c,
e0,
0d,
fe,
fa,
f9,
0a,
23,
07,
eb,
13,
df,
f2,
49,
a2,
dc,
1e,
00,
ea,
ef,
ce,
cd,
00,
08,
fa,
0b,
e8,
f6,
f1,
f6,
03,
d9,
00,
02,
ed,
2c,
81,
05,
f9,
13,
f6,
0e,
ef,
f1,
f8,
fd,
fe,
1c,
fe,
fe,
03,
f2,
ff,
e9,
04,
fb,
fc,
00,
fd,
e7,
f8,
16,
00,
ee,
fb,
dd,
06,
e5,
e5,
f9,
fd,
e6,
f8,
e4,
f9,
08,
f3,
fa,
fc,
12,
06,
fb,
eb,
f9,
08,
11,
03,
e0,
f3,
fd,
01,
fd,
dd,
07,
f9,
fd,
fd,
fc,
f8,
fb,
25,
fd,
01,
03,
f8,
19,
01,
19,
fb,
d6,
eb,
f8,
06,
ff,
07,
f7,
12,
09,
f0,
f2,
f8,
06,
f7,
13,
ef,
03,
eb,
00,
f8,
ff,
05,
e6,
0a,
0e,
05,
1c,
f8,
10,
02,
fa,
12,
ee,
fb,
f4,
ff,
02,
09,
f1,
d2,
e1,
fc,
04,
f6,
04,
13,
11,
f5,
13,
cb,
0a,
fe,
29,
fd,
e3,
d5,
06,
f6,
ff,
e1,
f4,
1a,
f8,
f2,
22,
05,
e1,
eb,
12,
f5,
fc,
1c,
df,
09,
e3,
e3,
ef,
e6,
01,
16,
02,
ee,
e7,
e0,
ef,
00,
e3,
f1,
f7,
f4,
f9,
35,
cd,
e1,
13,
f8,
0a,
07,
f7,
f9,
ff,
f3,
e8,
ff,
df,
f9,
e2,
dd,
db,
be,
4f,
ff,
e6,
e3,
e4,
47,
df,
0a,
e1,
f7,
33,
fc,
19,
26,
d0,
af,
f6,
0b,
eb,
ca,
e2,
0c,
0b,
4a,
ee,
d4,
10,
fe,
d3,
7f,
a2,
2f,
d3,
35,
f0,
c8,
03,
f8,
d7,
08,
ac,
e8,
df,
d9,
01,
3a,
fc,
40,
d1,
f5,
cb,
f9,
fe,
e4,
03,
cf,
49,
be,
e9,
c8,
05,
15,
8b,
e2,
38,
00,
23,
ef,
f8,
ac,
e4,
fe,
e7,
e6,
0c,
ea,
0e,
05,
01,
ed,
e6,
02,
ff,
ea,
f2,
28,
14,
0a,
0e,
f8,
f7,
f8,
d0,
58,
e4,
70,
2a,
de,
e9,
33,
08,
e9,
2b,
ff,
c1,
d6,
03,
da,
03,
11,
fd,
e2,
34,
0b,
1a,
f5,
1a,
d2,
e5,
00,
32,
1e,
10,
f2,
05,
f5,
f9,
27,
fd,
05,
19,
91,
f2,
0d,
0a,
23,
ed,
0a,
1c,
1d,
f0,
1c,
09,
18,
14,
16,
ff,
09,
09,
aa,
e8,
04,
db,
f4,
15,
14,
0f,
1b,
03,
e6,
2b,
2c,
e2,
09,
58,
1d,
59,
0a,
fb,
2e,
16,
14,
f2,
fc,
17,
0d,
0d,
f5,
36,
ca,
b9,
0d,
22,
06,
0b,
54,
03,
3b,
15,
03,
e9,
e6,
ea,
01,
1a,
00,
ee,
d4,
f5,
32,
ee,
ee,
f3,
00,
3f,
0b,
e3,
e4,
f9,
23,
f8,
17,
e8,
5c,
01,
e9,
1f,
09,
4f,
7f,
03,
bd,
00,
2a,
19,
03,
fa,
f1,
0e,
14,
25,
f3,
1c,
23,
0a,
f9,
01,
ff,
03,
4b,
29,
2c,
fa,
3c,
0b,
fe,
18,
05,
eb,
30,
14,
0d,
13,
04,
00,
f1,
04,
02,
01,
01,
13,
3d,
16,
29,
f0,
f4,
35,
18,
2d,
f7,
02,
1e,
07,
3a,
fd,
d9,
d7,
c4,
ee,
fe,
05,
2d,
10,
b6,
da,
f5,
ed,
cc,
e4,
15,
df,
e0,
1c,
18,
ec,
f5,
23,
12,
d9,
13,
ef,
15,
ff,
0f,
05,
0c,
ef,
d5,
eb,
f2,
e1,
1b,
18,
e8,
e6,
13,
1f,
1c,
02,
18,
e5,
11,
03,
0a,
f3,
d6,
00,
01,
dd,
13,
0d,
1a,
e9,
2e,
00,
03,
f7,
f1,
f5,
08,
f7,
05,
10,
0a,
0c,
f4,
04,
0d,
06,
02,
cd,
1f,
0f,
28,
fd,
00,
06,
0a,
2a,
11,
f9,
24,
0b,
f5,
d5,
02,
f6,
1b,
03,
00,
ce,
ff,
e4,
fe,
11,
1a,
1a,
e9,
02,
05,
00,
e9,
e5,
e9,
fb,
fa,
02,
fa,
fc,
06,
ff,
f7,
f2,
10,
0a,
f9,
ff,
1c,
f0,
0c,
03,
22,
f9,
db,
fe,
fd,
ea,
11,
02,
fb,
fe,
06,
f1,
17,
0b,
ff,
f5,
ff,
28,
aa,
0d,
f6,
fb,
f9,
07,
db,
0a,
ff,
0d,
19,
00,
ed,
11,
f8,
c1,
02,
0b,
07,
ff,
00,
f5,
f7,
0e,
07,
13,
f9,
cb,
f6,
0e,
ff,
f1,
06,
0b,
27,
f3,
fc,
fc,
ef,
ef,
f0,
09,
d7,
07,
02,
f9,
d8,
e6,
ff,
15,
25,
0c,
26,
c7,
00,
0b,
f2,
ee,
c8,
e5,
f0,
9d,
fe,
01,
01,
0a,
ec,
ed,
0a,
19,
0f,
11,
07,
ee,
1a,
e5,
d9,
c1,
fe,
ea,
0a,
f2,
15,
fe,
2d,
c4,
ec,
de,
e8,
ef,
07,
81,
07,
ef,
f7,
e5,
ed,
13,
fb,
11,
2b,
e3,
d0,
ff,
df,
14,
4d,
f5,
ec,
f9,
fc,
df,
f4,
f3,
e3,
0d,
04,
1e,
1c,
02,
28,
05,
1c,
e2,
4c,
22,
f8,
06,
f9,
3a,
ee,
15,
e8,
cb,
f3,
fc,
20,
f4,
f5,
fa,
cd,
ce,
f4,
0e,
c5,
ff,
1f,
f0,
0a,
f7,
d3,
fd,
f4,
08,
34,
02,
0a,
ed,
09,
0e,
04,
11,
11,
fb,
10,
15,
08,
e3,
09,
07,
e2,
09,
02,
3c,
fd,
04,
00,
4f,
ef,
dd,
e1,
0d,
af,
0a,
ec,
0b,
cf,
f9,
b8,
29,
f7,
28,
19,
09,
14,
15,
00,
ff,
07,
f9,
f6,
fd,
fb,
fc,
e0,
07,
dc,
f7,
06,
ff,
33,
f8,
f6,
54,
09,
10,
2a,
f5,
48,
11,
0f,
e6,
13,
ff,
0e,
f4,
19,
14,
07,
a3,
fe,
12,
ef,
ec,
f9,
04,
15,
2b,
05,
02,
ff,
db,
fa,
f9,
f6,
fc,
09,
0d,
fc,
0d,
bc,
ef,
f8,
e8,
04,
18,
db,
05,
fa,
11,
df,
1d,
0e,
f9,
07,
f2,
f9,
04,
0a,
f7,
03,
eb,
de,
f9,
fc,
09,
2c,
ea,
05,
02,
ff,
f4,
dd,
d4,
33,
6b,
81,
0e,
c6,
14,
dc,
0c,
e2,
f1,
d7,
21,
f8,
ff,
08,
0e,
2e,
fd,
14,
e9,
dd,
07,
11,
f8,
17,
0a,
0a,
11,
fa,
13,
d7,
dd,
04,
fa,
0c,
1f,
11,
e4,
ef,
17,
fb,
02,
1c,
ea,
1b,
15,
0f,
32,
0e,
f9,
1f,
dc,
28,
e2,
dd,
fb,
17,
01,
ce,
e8,
dd,
f6,
24,
b9,
fb,
ed,
05,
e9,
f3,
17,
fe,
be,
be,
14,
3b,
1b,
ff,
18,
f1,
fa,
c8,
a4,
0a,
1c,
e4,
7b,
c3,
e3,
f9,
08,
71,
3c,
f0,
0f,
07,
13,
fe,
36,
82,
32,
cb,
07,
08,
e3,
1c,
c1,
e5,
eb,
1d,
16,
17,
17,
e1,
f7,
f5,
c6,
fe,
fb,
28,
f9,
e2,
d7,
c2,
e9,
02,
e4,
83,
bb,
0f,
cc,
11,
fa,
02,
d7,
49,
f1,
b6,
15,
45,
f5,
b8,
f2,
b9,
27,
0e,
f3,
09,
0d,
24,
17,
44,
20,
d4,
fc,
fc,
fa,
fe,
d8,
dd,
c6,
18,
ca,
d8,
f1,
11,
fa,
14,
61,
e5,
d8,
eb,
15,
0a,
df,
fa,
ce,
65,
f0,
c8,
f3,
aa,
02,
2f,
dc,
37,
df,
ad,
18,
f3,
0a,
7f,
8e,
34,
ea,
f5,
0c,
dc,
4e,
14,
26,
f8,
af,
f8,
46,
a2,
e8,
06,
30,
47,
f0,
51,
d5,
ca,
c0,
38,
f2,
0f,
fc,
ae,
06,
02,
ce,
bb,
de,
e3,
d7,
52,
1b,
16,
1b,
f0,
26,
d3,
06,
b0,
14,
cd,
d0,
01,
e6,
fb,
dc,
f5,
9b,
30,
00,
af,
08,
e3,
b8,
f9,
02,
ff,
0d,
29,
14,
f9,
10,
ea,
fd,
2b,
ec,
f6,
81,
ee,
d2,
26,
f6,
f6,
f3,
c6,
d8,
0d,
0a,
06,
ee,
de,
0b,
08,
09,
12,
04,
05,
00,
07,
d9,
0a,
00,
ff,
b2,
df,
db,
f0,
d1,
11,
f7,
fb,
ec,
ee,
12,
09,
05,
db,
fb,
fb,
07,
ee,
d8,
f8,
2a,
fb,
ff,
20,
f7,
ec,
e8,
12,
c0,
f4,
fe,
ef,
03,
0f,
36,
17,
f5,
11,
e1,
fd,
fc,
fe,
03,
d8,
e7,
ef,
d9,
ca,
1f,
1e,
e0,
02,
f6,
06,
06,
cf,
10,
2a,
ec,
0e,
f6,
f8,
f1,
da,
08,
f0,
1f,
eb,
fd,
15,
0c,
ed,
d8,
d1,
e6,
f3,
f3,
f4,
de,
05,
27,
22,
24,
b7,
05,
f7,
df,
fb,
19,
f6,
d8,
e3,
5c,
04,
14,
e7,
04,
f3,
0c,
18,
f7,
23,
ef,
0c,
b1,
f7,
e5,
08,
e7,
fa,
1a,
05,
03,
39,
00,
fb,
fd,
35,
ea,
fd,
ed,
1b,
f6,
d7,
ef,
04,
d2,
fe,
1d,
b6,
b7,
e4,
b7,
eb,
50,
c3,
f6,
fd,
07,
f2,
3a,
01,
f8,
0d,
41,
d4,
e5,
01,
f9,
20,
fc,
f0,
00,
df,
32,
f9,
42,
f0,
f0,
2d,
fe,
10,
d5,
13,
31,
06,
e9,
c0,
fa,
f8,
08,
ff,
0d,
3f,
09,
4d,
fc,
0e,
05,
ff,
8b,
0b,
15,
ee,
d3,
e0,
20,
0f,
e7,
ec,
fa,
2d,
d0,
12,
03,
df,
d3,
ef,
df,
1a,
f3,
f6,
f4,
19,
17,
09,
ec,
02,
0b,
ed,
1d,
09,
eb,
05,
f9,
fb,
25,
d7,
1b,
08,
08,
e7,
b5,
d1,
05,
ca,
e1,
ff,
4e,
18,
bf,
19,
fa,
07,
d6,
eb,
09,
05,
1b,
f8,
22,
17,
f9,
0c,
0b,
1b,
0e,
e6,
33,
fa,
0a,
ed,
04,
f4,
fe,
e8,
c5,
fc,
13,
04,
04,
f0,
00,
31,
f8,
23,
f9,
fd,
1d,
dd,
f3,
15,
ba,
de,
00,
f7,
cf,
f0,
07,
d6,
f1,
c9,
25,
e5,
17,
04,
fe,
08,
fc,
ef,
00,
df,
bc,
12,
d1,
16,
fb,
20,
28,
0a,
0d,
28,
1f,
0b,
0a,
04,
b1,
be,
fb,
db,
23,
20,
62,
1d,
06,
39,
de,
e7,
27,
9a,
45,
22,
1b,
17,
81,
2b,
fb,
28,
ef,
ed,
f6,
de,
17,
ea,
d6,
de,
8d,
c6,
d6,
43,
20,
df,
02,
12,
08,
ef,
19,
fb,
fb,
dd,
f9,
13,
06,
eb,
e5,
f4,
0b,
02,
0f,
07,
ff,
06,
07,
08,
fb,
08,
13,
c9,
ef,
fe,
08,
02,
0a,
f9,
0c,
e5,
f6,
fd,
14,
01,
16,
fb,
0c,
0e,
e3,
f5,
1a,
d4,
ea,
dd,
f5,
20,
fb,
03,
ff,
1c,
00,
00,
e9,
fe,
14,
f0,
17,
f4,
18,
16,
1d,
f3,
02,
e0,
ff,
09,
03,
11,
f2,
10,
0f,
fc,
fa,
09,
11,
02,
ee,
11,
00,
19,
ff,
0a,
0c,
f9,
2b,
00,
0f,
fb,
13,
cd,
09,
ff,
04,
c9,
f9,
b5,
10,
fc,
e9,
1b,
f7,
fc,
0d,
ff,
e1,
02,
0a,
ed,
d0,
0a,
f9,
11,
f7,
13,
01,
f6,
e7,
13,
f0,
10,
0e,
eb,
f1,
32,
07,
0b,
bb,
03,
23,
09,
ee,
23,
f0,
02,
02,
27,
0a,
e7,
11,
ff,
18,
3c,
11,
e6,
01,
1f,
09,
f7,
ff,
08,
0b,
17,
f2,
f8,
f5,
05,
f5,
03,
f3,
fa,
0d,
ff,
fb,
fc,
f9,
01,
a1,
cc,
ff,
fe,
db,
1d,
0c,
07,
f4,
27,
be,
81,
03,
0d,
df,
1c,
0b,
ef,
04,
f1,
0e,
f4,
e9,
0b,
fd,
d9,
07,
ef,
10,
24,
fc,
15,
ed,
13,
fd,
03,
10,
1e,
09,
16,
fb,
f9,
e6,
04,
fd,
d6,
e4,
22,
26,
06,
07,
e7,
10,
c9,
fa,
df,
f6,
19,
ef,
df,
f6,
c4,
db,
ef,
f3,
e4,
19,
18,
fb,
04,
12,
f9,
eb,
0b,
e9,
ef,
13,
f2,
00,
d1,
09,
01,
03,
11,
09,
2e,
02,
f2,
ef,
00,
29,
26,
f0,
21,
15,
10,
dc,
12,
14,
02,
05,
12,
05,
e6,
b7,
f1,
08,
06,
ed,
1e,
fe,
f7,
33,
ed,
0c,
05,
02,
16,
0c,
fe,
f5,
ff,
01,
25,
27,
d3,
e9,
fa,
e8,
02,
18,
cd,
fc,
e0,
12,
ee,
1e,
2b,
f0,
0d,
07,
e8,
2e,
ff,
e4,
0b,
06,
d9,
f3,
d8,
f0,
f6,
3c,
14,
13,
f7,
f1,
17,
10,
19,
a9,
35,
fc,
1f,
10,
59,
1b,
13,
e8,
d8,
0b,
bd,
ee,
14,
08,
04,
09,
1b,
e6,
d9,
13,
93,
f6,
24,
d0,
1d,
13,
12,
1e,
05,
dd,
e9,
12,
14,
14,
08,
1e,
19,
1a,
08,
db,
0c,
42,
81,
fb,
19,
fb,
2c,
da,
f8,
4e,
19,
b7,
05,
03,
0c,
04,
dc,
0a,
de,
11,
e6,
eb,
14,
e8,
ff,
d8,
05,
fc,
f6,
03,
09,
02,
17,
f7,
d6,
f6,
18,
ff,
16,
e2,
01,
28,
f1,
08,
ec,
01,
fc,
e9,
e8,
0e,
0e,
f0,
e2,
3b,
02,
e7,
f0,
fd,
f1,
fa,
f6,
f9,
0f,
11,
ed,
03,
24,
14,
16,
05,
fe,
0a,
e6,
e3,
0e,
f7,
1c,
ed,
ef,
fd,
ee,
19,
00,
13,
03,
f6,
f5,
fd,
ec,
ff,
ff,
fd,
f6,
e5,
f3,
e2,
14,
e5,
fc,
08,
07,
1e,
f1,
18,
f2,
f3,
27,
04,
1c,
04,
01,
07,
07,
00,
13,
fb,
eb,
fc,
ff,
e3,
eb,
0a,
d3,
fa,
f7,
14,
29,
01,
1b,
19,
13,
fa,
eb,
09,
17,
b7,
e8,
f6,
f7,
f9,
02,
e5,
59,
04,
ef,
d8,
11,
28,
fa,
01,
04,
f9,
15,
ea,
f6,
1e,
cc,
32,
e1,
08,
ba,
e1,
16,
d7,
81,
01,
e6,
fc,
07,
fd,
10,
f2,
8f,
df,
f2,
e9,
1f,
06,
f2,
0c,
0b,
f4,
03,
f0,
e3,
05,
ef,
ed,
04,
17,
ec,
e0,
e4,
e9,
1c,
e2,
11,
f2,
f0,
ec,
01,
12,
19,
ac,
cf;
