ffffffbc
000000a4
fffffdf9
00000710
00000717
000000a7
00000727
000000ef
00000158
00000560
00000081
000000e4
ffffff16
000000ca
000000f6
000003f2
ffffffe5
000002dc
00000016
00000020
000001be
ffffff8f
0000024e
00000336
0000003e
00000797
000002df
ffffffeb
ffffff46
000001e6
00000361
0000008a
ffffffe5
0000007d
00000216
fffffd20
0000073b
ffffff5f
00000022
00000170
ffffff95
ffffff71
00000464
ffffff70
00000338
0000009d
0000001b
00000053
00000086
ffffffe3
0000065f
00000071
ffffffb4
00000154
ffffffef
ffffff5a
0000034c
ffffff69
000002ac
ffffffb8
00000066
00000443
0000072c
000000f9
ffffff25
0000006a
000003e2
0000021c
fffffefb
ffffffea
000004a1
00000444
fffffff6
0000040d
000000fb
0000021e
ffffff89
00000144
000000f5
fffffef2
