memory_initialization_radix=16;
memory_initialization_vector=
2f,
16,
41,
f1,
f1,
0f,
fc,
07,
d8,
17,
f8,
db,
f9,
dd,
c3,
56,
ca,
2e,
0a,
e9,
02,
14,
f1,
f1,
25,
fd,
e2,
1b,
08,
da,
f6,
0c,
0f,
f8,
1c,
16,
fe,
c9,
08,
e6,
09,
36,
08,
23,
c4,
fe,
df,
2d,
7f,
14,
01,
f9,
0e,
0f,
10,
07,
d4,
3b,
24,
0f,
f0,
24,
ea,
d5,
f3,
d9,
15,
f9,
13,
cb,
f5,
05,
ce,
e3,
c4,
c2,
f5,
02,
2d,
12,
07,
bd,
0a,
0d,
f4,
ff,
d7,
05,
15,
d4,
2b,
21,
fd,
fa,
e9,
d4,
e6,
12,
e8,
94,
fc,
f7,
ff,
2a,
05,
3f,
81,
07,
68,
0c,
fa,
0a,
b3,
2e,
f2,
cc,
58,
eb,
11,
eb,
5c,
d2,
f2,
14,
2d,
16,
e7,
eb,
90,
fa,
00,
24,
10,
1d,
f3,
e4,
fb,
03,
af,
f7,
df,
e8,
44,
00,
50,
be,
98,
08,
0a,
04,
28,
f2,
61,
db,
11,
2c,
10,
3f,
f5,
c4,
de,
f3,
e7,
17,
ac,
0d,
e2,
37,
10,
2f,
20,
c2,
db,
0c,
ea,
c9,
1f,
ba,
dc,
6f,
19,
04,
e9,
d6,
05,
ac,
7f,
cc,
d3,
f4,
f4,
fe,
0d,
d8,
03,
30,
f5,
e1,
02,
22,
f2,
05,
34,
e5,
e1,
62,
03,
5d,
47,
f1,
35,
ee,
33,
ea,
35,
14,
30,
21,
39,
fb,
26,
ee,
14,
18,
d3,
18,
27,
13,
f2,
12,
c6,
ff,
a5,
21,
02,
fd,
18,
09,
0d,
d7,
d5,
ec,
1f,
2d,
d7,
b1,
f7,
0a,
bc,
81,
0a,
21,
13,
f5,
0b,
f4,
05,
38,
0e,
14,
f1,
0d,
cd,
15,
0b,
f6,
16,
ee,
23,
e5,
ef,
0a,
a2,
d7,
18,
df,
21,
b0,
f5,
18,
9f,
f3,
61,
d4,
20,
f4,
ff,
f6,
fd,
e5,
fb,
e8,
56,
ee,
f0,
d9,
52,
f1,
da,
74,
2e,
41,
2d,
eb,
13,
f3,
2e,
04,
a6,
a1,
34,
da,
23,
cf,
e2,
2b,
ed,
f4,
98,
f7,
d2,
00,
d0,
1c,
9a,
ee,
e5,
2c,
14,
b6,
26,
ea,
d2,
30,
50,
0a,
37,
00,
e3,
09,
27,
dc,
ee,
e9,
f4,
d8,
0b,
e2,
4a,
03,
d8,
fc,
f5,
03,
d5,
ed,
fc,
1c,
f3,
1c,
1a,
d4,
f1,
e7,
17,
ab,
e5,
cf,
7f,
f5,
19,
d8,
e8,
f5,
35,
1f,
3c,
f2,
1b,
f9,
0a,
3f,
17,
fa,
1d,
3e,
02,
f3,
12,
24,
f4,
fb,
36,
d5,
26,
c4,
0f,
df,
da,
3e,
f1,
1d,
d9,
26,
c7,
d7,
0f,
cc,
f1,
dc,
cc,
e6,
e4,
14,
df,
a8,
0e,
97,
fa,
14,
12,
ed,
f7,
20,
f2,
da,
e5,
f8,
f5,
ff,
d9,
0c,
41,
28,
f5,
1c,
7c,
e3,
f9,
fe,
19,
c8,
28,
03,
f0,
d3,
fb,
d0,
28,
f2,
ed,
d9,
ca,
10,
d9,
e0,
07,
13,
81,
21,
07,
02,
40,
06,
fd,
eb,
cd,
ed,
10,
00,
24,
bd,
0f,
fc,
19,
38,
0a,
0b,
32,
2d,
0f,
01,
e8,
f8,
45,
c5,
f3,
2e,
2c,
ce,
b9,
a4,
fd,
07,
ef,
28,
ed,
e8,
dd,
16,
ff,
ff,
00,
81,
24,
03,
de,
e9,
e4,
eb,
f8,
05,
4c,
30,
fe,
c6,
47,
20,
06,
1a,
9d,
f8,
df,
21,
4a,
38,
19,
bd,
f6,
dc,
f1,
de,
00,
f6,
49,
ee,
06,
e4,
03,
f3,
eb,
ff,
0b,
29,
e0,
ef,
94,
07,
14,
16,
25,
b7,
0d,
ce,
fd,
d1,
fc,
63,
e9,
4a,
27,
f2,
f3,
0b,
d9,
f8,
ea,
ef,
81,
db,
ed,
b3,
1e,
e4,
f5,
f4,
d8,
e2,
25,
36,
07,
0a,
ab,
26,
04,
ee,
fa,
04,
1e,
f2,
e4,
2a,
fe,
2b,
10,
36,
02,
e1,
09,
07,
0a,
1d,
41,
d2,
d8,
35,
fc,
fc,
f6,
0e,
06,
fd,
11,
35,
2d,
de,
ff,
07,
f1,
3d,
01,
f6,
10,
da,
c1,
21,
04,
f9,
eb,
ce,
1c,
05,
23,
15,
c7,
a5,
c3,
1f,
10,
18,
00,
2a,
ec,
e7,
15,
e3,
1e,
f6,
0d,
93,
44,
c3,
08,
da,
37,
1b,
03,
15,
2c,
ed,
09,
1d,
fd,
10,
23,
d3,
09,
0e,
f7,
cf,
30,
e7,
2d,
cc,
10,
2f,
bf,
d6,
01,
01,
7f,
ee,
04,
2e,
de,
4a,
f0,
ef,
00,
e6,
dd,
0e,
23,
dd,
ea,
18,
d4,
e8,
f7,
50,
e6,
09,
0f,
c2,
0e,
13,
00,
f0,
bf,
03,
d8,
ab,
0f,
f8,
ed,
1b,
0e,
23,
e9,
12,
1e,
53,
15,
e7,
3e,
04,
15,
aa,
0a,
dd,
eb,
97,
15,
0e,
13,
20,
e2,
d1,
07,
f5,
fc,
f8,
07,
e5,
fd,
1e,
0c,
19,
dd,
02,
21,
fc,
52,
f7,
fb,
be,
41,
12,
26,
e5,
fb,
08,
cd,
fd,
e4,
dc,
04,
f4,
12,
f9,
d8,
10,
0a,
08,
2a,
fd,
d9,
f2,
fb,
f6,
e7,
43,
35,
00,
27,
0c,
1a,
17,
06,
e8,
12,
f4,
1f,
c7,
f6,
0c,
0c,
d6,
7f,
e7,
c1,
e9,
c8,
f9,
ef,
b9,
31,
ba,
fe,
ca,
d6,
12,
2e,
03,
fb,
f7,
fb,
2a,
ea,
14,
e7,
06,
e3,
2f,
e4,
b2,
2d,
cd,
27,
f5,
20,
16,
0f,
b2,
06,
85,
10,
d8,
e7,
08,
23,
eb,
54,
1f,
52,
ec,
01,
e9,
0c,
de,
f7,
48,
77,
ef,
15,
fd,
44,
fd,
17,
39,
fe,
0b,
58,
e2,
b7,
40,
dc,
1e,
24,
22,
7f,
d7,
0c,
1c,
ff,
ad,
e4,
33,
f5,
ec,
40,
0a,
31,
e8,
fb,
f2,
e4,
00,
07,
01,
ff,
21,
f9,
90,
03,
05,
90,
fd,
08,
fb,
e6,
30,
f9,
fb,
ef,
fd,
ff,
4a,
02,
04,
fc,
22,
fd,
c1,
31,
fa,
00,
55,
23,
81,
07,
01,
01,
e7,
fb,
07,
00,
f6,
fe,
30,
e7,
ff,
fc,
24,
ff,
ee,
ff,
fe,
06,
1d,
01,
fb,
08,
c9,
fb,
fb,
01,
21,
0e,
00,
01,
ce,
00,
01,
04,
00,
f5,
f6,
06,
fd,
9c,
15,
fd,
2d,
35,
d6,
04,
ec,
31,
16,
e9,
e8,
aa,
2e,
1d,
f0,
78,
06,
be,
01,
12,
cb,
0b,
1d,
b3,
18,
1b,
99,
f2,
07,
81,
bb,
cc,
f1,
c1,
b2,
0e,
3e,
c3,
74,
0c,
a9,
02,
f4,
4a,
fc,
0e,
51,
2c,
f5,
44,
0d,
02,
b6,
ed,
1d,
5c,
2f,
14,
d2,
3f,
73,
de,
1f,
e8,
f0,
28,
be,
08,
36,
ee,
d1,
fe,
cc,
35,
56,
23,
da,
1a,
0e,
8b,
16,
fe,
3a,
fe,
fc,
0d,
e2,
47,
e1,
04,
ee,
cc,
5d,
ef,
98,
7f,
dc,
c6,
ea,
31,
af,
e7,
05,
a6,
04,
0a,
86,
f8,
d4,
d9,
be,
0b,
c1,
ab,
11,
e8,
35,
a3,
66,
30,
cf,
5b,
f3,
df,
19,
d8,
2c,
d9,
d1,
45,
3a,
e9,
ab,
69,
08,
69,
00,
0f,
db,
13,
40,
fc,
31,
1a,
45,
2a,
b8,
ec,
38,
06,
c7,
e2,
1b,
2a,
cb,
2f,
eb,
31,
b5,
ed,
ff,
e5,
0e,
a5,
e5,
f9,
c7,
0a,
50,
f4,
39,
0e,
09,
36,
f8,
15,
82,
df,
e8,
23,
f5,
eb,
4d,
de,
df,
ae,
eb,
1d,
04,
21,
f7,
1c,
ce,
f1,
c3,
23,
3e,
07,
24,
e7,
eb,
40,
c4,
c9,
4c,
f9,
c5,
c9,
dd,
54,
1c,
e8,
f7,
ba,
29,
db,
e9,
00,
02,
e9,
7f,
be,
23,
51,
34,
e7,
07,
f2,
14,
e1,
18,
ed,
f0,
28,
bc,
07,
dc,
f2,
34,
1a,
dc,
dd,
ee,
bc,
e8,
04,
ec,
e8,
e1,
1b,
81,
fa,
f4,
1a,
da,
eb,
fe,
fb,
50,
14,
10,
08,
a6,
0f,
4c,
f9,
0e,
d7,
ef,
f3,
02,
14,
0f,
0c,
07,
e2,
cc,
0c,
fb,
de,
f8,
eb,
e6,
f9,
fe,
fe,
15,
05,
02,
e6,
08,
f1,
07,
13,
eb,
e7,
61,
cf,
eb,
fc,
d5,
56,
14,
ed,
0e,
17,
16,
d9,
e9,
01,
05,
23,
fd,
e3,
2b,
f1,
d6,
39,
05,
55,
de,
fb,
a3,
fc,
13,
e3,
ea,
af,
d5,
2b,
a2,
07,
a2,
14,
27,
a6,
eb,
02,
e2,
3b,
4f,
18,
c2,
0c,
13,
19,
4d,
1e,
e2,
62,
00,
20,
26,
52,
28,
3d,
a8,
3c,
b8,
f9,
7f,
f9,
ce,
2e,
fa,
eb,
e0,
d0,
12,
1d,
1b,
f4,
05,
bc,
c4,
b2,
b7,
17,
08,
c4,
0f,
31,
0d,
84,
0a,
e5,
1f,
f5,
a7,
eb,
0a,
ca,
f8,
d8,
d2,
05,
9a,
f7,
d1,
f8,
1f,
d7,
1e,
dc,
10,
22,
09,
07,
f4,
26,
1c,
d3,
01,
d9,
d8,
04,
96,
d7,
81,
4c,
f3,
04,
be,
de,
58,
10,
04,
2f,
31,
e5,
f9,
01,
d3,
f8,
08,
fd,
24,
f7,
f7,
16,
03,
19,
ce,
c2,
38,
25,
ef,
dc,
04,
4e,
92,
40,
fe,
10,
39,
fa,
28,
b0,
05,
f7,
15,
bc,
3e,
1f,
20,
9b,
eb,
38,
2e,
02,
ec,
ba,
db,
0c,
ef,
05,
ee,
cc,
19,
e2,
08,
d8,
0c,
e4,
eb,
f3,
1b,
24,
0a,
f1,
06,
f8,
0b,
f4,
1e,
22,
06,
e1,
0e,
fa,
e9,
1a,
ce,
22,
ef,
1b,
db,
d6,
21,
d8,
f8,
13,
e4,
e8,
f2,
00,
25,
01,
1f,
03,
ce,
ee,
4e,
de,
ea,
17,
bb,
17,
c6,
0d,
21,
e0,
f3,
e6,
12,
1d,
fa,
01,
07,
f7,
ea,
35,
2b,
10,
05,
c9,
f8,
01,
30,
fa,
08,
27,
0f,
0d,
ce,
0c,
7f,
d2,
0e,
e7,
e4,
ec,
f9,
de,
f1,
d9,
f6,
f8,
dc,
21,
02,
08,
11,
b0,
46,
19,
fd,
de,
01,
21,
eb,
11,
c3,
e1,
0c,
ef,
e1,
c4,
1d,
04,
f6,
e0,
44,
eb,
30,
29,
27,
f0,
13,
bb,
b5,
1d,
ff,
f2,
eb,
03,
f9,
ff,
f5,
2e,
0f,
cb,
fa,
2d,
02,
12,
81,
c5,
0e,
0f,
06,
17,
1b,
23,
eb,
de,
05,
e0,
01,
29,
09,
ec,
18,
11,
f4,
ff,
e8,
f0,
2e,
f5,
2f,
1a,
0a,
2b,
f4,
f8,
cb,
07,
68,
97,
a3,
f5,
05,
fc,
05,
0b,
c9,
e2,
dd,
13,
f4,
0c,
25,
24,
0b,
e6,
1a,
1d,
e2,
f0,
fd,
68,
c6,
f3,
11,
0b,
d7,
0d,
ed,
3d,
1a,
2c,
20,
f5,
f3,
de,
f1,
c6,
ff,
18,
dc,
27,
dd,
8a,
0b,
13,
24,
51,
e5,
10,
c0,
ae,
33,
33,
c2,
e3,
fa,
e6,
f9,
26,
dd,
e0,
9a,
f6,
28,
15,
7f,
df,
d2,
de,
29,
e2,
01,
0f,
ee,
da,
20,
2a,
dc,
e6,
03,
d9,
1b,
01,
fb,
22,
ff,
f2,
01,
0a,
e8,
20,
d6,
13,
eb,
03,
db,
11,
1a,
c1,
fb,
25,
fd,
e8,
2b,
e5,
1d,
ef,
26,
d7,
d2,
f9,
16,
07,
e7,
22,
3d,
e3,
e7,
5c,
00,
26,
f8,
d7,
e6,
0c,
81,
01,
e4,
07,
bf,
e7,
1c,
1e,
f7,
0e,
f1,
13,
20,
f3,
ad,
e6,
c8,
16,
66,
fe,
13,
2f,
0b,
e9,
31,
d9,
02,
fe,
a1,
06,
ff,
a9,
de,
33,
e2,
eb,
d1,
0e,
d9,
12,
f5,
08,
57,
25,
25,
c7,
07,
df,
04,
d8,
e0,
0e,
09,
f3,
c0,
e8,
10,
22,
33,
ec,
1b,
f5,
11,
db,
6a,
49,
81,
16,
2c,
ef,
f3,
d8,
00,
12,
16,
06,
cf,
c7,
df,
22,
0d,
2c,
23,
56,
fc,
0b,
ef,
e1,
cc,
f2,
18,
d8,
df,
17,
1f,
07,
cf,
b8,
ef,
fa,
f5,
a2,
0a,
f4,
22,
00,
0c,
19,
15,
10,
34,
4a,
ff,
fd,
ed,
07,
21,
10,
37,
02,
d7,
08,
ff,
f1,
e4,
23,
e2,
f0,
f2,
19,
fc,
01,
e4,
e4,
e2,
32,
ed,
e0,
2c,
12,
0e,
f1,
09,
46,
f4,
a6,
4a,
e1,
2e,
27,
2a,
7f,
03,
a4,
f2,
3a,
dd,
bd,
2c,
25,
fd,
34,
1e,
24,
59,
0e,
c4,
35,
e6,
d5,
e0,
22,
19,
f4,
c0,
f5,
40,
ea,
52,
21,
2b,
3d,
f9,
02,
fb,
0d,
1f,
66,
ee,
3d,
dc,
08,
4b,
c7,
e5,
d5,
f8,
7d,
e9,
f5,
44,
f3,
ce,
25,
fd,
08,
00,
ff,
b8,
df,
03,
f9,
fa,
45,
02,
64,
d6,
fb,
17,
2b,
02,
1a,
09,
1a,
32,
d0,
f6,
cc,
08,
02,
df,
25,
f9,
df,
57,
21,
19,
c1,
3d,
e1,
13,
af,
27,
08,
40,
2a,
ff,
34,
e5,
35,
11,
39,
19,
6c,
fb,
81,
66,
02,
69,
06,
88,
77,
ec,
df,
7f,
f8,
25,
ee,
fe,
02,
3e,
09,
f2,
12,
b4,
fb,
f8,
02,
ef,
19,
fa,
0b,
dc,
fe,
00,
e9,
06,
24,
e5,
13,
fe,
3e,
da,
ce,
04,
fd,
01,
fe,
0e,
44,
db,
10,
fe,
f8,
e2,
de,
23,
f1,
be,
e9,
46,
0a,
cf,
e8,
35,
1b,
fe,
fb,
0f,
f1,
40,
39,
06,
07,
d3,
22,
d5,
cb,
f2,
e4,
f6,
ec,
0c,
93,
c5,
6c,
ea,
0f,
e7,
01,
59,
0b,
01,
01,
03,
16,
f8,
15,
03,
1e,
34,
0e,
c6,
07,
d0,
f7,
ed,
52,
7f,
15,
6b,
f1,
e6,
02,
14,
25,
05,
16,
ed,
2a,
11,
17,
d9,
0e,
15,
14,
d3,
0a,
da,
a6,
f3,
0a,
f4,
c4,
1b,
c7,
15,
e0,
13,
db,
70,
30,
17,
f5,
26,
3c,
0c,
cd,
0b,
f4,
07,
45,
23,
ec,
11,
b7,
f9,
f5,
d4,
0b,
0b,
ec,
0b,
0c,
ef,
ea,
ca,
02,
0f,
19,
12,
c6,
20,
d8,
15,
d7,
53,
f4,
05,
cf,
ba,
e6,
ea,
24,
64,
cc,
31,
e9,
03,
2b,
d6,
f1,
d7,
4c,
d8,
f6,
f2,
89,
04,
d9,
e4,
ae,
3f,
e3,
aa,
d3,
42,
d6,
13,
cd,
7f,
e7,
17,
ed,
2d,
4a,
be,
d6,
0d,
01,
ca,
ea,
c8,
62,
06,
ee,
ac,
a0,
de,
fa,
06,
08,
d6,
fd,
dd,
09,
2b,
24,
12,
bc,
eb,
f9,
24,
d9,
a8,
b2,
2c,
37,
e7,
e7,
aa,
e8,
32,
fc,
42,
2a,
14,
09,
d6,
d8,
1e,
02,
03,
da,
e0,
1a,
fd,
ef,
cb,
f3,
c7,
1a,
34,
f8,
0e,
d0,
3f,
14,
3b,
d4,
e6,
e5,
e6,
4d,
ff,
7f,
e6,
10,
5c,
f0,
f3,
13,
17,
1b,
fd,
2b,
0f,
13,
18,
1f,
fe,
25,
1b,
db,
25,
00,
01,
f6,
20,
15,
fc,
e8,
38,
ec,
1d,
4c,
ce,
f1,
3d,
e3,
1c,
1a,
ff,
ee,
f8,
c4,
1d,
04,
f0,
09,
0b,
1e,
df,
11,
e3,
00,
ff,
fd,
0c,
07,
fa,
0b,
bb,
23,
d4,
0a,
f9,
c2,
fc,
ea,
b1,
fa,
d9,
19,
fe,
0a,
fe,
02,
c8,
81,
06,
02,
10,
2c,
f4,
3b,
d5,
01,
cf,
f0,
16,
05,
fa,
fb,
21,
e4,
04,
c1,
50,
29,
f1,
4c,
13,
f4,
6e,
24,
ed,
30,
1e,
1c,
1a,
d5,
eb,
fa,
ff,
00,
26,
e8,
be,
2c,
08,
20,
f5,
0c,
ce,
1c,
17,
f7,
1e,
08,
13,
09,
22,
cb,
41,
e1,
22,
0d,
fe,
0e,
7f,
21,
00,
27,
ee,
d1,
10,
ef,
e6,
31,
c7,
e9,
f5,
01,
ee,
de,
cc,
e6,
46,
be,
d7,
cd,
ea,
f9,
f1,
27,
ed,
eb,
11,
e4,
08,
e2,
27,
53,
e4,
0e,
08,
4b,
31,
d7,
14,
34,
e9,
14,
0b,
e1,
f3,
0c,
3e,
24,
e6,
15,
f3,
2b,
cd,
ee,
1d,
f6,
dd,
dc,
fe,
e4,
2b,
57,
fd,
15,
0d,
1b,
fd,
18,
27,
d9,
c2,
e9,
05,
f0,
34,
38,
07,
d0,
2f,
f0,
e2,
f4,
68,
e5,
f3,
13,
c6,
13,
1c,
f5,
f4,
14,
05,
f5,
dd,
02,
f7,
16,
f3,
ec,
32,
c0,
f4,
11,
1a,
07,
f6,
e8,
09,
f8,
0a,
e1,
04,
00,
f3,
21,
02,
d8,
ed,
e6,
fc,
5a,
10,
09,
e6,
05,
df,
17,
fa,
f7,
b4,
2f,
81,
fb,
15,
00,
fb,
14,
e1,
ee,
f6,
d9,
01,
12,
e3,
16,
bc,
0c,
00,
1c,
dc,
eb,
e8,
da,
10,
0e,
ec,
00,
00,
07,
be,
ab,
f4,
f1,
09,
d6,
fe,
19,
d4,
f2,
03,
0f,
f6,
1a,
e3,
f7,
cd,
19,
f5,
7f,
18,
eb,
eb,
f2,
05,
f8,
df,
dd,
20,
f8,
06,
0b,
14,
02,
f0,
ee,
20,
0a,
e7,
fd,
ec,
0d,
f0,
ed,
eb,
e2,
19,
06,
0d,
08,
fe,
0c,
06,
38,
19,
03,
fd,
dc,
05,
f1,
15,
da,
12,
ec,
e5,
06,
29,
11,
fd,
16,
20,
14,
26,
55,
fe,
e2,
14,
14,
c2,
ff,
0c,
df,
30,
01,
ed,
ec,
41,
fc,
ed,
19,
f1,
da,
11,
09,
f8,
a6,
04,
ea,
f0,
15,
fa,
30,
34,
0d,
ce,
20,
db,
0f,
0f,
14,
20,
68,
04,
cc,
1a,
17,
fb,
35,
d6,
81,
46,
d6,
20,
de,
40,
e6,
0f,
0b,
2b,
01,
72,
f5,
36,
12,
cf,
0a,
01,
0d,
0a,
f1,
24,
39,
eb,
e7,
15,
c5,
46,
dc,
27,
ec,
eb,
05,
f9,
d8,
00,
18,
1a,
fc,
f3,
12,
ea,
12,
0a,
ef,
14,
03,
00,
04,
81,
fd,
d2,
3b,
e9,
09,
1e,
05,
0b,
e9,
fc,
ba,
13,
0c,
fa,
5c,
fd,
ec,
e6,
9a,
24,
08,
ff,
db,
ef,
f2,
02,
f2,
df,
25,
24,
10,
e0,
09,
d3,
28,
05,
e4,
fa,
04,
11,
48,
0d,
f3,
20,
26,
09,
13,
37,
f3,
ee,
03,
00,
f4,
d3,
28,
e5,
02,
ee,
fc,
fc,
dd,
0d,
28,
02,
fa,
13,
18,
1d,
f9,
34,
f1,
31,
0a,
a1,
11,
eb,
0b,
d9,
df,
67,
ed,
f8,
f1,
17,
ff,
21,
e3,
0a,
00,
15,
3c,
f1,
32,
0e,
c3,
02,
13,
6b,
6e,
12,
fd,
f3,
df,
fb,
c9,
db,
b4,
7f,
f0,
32,
bd,
01,
f6,
a9,
f2,
11,
2e,
0a,
c7,
64,
c3,
ff,
f5,
1e,
b5,
05,
e8,
c6,
ea,
16,
d5,
f3,
2a,
c9,
97,
dd,
ff,
c2,
fb,
fa,
10,
1a,
06,
5b,
1a,
18,
cf,
ff,
05,
e5,
f7,
b3,
f6,
ce,
ec,
02,
0c,
17,
eb,
51,
e5,
17,
0e,
ff,
1a,
da,
ea,
ed,
81,
fa,
5c,
26,
08,
f2,
b8,
15,
fa,
02,
64,
00,
16,
fb,
00,
eb,
22,
e3,
02,
ef,
18,
0b,
18,
1a,
1e,
78,
e2,
f3,
26,
12,
05,
0a,
0c,
f3,
06,
d8,
d2,
2b,
3f,
10,
1c,
00,
e0,
e4,
ea,
e2,
de,
c2,
07,
23,
08,
e7,
f9,
f1,
c8,
03,
e3,
e2,
ce,
ff,
77,
e9,
19,
1d,
0b,
ef,
cd,
fb,
17,
ea,
1d,
be,
f7,
ed,
1b,
fe,
f2,
ce,
12,
fd,
59,
fb,
f1,
de,
dd,
ee,
49,
e8,
03,
ef,
cb,
06,
0d,
17,
d0,
e0,
47,
0d,
b7,
f4,
b0,
03,
df,
d9,
31,
e9,
e3,
f5,
c5,
14,
e8,
a1,
d4,
33,
f6,
fe,
2f,
02,
d5,
23,
07,
d3,
e9,
0d,
3d,
20,
1f,
81,
db,
42,
16,
11,
ea,
15,
eb,
fc,
cb,
fe,
ba,
f8,
fa,
7f,
fe,
43,
b5,
08,
fb,
0d,
0b,
e2,
16,
29,
f3,
10,
1a,
f0,
2a,
2f,
f8,
34,
f0,
eb,
15,
f3,
fb,
f9,
b8,
02,
f1,
01,
fc,
f9,
f8,
06,
e1,
e5,
01,
0a,
00,
25,
fb,
ea,
d4,
ec,
0b,
06,
f4,
f6,
d1,
02,
06,
ff,
37,
14,
0d,
09,
34,
0c,
14,
41,
f7,
eb,
0f,
f5,
dc,
1a,
b7,
17,
08,
1a,
00,
ef,
c1,
2c,
fa,
da,
fc,
01,
cb,
f5,
fb,
30,
f6,
d3,
40,
1f,
04,
07,
fa,
f4,
0b,
4f,
e7,
f8,
21,
00,
f4,
02,
f6,
db,
16,
f8,
02,
03,
fb,
02,
cc,
03,
03,
1d,
eb,
f3,
03,
06,
12,
fb,
fe,
fc,
f9,
2c,
01,
f3,
e6,
ec,
0c,
e8,
f1,
fe,
ea,
ed,
ed,
0b,
eb,
0c,
f1,
f4,
13,
0e,
ec,
d2,
1d,
03,
e7,
f9,
30,
1c,
81,
d7,
12,
e3,
ff,
ed,
f4,
26,
41,
6a,
0d,
d6,
e9,
f5,
11,
33,
05,
54,
f9,
9e,
28,
0b,
c5,
32,
bc,
bd,
21,
f0,
0b,
03,
1d,
3b,
f3,
ba,
8c,
09,
81,
10,
5e,
ff,
cc,
eb,
02,
f6,
30,
10,
fe,
f7,
e3,
29,
f4,
04,
7f,
ea,
44,
db,
db,
17,
af,
2c,
d7,
12,
de,
23,
cd,
3f,
39,
dd,
eb,
cd,
fc,
05,
c0,
25,
03,
30,
08,
fb,
f5,
ab,
d9,
66,
ea,
74,
12,
dd,
e6,
e3,
f6,
22,
cb,
ff,
1b,
f3,
f8,
4a,
35,
e4,
ed,
cf,
05,
f4,
7f,
06,
02,
dd,
e6,
b3,
21,
f0,
2e,
eb,
1b,
ee,
cf,
e8,
b1,
e1,
e8,
f6,
1d,
fe,
ea,
44,
e9,
e0,
cf,
0f,
00,
9c,
ba,
2e,
df,
f9,
33,
a7,
1b,
d2,
f0,
c7,
f9,
ea,
b0,
f9,
00,
ac,
ea,
07,
f0,
ce,
78,
4e,
1a,
f8,
c3,
fa,
f3,
0e,
02,
db,
fc,
0f,
15,
0e,
fa,
d1,
ef,
14,
9c,
fd,
dc,
1a,
1d,
d8,
e8,
d4,
0e,
3f,
19,
04,
bc,
2c,
05,
1e,
71,
ff,
dd,
c7,
18,
d3,
df,
02,
ed,
fc,
ee,
a6,
fe,
00,
d3,
d4,
ed,
f0,
ca,
e6,
f8,
0a,
c9,
61,
24,
b8,
dc,
f5,
0a,
f6,
e1,
ed,
06,
f0,
7f,
f9,
26,
d5,
e4,
fc,
22,
d3,
02,
db,
31,
11,
0b,
14,
0c,
ec,
bd,
e7,
ee,
14,
df,
ea,
eb,
ea,
03,
11,
f2,
d3,
1c,
1e,
da,
d3,
cc,
09,
86,
ff,
e4,
fd,
20,
cc,
1c,
3f,
e7,
04,
19,
9b,
17,
ae,
da,
97,
3b,
f6,
e9,
47,
0d,
b5,
e3,
e4,
e7,
1d,
e2,
f8,
cd,
db,
f3,
3d,
a9,
26,
09,
17,
2e,
1c,
1e,
02,
2e,
e3,
f1,
0b,
c9,
ef,
48,
f4,
1d,
f6,
c1,
2c,
12,
7f,
de,
f9,
2c,
d8,
ea,
1d,
1e,
ca,
ea,
ee,
09,
2c,
96,
16,
c3,
f7,
1f,
37,
0d,
1b,
4a,
3b,
2a,
e2,
d7,
e7,
d5,
2a,
0b,
25,
22,
57,
f5,
13,
ce,
2b,
06,
f1,
fa,
43,
08,
08,
06,
da,
5e,
cf,
da,
b1,
bb,
26,
e1,
25,
b0,
0e,
c8,
2e,
da,
3e,
55,
27,
ed,
00,
35,
be,
91,
6c,
37,
0b,
38,
e8,
04,
01,
43,
24,
e8,
0a,
3f,
90,
b3,
e5,
1d,
bd,
04,
ad,
1f,
3b,
e2,
fe,
da,
08,
d6,
1c,
ea,
e7,
81,
d5,
0c,
97,
f6,
b6,
07,
f3,
cc,
17,
e4,
fd,
c7,
a3,
09,
7f,
1a,
fb,
d0,
c3,
47,
e1,
19,
2a,
09,
b8,
f7,
21,
b8,
21,
01,
db,
45,
e2,
1b,
ec,
fb,
d0,
fe,
db,
a9,
d1,
1c,
dd,
ca,
fc,
f9,
15,
d0,
06,
e0,
4b,
0c,
50,
ca,
c0,
68,
fc,
c7,
e0,
a8,
c6,
19,
fc,
3a,
05,
25,
1f,
d6,
b5,
f2,
f6,
d6,
5b,
dc,
f3,
2c,
f3,
7b,
e8,
3d,
ff,
e7,
e5,
ed,
f7,
fd,
0c,
dd,
ed,
f2,
d9,
86,
14,
ce,
f6,
12,
12,
0a,
ed,
e0,
1e,
37,
2f,
1f,
db,
c9,
30,
f9,
da,
06,
d9,
cf,
dd,
f7,
d7,
16,
13,
de,
e3,
20,
e5,
d9,
49,
2c,
7f,
e9,
30,
ea,
48,
85,
48,
26,
e3,
3f,
f0,
17,
0a,
48,
64,
dc,
e2,
9b,
db,
16,
fa,
e0,
b3,
2e,
48,
e2,
1b,
38,
05,
b6,
e7,
ec,
12,
f1,
de,
9c,
4f,
a2,
21,
14,
38,
fa,
06,
5e,
03,
09,
bb,
03,
f5,
eb,
03,
0b,
fd,
fd,
21,
35,
28,
02,
05,
82,
07,
0c,
00,
e1,
e6,
f7,
07,
de,
06,
01,
63,
03,
fc,
1a,
e5,
02,
e7,
e4,
f4,
fe,
21,
56,
81,
fd,
05,
12,
15,
03,
fd,
06,
03,
09,
f8,
fc,
00,
f9,
e6,
fd,
e0,
e5,
07,
02,
38,
e1,
fb,
07,
e0,
ff,
fd,
00,
45,
2b,
01,
fd,
d3,
06,
02,
09,
fd,
06,
fc,
06,
05,
f7,
0b,
f5,
0f,
06,
e2,
f9,
00,
fb,
eb,
f1,
dc,
f1,
fe,
fb,
ec,
10,
f2,
fa,
42,
05,
fa,
d4,
0a,
01,
dd,
16,
03,
16,
fc,
fb,
fd,
10,
f6,
fa,
ec,
88,
01,
fb,
f1,
fa,
12,
17,
ee,
19,
a8,
03,
e8,
f0,
0a,
ea,
31,
c7,
fb,
05,
0c,
20,
18,
13,
05,
04,
08,
7f,
01,
f2,
cb,
0c,
1a,
fe,
0a,
22,
12,
ff,
e2,
0f,
06,
02,
f3,
de,
0d,
e6,
1f,
16,
09,
02,
14,
0b,
25,
0b,
05,
f4,
d7,
ef,
07,
31,
12,
1e,
23,
dd,
11,
10,
f5,
e0,
fb,
02,
36,
7f,
e8,
16,
fd,
10,
fb,
09,
f2,
f3,
28,
10,
e8,
03,
12,
0e,
f0,
ec,
07,
26,
bb,
e3,
5e,
c0,
f8,
e6,
c3,
f3,
fd,
11,
db,
0a,
21,
1f,
f0,
05,
e2,
5f,
11,
2f,
e4,
d3,
fd,
07,
05,
f6,
0b,
cf,
d4,
04,
f2,
fb,
05,
10,
9d,
02,
0b,
a7,
d9,
ff,
2b,
c8,
b5,
e4,
d5,
f2,
f7,
c9,
09,
e0,
1b,
0a,
b2,
d6,
4e,
25,
ee,
1e,
aa,
b7,
f8,
f4,
fa,
dd,
2e,
b6,
d0,
7f,
26,
f3,
eb,
3d,
44,
f2,
09,
f0,
67,
1d,
d9,
06,
0f,
06,
fa,
00,
f2,
68,
b1,
c8,
d7,
d7,
04,
e0,
4f,
0a,
af,
17,
ce,
f1,
36,
cb,
d7,
f7,
fb,
24,
0f,
ce,
e0,
e4,
e8,
cb,
21,
f7,
d5,
24,
e3,
3a,
c9,
e1,
e5,
1a,
fb,
f6,
bf,
dd,
a7,
0f,
0f,
04,
d9,
dd,
11,
be,
14,
e2,
f8,
46,
1f,
07,
bd,
11,
39,
ac,
12,
07,
12,
09,
ef,
af,
26,
1b,
40,
40,
ec,
0d,
e8,
ed,
1e,
37,
ed,
cf,
01,
ff,
54,
b3,
0c,
47,
cf,
f5,
fc,
28,
f7,
e7,
f1,
0e,
ed,
fb,
7f,
d2,
2f,
22,
ce,
7f,
30,
ea,
fb,
b7,
20,
d6,
0d,
e2,
30,
fa,
f0,
2f,
ff,
fd,
4b,
f0,
fb,
18,
0e,
1b,
d8,
e1,
05,
f5,
11,
e5,
00,
ff,
79,
07,
30,
ff,
3d,
e0,
ff,
0b,
37,
ea,
08,
fa,
0a,
81,
f3,
ff,
01,
22,
14,
08,
37,
37,
d1,
f8,
fa,
bf,
e7,
2e,
07,
27,
fc,
3b,
20,
39,
14,
9d,
e7,
eb,
0b,
03,
0b,
f8,
0a,
38,
25,
12,
4d,
fb,
c5,
27,
1d,
42,
02,
b5,
f2,
48,
a8,
d0,
0b,
fb,
11,
ff,
da,
fa,
2f,
d9,
15,
f1,
1b,
3a,
c9,
26,
86,
eb,
9b,
79,
3f,
b9,
10,
e4,
6b,
25,
dd,
c0,
f8,
73,
e8,
fe,
e1,
c7,
d9,
fa,
d9,
cc,
3f,
bb,
f0,
b9,
e0,
ec,
a3,
0f,
21,
f7,
1a,
e7,
46,
dd,
c7,
25,
ba,
15,
17,
ee,
ee,
33,
fd,
f2,
eb,
7d,
e2,
c5,
5f,
17,
c7,
f7,
17,
dd,
3a,
19,
af,
81,
e3,
bd,
31,
3c,
0d,
0d,
2b,
f3,
92,
f9,
42,
e4,
1a,
f3,
55,
1b,
fa,
ae,
06,
39,
de,
13,
37,
29,
ba,
e5,
ed,
d2,
f5,
06,
a9,
0f,
0b,
e3,
19,
da,
09,
00,
72,
e4,
f3,
56,
11,
fe,
e9,
35,
d2,
17,
26,
81,
df,
fe,
10,
f7,
19,
15,
02,
5a,
f7,
0d,
f1,
22,
f6,
d3,
23,
02,
e6,
6f,
e5,
f8,
3c,
1e,
f8,
1e,
eb,
48,
bf,
f8,
af,
13,
fd,
0d,
f7,
0b,
dc,
ca,
c9,
01,
8b,
03,
2b,
7b,
25,
e8,
0b,
04,
07,
f3,
f7,
02,
f8,
d5,
fc,
fa,
1a,
f9,
81,
05,
07,
21,
02,
17,
fe,
e2,
4b,
fb,
fc,
0b,
01,
04,
f1,
fd,
ec,
0d,
23,
fb,
eb,
50,
fd,
fd,
22,
f3,
12,
04,
f9,
f7,
1a,
05,
00,
00,
fa,
f5,
06,
fe,
07,
f9,
1b,
07,
01,
05,
fd,
01,
0f,
01,
f7,
00,
e6,
f0,
00,
ff,
f8,
05,
e9,
fd,
d7,
fb,
08,
e1,
ff,
ad,
03,
06,
fc,
d8,
31,
0a,
1e,
07,
ec,
e8,
9c,
13,
25,
dc,
f9,
1c,
06,
cd,
5c,
22,
53,
e8,
4a,
15,
02,
12,
07,
17,
31,
55,
e3,
7f,
09,
06,
fd,
d9,
0c,
fd,
dc,
1c,
f8,
06,
17,
c7,
df,
40,
e9,
1c,
f5,
0a,
3c,
fe,
f2,
2f,
e3,
0a,
f2,
03,
33,
23,
af,
36,
04,
e9,
c3,
08,
19,
fb,
3d,
b0,
e6,
de,
17,
47,
0f,
c0,
cf,
f9,
cd,
11,
c8,
df,
b0,
4e,
f2,
1a,
01,
e6,
31,
32,
fd,
d0,
d7,
f5,
fd,
2d,
b5,
f9,
1a,
b3,
e8,
11,
10,
2d,
51,
2e,
fd,
f1,
f8,
e7,
46,
e7,
d9,
fc,
f6,
0f,
06,
51,
01,
fd,
f6,
06,
b8,
e6,
7f,
e5,
2d,
e1,
ee,
31,
e6,
e3,
3d,
09,
f1,
0e,
f2,
07,
f3,
b5,
e2,
f6,
13,
39,
e1,
f2,
06,
31,
db,
fd,
02,
fc,
bd,
fe,
54,
dc,
f3,
ec,
f8,
43,
0d,
f6,
eb,
0a,
2c,
10,
e6,
d1,
f7,
ef,
20,
ef,
31,
3f,
ca,
01,
f6,
ff,
b6,
ef,
fc,
e6,
09,
0e,
00,
df,
20,
f1,
05,
df,
03,
bc,
e7,
15,
f4,
0f,
ff,
02,
08,
28,
ee,
11,
fb,
de,
11,
0a,
ff,
d3,
ca,
d9,
1a,
13,
04,
1e,
01,
e1,
f8,
15,
e9,
22,
1c,
0a,
00,
e4,
0c,
ef,
00,
0d,
0f,
30,
f8,
2e,
ee,
7f,
1e,
e2,
37,
04,
ac,
f8,
12,
c4,
d3,
e8,
f5,
b7,
19,
a4,
d9,
ec,
08,
28,
0a,
29,
11,
06,
02,
28,
47,
0c,
09,
db,
e4,
01,
f4,
2f,
d9,
fe,
ee,
08,
de,
c1,
15,
24,
db,
27,
f5,
ec,
f9,
c5,
28,
0f,
19,
04,
ff,
e7,
27,
ef,
ce,
ea,
fc,
33,
dd,
0d,
e8,
1f,
d2,
81,
e0,
15,
e1,
13,
d3,
10,
0f,
02,
24,
26,
f7,
54,
f6,
d1,
09,
53,
ea,
38,
17,
13,
fa,
0c,
a7,
be,
0d,
00,
0d,
cd,
45,
08,
17,
d0,
c7,
13,
39,
ea,
45,
cb,
03,
ec,
eb,
0e,
dd,
df,
c5,
29,
f0,
02,
31,
e9,
fe,
d9,
f2,
ce,
37,
e0,
f2,
b8,
fc,
fc,
44,
28,
26,
e4,
09,
f9,
e9,
1a,
f7,
b4,
c1,
2d,
de,
9d,
e7,
7f,
d2,
15,
fa,
0c,
08,
f1,
b9,
a2,
c6,
f1,
10,
79,
39,
26,
98,
f4,
fc,
22,
16,
d0,
e2,
32,
ff,
1a,
d3,
0a,
be,
2f,
cb,
e6,
18,
d6,
2c,
fd,
05,
19,
25,
17,
04,
07,
32,
d6,
1b,
e0,
0f,
1c,
e4,
e1,
05,
36,
e0,
11,
81,
ea,
08,
de,
e4,
e7,
13,
df,
ee,
d8,
f1,
de,
dd,
ca,
42,
f9,
24,
de,
e1,
fc,
fc,
ea,
d9,
d7,
f0,
ee,
e6,
4d,
d4,
f5,
e3,
d8,
f3,
f3,
14,
14,
d8,
fd,
e5,
1a,
30,
f9,
e3,
00,
f7,
fe,
1d,
ca,
de,
ea,
f7,
33,
f0,
08,
e4,
d0,
12,
e8,
f6,
fd,
02,
1c,
f9,
13,
e9,
1a,
04,
18,
cb,
f4,
0a,
da,
fc,
10,
f0,
eb,
7f,
fd,
f2,
ec,
db,
cd,
34,
e1,
e5,
d7,
09,
f4,
e7,
25,
f4,
f2,
01,
55,
25,
03,
23,
e1,
06,
20,
d8,
c1,
1b,
1a,
fe,
21,
05,
24,
59,
1d,
e2,
c1,
ed,
ff,
a7,
5a,
e5,
19,
03,
10,
f7,
33,
50,
d0,
e3,
0c,
24,
f9,
c9,
6a,
ea,
fc,
0b,
03,
d2,
1d,
d4,
0b,
73,
e5,
e1,
4e,
26,
13,
ae,
15,
22,
35,
0d,
f1,
fe,
1b,
1a,
f8,
81,
fe,
09,
31,
01,
02,
25,
d1,
99,
0c,
0e,
21,
09,
eb,
f0,
55,
0e,
fc,
1d,
e6,
fc,
00,
e5,
00,
dd,
f0,
f5,
18,
e3,
ee,
46,
dd,
f7,
29,
fc,
c5,
f6,
01,
0d,
02,
e8,
d6,
00,
0a,
ed,
b1,
0f,
e8,
90,
d8,
00,
f7,
06,
2d,
d0,
19,
0c,
07,
fa,
fb,
26,
41,
fe,
12,
aa,
0f,
f0,
26,
f9,
0a,
e1,
e5,
07,
3b,
a1,
f5,
ec,
be,
dd,
ef,
d8,
e6,
ea,
00,
16,
0a,
2b,
0a,
22,
1c,
00,
29,
dd,
f8,
ff,
15,
1b,
0d,
5b,
f1,
1d,
19,
0d,
11,
f9,
29,
fd,
f7,
0e,
e5,
42,
36,
0e,
ea,
e4,
11,
fb,
ba,
25,
fc,
81,
42,
f7,
ef,
f6,
36,
ed,
1d,
02,
61,
14,
04,
f0,
26,
e0,
8d,
fe,
e7,
e5,
ef,
3c,
2d,
13,
bf,
e6,
df,
16,
0e,
ef,
e9,
f0,
56,
2e,
2d,
46,
f7,
13,
ee,
f5,
32,
3b,
b1,
24,
f1,
d5,
ea,
0e,
14,
02,
fe,
bb,
09,
2f,
fc,
f2,
da,
c0,
d1,
b0,
0a,
19,
f1,
44,
b3,
81,
b1,
18,
15,
e5,
06,
fa,
00,
dc,
79,
fe,
24,
eb,
00,
11,
38,
20,
d7,
02,
96,
ea,
d4,
26,
ef,
2d,
29,
da,
15,
28,
fa,
b2,
dc,
1e,
31,
fc,
f3,
28,
23,
09,
2d,
a9,
ed,
bf,
f5,
51,
04,
ec,
36,
1c,
ed,
f1,
f3,
02,
ca,
53,
da,
f7,
e1,
b7,
f7,
f3,
38,
eb,
07,
f5,
f6,
14,
d5,
f5,
11,
0c,
43,
e4,
eb,
d1,
23,
25,
17,
f9,
7f,
e1,
bf,
55,
0c,
e5,
f7,
0c,
f7,
0e,
31,
da,
f3,
1f,
e9,
29,
b0,
e6,
03,
eb,
bf,
d0,
f0,
1c,
29,
43,
dc,
e6,
35,
28,
05,
d5,
d5,
3a,
0f,
0a,
09,
02,
4f,
ed,
e8,
2a,
99,
34,
74,
1d,
d7,
c1,
1a,
f4,
b3,
47,
a9,
02,
e9,
01,
23,
ae,
e6,
c8,
56,
ec,
26,
bb,
ff,
aa,
cd,
e8,
10,
40,
f8,
fb,
bd,
f3,
f2,
f9,
ba,
04,
f7,
0a,
2d,
ed,
22,
07,
ef,
ac,
fd,
c6,
ac,
de,
7f,
b3,
0b,
f9,
e7,
00,
f1,
cb,
eb,
e0,
fc,
eb,
dc,
3f,
13,
39,
3b,
ed,
d7,
21,
28,
ec,
ba,
92,
2a,
b6,
14,
ab,
9c,
14,
ec,
07,
e7,
03,
03,
ff,
07,
04,
00,
29,
d0,
d1,
f0,
02,
fb,
f5,
16,
01,
f0,
13,
16,
06,
fa,
18,
01,
81,
f4,
01,
f0,
14,
ea,
f6,
d4,
10,
ff,
00,
34,
09,
f8,
ff,
e0,
e8,
02,
08,
f6,
ab,
fa,
d9,
f0,
f7,
04,
f1,
10,
f9,
c8,
f8,
eb,
0d,
54,
dc,
05,
02,
1a,
07,
fb,
d7,
4b,
f8,
e9,
0d,
ed,
1d,
0f,
04,
03,
d4,
00,
ff,
23,
1f,
b6,
72,
10,
fa,
8d,
fe,
d6,
0d,
f9,
ad,
f7,
f3,
d3,
f1,
11,
ef,
40,
b7,
09,
3d,
0c,
0e,
e3,
2e,
21,
a8,
c0,
e0,
f2,
e4,
e4,
e9,
7e,
fb,
10,
d7,
7b,
c0,
ed,
04,
e5,
0c,
21,
e1,
4c,
1c,
e3,
7f,
61,
f5,
b4,
07,
e9,
e7,
56,
dd,
0d,
40,
d7,
fc,
24,
e6,
99,
ee,
00,
5c,
fc,
f1,
16,
f5,
2c,
cb,
c9,
d8,
03,
1b,
0e,
b0,
26,
e9,
fa,
95,
df,
17,
11,
f2,
f3,
e5,
17,
44,
00,
1e,
0e,
14,
d6,
ee,
fb,
f4,
eb,
3f,
35,
eb,
01,
ed,
ed,
e9,
10,
fe,
98,
19,
06,
1b,
bd,
fa,
e9,
e5,
e1,
3c,
13,
ff,
cf,
fe,
02,
0b,
14,
5d,
15,
dd,
c0,
fa,
21,
eb,
0c,
17,
e7,
ee,
10,
3d,
25,
f1,
06,
08,
3a,
0a,
09,
97,
c6,
ee,
11,
0c,
7f,
00,
9e,
f3,
07,
f5,
15,
17,
39,
e1,
0c,
f6,
d2,
f3,
17,
fa,
f6,
f9,
fa,
0f,
0a,
81,
15,
da,
fc,
f6,
ed,
1e,
30,
07,
0f,
22,
f9,
fd,
29,
f4,
fa,
10,
24,
b1,
30,
f6,
2d,
e0,
20,
e7,
e4,
cc,
17,
fb,
02,
fe,
00,
29,
00,
f3,
e7,
41,
e2,
e6,
cb,
f1,
f7,
ea,
ea,
e4,
db,
fd,
f1,
0a,
c1,
fd,
ff,
21,
fb,
25,
28,
f5,
11,
e9,
05,
ec,
27,
04,
dd,
03,
f6,
28,
de,
e1,
f7,
1d,
d0,
1a,
20,
eb,
c9,
d6,
f9,
ea,
d6,
02,
d2,
1d,
52,
05,
10,
e1,
f5,
f5,
48,
eb,
20,
21,
0c,
ce,
e9,
e2,
d0,
1f,
f2,
f0,
99,
be,
e4,
e0,
fc,
29,
18,
2d,
e7,
25,
cd,
0a,
d1,
06,
c3,
fd,
c6,
e8,
57,
bb,
e2,
f1,
e5,
19,
f3,
37,
10,
e7,
03,
08,
11,
35,
22,
2b,
be,
04,
d2,
fd,
27,
d6,
31,
db,
16,
29,
fd,
d3,
d8,
81,
e9,
d6,
d6,
0c,
f2,
07,
18,
04,
1f,
dc,
fb,
d8,
e2,
0b,
f2,
e7,
18,
c4,
e3,
31,
15,
f7,
e9,
3d,
ec,
e0,
6a,
db,
bd,
08,
ce,
dd,
dd,
02,
f0,
a8,
0a,
e9,
c8,
26,
e0,
dc,
18,
c7,
e5,
06,
2a,
ea,
ca,
ea,
f6,
c9,
0b,
ca,
e0,
c6,
10,
12,
ac,
08,
11,
1c,
33,
22,
0b,
04,
02,
dd,
17,
28,
54,
fb,
46,
7f,
1b,
10,
16,
eb,
e2,
02,
c4,
c7,
d5,
0d,
13,
cb,
08,
99,
e3,
a4,
ec,
fd,
ed,
3f,
4b,
e4,
2d,
fd,
b2,
02,
0e,
c3,
fe,
a5,
ba,
da,
54,
de,
29,
5f,
f2,
d5,
cf,
5f,
b8,
64,
54,
59,
e7,
13,
da,
be,
e7,
f8,
07,
dc,
4a,
d2,
0f,
f4,
57,
d1,
b1,
cf,
20,
b4,
0b,
ea,
5d,
2d,
18,
19,
c9,
33,
4b,
34,
81,
f9,
da,
0c,
a7,
e6,
ea,
4e,
46,
f0,
fb,
d6,
3a,
22,
ea,
d6,
d5,
1b,
48,
f1,
17,
35,
01,
b3,
02,
fb,
f2,
10,
f3,
1a,
15,
00,
ef,
cd,
31,
ef,
f2,
01,
e5,
81,
05,
eb,
c4,
ef,
d4,
f4,
de,
f7,
ec,
e8,
2d,
ee,
ea,
10,
f5,
f2,
12,
dc,
ad,
17,
04,
48,
a1,
e6,
4c,
ee,
d9,
ee,
d9,
03,
1a,
e7,
1b,
08,
04,
b4,
b8,
2b,
0a,
15,
14,
fc,
2b,
0d,
f9,
f8,
06,
fa,
07,
15,
09,
dd,
bf,
f3,
02,
be,
fd,
f6,
3c,
fc,
40,
1d,
13,
a2,
02,
ee,
02,
03,
07,
11,
fc,
7f,
db,
b2,
45,
fa,
e8,
1f,
21,
11,
d3,
ec,
d3,
1b,
ef,
eb,
92,
e5,
f9,
a3,
d5,
18,
eb,
1d,
db,
1e,
08,
f9,
15,
0f,
28,
ce,
c4,
0d,
14,
0e,
32,
f1,
1b,
0a,
01,
1a,
63,
f3,
08,
14,
5e,
1e,
1d,
48,
fb,
f8,
09,
08,
00,
c6,
d8,
2b,
ee,
d9,
0b,
38,
10,
02,
12,
cc,
d5,
e6,
33,
00,
2b,
e7,
e5,
08,
f0,
e5,
f0,
f1,
2b,
54,
f7,
20,
0d,
17,
18,
08,
07,
d7,
fa,
05,
12,
4b,
2f,
eb,
02,
f3,
e8,
f6,
0b,
f9,
44,
00,
10,
b7,
f0,
35,
cf,
f1,
ea,
ce,
02,
a8,
d1,
f2,
16,
11,
37,
fd,
c5,
f1,
b9,
42,
dd,
51,
d6,
7f,
ed,
e6,
2a,
29,
ee,
fe,
3c,
ed,
36,
1a,
ba,
0c,
d3,
2b,
f3,
12,
0b,
0f,
25,
7f,
f9,
e8,
0c,
11,
1d,
f6,
0e,
4c,
67,
fa,
ea,
1a,
a6,
24,
de,
5d,
f1,
ab,
2a,
f5,
0d,
23,
e2,
3d,
ec,
13,
d4,
16,
1a,
0f,
b2,
ee,
f4,
16,
d2,
43,
00,
fc,
35,
15,
10,
e6,
d5,
9d,
25,
22,
bf,
23,
1f,
fe,
27,
21,
b2,
1d,
f2,
76,
1c,
db,
ff,
1f,
cd,
1e,
42,
05,
f4,
0f,
14,
23,
e0,
fd,
fd,
0a,
11,
f9,
0e,
ce,
c7,
15,
31,
32,
13,
cd,
ef,
e3,
0b,
20,
1b,
d9,
00,
e9,
1f,
0d,
03,
00,
d9,
00,
19,
eb,
f1,
0f,
be,
05,
0b,
23,
23,
1e,
f6,
9d,
39,
10,
ed,
00,
10,
f4,
1c,
be,
f9,
f1,
f3,
0d,
c9,
e2,
fc,
22,
ec,
27,
fa,
0d,
0b,
27,
02,
0f,
e1,
f0,
ea,
09,
1e,
47,
e4,
10,
0b,
ab,
fd,
0e,
1b,
20,
fc,
d9,
05,
81,
1e,
fe,
ac,
c7,
fb,
f5,
0d,
f4;
