00000145
00000823
fffffaee
fffffff9
00000496
000002ac
00000244
000001bd
fffff7da
00000c0c
000007ec
fffff1a1
0000076e
fffffe25
fffffcfd
fffff8ee
00001a22
0000049c
fffffe84
fffffb59
00000015
fffffb94
00000560
0000143e
000001f0
0000154d
fffff9e8
00000ca2
000009a6
00000ba6
00000899
0000014f
fffffd04
fffffe76
000002f9
0000076f
000017a1
00000762
00000b9d
000012d7
0000093b
000011b0
000002bf
00000f97
000007fd
00000bd9
00000bce
fffffdc1
000005ce
000011ca
000008db
00001158
00000817
000001ce
00001367
0000015a
00002bf2
00000d4b
0000138d
fffffeef
00000a67
000016e4
ffffffa0
fffffa03
