05
ec
f7
2f
ea
f4
d5
0c
05
0b
b3
f5
02
0a
06
02
07
e0
14
05
35
11
f4
f9
f8
ff
02
fb
08
f9
f8
f4
fd
36
b6
fe
ff
e2
0d
fe
f1
ff
01
01
04
f7
29
e7
f1
f6
0a
d8
01
f2
0d
00
fc
fc
08
f5
e3
e3
0b
da
07
ff
e1
06
fb
f9
f6
fe
f6
fd
03
e2
fc
f1
f5
fe
01
04
e8
06
0f
f7
11
09
02
00
27
e1
fd
05
0b
ff
02
fb
6e
05
18
f9
04
04
fa
fc
f7
f4
e8
f3
07
01
25
00
00
d4
28
fd
fa
04
17
f6
17
f0
0d
04
f7
01
04
fa
11
09
e2
1f
fe
fa
07
fe
0d
ff
0f
f8
fe
fa
f7
fb
bb
f5
09
09
f5
f3
fb
dd
05
f9
ed
0c
f2
fc
f4
ef
02
ed
f4
f1
0d
06
f4
f6
f9
fc
f8
fa
15
03
ff
06
01
0e
f9
fb
ed
09
f7
00
06
fd
01
02
04
03
ea
f4
fc
00
ed
0f
f4
0b
fa
ef
69
fa
48
ff
57
5b
b2
81
f4
f3
13
07
07
f3
f8
27
22
f0
be
c1
dc
10
f9
06
04
fc
16
15
f6
ff
f4
bd
f2
fb
fc
f5
fa
10
06
12
07
0b
16
d5
03
01
ec
07
fb
1c
f0
f9
ec
03
0f
ff
fe
ee
e5
07
de
15
b9
f0
e3
f4
2c
14
ce
29
f5
d1
ed
d4
08
0f
1d
23
ec
0d
24
d9
fc
eb
05
24
81
1b
36
f3
ec
f3
d2
fc
e7
dc
0c
e7
e1
ea
db
28
f5
bf
e4
18
e2
e6
1d
10
0a
dd
22
e2
f6
ce
e8
2e
e6
d6
f4
dc
f8
be
ec
d1
ef
e0
fe
c3
fb
ce
b1
1b
17
f1
d9
09
e8
dd
f4
07
fa
ff
f8
1a
37
eb
4e
0c
f8
04
0e
f6
d4
12
ce
0a
ec
00
ef
12
cd
f5
16
f7
f2
01
ed
c7
12
25
00
16
d4
ec
b6
c6
12
ef
2b
c1
07
d6
14
ed
c7
d6
d9
ec
01
0e
d6
07
ee
13
dc
0e
14
67
ef
4d
e6
12
f3
ee
03
0b
f9
2e
08
da
e5
f7
e0
f1
03
01
45
d6
0a
df
cd
ed
f4
e6
c2
f7
0b
ab
cc
00
c1
ac
2f
08
f0
cd
f9
13
f9
fe
e3
d2
50
c0
fd
24
c6
20
00
0e
ec
d8
f3
1b
03
23
fa
27
00
de
0d
12
2d
22
ff
19
19
e2
d2
e9
21
d1
07
00
31
a6
e4
1d
1b
11
d1
e6
f4
f0
e6
19
ee
ef
03
0c
4d
e0
1f
f8
ea
fe
b0
e9
08
28
e7
e8
ff
83
1a
ac
b0
10
f7
e2
fa
f9
fd
f8
a8
0f
fa
25
27
f9
12
f8
d2
10
e5
38
e9
f7
3e
f9
01
d2
f6
f9
07
f9
f9
15
01
da
f0
2b
55
01
fc
b1
0f
fd
f0
f8
65
e8
f3
ef
01
fb
f5
19
fc
ca
ef
08
fe
f2
07
fe
ff
05
2d
f6
fa
e6
f2
f9
32
ff
06
10
f0
ed
fc
23
f5
ce
0b
f9
07
14
00
f9
f2
0a
02
b2
03
1e
fb
fc
04
2b
15
0d
08
fa
f6
f4
f0
ff
c2
f5
f6
3a
0e
f3
f7
17
06
02
fd
f6
fd
fe
f8
a8
81
09
1b
07
14
02
05
ed
06
02
08
00
00
f7
07
17
fc
de
ca
10
f8
f9
12
04
f8
07
fa
f4
f2
09
da
c5
f1
18
e5
03
fb
d5
0e
ff
ff
1b
dc
ff
e4
f6
03
0b
09
f8
9a
09
10
06
f2
05
bd
04
06
f9
e8
10
fb
fd
f7
f9
09
fc
ed
06
f9
09
04
ff
0f
ff
50
05
fe
ee
dc
0c
05
1d
00
a6
29
03
09
e7
c4
34
4d
2b
03
fb
f3
16
03
01
63
01
db
f2
45
0f
1e
ec
e6
e7
f6
f2
f8
e9
04
fa
fa
16
11
f8
ee
d0
f8
fa
f8
f4
e6
1f
08
05
05
11
fa
f4
10
07
03
f3
f8
fb
fe
f4
05
f6
fc
09
1c
05
0f
0b
d4
04
fc
fa
33
09
fd
04
8f
09
11
f5
11
1b
02
fe
01
ef
f7
05
00
4e
0f
83
46
0a
01
38
fe
08
01
03
37
05
03
fe
11
00
e4
7f
f8
ed
f8
e5
f6
f9
0b
e3
f5
fa
3d
e4
fc
e2
f4
fc
de
fe
fe
29
dd
fd
f7
e8
01
e3
19
06
f4
00
f7
ff
ed
05
f4
c6
ec
d0
f6
ff
b2
08
f3
07
ea
08
0a
10
14
f5
11
f5
f9
04
0e
f0
0e
ba
f3
fb
f0
fd
c9
05
03
33
d4
ec
fc
b8
15
ff
15
28
10
fe
f8
00
09
0b
f8
04
fb
03
c1
06
f1
ef
02
02
01
03
10
fe
f7
ef
0c
1e
ff
0d
dc
00
01
dd
f2
0c
03
64
e0
06
fa
f8
ee
08
0c
f0
ab
06
0d
3a
f2
fe
21
01
03
f8
09
e5
04
0f
0e
08
20
e4
04
10
0b
05
0c
01
f4
01
55
e4
06
01
c5
06
d6
1d
02
ce
d5
00
11
16
0e
fb
0e
37
e9
fa
02
0a
ee
03
02
11
de
1a
a1
2e
21
12
02
0c
00
e0
f7
0b
06
0b
2c
eb
fe
ec
f3
05
fd
fe
fc
09
02
f5
00
07
02
03
ee
f4
f7
f2
01
0c
f8
03
04
d8
f8
21
f8
04
20
03
04
06
02
f9
fe
fe
cc
01
04
f3
03
07
d7
12
04
f2
fb
fb
fc
fe
00
ff
fb
12
f8
08
44
00
04
f8
fe
01
ff
fc
1d
03
02
04
e6
ff
f9
e3
02
c0
fb
fb
09
fb
03
fe
ff
ff
1e
f1
08
e2
02
07
d1
01
06
02
fd
fe
0b
05
00
2a
f6
03
06
fe
05
fa
f8
02
06
fc
01
d2
ff
fa
e8
7f
ff
02
00
fd
fe
fc
0e
02
20
f5
05
f0
01
00
08
18
01
fc
fa
04
e2
fc
fa
0b
06
ff
fd
e6
09
fe
04
ee
03
03
fc
04
06
09
07
bc
fe
28
fa
fe
0d
e9
0c
fe
05
f4
f8
fd
fb
fe
12
fc
02
05
fa
f5
05
00
04
ff
fe
03
f8
04
f8
f7
03
fb
fc
f8
10
fe
05
f9
fe
07
c6
01
08
02
fb
14
fe
05
fe
00
ff
11
07
00
f6
01
05
08
00
fe
f4
0d
fa
fb
f7
03
18
00
fe
fb
05
00
0a
f2
1f
e4
f6
ff
fa
fb
07
04
06
fb
f5
fb
25
f0
fc
f6
e9
15
f9
ed
f7
f7
fa
07
fb
03
02
1c
f8
fc
f8
0d
fd
05
01
07
f9
ee
08
eb
05
fc
fb
ff
e4
e8
01
fa
00
06
fb
e8
fd
19
fb
fb
01
07
fa
03
06
fc
06
04
f9
01
08
00
1c
02
10
17
fb
0f
f8
ff
fb
04
fb
03
ff
ff
fd
e1
0f
06
03
20
02
00
ff
00
25
02
03
01
25
dd
f7
ec
fe
c8
fd
fa
02
00
fe
fd
00
01
1a
f5
00
f3
f7
01
fb
04
ff
0c
fa
00
e1
1b
fc
f2
ec
fc
f9
05
02
ff
f0
05
0b
10
03
ea
00
ff
d2
07
fd
ff
04
fe
fa
02
dd
04
0b
ff
fe
04
ff
ff
fa
f6
04
ff
fd
09
0c
f3
ff
18
ef
fc
fc
eb
08
f6
fd
d3
0b
f9
00
fc
09
07
0c
09
02
dd
01
03
07
02
04
ff
09
01
f7
01
fd
00
df
04
06
07
fb
fd
f9
fb
00
00
fe
08
f9
fd
fd
f2
fa
f8
fe
f9
1c
01
05
0c
fd
fd
0c
01
03
02
fe
07
ff
08
02
f9
0f
12
01
07
fa
fe
fd
03
01
ff
e4
10
fa
fc
f9
06
22
f8
04
08
f0
01
22
81
fd
ec
ea
03
f9
fd
09
ff
e8
fc
12
1f
e5
c9
17
03
ed
fd
fd
21
fd
08
04
00
00
09
00
c0
fb
02
03
ef
ff
06
fd
11
fe
07
09
ee
01
fb
f7
fa
04
f8
01
00
fb
07
09
e1
f6
16
f4
00
97
09
0a
0c
a9
f9
0b
02
30
04
09
fa
16
06
1e
0d
0a
13
f8
11
fb
fd
fd
01
ff
f9
f4
1f
0f
13
fa
31
f6
fb
f2
fd
e8
f4
f8
00
3f
14
f6
db
fb
00
ef
fb
0b
fc
07
f9
fa
00
17
ee
09
dd
fe
fe
f9
08
f7
45
f3
f8
ef
06
ff
34
15
02
00
fc
04
fb
ec
0a
06
0f
05
03
02
fa
fa
05
fb
03
05
01
ff
f5
f5
07
21
fe
fa
03
00
00
fb
cc
04
00
05
12
0f
f6
fd
0a
e3
f9
06
e7
07
fe
03
59
18
f9
f4
07
0b
f4
13
15
11
fb
19
01
02
dc
0d
ff
10
db
f5
fe
f0
01
20
f1
12
05
ef
f9
fa
e1
08
01
03
25
e9
01
e7
fa
f9
eb
fc
f3
bc
01
07
3e
fc
07
ca
05
0d
0b
f3
0d
02
0f
f8
fb
38
81
fd
01
ef
04
07
0e
fa
f9
e1
d0
f1
ff
db
0f
0c
f2
fb
0c
ab
07
c1
14
13
e7
23
da
e8
f6
10
07
f8
ef
1a
ed
59
f8
45
95
d6
0a
fd
f6
fc
ef
ff
08
e6
03
c7
06
f8
f9
12
f5
fa
04
04
14
f5
f8
0d
d8
02
fd
f5
f6
f6
fb
05
fa
f1
03
f4
16
fc
15
ef
fe
b8
11
08
15
c4
f5
fa
06
17
08
00
fb
20
19
ff
0b
fe
0c
03
f8
fa
f8
00
fb
ff
f9
0a
c4
23
fe
08
15
ff
02
f6
00
3d
00
01
07
fb
ef
ea
13
fd
d8
fe
fb
0e
07
0d
00
03
f9
e2
e2
03
e5
03
f8
07
0d
01
f2
f7
fc
e2
fd
00
02
0e
0c
00
f7
fd
f4
e6
fe
15
03
07
ef
f8
fc
10
05
08
08
0c
fc
fd
01
0e
0a
cc
fc
08
02
04
fd
f9
0c
03
ed
ff
19
d5
f5
03
18
e7
08
01
db
11
03
01
d7
08
f6
fa
fb
fb
01
0c
22
f6
2e
ec
00
0a
16
00
00
0c
0a
08
05
f4
fd
20
07
0c
fc
ee
ff
01
07
05
01
fe
e0
ef
00
00
f9
f5
eb
fc
ec
81
05
14
f9
f9
03
18
0c
0e
03
01
0c
02
0a
f1
fc
ec
0f
07
f9
04
fb
f9
09
0b
03
f5
48
08
04
e7
0f
a5
ff
07
73
24
fd
12
08
1e
29
cd
19
ef
fa
11
04
13
f2
d6
c7
f8
d6
05
e6
d0
f7
07
26
f5
fe
12
05
fb
0d
0e
0c
f7
f6
f9
eb
01
07
14
1b
ff
ed
13
dc
04
f5
f1
0c
12
fd
fd
f2
08
0c
18
ca
e7
1f
d0
ed
0e
f5
e2
14
fa
10
05
fe
0a
05
04
10
47
cd
0d
8d
f8
22
e2
de
10
ef
00
00
1b
07
92
fe
ee
fe
0b
02
b7
f4
fd
0e
f9
fa
f2
f6
f8
fc
12
16
81
0f
f3
18
02
ef
03
3e
06
e1
10
d9
01
c6
f1
0e
1a
13
05
f9
d1
f1
0f
34
14
10
dc
e3
dc
1f
04
2a
d4
ec
af
27
f8
0b
de
27
10
f4
de
f0
22
0b
07
de
f9
00
1a
cd
ee
14
f5
0d
f1
06
ee
25
12
94
dd
15
06
fd
ef
31
dc
e1
95
ed
f5
01
2f
0f
00
f7
0b
f8
b1
0e
1d
de
02
e4
22
e6
eb
f9
fb
f0
e2
e6
eb
f4
07
dd
b3
f5
fd
c3
0a
02
fe
e9
cd
06
0c
fb
03
37
e4
f1
dc
ed
07
11
0e
ef
f7
f1
fa
26
fe
f7
05
e9
c7
f7
6c
f8
f7
f2
ec
44
e5
20
25
15
05
fc
ee
fd
ef
1d
02
fb
ff
e5
00
18
13
e0
1d
16
0a
d3
08
04
dd
d6
dd
03
03
ee
1c
06
ea
ee
0f
1b
f6
f5
e2
e8
c5
ef
bd
26
0e
2c
04
00
15
0e
ee
f8
fd
f8
06
f1
ef
04
f7
df
e3
f7
bd
fa
29
0d
c9
f6
90
f6
ef
eb
02
da
d2
29
f8
dc
1b
ee
d1
13
01
f9
fa
17
f1
fe
27
0a
e9
88
38
fc
39
66
3f
05
f6
09
5a
13
82
12
07
d8
18
1b
bd
00
f9
05
03
06
02
15
14
08
29
19
ae
0b
03
18
fe
02
05
28
f0
3d
1d
ed
ef
b8
00
f2
f1
04
07
09
17
fb
eb
f8
03
f3
16
05
ff
25
20
f2
f0
0b
81
0a
21
2a
e9
3f
0c
07
08
15
27
18
0a
1c
04
f9
f0
1e
ec
1e
dc
fb
e9
ff
08
f0
c5
b1
f9
e0
65
eb
ff
bb
12
06
8f
00
d7
e8
13
ef
03
0d
f5
f9
00
0b
10
fd
e6
ec
01
0f
fa
14
0a
1a
ff
06
f3
00
fe
e8
ac
f6
00
18
f5
16
f1
f6
15
11
f0
0d
db
1f
3f
43
dd
07
00
fb
eb
fb
13
16
e4
44
13
f5
e2
0d
f1
f1
48
0b
19
eb
00
ec
b3
ee
5d
ec
1f
1f
e2
ec
fc
87
cb
ec
f0
9b
fc
fa
ef
15
f6
11
06
ef
fe
fd
11
01
eb
02
09
d8
1e
00
07
ed
e4
25
ea
f8
0a
fe
f0
26
d1
0a
f7
f3
06
05
a8
f7
03
ff
37
21
e0
ed
e6
f7
3e
ca
fd
35
09
c4
0d
11
2b
f2
d5
ab
18
f0
05
3e
11
0b
06
e8
f7
f8
0b
f6
fd
e5
00
03
ed
81
18
d5
04
20
06
fb
f7
ed
01
11
08
03
12
18
f5
f9
f6
2a
1e
fb
f7
09
ea
04
d9
fb
03
1b
cf
f7
0f
f9
07
fc
22
17
fa
08
1a
2a
fc
fe
0b
10
ee
e7
08
18
0d
db
0c
26
10
e1
1b
12
00
e8
f5
f6
e8
fa
fc
06
18
16
fb
02
f4
17
1a
11
dd
21
e7
0c
0e
e7
fe
11
e6
ff
fb
15
0c
1a
f6
0a
e5
cd
e5
0d
01
11
0f
30
02
f1
fd
ed
ed
dc
0f
07
1c
f1
d6
fd
16
fb
0a
e2
f0
1e
e0
14
e5
0c
dd
f9
f3
10
00
0b
fc
04
0e
f1
14
f3
d5
04
fc
dd
09
02
13
ff
0a
05
19
04
03
10
fe
14
ee
1a
0e
fe
06
1e
05
02
1a
f5
ea
ee
e1
c3
26
f0
f5
ff
15
f5
ff
fc
2a
01
ec
03
03
f1
fb
27
09
e8
11
f3
f2
ec
fc
de
1f
13
c6
fd
db
e2
fb
00
0e
10
e6
ec
16
1c
03
14
f4
db
02
ec
f6
07
02
0f
13
d5
f6
f0
03
05
15
eb
e6
12
16
d9
17
f8
0d
e7
23
f8
dd
0b
24
da
29
ff
14
fb
2a
f2
01
d4
05
f4
08
04
09
06
02
eb
f5
f0
f2
07
ef
fe
09
fe
fa
04
f9
f1
e9
02
10
d0
0f
fb
08
05
00
f1
11
27
00
fe
14
05
13
ef
04
f1
f7
f8
28
03
0e
13
4b
11
14
fa
f8
02
22
1a
f5
01
03
1b
fd
10
19
0a
fb
f8
fa
f9
00
f0
04
05
0f
ec
02
f7
fb
0d
e9
04
05
05
05
0b
17
03
e2
dd
ee
81
0b
0f
03
24
ef
f4
0b
ea
f9
0f
05
fd
ff
11
fd
e5
01
02
fd
24
f1
07
e6
f5
09
1a
0f
10
d8
0e
01
0e
07
f7
1b
ce
db
0b
0d
fb
0c
fc
f8
08
ec
fe
fb
08
fd
04
03
13
f3
1a
08
04
0d
02
f8
18
ef
fd
04
fe
fb
d3
f8
0b
05
2f
0f
08
fd
14
02
15
30
08
de
f7
f9
08
0c
ff
af
04
f2
f8
f9
e1
18
f2
09
03
f5
e8
ec
f7
13
f7
ff
ff
10
ed
1b
02
ff
ed
08
ef
f8
fe
07
ff
06
19
d4
08
44
ff
09
04
12
10
ed
eb
00
0d
08
ef
91
03
08
fd
08
1e
00
03
0a
f3
f9
09
0b
04
f7
13
04
00
01
f7
0d
ff
0e
f9
14
00
fa
13
18
01
21
05
fa
f2
08
eb
07
ed
fa
1d
fc
0e
c3
f9
08
32
14
26
0d
00
f0
03
f3
e0
04
00
14
22
fe
20
f2
18
f9
f4
f1
e1
ef
06
ed
04
0e
02
f8
09
da
09
f9
ff
fb
21
09
ff
f7
cf
0c
fa
d2
f9
05
ec
ea
f8
4b
fc
27
ec
18
f3
f8
aa
15
1d
09
f1
04
37
f0
16
f4
0a
00
f4
19
00
08
f9
df
e6
ea
f8
c4
ef
31
ff
38
13
db
e0
fd
f9
01
1b
ec
30
fe
ed
01
34
0a
f3
1d
04
c4
1d
04
16
0d
02
27
0e
09
f6
e9
08
fe
06
1b
05
29
0c
13
00
3c
0c
fd
f9
04
06
1b
f6
07
f6
13
d1
1e
13
36
fe
39
fd
1c
fe
02
de
08
e4
22
0a
e5
ff
ee
14
07
ac
f7
01
fb
ba
f9
ec
f6
f1
f0
d7
ff
30
03
13
c1
ef
06
fd
12
22
10
2b
81
37
fc
f4
10
06
25
01
f4
10
01
07
f6
05
e8
f6
fa
2d
ff
0f
ff
1d
df
05
f6
fc
0c
08
06
f6
0c
fb
00
d2
48
42
01
b8
07
03
08
02
ff
fa
f2
0b
0a
f5
fb
07
26
ef
f5
f9
00
0f
f6
e0
d8
07
e3
11
03
0e
eb
13
3c
c7
86
23
eb
05
02
fc
fb
d4
fb
32
17
3a
00
97
18
14
2f
e0
d4
bc
0d
29
16
ed
30
ec
01
71
2d
e4
00
b3
25
10
f4
0f
0b
11
1f
1d
0d
21
e4
09
fb
f0
18
f5
d8
f1
ff
f4
f5
f5
d8
d1
f7
ff
10
63
12
cd
03
35
be
02
df
de
f0
ea
e4
13
d3
0d
09
d7
17
e3
fd
da
0b
f3
cc
81
f6
ff
03
ee
fc
04
ea
0f
fd
f8
e1
cf
cf
2f
ff
0f
0a
12
42
fd
12
0f
e8
fa
14
cd
22
07
f2
f9
ec
fa
f1
59
d9
1a
ed
e6
24
11
02
e0
25
07
fc
28
d1
f5
bb
c1
e2
1a
26
0c
22
df
9c
f5
06
ee
d5
15
b5
28
bc
11
9b
c9
d3
cd
e6
20
15
3c
e6
09
f3
fe
d9
12
00
fa
e4
1b
ed
e8
fa
25
1b
2e
04
3c
e3
f8
e6
e4
e5
29
f7
03
f1
ed
e1
02
01
c4
22
f0
d2
f2
03
0f
e4
01
09
f7
07
fb
1e
b2
df
09
00
ef
1a
c6
f4
f3
f3
19
f6
30
de
d7
ef
ef
17
ed
d2
f7
15
07
2a
ff
e4
3b
e4
0e
1d
00
08
d8
02
4c
db
f2
e2
fe
1a
fc
f7
08
b6
33
05
cf
e3
e9
17
d0
b9
3f
ed
ff
25
09
5b
f1
ff
51
cd
e3
0c
f5
fd
17
fe
00
f1
0f
09
29
0b
fc
0f
17
0c
13
14
03
ed
12
09
42
ee
12
02
14
ff
f2
fa
07
0d
28
05
07
0c
15
fb
fe
fe
fe
12
02
fa
14
17
15
f5
0a
e9
06
f4
1f
0e
ec
17
04
fc
17
14
09
12
e7
0c
dc
f8
06
07
19
ff
0c
f5
23
13
5b
14
12
2e
12
17
fb
10
fd
ed
10
04
34
05
10
ec
f0
f8
f6
eb
05
e5
e5
11
fa
05
22
11
fc
00
0b
11
02
00
16
1c
fc
0b
14
fb
ec
f4
00
f1
d3
f7
10
1e
1d
08
1a
16
0f
03
0f
fb
00
17
0d
25
5a
1c
ea
1f
dc
0f
f0
2a
07
0e
16
fd
ec
0e
c9
02
09
ec
f9
07
ff
03
10
f4
e7
fa
03
0b
fb
f9
e3
f3
ec
ff
0b
13
02
10
10
07
13
05
04
0f
17
00
0c
f5
ff
29
0b
0e
09
07
fa
15
0a
ec
09
e8
fe
0f
dc
e8
0a
15
17
15
f9
05
0d
1a
0d
fa
1f
f7
0d
f1
e9
09
05
05
f3
00
14
0f
e8
0f
35
b3
3c
02
fd
f5
dd
18
f5
fe
0e
01
ee
ef
fa
04
d5
f9
23
01
07
f0
ed
22
cf
02
20
f5
0e
90
7f
f3
e1
1c
00
e2
1b
0d
0b
3e
ea
fe
01
0c
12
09
06
1a
21
f6
00
f3
11
01
13
04
0b
f6
ed
f9
e0
e8
f1
00
10
ee
f7
12
02
f4
0c
11
02
33
05
fc
07
f8
06
01
d9
04
fa
17
fb
13
f2
e5
f4
e1
06
46
00
ec
04
ff
3e
04
f2
07
0f
0d
f0
20
03
10
05
0e
00
11
fe
02
05
1f
0a
1a
14
06
ed
01
fb
e9
01
04
ef
02
0a
fc
00
fd
81
1c
25
01
24
f9
fb
17
f9
cd
35
0d
f8
f6
0d
9e
09
13
0b
fb
0d
00
e9
f7
01
ee
05
0d
fd
fa
f8
e3
11
0a
19
ec
06
fd
fe
f2
ca
ff
01
fd
09
1f
19
35
0a
29
e9
01
f7
db
05
06
ff
f5
01
fc
ef
01
06
05
35
2d
17
f9
15
05
2f
fc
06
16
08
18
14
f9
f4
f6
01
1b
e6
e5
f9
f5
f3
00
0b
0f
f6
0b
fd
fb
11
0d
e2
15
08
1f
a7
e0
f4
07
15
ea
01
03
24
fe
f2
07
df
09
01
ec
f0
e4
f8
fb
f7
fc
ff
e8
fd
fb
f3
fe
0d
15
fd
1d
01
18
ee
0c
0a
fc
fc
0e
fb
f9
ec
db
13
f6
06
04
01
08
f2
3a
08
33
0b
03
fc
f5
cd
28
05
d6
26
fe
10
fe
b5
08
42
15
24
06
c1
ff
18
fa
08
07
08
13
2d
12
21
d9
1c
ea
df
bf
c5
10
10
95
eb
3d
08
fe
fd
90
06
20
03
04
06
fe
0e
fc
ed
01
fc
d3
02
29
f2
e6
ab
24
fd
0b
e1
13
fa
f9
de
2d
1e
19
0c
13
2f
06
19
b8
41
01
fa
ff
fe
09
15
ef
cc
ee
de
de
0c
48
06
1b
04
fc
9c
03
08
30
fe
e6
2a
fd
d0
07
2c
0a
fd
0f
00
13
10
1f
09
28
f1
22
15
19
f7
d7
28
09
de
01
fc
41
0c
2a
05
fc
fc
f8
0a
fa
ff
1f
f2
1b
18
21
fb
23
11
40
f1
21
f6
0b
0d
0b
ee
0a
d1
7f
07
ed
0d
cf
fc
08
e7
00
00
eb
e2
04
c4
dc
bc
d7
bf
04
0c
18
1f
d8
fa
00
ac
1a
13
44
53
ca
1c
d8
eb
16
04
0d
fa
09
f8
ca
0e
fc
0a
ee
03
0e
3b
11
29
00
3e
ed
00
ff
f5
fa
f5
06
18
11
07
05
f0
56
2a
00
d7
fa
00
11
fd
00
07
eb
0b
0c
f0
05
ed
fb
d4
fa
e8
f7
ff
20
fa
00
fd
e7
14
f2
1b
f6
1d
18
fa
cb
fd
ca
05
0c
05
f5
09
15
65
57
22
ed
f2
fd
03
c3
1f
44
21
2a
e0
06
f9
d8
a5
f1
1b
29
17
19
45
e4
39
16
a6
fa
f7
26
3a
03
5a
1f
1f
e5
11
d7
fe
cf
e2
d1
26
27
ec
bc
40
20
22
0a
23
19
02
95
d2
8e
ee
5e
61
fe
d2
eb
c7
cb
42
d1
07
eb
d0
2d
22
d9
0d
19
51
2a
ff
37
1a
72
f7
07
05
d0
f0
f6
12
be
35
c3
07
1f
f4
18
f9
fb
4d
11
59
d8
14
d8
00
a0
25
1b
3d
15
37
f5
e5
c7
f0
20
cf
fd
2d
09
19
1b
16
2c
0e
e5
d4
46
05
0d
e1
f1
26
dc
03
22
16
ee
cc
c7
c1
e7
13
cb
c5
f6
f4
c9
f7
12
3f
f9
39
35
e8
f1
49
c6
2c
cc
0e
23
c5
bc
c2
2b
c9
ce
f2
14
df
0b
0d
e1
10
e1
5e
12
31
f2
20
cf
90
3a
b5
17
01
b2
fb
0f
f9
d4
ec
25
1a
d9
07
f4
ec
cf
52
04
e8
ee
04
e5
44
fe
48
0c
ef
57
e6
29
06
e3
cd
fa
e6
0c
32
e8
2b
14
cf
f1
25
19
4a
0f
48
d0
2d
ef
10
d4
0a
cf
f2
bb
09
ca
fb
ec
26
02
09
81
3c
f5
dd
0a
d7
86
18
b6
50
53
b4
d6
26
ff
11
fa
b2
09
43
16
2a
06
bd
02
18
fa
09
07
08
19
30
12
20
cd
1c
ea
de
c3
c4
0f
10
8f
ea
3c
08
ff
ff
95
07
24
06
04
07
fd
0e
fb
ec
00
fa
d1
02
28
f2
e8
a6
27
fd
0c
e0
12
fa
f7
dd
2d
1d
1e
00
12
2f
05
1b
c0
42
00
fb
fe
fe
08
16
f2
c1
f0
e1
dd
0a
44
07
1d
03
fd
98
04
09
30
fe
ed
2b
fd
e0
06
2e
0c
03
0d
fe
12
10
1f
08
28
f0
1b
15
1b
f6
d6
27
0a
d6
02
fe
3f
0a
2b
05
ff
02
f6
09
f6
02
22
f4
1c
1a
23
fb
23
10
3f
f0
21
f8
0c
0f
07
ef
09
d0
7f
07
ed
0e
cd
fc
04
e6
ff
00
e7
e4
06
c2
dd
c2
d8
c1
05
0a
18
20
d8
fa
ff
a8
1b
13
43
54
ca
1b
d7
e8
16
03
0c
fe
05
f6
cc
0d
fd
0a
f0
03
0a
38
10
29
00
40
ed
ff
00
f4
fa
f5
06
18
12
07
07
f1
58
2b
ff
d5
fa
ff
10
fd
00
04
ec
0a
0d
ee
03
e5
fb
d2
f7
f6
f8
ff
24
f7
01
ff
e5
13
f6
1d
f6
1f
1a
f9
c8
00
c9
0b
0e
08
f6
0a
0f
67
f0
00
0d
fa
03
08
13
09
03
a7
03
e6
02
f8
f6
10
f3
0f
e1
d4
ee
1d
3c
27
45
10
09
14
ee
f3
04
14
0d
f4
f9
0c
02
00
08
e8
a6
08
08
17
0d
ff
0a
02
ff
f4
27
09
f3
f3
08
fc
0d
05
fb
2e
ed
10
02
fa
f7
6c
0c
0a
f0
fd
e8
c2
10
30
07
02
0e
04
03
f6
be
16
f4
12
08
0c
fc
f4
17
02
03
00
d7
f1
de
04
10
e5
f4
14
0e
f9
00
0b
0c
0f
18
fe
f2
0e
1a
2e
cd
28
fa
02
0b
db
f4
10
13
11
12
19
fb
18
05
05
0d
ec
a1
f5
06
cd
f5
21
e6
16
12
09
0c
0c
0a
f1
15
f3
12
07
fd
05
fe
ec
27
09
05
07
f9
16
e1
06
fa
26
ef
df
01
e7
04
1d
f7
01
0a
05
00
e1
fc
10
ef
cb
f9
1e
e1
f4
f5
0b
02
d8
18
f8
e3
16
f6
fa
14
fe
05
06
e5
fb
00
17
05
02
07
12
f4
f9
fd
08
0b
05
fe
fa
d4
0c
16
fd
fb
10
ef
f7
09
f7
ed
36
ce
fc
ff
39
18
1d
20
03
02
ea
09
09
ff
06
f8
f4
bc
05
10
f6
29
10
03
cb
1f
81
c4
2e
e5
fb
29
cd
07
e8
e4
41
05
fb
23
14
03
16
1e
fa
f5
13
2d
14
1b
1f
b2
07
eb
17
11
c4
fa
eb
07
f0
06
06
10
00
0b
41
f8
f9
00
cc
03
ff
ea
08
f0
f5
e1
f5
d8
c2
ef
15
e6
f9
0e
f2
f0
ee
e4
e4
fa
f2
1d
f0
f4
ea
f7
0c
03
00
09
bc
e6
ea
e8
13
06
20
ed
01
04
00
fd
fb
d3
05
14
05
00
20
f9
08
1b
25
f8
09
fd
f5
f1
00
40
fe
c0
f8
02
2f
08
e7
e5
2c
02
e9
fb
fc
d6
1a
f6
10
02
04
f7
fc
08
f5
f3
9c
19
fa
04
06
10
ee
fe
0a
c1
18
49
12
eb
41
ff
fe
00
f9
f2
f9
f3
00
30
e0
07
06
e5
f3
04
31
0b
07
dd
a6
e2
06
e7
e9
ec
02
11
f7
c3
07
02
bc
f6
ff
52
03
10
f0
04
14
02
06
13
09
f2
ce
f1
ff
02
07
08
f5
06
fd
0f
e3
02
fb
b0
08
1a
04
0a
1e
0c
11
81
bd
f9
d0
fd
0b
f3
ea
02
09
d9
07
e4
e3
f6
c6
32
f2
30
ea
0b
b9
fc
04
0a
f7
05
0b
26
11
03
ec
f1
ce
f0
f5
15
25
05
db
07
01
05
f9
ea
02
06
dd
f6
00
15
fd
f4
e5
fa
22
f5
fa
f3
0d
fd
0b
cc
f4
fd
0f
ed
07
07
f5
16
02
f0
16
fa
00
f5
08
00
fd
06
f9
02
b9
f2
fe
03
fc
02
07
f2
f9
03
03
07
fc
f7
f6
01
20
ec
34
ed
13
f5
f6
05
fc
fd
fb
fe
f9
10
e4
ff
de
05
f8
e8
00
fb
06
ee
ea
f5
1a
fd
0e
e2
f7
fc
fe
fb
fc
e2
08
0f
fd
08
2b
06
02
08
0e
0b
0e
0c
ff
f2
fd
d4
09
31
f8
03
10
01
f1
f8
0f
f8
f9
01
04
49
0b
02
e4
fe
f7
02
e0
1a
09
f7
17
19
fb
f7
04
0a
02
0a
04
f0
e3
27
02
f8
06
fe
fe
0e
f7
ea
00
f6
05
2e
fa
01
0e
ee
ff
00
1a
fe
fc
f5
0f
f2
fb
ff
f8
13
ed
fd
f0
39
03
f0
01
f9
ff
1e
fd
02
f9
f7
f7
f9
0d
f6
fb
2c
37
f4
03
f4
fd
03
f0
fd
fe
dd
a2
fe
fc
e8
05
10
0b
fc
f2
05
fc
3f
22
81
b8
29
1a
f2
f6
11
0b
e4
f4
2e
f4
f0
32
d1
fb
da
f4
f3
ed
05
fa
ff
09
ff
06
9d
0b
01
f9
01
ea
fd
0b
f4
0b
00
e1
13
dd
00
f9
e5
fa
f5
03
01
f7
eb
04
f6
de
f9
09
ef
02
0a
e7
f1
81
ef
fb
f9
20
f4
f0
22
f1
f1
bb
0d
e5
5b
ea
01
3f
e9
e5
e4
ed
f0
f7
dd
0c
f5
0b
15
fc
da
d2
f6
15
05
0a
fe
f6
10
12
fa
fc
27
fe
f1
f0
0c
06
2b
6d
10
ed
d9
cd
09
c8
e6
05
01
15
f3
10
e7
98
06
0c
06
e2
f7
c5
cd
22
fa
30
e2
02
15
33
01
de
e5
e2
f3
da
07
21
fa
12
15
14
0e
08
15
03
e7
00
f5
02
10
fa
fd
f8
fb
40
06
f1
06
fb
0c
1e
ff
fc
07
f6
f1
0a
17
f9
f7
ed
07
aa
a6
01
f3
bc
f7
f8
d9
fd
fa
0e
0b
19
09
f2
fa
ec
1e
fc
e4
09
fb
f3
2a
25
e8
f0
da
02
09
15
f8
3c
46
09
19
f2
f1
23
f3
10
c9
f1
08
f3
fd
fb
99
e6
ec
17
e5
f3
d3
ff
03
ea
a8
01
e1
07
02
01
f7
da
f5
fa
2d
21
fd
14
ee
ed
ef
f5
0a
22
02
f4
01
03
01
f0
d9
f7
05
db
0d
00
03
fe
f6
fa
eb
fd
ff
f7
08
f6
fb
df
c4
b4
14
ef
d7
e8
f9
19
02
c5
12
f2
f9
ef
30
da
0c
ee
e2
f3
16
0a
fc
fa
06
07
05
07
fc
ea
fd
00
fe
03
0a
09
ea
00
00
f9
e6
0e
f5
09
e6
08
00
09
09
03
fc
fa
00
f6
06
0b
05
7f
04
36
fc
fd
04
fd
f9
00
00
fe
04
f3
00
f3
5a
f4
f4
ee
f5
03
fc
03
02
05
fb
00
fc
f5
17
f1
fe
fa
fc
f3
f1
ff
0c
09
f5
fc
e6
ff
00
c7
ce
f7
09
02
02
fc
ee
09
0b
0c
03
e3
fe
02
e8
16
01
07
fc
f7
04
00
28
f9
20
fe
fa
d9
03
f4
f8
52
03
fd
ff
ff
31
10
ff
f6
02
07
00
f7
f9
f9
0b
9f
f2
07
07
0d
f2
09
02
0c
02
e8
0f
06
fa
f0
05
0d
01
0a
03
fd
01
04
f7
fc
04
0c
ed
fb
fb
ab
10
04
08
4b
ef
ff
f6
f5
fe
02
08
f2
e9
07
f9
08
f9
fe
c7
01
08
f7
fa
13
03
02
03
fd
d7
05
f2
04
0a
06
09
00
06
fe
29
1a
00
f6
e5
0b
1e
13
04
d3
de
0a
b1
1b
3e
38
ff
dc
fe
f9
08
08
17
00
0e
ec
a3
22
f9
25
12
08
fe
07
f3
fc
f4
f9
00
01
24
e8
07
f4
fc
02
fe
03
07
12
fd
16
02
fd
04
0d
f0
fa
f8
08
ff
fc
09
ff
3e
0e
f1
1a
0c
17
fb
1c
fa
14
01
06
f6
03
04
15
09
f1
21
19
f2
e3
37
f5
29
0f
2e
03
fb
e0
09
01
b6
f1
05
04
0f
f5
aa
10
e4
09
f3
fc
e7
d5
fb
0e
ed
e3
e5
f9
1c
02
0d
df
00
cd
fe
f2
f4
f3
a4
f0
fc
a1
f3
01
d7
05
0c
ee
e9
25
02
ef
1a
f2
25
f2
fc
e4
cc
f9
19
06
08
02
03
13
0a
ce
0c
24
25
03
fa
17
f4
09
ff
25
1d
01
01
02
05
0d
e2
f9
00
15
f9
03
df
ea
fa
e4
2c
fc
c5
2d
ea
eb
0a
0d
f2
06
27
d5
a0
07
d6
f2
00
05
81
fb
81
d1
11
db
fe
f1
19
00
06
04
d4
f7
e2
f9
f8
0f
e4
10
09
fc
00
06
f8
f5
3e
fb
0b
0d
fc
05
f6
0c
08
0f
0b
19
08
e9
b9
f1
ef
f8
37
f7
fc
0a
39
f7
e2
fd
28
f0
f9
00
da
e4
ef
ef
d6
05
fb
b1
ef
e7
f1
fd
ff
16
ff
01
f0
03
f9
f0
ca
13
f6
16
05
f7
f9
f3
ff
1a
ef
ac
00
14
f9
0b
e5
ba
e0
00
fe
e7
d2
1d
07
06
e7
d5
25
e1
0a
fc
12
dd
ee
06
29
05
f7
0b
f4
07
0a
b7
f2
f6
14
f9
0c
f6
06
81
e8
ff
01
f4
1e
a6
01
09
f8
fb
1a
ff
03
04
e4
fd
f6
ff
f8
01
1a
10
ff
04
f6
03
0d
eb
ec
01
e9
eb
f7
fd
00
16
06
ea
09
09
f8
fa
f1
00
15
f3
0d
f4
a4
fb
ff
05
0c
0c
f0
df
f4
fc
08
ec
1d
fa
f5
00
02
15
f5
03
f9
fa
f8
f9
08
f7
07
0f
05
15
fb
f8
1d
f3
05
f8
ed
fd
03
ea
9c
f1
ff
b0
ff
fd
f3
04
07
d6
07
05
01
0c
01
03
02
f7
05
04
03
f8
e4
03
06
06
e3
02
fe
f1
15
ee
f1
fb
df
00
07
01
ff
19
d2
f8
eb
ef
c4
ed
fa
ef
0c
f2
fd
dc
09
04
fd
0f
fe
07
00
09
09
ff
f8
0e
f4
f5
00
f0
ea
f8
00
01
fe
ed
09
09
fe
fe
02
09
f6
0d
0c
e3
f4
ed
02
fb
e5
fd
01
eb
fc
ff
18
05
fa
fd
db
03
fa
21
fd
f9
1b
08
fe
ea
05
0b
03
07
03
01
e2
0e
fa
07
fe
09
02
fb
08
ff
04
05
f2
f9
fe
02
e3
fb
f8
f3
f1
f7
fe
fa
01
21
12
02
07
0c
f6
fb
f1
00
11
01
06
02
ec
f5
0b
14
06
16
fa
09
f9
07
01
f9
45
03
0e
f7
b8
f9
00
07
06
1e
f7
02
13
0d
15
15
fd
15
f7
03
24
06
00
00
f0
08
04
0a
0a
01
00
0f
ff
09
12
04
fe
ec
0b
02
fc
dc
0c
08
04
08
0d
07
ea
fb
d2
05
24
16
01
08
11
10
0d
07
fe
05
07
ed
05
fb
fc
05
f8
25
08
05
10
02
12
0a
2e
fe
0a
16
0b
01
f2
05
0b
ee
0c
07
0a
f4
f1
da
1d
08
f8
22
0b
01
12
06
e7
20
07
ff
fd
04
e8
17
0d
fb
06
fc
11
fd
0c
f3
01
e2
f8
fc
d9
12
e6
e2
22
0f
fd
03
16
05
06
dd
15
08
03
07
1d
15
c8
09
2d
1c
01
16
09
e4
ee
1f
22
f1
05
1e
06
12
ef
00
f6
f7
eb
03
09
f0
03
0b
1f
0f
10
08
07
02
02
cb
0b
fd
04
e7
fd
7f
fd
ff
12
13
04
06
ff
e2
e1
d1
fb
f5
17
04
f2
c7
0e
0b
01
fa
ff
08
fb
03
02
04
07
03
da
de
11
00
09
ef
fa
fc
0a
10
10
f5
ef
07
ff
1c
f9
f6
09
05
fe
08
fe
f7
07
f7
fd
03
f0
04
06
16
08
fd
9d
f2
03
f9
09
17
f4
06
f0
da
16
07
f1
0c
ef
08
a6
02
fd
fa
43
02
09
f5
f8
14
f6
ed
10
03
ec
18
ea
f9
02
1c
ee
12
f6
03
f4
12
0a
de
22
f9
00
15
f2
f6
fe
0a
fa
1d
13
00
0f
39
f2
fb
d9
fb
ef
04
09
ef
e9
ef
10
81
f6
0e
04
bb
12
ef
04
06
fe
1f
f1
1b
08
12
03
12
0a
fe
e3
13
1a
fb
d7
f6
e0
cf
0a
2f
28
16
ef
f7
01
e5
bf
08
f7
14
10
14
ef
06
07
f9
00
f8
e0
05
0b
f6
1a
f6
17
f2
0d
c3
fc
0f
fa
f1
04
0a
29
10
0b
e5
f9
21
fb
03
d5
09
24
f9
fd
fb
2a
11
1f
16
0c
f3
08
1a
6c
03
02
ca
08
c3
00
16
f0
0b
e1
00
02
bc
fd
02
fb
e6
fa
f3
fa
e5
04
07
f7
13
0e
0a
fa
f0
f5
16
10
2c
04
04
02
48
ff
ba
02
f9
17
e8
01
09
16
0b
1a
09
fa
fe
f0
eb
fd
3e
fe
ed
fd
ef
02
1e
fd
f0
06
f7
f9
f6
05
10
13
0a
f3
f2
05
ff
fb
0c
04
04
fc
06
f8
02
fb
fb
13
e9
06
f1
f4
07
f8
ef
ef
fc
00
0e
03
19
f7
1a
6b
09
a3
13
07
f3
dc
e9
f5
3d
01
15
db
29
01
11
02
b5
06
43
18
25
08
bd
01
21
fb
06
0d
0b
16
2a
11
1e
db
1b
e6
f0
c8
c4
0c
fb
99
f1
28
0c
ff
ff
8f
07
12
04
fb
07
fd
0d
fb
ee
02
f6
ce
08
1a
f1
fd
aa
25
02
06
eb
0b
f5
fb
dd
2d
18
1b
05
16
31
fc
1c
be
2f
fe
f2
01
fc
06
0d
f5
cc
f2
e7
df
0c
44
09
1f
05
f9
9b
03
12
2f
01
e9
29
fc
d9
05
2f
0a
06
0d
01
0e
0b
16
0c
28
f0
19
13
1a
fd
e0
27
09
dc
ff
fd
3a
ff
2c
07
fb
0a
02
02
00
fd
2a
f3
19
1a
24
ff
24
11
41
fc
21
f6
07
0f
00
f1
09
d0
7f
fb
eb
09
d3
fe
01
e5
fc
00
e7
e7
01
cc
e0
b8
df
c2
05
0a
0d
22
d7
f5
02
ac
1d
10
39
57
d0
1b
e5
e9
17
04
07
f8
f8
fc
cd
0e
ff
06
ea
02
0b
32
0d
24
ff
38
ed
01
00
09
f9
f7
04
17
0f
04
fb
f1
57
2a
00
d4
f9
ff
15
fc
00
09
eb
0b
08
ef
04
e1
f3
d2
f5
08
f6
00
18
f7
01
fe
ec
13
fd
1e
fd
1c
1e
fb
ce
03
c6
06
17
06
fe
0b
f9
67
04
fa
fc
16
f7
ed
1b
00
fe
09
92
f3
ed
03
06
08
1c
68
1b
1c
66
14
e9
dc
fa
f1
f4
f2
04
ff
f8
8f
f4
e1
22
02
05
de
f5
f9
e9
fb
e2
fd
0c
f0
22
cb
e3
c2
f0
2c
fb
f4
0e
03
02
fa
05
ee
5d
e6
0c
cf
f6
fd
81
09
03
18
f3
fb
ed
ff
fd
11
e0
f7
12
fb
10
fa
e7
04
0d
d6
0c
fc
f9
fa
d2
03
f6
04
14
fd
f7
1d
d7
02
ba
f6
00
c2
fa
fb
ef
05
d4
f0
08
08
29
08
fe
14
68
f1
00
13
16
f1
16
d9
07
e9
00
fa
fe
07
15
ea
f8
f5
44
fd
0d
d5
0b
00
16
ff
f6
f5
f0
fe
57
02
03
0a
ed
ee
ff
00
f5
fe
fa
07
eb
02
fe
f4
ec
e9
0b
e9
f8
fc
fd
17
fc
00
31
01
08
f7
05
f0
04
15
03
f0
2d
03
f7
f7
06
f2
f6
fe
04
09
ce
1c
04
00
e7
08
ed
04
06
2d
d7
05
e4
fd
16
db
1f
15
fa
f1
11
06
e2
f9
fe
78
15
eb
f3
00
db
ff
fc
e8
ff
ee
ec
0c
0b
f6
10
22
e8
fe
00
06
ff
1b
0a
1f
f7
e8
16
d7
07
f5
f0
fa
fb
1b
03
ff
f0
06
ee
2c
06
48
c7
df
e6
2d
07
47
34
e1
f7
fe
e5
f2
d8
a8
f6
1c
e4
cc
d5
dc
e6
0d
dd
e7
fc
06
f1
91
fb
5d
af
ea
f9
0d
cf
0f
0c
04
4c
01
08
ec
dc
c5
bb
ba
df
92
ec
e4
1c
04
1f
eb
03
f2
f2
a7
0a
9b
fa
06
95
1b
f8
1b
c4
25
03
12
04
c4
25
0f
d3
e9
fe
ec
bc
13
34
15
22
f2
ee
f3
d2
d8
0f
19
d6
0d
03
f4
2b
05
f8
fa
ef
15
f8
e3
1e
e7
11
d8
04
39
ff
04
06
01
c5
ef
13
a9
13
0d
18
1a
2e
f9
fe
f9
c2
24
2d
fd
da
07
ff
fd
1a
19
0c
04
1e
f2
09
f1
eb
e5
66
f6
20
03
ce
00
e0
f6
e8
e8
eb
13
c9
e2
f2
fb
00
a5
d6
d6
ee
13
14
16
de
f9
18
01
1e
06
06
3b
fd
2b
e3
15
fc
1e
01
ec
17
f7
05
09
00
19
df
fb
20
09
c4
3d
01
40
f2
9b
c5
ed
bf
f2
07
00
dd
e1
df
d9
35
30
e8
c3
ff
13
2d
ff
ed
64
81
f8
ef
09
ef
cc
ee
fd
0b
e1
d3
fd
ee
f9
f9
e6
f0
23
17
20
d8
12
39
89
05
0e
d5
f7
0b
78
03
f7
ff
2e
03
fd
03
ce
03
02
d0
d5
f5
e6
c3
08
ef
0c
06
06
f1
0e
e3
e8
22
09
ff
26
f5
f7
0a
09
ff
ed
0f
1b
fb
2a
1d
de
15
a8
0f
ef
f8
fa
0f
f6
03
09
02
e7
14
f5
fe
da
24
17
e9
0c
fd
36
f9
f3
10
13
f3
f6
00
fe
1d
e1
07
bd
15
ea
f3
f1
ef
21
d7
03
0f
0e
0a
13
1c
fa
bd
c0
f7
14
07
10
47
57
fb
00
0c
e4
f5
02
d5
f5
e7
0c
f6
24
fb
f6
ea
5c
e8
03
e3
e5
22
15
11
81
08
10
f7
ed
0b
ec
fa
01
d8
16
0c
01
ff
fe
f1
15
e4
fb
eb
1a
f9
e9
f5
09
ed
ff
0b
05
f3
0e
c8
00
e7
02
0b
f5
08
1a
f4
09
f4
ec
07
08
ff
14
0a
12
0e
12
05
05
e1
b0
0e
04
9b
0d
ff
f4
f7
ff
21
e2
01
0d
c4
c7
de
f5
12
01
ff
f8
02
f0
03
dd
fa
e4
11
e8
ef
0c
0a
ee
19
13
06
25
a6
ff
08
f4
04
10
e8
eb
2c
0d
17
b7
6c
e5
0a
03
1f
19
fa
d1
11
eb
04
29
0c
01
14
18
02
ff
0f
13
17
f9
f4
09
1a
eb
eb
1e
19
ee
1a
0c
01
f5
07
ef
11
f2
fe
1b
ee
0d
c9
f9
05
33
1d
22
0f
ff
ed
02
f5
d2
08
fd
15
20
ff
1b
ea
14
f7
f1
ef
e1
e1
fa
f4
01
0c
01
f7
14
de
06
f3
01
02
25
02
06
f4
d5
0a
fa
d3
f7
0d
f1
ef
f9
49
e4
36
e3
10
f4
fb
ac
18
18
0b
ff
02
33
f3
15
f6
0f
ff
f1
17
00
0e
fc
e7
ec
ea
fc
c0
ea
2d
07
34
15
d7
e1
ff
f9
07
1b
ed
33
07
f5
01
37
0a
f9
21
04
bf
26
0a
15
14
f7
2c
0e
07
f0
ec
09
fc
07
19
01
20
12
0d
00
39
03
f6
f7
f4
0f
14
f7
07
f2
11
d2
1d
0e
2b
fd
35
0c
1c
00
02
d8
07
e2
20
01
e5
0b
ea
15
0e
a9
f4
ff
fc
b8
f5
f1
fc
f1
ed
da
01
2d
0b
13
c1
ee
05
01
0e
23
13
26
81
35
fe
ef
0d
06
2d
08
fc
13
01
17
ee
08
f0
f6
f8
2a
02
0e
ff
1d
d6
07
f5
f9
0e
06
09
f8
09
f9
fc
d2
3f
43
01
bc
07
04
03
fe
fe
fc
ee
0c
06
f6
05
05
23
f0
f4
f2
00
0d
f3
dc
d8
0a
d9
10
02
0c
eb
0f
39
d4
83
21
eb
09
00
07
ee
db
02
2f
09
ef
00
1e
f5
01
0a
07
06
01
2a
f3
fa
01
81
06
09
e0
1a
06
22
09
fe
dd
ec
fd
03
fa
03
f8
fc
bd
f6
17
f5
05
fa
10
fd
fc
06
fb
01
05
ef
f7
0e
d9
ef
de
01
fc
f4
f8
02
fe
ff
05
fd
f9
e0
ec
0c
d8
f3
07
0e
0b
00
0d
f5
08
39
0d
fe
46
fd
ea
0b
fa
06
f8
ed
01
21
2d
ff
10
f8
01
1e
fa
fe
01
10
fe
fb
03
1e
06
ff
f9
00
24
02
03
00
1a
06
fc
fd
0f
df
fa
f8
fb
e0
f1
fb
31
f6
fc
cc
09
15
00
f7
04
05
f7
15
a9
1a
13
e9
00
05
07
dc
ff
0d
f7
f6
01
f5
fe
28
fc
0f
0c
fd
f7
02
ed
15
02
f7
19
f3
ff
f9
ec
06
f4
01
f1
0c
06
0e
09
06
03
ba
02
05
04
fa
14
03
0d
f8
fc
01
0b
05
10
f3
01
01
ff
fe
fa
f5
14
f4
02
eb
0e
04
f0
01
11
29
fe
02
a3
cc
13
9c
b2
f0
fa
0e
05
eb
f4
f5
40
0c
25
1f
d8
de
f8
01
48
f9
f9
0c
07
f6
0c
04
d8
f8
02
03
ea
fd
16
f1
fd
f4
2a
05
e1
03
fe
ec
0c
00
ef
f9
f5
01
07
06
00
ff
25
f7
f9
01
0c
02
08
07
fe
ff
02
f4
ff
10
f8
1a
0a
2b
07
ff
fa
fd
02
fc
fa
06
05
01
ea
f9
ff
81
03
fe
42
f2
fd
f7
fb
0e
fd
fa
f8
07
c8
ec
14
ef
1d
fa
fa
07
05
09
ef
fc
f9
0d
e4
fe
d5
ff
f7
fc
06
fe
02
f7
f4
ea
f4
fc
31
0e
fa
fb
f4
fe
fa
e9
02
0c
fb
08
28
fe
fb
cf
c3
03
03
fe
04
f8
0a
01
02
e1
0c
03
20
fe
ff
fa
12
f7
00
09
03
13
01
00
2c
e3
fa
f7
76
00
07
05
0c
07
fc
0a
07
fb
f5
0b
11
dc
f7
13
fb
01
22
0b
fa
02
f6
01
fe
f7
03
d0
14
07
01
eb
03
ec
12
06
fc
ff
d8
e7
fa
fc
f5
03
ee
fa
f5
13
ff
fe
04
f8
08
0d
ff
04
f6
f4
06
fb
00
0a
01
e9
d6
01
04
f1
fc
ff
fe
04
02
ea
06
fd
01
f1
04
23
10
fc
e4
14
08
05
2c
f2
01
fe
f8
f1
f3
12
08
e9
fc
14
ec
b8
25
f6
01
ec
fd
09
fe
03
f0
00
fb
fd
01
07
10
f8
fb
f1
da
fa
02
0c
0f
ff
ea
02
e8
01
f9
eb
04
0e
f9
f5
f7
ff
0a
fc
f7
0a
eb
00
01
12
05
04
06
f1
05
04
02
db
00
07
ff
f0
08
08
0b
05
38
05
ff
08
f9
00
01
00
e6
fd
ee
14
03
01
0f
03
01
06
ff
03
fc
06
f6
07
f2
f8
14
07
f7
00
fd
fc
03
02
f9
fc
fb
ec
fc
fd
02
fe
03
0d
09
02
e0
f9
f4
fe
03
03
fc
21
03
09
01
fc
fe
f4
08
02
df
fc
36
fb
00
16
15
fa
09
11
00
f9
06
da
01
ec
fd
02
0e
01
f9
00
d3
ff
01
fa
0c
01
f8
fd
11
26
03
07
91
09
fd
f8
e9
0d
fd
fb
00
07
0e
f2
d7
0c
3f
ea
05
f8
e9
f4
f7
03
f5
fd
01
f9
07
f7
f4
01
06
f6
05
05
4d
03
03
fc
fd
fe
00
01
ee
f8
06
01
fd
f9
08
07
e3
f5
09
e2
fe
0f
01
01
10
ff
08
fc
03
f8
ea
07
08
04
07
ff
04
fc
04
0d
fe
fe
ff
f6
03
0d
05
ff
e7
2e
00
fb
2a
1e
fe
e4
dd
f8
fe
02
fc
07
03
fe
f3
7f
22
f9
06
12
1d
03
e5
03
f7
f0
ff
ff
ff
ec
e2
f8
fa
0d
1d
02
04
fe
0a
fb
db
03
04
fb
04
fc
fd
f4
f3
f7
07
fe
fe
00
01
fd
1d
ed
f3
38
09
02
15
07
f3
fb
08
81
10
12
19
21
1b
b4
21
fb
cd
fa
ff
fb
fd
04
04
f7
96
fc
3b
0a
f7
00
cc
fe
fc
eb
07
f3
f9
f6
04
db
3b
f1
e0
f1
25
07
f4
0c
07
09
06
02
f1
cf
e4
16
d8
ff
fd
1f
0f
fc
28
f5
04
17
05
04
ee
1c
fb
00
f9
0b
fe
e6
04
1f
fe
0d
f2
f3
02
35
04
f9
05
06
01
f9
15
03
0b
0c
f9
0e
09
02
04
fd
fe
09
e9
02
0c
f7
f4
02
fb
e4
07
fb
36
ff
e9
0b
30
18
ed
00
f4
00
02
1f
05
ec
eb
4d
07
0f
ff
06
03
15
17
04
06
10
ef
07
ea
0c
0f
ed
f2
f8
f9
08
f9
03
92
f6
f3
f3
e1
f8
f0
fd
eb
16
0e
fd
33
f9
f7
04
01
fd
01
04
e9
08
15
07
f7
2c
fb
ff
ff
02
05
fa
f9
05
f3
f9
22
0a
00
e0
07
53
f5
0a
0a
00
fe
a3
05
27
fb
06
02
f3
f6
13
05
ad
f9
0e
fb
ee
18
d9
e7
e5
bb
01
d7
04
fd
0b
09
00
06
32
27
ff
f8
06
e5
01
15
0d
2a
f5
1e
1c
dc
06
fd
e9
04
fa
fc
f9
ea
f4
0a
30
17
e4
f1
d9
0f
23
dd
ea
fe
fe
e2
fd
f7
e9
07
f4
0c
dc
de
3b
b8
1d
12
f5
05
24
e8
07
e7
fc
10
b9
fa
f2
e0
00
09
ac
e6
fc
00
fa
fe
d8
de
e1
08
1d
0f
d5
01
15
f0
18
14
fb
48
11
d6
ef
dd
d9
0f
fe
e5
06
01
18
f2
ce
c9
04
81
ea
0f
15
f4
e6
f0
fe
fd
e2
fb
e8
d0
11
f7
fc
ee
1b
fb
11
16
18
0f
f1
1c
08
f2
f6
02
06
18
03
f3
e2
14
e2
06
0b
e0
0f
10
27
f8
04
18
ec
00
e3
d3
ff
e0
09
db
0c
f7
0f
e8
0a
f3
d9
e7
f2
20
db
f1
fd
07
f2
ee
f5
ef
e5
f7
0e
de
08
11
e7
08
13
40
e6
e2
04
fe
ef
00
de
ec
1c
ee
24
f6
f6
f4
df
f1
12
08
e1
0f
fe
ec
e2
f9
03
dc
31
19
f9
ef
ed
06
d9
14
fb
d3
1c
09
15
fb
04
f0
ff
0d
e6
da
13
f8
f5
fd
2a
1a
f1
e8
0c
0a
f9
ed
0d
14
f3
f1
18
e0
ee
f2
06
01
25
cc
f8
f9
06
f8
e5
1c
e6
fa
f9
fe
d1
f0
f3
fc
f6
cf
07
3b
e7
d6
f3
fc
c3
f5
d3
ed
67
d0
30
c3
dd
0f
08
f5
f6
29
fa
01
18
07
02
08
fc
f4
0d
ff
09
02
04
30
0f
06
0a
0d
03
f1
f2
ff
03
fd
03
0c
f8
e2
f2
ed
23
08
02
81
08
04
ee
f8
41
f5
f5
fb
f1
bb
f0
fd
02
f0
ed
f6
07
fb
fa
06
fd
fd
4b
ea
05
e6
f9
fc
12
0a
fc
38
f9
f5
25
12
f7
fa
f9
ef
f9
01
fc
fb
f0
00
12
16
02
13
fa
ff
04
dd
07
0d
05
f9
f1
f1
4d
0a
f8
fd
02
2a
06
08
fe
e5
02
fb
04
18
b0
00
f4
90
1d
fa
01
2f
0b
f9
01
26
15
eb
fd
08
12
fe
0c
05
f5
09
ec
fd
08
cf
10
fe
0f
f5
f5
06
ff
fb
cd
02
07
0b
f2
f5
03
e2
0b
04
f9
20
eb
fb
f9
ef
fe
f5
12
ec
1c
fd
1f
33
05
05
20
08
0d
07
00
04
00
10
f6
f2
21
3b
f4
11
01
00
04
fb
fa
fc
ef
ac
f2
fc
d6
0b
e7
f5
04
15
d6
01
dc
08
0a
0c
2c
bb
04
f4
0c
0e
df
f6
07
d0
eb
15
e9
be
e0
fc
f7
ea
fc
07
0e
03
ee
0c
01
09
f9
fd
00
e0
f2
10
f1
15
f8
37
0c
e5
04
04
f0
01
f5
f4
fa
fc
f1
0a
e6
1e
e0
27
a0
ea
e5
45
05
09
11
fc
0c
eb
0f
ec
04
1d
c5
00
16
f3
e7
19
03
ed
e4
fc
d7
33
03
17
25
f1
f0
0b
01
ec
f0
ff
07
10
fe
12
0e
d7
0a
f7
ce
ef
0e
f6
e3
ed
55
b8
2c
dd
f4
01
08
f2
1b
cb
16
0f
0e
47
1c
02
e3
18
0a
13
1e
ff
e8
07
a7
ea
01
e6
be
f2
11
fa
4d
04
f1
ed
15
fa
22
0e
c6
57
f9
c0
fb
28
13
f8
0f
09
c9
27
11
2e
11
fd
38
f7
f0
0c
e8
06
fc
ed
04
0b
15
19
2e
10
68
ff
07
f5
cd
20
0c
00
26
ea
0f
cf
0a
0d
3d
f4
23
f3
de
0d
f8
c9
f3
07
0d
f2
f1
f7
dc
19
20
c7
0b
05
de
ea
0d
e2
e8
da
e6
cd
f6
14
1e
04
de
11
e3
04
04
1e
2f
1d
ba
7f
ce
00
0d
06
41
f5
10
08
19
19
00
08
2e
09
f7
1b
18
04
02
2d
be
ed
18
f8
f2
e8
fb
01
fc
03
db
d7
19
37
1d
de
13
05
12
02
04
0e
e9
0f
1f
01
c6
1d
0e
c7
e6
e7
ee
0e
ed
f5
03
e7
c2
0f
e2
16
eb
fb
2d
cf
0b
01
ca
0b
f5
fa
eb
ea
02
22
e7
09
f4
1f
cd
e0
07
47
21
25
f5
e3
f7
21
f6
f9
02
fb
b5
22
02
28
ee
0c
e9
df
e2
e5
e4
18
af
f6
28
03
00
0f
b9
09
20
0d
14
1d
ff
03
fc
f4
f2
f1
e2
fa
20
f6
ef
dc
43
fa
37
09
16
f5
fe
c2
22
41
1b
fd
01
27
fc
13
e9
21
fc
ee
0a
f8
f5
0c
ce
dc
f1
f1
d3
f7
0d
fd
2f
11
e4
cb
01
02
f4
0b
f4
0e
16
d9
0a
38
00
f1
0f
f7
cd
2c
09
00
17
f9
16
04
10
05
d2
09
e9
e3
08
0f
39
f9
22
0d
13
15
e6
14
f1
05
22
e9
07
09
0e
de
2d
07
34
15
3a
2c
26
15
07
d4
04
07
49
0f
d1
15
de
f9
0b
bc
ff
ee
ec
d8
01
f7
ec
cf
fd
ce
01
12
1b
0b
d5
eb
01
cd
06
1c
2a
2d
97
32
e3
f1
ff
fa
21
08
18
01
d2
0f
eb
fe
20
f7
11
1f
fc
12
fc
2e
e0
07
ec
15
04
fd
01
fc
0b
fa
0a
df
4c
37
10
b5
f8
08
f7
fe
f7
0a
17
0b
0a
fe
02
f2
29
f0
fd
01
f7
03
1a
f6
dd
ff
d2
14
07
19
f9
1b
2e
03
81
f4
df
17
c6
f0
e4
d4
19
3b
0f
07
04
e4
08
01
1a
01
fe
0e
38
ff
06
f9
04
0d
06
dc
d2
04
05
01
0d
16
f9
09
02
f3
05
0d
06
34
03
f8
dd
00
04
dd
fa
f8
fe
00
ec
f9
02
f6
21
d3
fc
f1
fa
2b
fd
f8
01
00
ff
f9
fb
f8
39
fa
00
fd
f4
03
13
01
09
28
f4
f7
f9
07
fe
3e
d7
fa
0b
03
03
00
e8
00
04
0f
02
f1
fd
00
15
f5
f8
03
0c
fb
f5
ff
02
ff
b9
fd
f9
81
04
fb
f3
05
07
01
fc
01
05
f6
fd
d0
19
01
0d
08
05
ff
f9
ec
04
fa
08
fa
02
ff
02
de
f5
f8
f1
0d
01
e4
fa
02
fe
01
ff
02
04
02
0f
f8
fb
01
ee
05
07
f6
0b
05
fb
f4
f7
05
03
f6
f8
01
0f
fb
28
0e
00
1e
f5
fa
03
ff
05
fa
f8
18
01
02
11
03
d3
0c
f7
02
01
06
04
fc
03
04
14
1d
f3
fb
e9
06
e3
fa
01
e5
bf
fc
05
3a
fe
14
34
19
01
f9
fb
05
1b
04
d3
9c
1f
1a
2e
15
1d
22
fe
ee
f8
01
ee
06
fd
f8
fb
c3
01
f5
fa
19
fe
03
00
15
f4
2b
01
04
ff
0a
fb
fe
f1
ef
04
0e
08
f3
fa
01
12
fd
c9
f2
0b
a4
1a
f7
f3
fc
db
b8
03
00
fd
03
cf
02
0e
09
19
f0
de
04
0c
fc
12
db
04
15
ff
07
0c
20
ef
0a
0e
fb
03
03
05
04
f8
ec
03
12
d9
f9
00
07
2a
ff
d4
f7
81
d7
e1
fd
07
f3
e0
00
fc
f9
04
ff
bb
0f
f9
01
f9
0f
e7
0f
23
f5
2f
01
c8
f1
18
00
fc
de
03
00
d0
f8
0b
0a
f2
f2
f7
10
8a
f1
07
a9
f9
19
fb
06
ff
8c
02
f6
12
0f
0f
ff
02
17
e9
f8
0e
e6
df
fc
09
3b
01
f1
f8
04
f9
02
ec
f1
0b
04
fe
07
f1
22
cc
08
e8
07
b2
0c
2c
d3
e4
fd
fb
13
fa
13
f7
0d
ec
fb
fb
f9
04
0d
f8
0b
fb
07
00
f6
0e
14
0c
09
fc
f2
fd
0f
03
f4
0d
23
eb
fa
13
18
ff
fe
0a
f8
e8
0c
f7
13
fe
fb
f7
fc
17
fb
89
05
c7
22
01
0d
01
01
01
ee
f4
0c
f9
02
fc
07
0b
0c
ed
e0
0b
ff
f4
f6
07
f6
07
02
05
e7
fb
11
10
f2
ef
0c
05
ff
fd
fc
04
ff
e6
04
fc
f6
07
19
16
f1
2d
2d
0b
0a
00
0e
e3
e0
eb
58
f4
0b
f7
1d
0d
04
ff
03
d7
f9
f3
fa
d8
05
fb
f9
18
07
00
08
c8
09
ed
e9
07
db
0a
fe
00
f6
0b
05
03
c8
f6
f9
d8
03
06
34
fc
03
ed
f9
39
00
fe
f4
65
fd
03
e3
f4
e4
04
0a
f3
03
00
ea
08
f9
1f
fd
f8
0a
fc
f6
0e
fa
0d
56
eb
fd
f2
02
f8
35
01
08
fa
ff
ec
ec
e6
ff
08
fc
f6
dd
f8
04
12
06
07
ff
fc
08
ef
0e
f6
f7
1c
00
fd
25
07
fa
fe
cb
02
fe
00
05
04
00
ff
2f
d7
f9
fa
fe
fd
e9
09
3b
06
f9
07
04
08
fe
e7
0a
eb
d9
12
11
f6
3d
06
0f
f7
14
03
01
fb
f6
0f
0e
f9
1c
e0
ff
f9
08
0a
02
00
bc
df
00
f5
f7
fb
0b
02
01
7f
06
fa
56
f3
06
08
03
f9
f5
fc
cf
fd
00
09
f5
35
f5
f5
04
14
00
03
01
09
ff
2b
d5
00
04
d8
04
e4
fb
01
fd
ce
fc
08
f8
01
c7
ee
dc
01
f5
f4
11
d1
00
01
b7
3c
83
c9
f8
1f
f5
0b
37
05
f8
06
ed
10
0e
28
af
fd
fd
f0
e0
f6
02
fd
18
06
36
f9
0f
fe
06
fd
01
05
04
08
0c
03
f6
fe
17
f7
0a
0a
02
09
47
17
19
03
00
03
28
f0
22
24
ff
05
1c
f9
19
fd
15
04
12
f1
d8
ed
f6
fa
0b
04
fe
f3
09
f1
00
0b
fa
08
16
17
fe
06
c2
08
ee
f3
fc
10
f5
df
f6
21
16
32
de
24
ec
06
f3
1e
23
0d
fb
f8
2d
0d
11
e2
09
0c
09
0d
ee
ff
01
ee
0d
04
00
e3
fc
0b
f8
10
12
f1
f6
06
06
31
0e
f2
0a
10
ff
0b
36
05
fa
26
fe
d9
23
02
10
f8
fd
f9
0f
fe
ec
f3
06
f5
f6
0d
fe
1f
ec
16
02
0f
01
f8
05
f4
f6
20
ef
03
f6
0b
b4
12
05
2a
02
27
1d
15
16
0e
0d
06
cc
09
f6
da
f9
15
0a
01
ec
0a
11
0f
06
f4
f2
fc
e6
eb
c1
09
18
06
0f
db
09
03
0e
10
19
17
24
81
1f
0f
17
0b
fc
1d
0d
dd
fe
f2
18
fc
ec
02
ff
0a
fe
f0
09
00
20
ee
01
fa
f0
01
f7
ff
fe
03
06
e8
d0
2e
25
02
bc
fd
02
10
07
f3
f6
f1
13
14
f5
ef
eb
25
fa
f2
f9
fa
05
f0
fe
e9
05
ee
1d
06
23
03
18
15
c3
e6
12
d8
1a
f3
06
f4
c3
f4
1f
01
e0
f5
01
f3
f0
08
28
ee
10
f5
ef
e0
20
e4
e3
fc
ff
f6
10
f6
03
e9
06
01
f9
ed
fe
fc
11
f6
f5
ea
02
ff
fb
e7
13
09
12
00
f7
13
f2
01
07
f7
03
e7
04
12
06
f4
f8
f2
0f
31
07
0c
ff
02
cb
08
02
fc
e9
f7
f3
fc
fe
08
03
04
00
fb
f5
fb
ed
e5
03
25
01
be
0d
0a
11
f7
fe
03
f3
f6
f9
e3
0b
ee
08
2c
f7
03
16
f7
f8
d8
04
ac
08
0a
f4
0e
fd
17
0e
f7
04
ed
1b
01
f5
11
01
03
0a
e4
ff
fb
15
ff
f0
26
07
f5
f7
13
fd
13
fc
2e
03
ff
f8
23
04
f8
00
f7
37
04
fa
16
eb
03
07
14
fc
0f
13
fc
02
0b
da
eb
ed
f6
ee
fb
01
ff
1d
1f
fa
b6
e4
06
fd
fe
c8
ff
19
00
c5
f7
1e
0c
fd
02
fc
04
0c
ff
e8
e1
f8
fa
f0
13
13
f4
f2
f9
14
e4
0d
f5
f9
12
0e
07
04
10
00
e5
0b
08
04
0b
16
fe
fc
03
f9
08
18
f5
02
07
fb
07
f4
27
1b
12
ef
0e
04
f2
d9
ce
09
08
fc
1b
02
fd
12
81
06
e8
20
db
14
03
07
06
fa
07
0b
ff
df
f8
ef
f8
01
ee
0f
02
0c
31
fc
02
06
22
02
0d
fd
14
06
07
15
01
f9
05
01
04
f8
02
fe
fd
0f
f2
43
c6
01
05
eb
f2
f5
f8
fd
09
ff
fa
07
ef
f6
ee
f5
f6
03
f0
fe
04
09
f7
06
fc
f4
00
ec
0d
de
f6
03
dd
04
00
24
fc
02
40
e8
fc
00
d9
fa
ff
04
02
f2
ee
fb
0a
12
04
e1
06
fa
13
d2
03
ff
04
ff
f6
f4
bc
05
1e
f7
ff
12
00
f9
07
0f
00
ef
0c
17
04
fb
fb
de
57
fd
f9
cc
f6
ff
fe
15
12
f7
f7
00
0c
f4
0d
05
04
06
12
05
07
09
02
fd
0e
fa
f5
fa
fe
fc
c0
fc
08
0a
f7
fd
01
04
00
fc
fe
15
fa
fd
f8
f5
fc
ee
fa
f3
e9
04
05
1c
fe
07
28
07
01
fa
06
09
05
0b
f1
fc
fc
01
f9
fd
00
fa
04
fe
07
fd
e6
ef
fe
04
ee
08
dd
fc
06
1d
e6
fb
ff
e6
ae
0e
e0
e1
f2
fd
09
00
f1
f4
81
15
eb
fb
1c
f7
dd
07
fd
17
fa
fa
06
fc
fd
04
36
1d
fb
fe
01
07
fa
05
03
0b
f9
21
0f
e7
05
fc
f4
fe
fb
f8
f7
fa
f7
01
fc
2d
01
da
0c
05
f7
fd
07
0e
c4
07
fc
ff
b6
09
f7
09
e6
05
14
ea
07
3a
fe
f7
03
f9
01
01
0a
d9
f0
dc
1c
ff
03
d5
01
0a
04
fe
f2
f5
06
f4
e6
f5
fd
03
fe
13
02
ff
f6
01
00
fb
fd
f6
f6
fe
f3
02
03
fe
d4
fd
03
eb
f3
f8
dd
f4
00
05
00
f7
09
03
fd
0b
eb
03
fe
f8
fc
3b
01
0b
e5
ee
08
06
ff
fd
01
f8
f7
fb
41
f7
ff
3d
04
fa
fc
11
fa
fb
fa
05
22
f9
00
e1
fa
ff
fd
2c
09
f9
fe
41
06
f8
02
f9
07
ff
f4
11
fa
11
ff
0b
f4
fe
fe
f7
f5
ed
fc
08
ec
fd
50
0b
fb
fc
ea
f6
05
fe
05
08
fd
25
e8
04
f9
f3
08
06
ef
03
08
08
0a
ea
f7
fe
dd
01
0a
f5
fe
fd
00
fc
0b
01
0e
15
ff
07
03
f9
05
f0
f0
00
08
28
f9
fe
ed
fe
0b
fc
fb
2c
f7
f3
4d
2a
81
cd
f8
c5
f7
f5
f3
06
fc
06
cd
ed
47
1c
e8
f8
1e
09
f6
23
fe
fe
03
03
ef
06
32
f6
f1
fc
f3
03
ff
00
ee
f4
fd
ee
ff
0c
00
f5
fe
f7
03
e7
06
0b
f0
fe
ff
0c
17
d0
02
08
00
de
07
ea
1b
0f
0c
e3
00
e6
f6
fc
7f
d7
f4
02
f8
f4
10
0b
0b
09
04
f6
0c
c6
00
fb
08
f4
13
ed
25
07
0a
f3
0a
f2
0a
18
0b
f4
16
db
11
f1
fc
21
f8
20
0b
06
07
29
fe
14
eb
f1
09
09
dd
de
07
ed
29
fc
fc
3d
fd
0f
05
0f
21
03
0e
0b
1a
f3
c9
0d
ea
fe
0e
16
f2
db
e9
0e
13
f0
ec
12
ff
d6
f3
ff
fa
fb
fc
03
03
d2
0f
07
fa
13
e4
fe
fa
f1
f9
02
fb
f5
fd
0c
fa
1a
e5
f4
f7
0f
06
0a
b7
f7
f3
ec
e7
01
f5
ec
dd
f6
f0
0b
0d
02
1d
01
0c
ef
c7
22
11
16
13
fc
07
11
06
f5
21
07
00
f0
14
10
f0
1c
f5
15
09
eb
0c
fe
ff
fe
ea
fb
ee
c6
13
e8
f9
ff
e7
06
e8
f7
1b
f4
f4
04
19
fd
e1
0c
eb
c8
0b
e9
f9
e7
fd
fb
fc
07
13
fd
07
f3
f4
f4
09
12
cc
ec
e8
21
f1
06
ed
10
ef
1b
fb
ee
f6
2c
10
10
fd
09
24
06
fc
e4
09
0a
09
05
10
23
ea
de
06
e8
c4
1e
12
f1
32
ed
e9
3a
14
f0
0d
c2
e8
22
ef
10
0f
e9
f2
32
01
e6
21
1c
ff
07
f1
16
10
17
f1
22
06
1a
eb
19
e9
d0
e0
06
e8
0d
ab
09
49
ff
e4
13
be
f5
41
ed
d4
0c
fa
04
09
04
18
fa
ee
ea
30
e1
bf
1e
21
02
1b
15
1a
3c
09
07
13
1b
03
32
10
13
ef
0f
b7
09
02
f9
fb
fe
0c
ef
f3
b8
e1
c9
e0
f3
f9
f3
1d
12
ed
30
0e
0d
16
09
c5
04
22
f1
0e
30
fe
d7
04
f9
19
2a
37
f7
fc
0c
37
36
11
f7
16
2e
fc
d3
01
fa
27
25
10
16
04
d8
e0
03
02
16
04
03
08
1f
f1
04
36
0b
1c
05
20
fb
12
0a
15
d4
1e
e1
11
fc
ff
08
e9
fa
32
05
08
f6
c1
01
fd
ca
ce
81
f0
9a
e9
13
01
08
05
0c
f3
8e
f8
19
40
09
04
1e
e5
e2
0d
07
22
dd
34
e2
b0
02
f0
01
07
0d
ed
33
15
35
fb
1b
fe
06
fb
ee
f2
e5
09
f9
08
fd
f1
e5
fa
f5
09
0a
f7
02
01
f7
fd
17
f5
21
fd
08
21
12
37
1d
3a
ca
e3
04
36
f3
f7
e3
03
3e
df
06
c9
f2
f1
e3
de
bb
2f
d0
db
eb
dc
ee
fc
24
f4
09
f1
bf
fd
f1
a6
17
01
10
b2
07
f9
02
f0
20
e9
e0
cc
fa
ea
fe
0c
48
01
09
01
f5
f8
00
10
56
fb
3a
32
03
fa
1b
16
f1
f9
03
45
ec
0b
f0
18
13
fc
09
f9
0e
04
ff
06
14
ff
f3
fe
ea
ef
ec
ee
10
f1
ec
f3
02
05
e9
e0
e1
fa
14
f9
8b
81
ef
18
17
01
e2
e9
15
f0
bf
ff
0f
01
03
c1
21
04
18
07
00
f2
0e
95
fd
e0
ed
f1
2b
06
ec
f2
11
f7
f2
00
fe
17
02
f8
d3
1f
00
fe
d6
1c
f2
1d
e7
e2
02
08
fd
f2
fc
fa
01
f2
18
26
10
ef
eb
03
09
f3
0b
fd
fe
f4
05
ca
f2
fb
14
cc
fb
fb
1c
02
05
03
f6
e1
04
e2
e4
f0
fa
13
ed
13
14
f4
da
e6
e7
a4
00
0f
ef
ee
21
05
fb
fe
07
cd
0e
ff
fc
04
fc
04
06
07
01
f8
f3
ff
fb
d3
15
02
20
10
d9
4c
13
d8
4f
f2
d8
e1
a4
f2
f2
07
fa
3e
fe
0e
f1
36
05
92
1e
1b
3f
f8
0a
f6
fb
d8
05
f7
f7
09
15
03
de
fe
42
f5
10
fd
10
f4
eb
02
04
0a
0d
ef
f7
f8
09
fa
0a
04
ff
fb
db
03
2d
f6
fd
fc
fd
fa
f9
3c
fc
f8
03
a6
03
07
2f
12
0f
fa
0d
01
f4
02
08
fe
fa
01
fe
ff
ca
fb
23
18
0a
06
f5
ff
01
03
04
d7
02
ff
fc
e0
22
eb
f5
ff
f3
fc
f4
06
02
ff
fc
03
03
1f
ec
06
e5
fe
0c
10
0a
f9
2e
fd
ff
de
0b
fe
f7
15
f9
f5
02
03
fe
ee
04
10
0f
fd
e1
f7
fe
e3
e6
07
fd
0c
f8
fe
04
e9
05
f6
f2
01
c8
05
03
f4
0b
ec
00
ff
12
ef
f5
06
05
c8
f4
02
e6
2a
f8
e8
1a
17
f6
f8
fc
0d
08
0e
06
00
fc
e9
fd
09
28
03
fe
0c
f3
ee
03
01
01
ce
08
06
06
e4
fb
02
05
fe
fe
01
4b
ed
ff
fb
f0
ea
ec
ef
ed
e2
fa
19
28
03
f7
fa
fd
06
06
05
ee
fe
10
fe
fd
43
f3
f6
10
ff
fc
ff
01
02
00
e0
05
f2
03
e1
07
91
f1
02
e7
3a
fa
29
17
39
c8
35
25
f3
f5
0a
06
db
f7
81
1f
1f
05
1c
d7
dc
1a
02
dc
09
de
04
09
fd
08
11
d5
f9
f3
0d
d5
fb
11
f7
15
fa
fe
11
e0
fd
fe
ef
f3
ff
ea
01
f7
01
01
09
06
fc
f9
f9
fb
20
06
07
06
1b
f7
09
01
25
02
08
e6
0f
01
d6
0d
09
fe
f5
fb
01
fa
fc
ff
ff
fa
00
07
03
03
fb
f1
fa
fe
ee
fd
25
00
f4
ff
f5
10
f6
fd
f8
1f
fd
f7
00
f8
00
06
fd
ff
ed
f1
08
e7
06
ff
f1
05
f8
0c
f6
fa
31
10
ff
f9
0d
f9
04
fe
02
01
eb
05
12
14
08
dd
f8
02
2a
fb
fc
05
04
fc
00
fc
24
06
27
f9
06
b0
00
04
01
ee
f4
fd
01
06
03
fd
fa
08
fc
fb
fd
e1
0f
01
fd
03
10
fa
f5
09
0b
fb
10
d4
00
00
ea
02
05
f0
06
fe
0f
f9
f6
ff
ff
fa
06
f7
0a
06
ed
fd
fb
f7
f8
ff
05
02
f6
ff
05
ef
fe
f2
fb
f8
01
fe
0c
09
fe
05
12
fc
02
05
00
05
00
0d
f7
f9
0f
aa
ff
01
fa
03
fe
fc
fb
01
ff
1f
fd
04
e8
00
f2
f3
fe
f6
d3
00
20
04
da
13
0c
1e
fa
f5
0d
06
ee
f2
05
24
2c
0b
81
f7
e6
f6
fd
34
f6
0c
0c
ff
f7
04
ec
0b
fd
f8
00
08
fd
06
fb
0a
f4
09
0d
e9
01
00
f5
07
f9
f5
00
02
fa
04
f8
2a
ff
d1
f7
f5
bc
06
05
1e
fa
05
fb
04
ba
07
f6
d4
c4
0c
62
03
13
2e
fa
05
09
f6
fc
06
05
35
04
81
37
ee
0a
aa
fb
fa
f9
08
ab
f4
f9
f1
3c
0a
f8
34
00
1e
0e
01
fd
fa
04
ea
fc
ec
e5
fd
f4
fa
f4
09
08
fe
01
fd
ee
f5
38
e7
01
bf
d4
fb
f0
07
03
0b
ea
07
f7
f1
0a
f9
02
fb
29
00
01
04
f5
01
fa
09
0e
fa
39
07
00
f7
00
e6
05
cf
05
f7
f2
00
59
10
fa
dd
f8
fb
0a
0d
fe
02
31
02
fb
0c
0e
08
00
f4
08
be
f7
01
05
11
f1
fc
13
fb
fb
0c
09
f3
fb
06
ff
1b
fe
0a
eb
fb
04
0e
f2
ff
fa
3d
eb
fd
fb
f8
0b
03
11
00
35
00
f1
00
f2
ff
17
0d
0d
ee
01
11
00
ff
0b
00
de
db
e7
f6
0c
01
03
f2
fe
05
2c
05
13
02
e1
fa
f2
0d
fe
0b
ef
03
e3
d2
28
16
e7
11
fe
f9
f6
0f
0b
02
16
b9
11
cc
13
00
33
0a
f8
fa
10
06
f0
fc
f5
ed
11
4d
e9
f7
02
35
f5
fe
00
0f
fe
27
09
0c
fb
10
f4
08
ff
02
09
03
fe
fa
00
f7
f7
d6
f5
ff
d3
09
0a
fd
f5
f7
fe
0d
ea
07
03
e2
09
fc
fd
04
00
14
fa
f8
fa
f6
fc
08
f9
2a
03
11
0b
f7
fa
28
f9
ff
0b
02
81
fa
01
fa
f5
32
f1
19
fa
fa
ff
f9
04
ff
fc
f6
04
fb
f1
ed
03
e4
03
f6
f1
07
ff
d4
f4
f8
b7
08
02
1d
d5
fa
f4
fe
03
f6
f1
0f
11
02
0a
27
fb
ff
ec
d3
04
05
fa
03
ff
fa
21
05
12
f5
00
f6
01
f9
f7
0a
fe
ef
09
05
10
fa
fa
0a
d9
04
01
0c
0e
f1
ff
db
08
01
fe
fa
f7
fe
0a
20
01
eb
0a
04
04
ff
02
fe
08
fc
f7
02
f6
05
1e
f6
0b
03
f9
fc
04
0f
f0
00
f5
01
f1
fb
fd
f2
05
f1
f9
ee
0d
fc
fc
d5
fe
fe
06
01
0a
ff
f9
24
03
10
f7
07
f4
0a
02
f6
f7
fc
01
f7
fa
09
e9
e4
03
06
ea
06
f3
11
fd
d6
f9
f7
fa
01
0a
0b
24
1e
f8
fa
0f
04
0a
fa
f3
2b
e9
b7
1b
f3
eb
ee
03
da
01
f7
ff
0a
f2
01
20
f6
fa
f9
04
12
fd
ff
fa
07
05
ff
09
e9
05
06
f6
05
03
09
0b
fc
fa
07
f4
06
f6
09
f0
06
02
55
f4
ff
04
0d
f5
02
05
06
fb
fd
2a
fd
10
f4
de
08
02
05
f5
0a
f7
08
02
fe
04
01
f8
f4
03
01
fb
f7
fe
0f
fb
0b
02
05
02
16
0b
02
0e
f6
ff
0c
3c
00
29
81
19
05
0e
07
0f
e8
08
f9
06
15
f9
09
fe
10
06
d9
08
fc
13
f9
ee
fa
1b
ec
0f
11
16
1d
0b
01
fb
0c
0b
09
fd
02
07
fc
13
fc
03
24
06
d9
0f
fe
1b
1d
1a
fe
03
fd
f2
0b
f5
f3
d9
0a
0b
ef
0c
18
16
0e
f6
f5
ec
07
e3
f7
02
18
0e
00
02
05
06
00
0d
09
09
06
19
00
04
f5
06
f5
05
c5
ef
0f
ed
fa
06
fe
fb
06
09
00
01
13
fb
f1
ef
08
f2
ff
0d
fd
f9
05
06
f8
00
00
14
08
07
19
1d
07
fd
f8
17
05
17
f4
01
0b
f8
fe
fb
ff
f1
00
08
f1
fc
1d
07
04
f0
ff
02
fb
f4
fe
f5
f7
06
0c
ef
f1
0f
fb
ef
df
08
f6
0d
fe
00
13
f7
11
fd
f9
e8
ff
0b
d3
0b
eb
06
02
f2
f4
f9
1f
ee
08
06
f7
f2
00
0c
f4
fc
11
e5
f1
33
16
ff
e3
f8
01
01
e6
fc
21
f5
f9
0b
0e
09
0b
f3
f9
04
09
06
02
03
01
0d
06
11
0f
01
02
fd
07
f6
f9
05
fc
f9
0d
fa
37
ed
04
f4
29
02
fd
fd
ff
17
f4
00
fe
c2
f9
eb
9f
fc
f0
f5
f2
01
0c
ff
fa
04
fd
05
ec
03
d4
f7
f4
19
07
01
ff
f4
ff
e6
02
fd
c6
da
fd
f3
ff
fd
fa
ee
02
06
22
07
3a
f5
02
19
04
f8
03
03
03
03
fa
81
08
d7
f9
fc
ec
02
fc
02
ee
00
fa
02
06
fa
ff
fe
10
06
fc
ff
08
10
00
df
15
0d
01
fb
03
0e
05
0e
ef
10
00
ed
f8
06
e9
ff
fd
0b
fa
fa
02
f7
fb
fd
02
0f
06
f9
fc
fc
d3
02
fa
f5
df
f2
fa
fb
ed
f1
f5
06
f5
10
08
17
02
fb
01
c5
ff
06
03
f7
11
fe
09
f7
f5
0f
10
08
08
fb
00
00
04
f7
00
dc
10
f3
fc
f3
08
cd
0b
00
04
c8
03
2f
f7
41
18
fc
02
fe
f8
0d
08
1c
f6
06
fc
25
1e
f5
d1
e7
04
ff
21
eb
f6
06
09
00
0f
10
fe
ee
fa
fe
fb
fe
fe
01
10
08
d3
0c
e4
fd
07
f9
fd
f7
e7
fa
fb
f9
0c
ee
18
f6
1a
cf
b9
0b
26
1b
35
ff
d7
0c
20
f7
16
15
08
15
2d
12
12
ca
07
06
d1
e6
dd
09
0a
a5
ef
39
03
ff
03
f7
02
3e
11
14
09
0c
fd
05
04
05
ed
d7
0c
11
f1
e3
bf
33
e7
f7
81
f7
e3
fa
df
0e
1d
14
d3
f9
1a
fd
12
23
2a
fd
d3
f2
f9
de
10
f5
a6
f2
0b
e8
09
36
ef
2a
fb
f8
c0
f9
11
19
fc
0b
28
0b
fa
f4
2c
fe
03
ff
f7
0d
0d
01
08
24
ee
fb
ff
21
e9
cc
10
e9
eb
02
0b
14
f6
07
0e
36
06
dc
1f
f2
0d
30
01
fb
20
24
17
14
15
29
e1
24
f8
f5
0c
ff
ef
fc
b9
30
09
03
2b
db
f7
fe
f5
05
04
d4
f2
08
d0
f6
14
f4
16
f7
f8
17
24
ef
04
ff
d6
19
f8
19
33
ea
1e
d2
dc
19
fd
fb
f4
ea
ec
f5
ff
fd
05
fe
03
f0
45
0d
0d
f7
25
e7
f6
ff
fd
01
f0
0a
12
03
fd
e7
02
3c
1e
05
df
f9
fa
14
fd
04
f2
00
04
19
f8
e9
ef
18
05
e6
00
f3
0f
22
ee
f4
15
d7
17
f5
24
00
12
18
f7
bd
16
e8
25
01
df
ea
06
f6
3a
f3
ec
eb
0b
ea
ee
0a
1f
1d
27
f7
f9
f4
25
f4
e0
fd
04
e4
16
f6
3f
d5
05
dd
f2
e8
fd
f1
00
e5
fe
27
06
07
04
03
09
20
09
fd
0a
f3
06
1b
11
e9
00
e3
fc
12
fb
05
f6
14
f9
39
15
0d
0c
19
ef
18
fa
ff
10
05
10
05
03
f9
0f
f0
5f
10
0f
ec
04
2a
e4
04
fa
e7
f6
28
04
19
16
f5
f9
0c
fb
cf
0c
ef
c8
17
02
04
24
0d
f3
1c
04
d3
1a
0f
16
01
e8
fa
18
07
fa
f8
09
09
e2
0c
ff
21
07
12
03
11
00
fc
04
fa
13
1e
01
fb
12
19
f8
20
f9
02
f8
27
11
30
1a
1d
de
f3
f9
0d
f2
ed
f8
01
03
f2
ea
12
f5
f6
f3
02
e7
eb
fb
0e
f6
fb
04
23
00
fe
f5
07
ed
0d
21
1c
11
fd
1a
e9
f8
0c
e6
0e
01
2d
fb
ed
01
02
f6
18
eb
16
e1
00
06
fe
17
fe
06
f7
09
05
fe
f9
12
08
fd
07
ef
15
16
0b
f7
fd
f7
f3
01
04
05
00
0c
07
09
05
fb
20
24
06
0a
05
ea
01
ee
fa
00
ef
15
fd
2a
e7
f3
26
ec
fa
0a
f7
fa
81
fd
ee
ce
23
12
f9
f4
00
08
ff
01
1e
02
08
05
16
fd
04
02
20
04
02
07
c0
08
4a
e8
01
05
03
fc
ff
f7
03
07
03
12
fd
42
21
06
06
24
07
fc
05
02
a0
f9
ff
f9
0a
f5
f7
0d
f9
0c
0a
07
00
fd
09
f6
02
e7
e9
f6
fe
f4
00
06
0c
06
fb
ff
f4
f9
12
fe
01
ac
f4
fd
0c
fb
0e
fd
ec
08
08
04
01
dd
05
01
0b
ea
00
01
f4
01
f6
fe
0c
ff
6a
05
0d
2d
01
04
f6
f2
0c
fb
03
00
0b
fa
02
2d
f8
07
01
f7
12
fb
ea
e8
06
fb
fd
05
f6
fe
f4
de
e3
1a
11
08
f1
0c
03
06
f8
ff
05
fb
f8
01
46
06
fd
13
f3
f8
fd
0a
03
04
f9
35
fa
02
f6
e7
fa
04
06
f8
f1
07
0c
fe
f8
fa
ec
fd
07
f9
fc
fd
02
ff
ff
05
16
1a
08
f8
fc
05
ff
fe
f8
04
20
e2
11
f6
e7
09
f3
05
ff
7f
fa
06
c3
ea
2d
c0
db
f8
fd
f9
07
08
ed
02
ce
d0
a4
35
ce
d7
16
11
fb
0d
fc
f4
04
08
f9
fc
bb
b2
fe
f9
02
0e
fe
f0
06
18
fc
d8
06
fe
fe
07
ea
fd
09
fd
fe
0c
f3
02
f4
01
e5
bb
ff
fd
0b
00
00
0a
e7
00
09
0b
fb
0d
0d
ee
88
f3
e6
10
0e
7e
fc
00
0a
f1
f5
11
08
5d
0d
f3
b1
05
06
fb
00
09
04
01
01
01
f9
fb
40
e1
03
68
f7
7b
01
f7
fa
02
f3
f5
02
04
b9
f8
fe
e9
01
00
45
00
0c
e5
d4
ee
f1
ec
07
33
c0
f8
fd
0c
07
0d
f1
06
f3
0d
ff
65
fb
f6
12
9a
ff
0e
e7
f4
fa
05
e5
00
ac
fa
f8
2d
0b
f6
fb
df
f1
f6
15
00
0b
03
ef
ba
cf
e8
06
0b
09
e9
03
f6
ff
fd
0f
02
04
03
06
47
eb
db
1f
10
f5
fa
f9
03
fb
08
f3
05
02
04
eb
d9
f3
06
f1
0d
fc
d3
eb
0b
04
e7
e6
fa
f0
ec
00
0e
0e
f6
17
13
ef
ee
fb
fd
3c
fb
14
fb
06
21
ff
fd
05
fa
ec
17
df
08
01
02
0f
f9
0d
01
f6
0f
f7
f6
ca
06
e5
0c
05
1d
1e
03
03
81
91
2c
bb
0f
f4
f8
02
05
f3
07
13
04
76
1c
b7
d9
1c
ea
f5
57
f3
e8
0d
f5
07
fc
b7
aa
f9
f3
00
1d
f1
fe
0d
0a
04
01
fe
04
06
fb
f9
02
0d
f9
f1
e8
09
02
f6
f9
fc
9c
0a
03
f3
0b
fd
13
1f
f9
17
08
df
16
ed
c4
b6
f9
f3
08
10
26
e2
ff
f5
fa
10
0b
06
34
f3
24
29
fc
02
4e
e7
03
05
f8
81
0c
ed
06
ac
01
fe
df
fa
e8
f4
f5
ed
11
f2
0b
03
08
00
f2
05
ef
f6
14
cd
08
f6
11
d2
f3
f2
14
fb
0a
f1
f6
09
11
06
fb
dd
09
16
35
01
36
fc
09
f8
f0
ff
06
0d
db
fc
ea
29
0a
a9
f1
f3
25
13
02
ff
83
18
08
f5
07
d2
f4
ee
04
fd
fb
08
f4
f9
05
b3
e9
2b
f3
fe
08
0a
07
07
04
0e
d6
d9
10
0d
df
e8
f4
1a
e3
01
fe
08
fa
1a
08
fe
02
db
01
0a
b6
ff
14
ea
3e
e2
fa
0f
f1
01
e8
12
f7
38
fc
ed
09
01
17
14
03
07
07
04
49
0c
09
01
ed
c3
42
fe
0f
f4
fe
13
ea
02
09
ff
f2
f7
f4
bc
08
fc
eb
0e
aa
02
ef
ef
df
01
16
26
da
0b
e4
f8
eb
2d
db
fe
2a
33
d1
ed
ba
cf
d9
ed
cd
e8
3a
09
fa
ea
07
26
01
f1
f5
fc
01
fc
14
fb
09
f0
0d
14
ee
ff
1f
de
e6
e2
d7
fe
f0
fd
08
fe
01
06
ff
02
f5
fe
1d
c2
06
05
f3
ff
f8
fb
14
f6
ea
26
08
04
01
0a
05
ed
fd
0c
ef
15
1d
05
fd
03
05
fd
e8
ef
ff
ee
eb
f0
b4
f9
0e
07
d9
01
01
f5
00
d9
0b
bf
f3
d8
fd
de
0f
07
f7
15
ff
fe
c9
e3
0c
09
e4
14
03
e6
fb
01
25
0a
fa
fd
f4
0d
fd
17
0c
ec
10
fc
12
f2
f7
ea
f6
05
ef
4a
05
f3
0e
f7
f5
f9
e6
0a
00
d3
0c
1b
fc
fb
07
00
08
0e
0b
06
f4
0a
05
02
fd
06
ff
02
cd
d1
f9
fc
d9
0c
f6
ff
0e
df
06
1b
06
01
ec
16
f6
e9
11
d5
de
84
0b
b4
7f
02
d1
f8
47
0b
f6
f8
fb
ff
1a
e3
01
f0
e8
c3
09
0a
f2
ea
f8
f9
06
0c
05
ee
13
09
fd
08
be
f6
08
08
da
fb
32
03
ff
06
ec
f1
f6
02
e1
20
07
eb
f8
11
f7
07
e6
fa
fa
25
05
f7
dd
09
06
0a
02
03
f8
21
f8
ea
fe
f7
00
09
f3
12
f7
04
00
f1
07
f2
00
de
ff
e6
cf
e6
12
01
fa
03
f1
0a
0a
09
f9
e5
dc
11
f9
98
fa
0c
02
e3
fb
0a
fd
f2
f9
ef
01
f8
1a
fc
17
ec
f5
ec
5c
e2
f4
f2
e7
ec
33
06
27
f7
f8
0c
16
09
28
16
fc
1c
08
f4
fe
fa
f1
c9
08
0f
fd
f1
f7
0d
dd
0a
f9
03
e7
f2
f9
0d
cc
eb
f1
f7
f6
e9
1c
d3
11
11
13
26
91
26
f6
f0
e3
12
f6
03
f7
05
ea
e0
e6
f0
fd
ff
15
02
fe
f4
f7
dd
ff
1e
eb
e6
08
c1
1c
27
09
ea
c0
15
e7
33
0c
f9
a2
1f
cd
f3
52
0f
09
40
fd
9a
2f
fe
2b
17
db
fc
ff
0c
05
e8
0c
f5
f4
fe
fb
ec
fb
1d
0a
c0
19
c6
69
1e
d5
3b
13
ec
04
01
c1
1f
de
4b
ed
32
01
84
08
df
ef
dc
ae
28
ef
be
ec
00
20
f7
f7
11
f6
e9
bc
0b
15
05
b9
fb
e3
0b
06
02
12
af
0f
f2
cd
ec
9d
17
12
b3
16
f1
7f
f2
04
4f
fe
e4
fb
e8
d8
b7
f4
01
f7
27
e3
f7
cc
08
f8
de
17
fb
02
09
e5
f6
1a
fe
10
07
d1
50
2a
07
b3
0e
f7
f2
f4
09
1a
eb
21
f7
e5
1f
f7
fa
ae
e1
05
f3
fd
0e
dd
f3
ee
1a
f5
09
ce
ff
ff
96
cb
c7
1c
d1
00
1d
1c
0e
b8
f0
30
fe
00
ff
06
fc
fe
1e
08
00
09
ef
f9
f8
05
16
04
fe
e2
10
08
01
0c
01
0c
fb
01
00
fa
fa
04
fc
0d
05
06
e8
fb
fc
ff
00
ff
ff
02
fa
fc
fd
05
f4
fd
f3
e7
fd
05
03
fc
04
ff
06
f7
02
00
f8
f6
05
ec
ff
04
09
05
fc
05
fc
fe
ec
0a
06
13
00
fb
00
ff
ff
f9
f5
04
09
05
02
eb
fd
00
ce
e9
fa
00
06
fb
ff
fe
04
06
05
fa
04
ff
01
fc
ff
f7
01
f8
fc
0a
f7
f2
fc
0b
ff
03
ff
18
04
01
f8
fa
0f
01
fd
02
01
00
0c
f5
08
13
0f
04
06
0e
f5
01
05
fd
04
04
03
fd
01
00
0a
fe
f6
fa
fe
0b
ff
00
ff
15
f8
00
00
f3
fc
f6
fb
f9
01
01
06
03
fe
03
07
02
05
00
02
0a
01
07
ff
ff
e9
03
03
04
01
00
00
03
01
03
eb
15
04
02
f3
03
06
fd
02
0e
11
fb
0f
fb
06
f9
04
e9
00
fb
0b
fc
01
fa
0f
00
fd
ec
13
dc
ed
fe
fd
02
03
01
fe
07
02
04
81
0b
f8
fa
00
fd
fd
08
01
04
fa
0f
0c
f0
fe
04
fa
fd
f8
f5
fc
fd
01
05
f8
0c
0e
08
08
d3
02
02
0f
6c
05
f8
03
0d
f7
0f
f2
ff
06
1c
fa
f5
81
ee
c5
cf
fa
10
0c
f0
e9
03
fb
fe
03
11
09
fd
0d
2e
2e
f8
05
e8
f9
f8
fb
f2
f7
f2
ed
ff
ef
d6
12
0b
01
e4
05
0c
06
f0
00
00
f4
fb
02
ff
0b
0d
20
49
0e
fe
09
00
0b
05
fc
e4
30
0f
02
fd
18
fa
0e
05
f8
ec
05
00
07
fa
12
f5
f5
0b
14
01
f2
fb
0a
0d
1e
00
f2
f4
1a
f1
ea
e6
06
f7
c5
12
03
c1
fb
09
f4
07
28
fe
1f
05
f4
03
ec
4b
0f
f5
11
26
0e
ef
52
f1
0d
03
17
e9
0a
ff
f7
02
f4
d9
09
f5
f8
0a
d5
f5
fe
06
fc
f2
ff
05
07
05
e5
ff
08
f7
f7
ff
08
06
03
f4
11
15
0a
00
3a
13
f4
01
0e
fc
fe
fb
02
15
61
ee
14
06
f7
fd
de
05
0a
13
fa
00
f8
f2
02
03
fb
f7
0b
e9
fe
fe
fa
ff
e8
02
00
fc
fb
d1
f4
05
04
05
01
0e
eb
e0
21
01
e3
a6
0d
01
2c
1c
f7
f2
04
02
01
fb
ff
46
e2
22
eb
07
fe
f1
11
41
f2
01
20
ed
eb
ff
01
07
02
fe
fc
fb
06
02
a4
07
06
20
4f
05
10
00
07
07
fb
db
b3
00
1d
ef
0f
18
f1
03
0d
f8
06
09
04
17
f6
0d
20
01
11
e9
00
06
03
05
0b
ff
f5
f6
db
2e
f5
e3
13
0c
04
02
e6
05
f9
f8
fd
00
fe
f5
05
04
03
02
c7
fe
06
1f
ee
ef
3a
ea
f3
f0
12
08
fb
02
fb
01
e9
03
f7
d7
f8
c4
01
03
01
e1
07
1b
02
fe
f5
02
e7
f8
f4
05
02
b0
fc
f6
06
ca
22
fc
fe
08
f2
0a
02
d5
e7
0a
06
12
ed
00
1b
c4
0c
fd
04
05
fe
f8
01
09
ed
1a
36
14
f6
25
0b
09
fe
15
f8
07
f5
ff
c9
f9
f8
12
ec
fb
07
05
16
02
fc
cd
f3
09
eb
f9
02
01
08
fa
e1
0f
02
1f
f4
fa
a8
08
11
fc
03
fa
ff
04
01
00
12
4c
fe
fb
03
05
05
f4
fd
08
18
e2
12
f4
e7
0e
02
14
02
54
4b
00
c3
14
b9
05
06
f8
01
f8
fb
fb
f8
06
5d
7f
29
3f
eb
c8
2a
e0
f9
ed
f2
fb
07
f1
01
eb
f8
02
fc
f9
ec
fa
01
10
04
01
07
4b
05
0e
01
1b
f2
fe
05
de
03
0a
ff
fa
08
26
f5
f4
03
fe
f0
01
13
13
00
05
fd
01
3f
17
f1
c7
b5
06
36
f5
08
0a
f7
fe
0a
f9
ff
08
06
2b
09
f7
f2
09
0a
e6
0b
f2
f8
00
45
03
06
fa
be
0b
f9
b1
f5
ea
09
f7
f3
03
fb
00
01
e7
08
ed
02
fb
04
08
15
fc
01
fc
dd
fb
1c
fe
04
f1
0e
fc
08
0b
04
00
e1
fc
fe
dd
fe
24
08
03
e9
09
04
09
0a
f4
fe
0d
a4
fa
3c
fd
fa
f0
0a
f0
00
2e
f8
ed
f4
06
29
08
fe
03
11
07
fe
26
13
02
fa
39
06
02
01
05
03
00
ff
af
fa
4c
d4
0e
fa
24
f9
ff
f8
f9
03
03
f1
f9
b3
01
f7
08
de
f6
0c
0d
06
0c
fb
0a
f9
04
f7
f5
f5
09
07
f4
4a
07
07
fd
f6
02
28
0b
07
f8
f6
08
fd
fe
0a
f8
e8
b2
f1
0a
1a
09
04
01
fe
00
15
38
03
f0
d7
02
c0
08
0e
84
f8
fb
3a
fe
3a
1c
e8
ec
fc
f6
03
04
11
06
03
ef
ba
da
1f
09
2b
17
f4
41
fc
05
01
ee
ed
03
19
7f
07
f3
f1
1b
01
f1
12
11
f8
c0
0d
04
ff
00
f1
05
ee
ed
f1
03
eb
01
02
f8
0a
f1
0f
ff
39
0c
fc
07
16
ff
02
0a
e9
02
0a
f2
ff
fc
11
ec
f8
0d
ff
f9
02
f8
10
fe
03
24
f7
84
36
19
f5
2f
f4
04
06
04
e1
0a
0d
01
e1
0d
f4
2b
00
3b
07
fe
f6
05
06
15
fe
f5
fe
02
03
ee
ff
06
e1
05
f5
1f
fc
fe
ce
1a
07
f8
07
f9
00
0b
fb
f6
f4
01
0f
1a
ff
11
07
ff
b3
c2
ef
03
f5
00
00
fc
17
02
08
ef
fd
d0
01
0d
f8
d5
0e
03
f6
10
ef
e9
e6
1d
38
fb
05
0a
fc
f6
08
f4
0b
f7
05
f0
02
13
f5
0f
14
0e
0f
0b
f9
ee
f9
f4
07
07
fe
07
f6
08
d1
81
07
08
fd
00
00
22
00
08
0a
33
fb
fd
f8
ec
f0
00
0b
05
d1
09
f5
1e
00
00
19
fe
fe
02
06
12
09
09
fb
09
08
29
06
03
0b
0c
04
fe
ff
04
13
00
06
ff
f4
08
2b
db
fd
02
fe
fa
04
01
3d
ff
1b
14
0d
f7
fa
ff
f5
08
02
1f
cc
2f
fc
19
01
21
fb
1d
03
06
07
ec
f1
01
1b
3a
f9
00
0c
21
fe
00
01
01
ff
15
0b
f7
00
0a
08
f3
ba
1a
00
01
07
fd
f2
ed
ff
1c
ef
f3
0d
09
fc
0b
3c
f6
0f
11
00
03
e6
b3
16
0e
81
11
02
3e
00
18
fe
f7
06
fe
f4
58
ff
09
c3
ff
fe
1e
01
fd
f7
04
1b
08
fe
01
05
4d
e9
34
04
04
f3
e8
05
11
f9
02
05
06
c2
f1
02
f0
f8
09
3d
0a
fe
09
ef
f2
0a
0f
01
f3
f7
04
f0
04
f2
03
f0
04
05
09
0b
07
f6
fd
fe
f8
ff
12
f4
07
01
03
15
0f
66
f4
f2
19
f9
0a
02
01
03
fa
16
0e
da
e4
f2
e5
9d
fc
fb
d0
f2
ff
f4
21
1a
fa
f5
00
0a
0d
14
45
08
f4
e5
06
0e
14
0a
06
0e
11
fd
0d
02
f8
a1
13
10
09
fc
10
02
db
ff
fe
fe
d5
00
fd
f4
eb
04
ef
f0
f8
f5
0e
0b
05
02
03
95
0d
0a
03
fd
17
f5
0a
f0
fc
09
2f
05
0f
08
00
fd
fb
fb
00
fc
08
f5
fb
d2
0c
f9
02
09
d3
05
03
17
fa
02
2c
01
de
ff
f8
0d
f5
33
f2
ed
86
f1
11
00
18
cc
e0
f7
20
ec
de
10
01
f4
0b
fb
b6
fe
f2
f1
f5
f9
0c
fb
10
e6
2b
0d
e3
f5
05
ed
02
06
10
f4
f3
14
0d
ed
36
f8
fa
d2
f6
2d
10
21
06
20
ee
ef
07
4f
1d
04
fd
0a
0d
3e
26
0c
be
15
fe
ed
00
f0
0c
03
e4
10
3e
06
11
0a
b9
0f
14
03
05
34
f5
1e
00
26
dd
f9
cb
22
b0
fa
f9
38
0f
1d
17
09
ec
ec
eb
05
81
13
e3
02
15
1a
e9
fb
ee
ea
ec
09
ab
11
19
a4
fd
0c
df
f4
14
0b
cc
21
c9
ee
04
55
eb
12
1c
ef
0d
0f
f9
c7
20
11
0b
14
cd
2d
19
fe
1a
f5
f9
07
02
0c
09
e9
b4
cf
10
0a
15
36
1b
4f
f7
01
16
05
13
ed
e5
09
f1
f2
f8
39
09
0c
0a
71
10
32
24
43
07
fc
d7
f8
26
00
f8
ec
02
02
3a
fd
09
0b
e2
f7
09
08
07
11
e7
e9
d4
16
26
ee
e9
ea
d5
96
07
0f
09
f3
03
f7
0e
ed
fc
e4
fb
03
f2
01
03
04
0b
f0
26
06
de
1f
14
03
15
13
33
01
cd
e7
17
e3
1f
b2
e2
0e
ef
e8
0f
0e
fb
05
ce
f3
d6
14
d4
05
52
97
1a
fd
0c
10
a9
ea
0e
fa
f6
07
d0
fb
fa
eb
05
fa
e7
0e
fc
05
2f
1d
b9
10
15
e0
0c
e2
05
12
a3
1c
0e
d8
15
12
13
ee
eb
05
0c
01
18
1b
ef
f4
03
0e
06
ee
31
0e
13
ef
c0
d1
e1
bc
08
e0
00
f9
04
05
33
02
05
11
00
eb
ef
fd
fc
f8
0d
ec
e7
07
e9
fe
04
e4
f8
81
19
01
e7
14
f4
f7
e2
0a
f6
12
00
f6
e4
f6
e7
f6
f3
06
f1
d2
12
ff
24
0d
17
17
bc
40
22
3e
f6
00
f6
18
18
27
0e
07
f5
0d
fe
dd
fb
46
17
ff
f8
01
04
00
02
17
fd
1c
f4
dd
0b
32
f3
a6
8d
0f
e2
c4
0f
09
30
25
14
84
fc
12
08
11
03
01
fb
f5
f9
19
15
0d
03
e5
fd
17
01
cb
05
0e
e6
fd
01
f3
e8
07
0b
96
1a
fb
05
e6
0e
f4
08
f5
11
b6
f9
f6
00
ed
2f
16
02
09
0f
e6
e8
f8
da
12
08
ed
05
00
fd
eb
fd
f6
e0
0f
00
06
2c
18
f8
44
04
ff
f9
e2
00
20
cf
dd
f5
0a
c1
04
fe
09
05
0e
0b
17
ea
f1
f5
0e
02
d7
08
13
08
0a
fd
0e
00
13
26
e7
a0
14
09
10
ce
02
db
04
28
fe
fa
25
02
ee
da
ed
2f
18
f4
f9
12
1b
10
f6
1a
06
07
f3
d6
03
fc
a2
e4
01
06
04
11
f3
00
0c
11
07
0e
e2
08
ff
f7
bb
0f
0d
47
0b
13
e5
ee
fe
e9
0f
f5
03
fc
fe
0a
0d
a7
01
e0
f3
20
02
1b
f5
fc
f8
fc
0a
fd
00
ff
67
1c
ea
0c
05
1f
f8
f7
0a
06
03
ef
f7
f6
16
e4
10
e7
ef
ed
d9
08
11
77
d9
f4
29
f0
fd
03
03
fc
f5
01
0c
e8
df
07
f5
e0
fa
d6
f1
03
0c
ef
08
13
f8
0a
00
11
f4
06
ee
08
f9
21
17
0c
0d
c6
fd
08
06
08
30
15
02
18
e1
03
08
0a
fe
0a
31
1a
08
05
01
06
0f
f6
0e
e6
ef
f8
f3
f9
04
01
22
0b
05
06
03
fd
01
f4
f3
45
0c
ff
e0
f9
eb
f7
02
04
08
1b
d0
01
fa
f8
ff
f8
09
d8
f4
09
12
7f
f9
09
d2
0b
04
f8
fb
db
03
09
f8
f4
2f
2a
07
fb
0d
fb
09
0c
ee
00
1c
23
ee
0c
da
0d
fa
12
fd
f3
f3
0d
28
fa
4a
f0
26
14
f5
ee
14
fc
da
ea
19
fd
c8
01
0f
0f
d5
ee
0f
15
f6
03
f8
04
f9
02
f9
13
f2
ef
e2
db
f8
0a
11
1f
02
26
0e
e3
08
0e
e7
22
24
0a
f2
fb
05
04
f2
df
05
08
f7
00
4b
03
12
01
1f
f3
f3
13
f4
04
0e
e3
01
f9
cf
03
f1
2c
f0
06
f0
fd
01
fb
fc
f8
fe
cb
f6
06
fa
48
fa
f8
03
f5
2b
05
10
fa
3b
09
e0
3e
fa
36
f4
f6
06
fe
11
00
fb
f7
fb
e4
04
dd
ff
fc
11
fa
fd
0f
e9
f9
32
1a
04
dc
db
fa
0c
fa
04
eb
ef
0d
02
fe
0d
15
f9
fc
2c
ec
f9
09
03
fc
12
fb
d0
ff
b0
f7
f7
39
fd
fb
07
93
fd
f9
01
0c
03
fb
fa
12
29
03
f7
ca
1e
10
18
f1
0a
03
ea
f6
f5
fc
11
0b
f8
2c
fa
f5
03
07
16
01
08
fb
fe
ff
f0
fc
8a
ea
13
fc
f0
01
fe
7f
fa
fd
0c
2c
e7
02
f7
f4
07
eb
08
eb
76
0e
fc
04
01
0a
05
00
09
04
f6
18
03
05
ef
13
fe
d1
16
fd
f8
06
fc
08
02
fc
e1
81
fd
00
f4
0e
ee
0e
ff
e2
00
fc
a3
18
fa
e1
d3
0c
ed
f2
0c
02
11
f4
ad
3c
6e
ed
08
07
d7
16
ff
be
fe
f2
ea
08
03
f8
cf
dd
e7
fc
f9
2e
fd
0e
f7
03
ee
0f
08
de
03
fc
f0
03
f6
08
f9
fb
00
09
fd
21
f9
f6
b8
f9
04
f0
05
12
00
e5
d3
22
fa
81
0d
0b
09
16
fa
f2
e9
14
ea
db
02
01
e2
e8
fc
00
10
02
f9
20
ed
0c
0e
16
02
02
00
0b
f8
fd
11
0c
ea
05
25
fb
12
01
12
c0
3d
00
09
02
0d
c5
1a
f9
0a
0f
07
2d
ed
05
fc
16
10
fd
08
fd
1b
fa
0c
0d
f2
f3
d9
e9
1f
09
13
15
df
fe
00
13
bc
07
e5
17
32
03
04
26
07
06
10
01
aa
19
04
11
fb
f0
2a
14
06
f2
05
02
0e
f0
0b
06
15
ff
0c
08
07
14
fd
02
dc
19
02
03
27
07
0d
07
21
0b
01
ef
2c
21
48
fc
eb
fb
08
f9
19
11
df
37
de
fa
11
b7
1a
04
06
b5
fa
ff
ec
da
ff
0f
03
10
11
ef
d9
fa
f7
fb
0c
22
22
06
1e
22
fa
eb
02
04
22
07
0d
17
08
11
f4
08
10
00
f2
0e
e3
e8
0c
1f
f2
02
02
06
fc
f7
0e
fc
12
0e
03
fd
00
15
0a
fb
fc
08
02
0c
04
fe
e9
0b
ef
09
01
08
16
15
14
ea
fc
00
fe
ec
f1
fb
1c
f3
00
17
f3
1b
34
1f
aa
d7
00
16
f9
ff
e0
f9
16
28
f7
1a
06
05
01
fa
33
05
f7
0f
e7
ff
03
ff
19
11
f8
ec
cf
03
b5
18
04
32
03
0f
09
f8
00
0d
04
57
f9
23
e2
05
fb
34
ff
fe
f9
00
d5
f0
0d
02
1f
7f
f6
f1
fc
0f
fc
f5
00
08
03
ea
ff
fc
fe
f3
05
fc
f2
f7
8f
ff
00
5a
e2
f3
16
f2
fe
f2
b2
fc
fa
05
f8
00
e6
01
fa
ea
f9
cb
0c
fb
1e
14
07
0d
f3
01
fb
04
f7
fc
bd
fb
ff
41
09
fa
fd
db
05
fd
06
fc
0e
fa
fb
00
22
03
04
01
04
fd
24
ef
f8
f9
04
03
03
04
04
3e
14
06
f4
0a
fa
db
18
fc
fc
15
fd
0b
02
fe
18
fb
fe
0d
d6
fd
05
cd
ff
02
19
0a
dc
00
f3
00
07
0f
1e
f8
e9
17
00
50
ef
02
c2
07
fe
f2
f5
0a
01
09
0c
fa
c4
0d
f0
00
1a
09
00
fe
01
f8
2e
2e
04
f9
d4
0c
ea
1d
06
e9
0a
0a
1b
00
f4
28
2c
cc
f7
f2
03
0a
40
07
ec
15
07
f4
39
29
36
f2
0c
e5
fa
ff
01
04
f6
0c
ee
1c
f6
f9
ff
33
fb
00
05
1a
f7
63
03
17
01
12
f6
ef
d6
01
fb
01
08
fd
ef
16
fd
d3
08
00
1e
08
06
ff
c1
fd
f6
09
d3
13
f4
4a
ae
07
be
f9
06
19
08
fd
fd
f4
00
fc
0f
ac
05
67
f2
ef
06
d4
ff
05
07
04
11
f7
f5
f8
39
06
fc
da
fa
11
04
ff
f7
02
fc
f6
01
f7
e0
f6
f3
0c
f1
eb
43
fc
08
f1
e7
f2
bd
ff
07
ef
16
05
09
fd
02
f9
e8
02
ff
f7
fd
2b
f4
f9
8d
cb
08
0b
fb
03
f7
0e
ec
f9
33
09
fe
cf
0c
ef
03
d3
fb
f7
08
fa
13
0a
f6
ce
fc
02
fe
c6
fe
03
fa
ec
04
ff
07
00
03
ff
fe
6e
cc
be
27
15
ef
ee
f6
f6
ed
08
06
03
00
fc
81
15
f9
05
e6
02
ff
4e
03
0d
ef
0c
e4
02
03
00
fa
0a
06
fb
d3
12
fc
f2
fb
03
24
06
08
f0
01
e8
03
f0
02
00
37
0f
f6
00
13
02
0c
ec
f7
07
10
6e
09
f6
dc
ff
27
0a
0d
f9
df
00
ff
c7
ed
16
33
f1
00
fc
fc
15
f7
05
b0
16
6d
0f
04
23
1c
dd
01
c4
00
fe
01
03
01
ff
c1
18
0d
f3
fb
f7
f8
04
fb
11
f7
f2
fa
07
01
06
f2
fd
02
f5
fe
11
11
f6
03
fd
ff
ff
fb
f9
38
06
01
06
27
f3
10
07
f8
f6
05
b5
fc
02
f2
0f
fd
f8
ff
06
ff
f6
06
04
fb
0d
02
81
23
0f
f9
f9
ff
fc
fa
fe
0c
f2
f2
ff
2e
f8
f3
2c
fa
f4
fc
f9
ff
0f
05
f2
03
06
09
f2
0f
e3
0b
02
f6
0c
f9
1b
e8
fc
07
19
03
12
15
fe
e9
f6
01
07
ef
03
17
28
01
39
f1
ff
e1
ef
f7
03
fd
fd
fd
f1
dd
14
18
f9
08
f0
05
0d
fd
a1
00
ff
0d
18
da
02
fb
08
28
f7
01
c7
fe
f7
05
0a
28
ee
fa
02
11
f6
1b
eb
ea
eb
31
fd
08
18
13
f2
12
f7
fb
11
05
fa
0b
0c
0b
02
f6
fe
01
32
09
02
03
08
f1
f9
04
e3
fc
e4
f1
ed
e0
fe
0e
17
09
07
19
f5
06
08
07
0c
fa
10
01
f9
21
f7
fd
06
f7
f4
03
f7
ff
fa
ed
2b
f7
04
df
00
37
fe
ff
ef
a4
f5
e3
e3
fe
2f
cf
95
06
fc
16
09
01
f4
ee
0e
0e
33
15
e3
cd
d5
f4
05
f7
fe
0e
06
02
fe
18
0d
ff
fb
ff
f8
ff
09
09
01
ff
fd
0c
db
fb
f5
ef
fa
f3
e1
fd
f3
01
04
fd
1a
f1
0d
d0
f8
07
38
1b
20
0c
01
fa
07
f4
e6
08
fc
19
20
01
1c
e9
14
fc
f4
ef
e2
e6
01
f4
01
0e
01
f6
07
e0
06
fa
02
05
24
04
02
fc
cc
09
fb
d8
f7
0e
f1
d8
f7
46
e1
35
e5
0e
f3
fb
b3
17
16
08
fd
04
32
f2
16
f5
0d
ff
f7
19
00
0c
fd
e3
ec
ec
f9
c7
ed
2b
03
33
11
db
e2
ff
fa
14
1a
ee
29
09
f4
01
36
09
fb
24
03
c2
26
08
12
10
fe
23
0e
05
f8
eb
0a
fd
08
17
01
21
02
0d
01
39
04
f6
fc
fc
0d
16
f8
0a
f2
10
ca
1b
0f
2d
fa
31
09
1c
fe
06
df
07
df
1c
00
e3
08
f0
13
0c
ae
f2
02
fd
c2
f8
f1
fb
f2
ec
d6
00
2d
0a
13
c3
f5
05
02
0f
21
13
26
81
33
fd
ff
0f
05
32
0a
fb
11
00
12
ef
0a
f0
f6
fd
29
fc
10
ff
1d
d8
06
f6
f5
0e
04
08
f6
0a
fa
fd
cf
40
42
00
bb
07
04
03
ff
ff
fc
f1
0a
0a
f5
09
04
26
f3
f2
f4
02
0c
f5
e1
d9
08
e5
13
01
0c
eb
0d
32
d1
8c
22
ee
0e
ff
04
ec
d9
01
2b
fb
0b
11
dd
fa
1d
0c
f5
f5
27
02
f2
09
10
ed
23
ba
e4
1f
17
f5
bc
f5
f0
0c
0d
fb
00
ff
06
09
f5
ed
1b
fd
f1
f3
fb
ec
1f
34
02
e3
ff
05
f4
fe
01
f2
f3
fa
0c
0c
d2
e6
0c
18
7f
f5
e2
f9
0b
0f
cb
dc
c6
0e
e5
24
fe
0a
f6
fb
03
19
ef
24
fe
05
f5
12
0a
0f
c4
dc
e4
e4
d6
03
f8
f4
eb
eb
02
10
ff
e1
13
00
d8
e7
11
c1
03
e0
ef
e4
01
e6
07
f0
f4
03
f0
0c
ff
0e
25
07
ea
da
f7
d9
03
6a
d2
47
e1
04
14
98
e8
0b
e8
ef
f9
00
e0
d9
0c
f2
e1
29
f0
00
e7
0d
29
e2
ef
09
e1
34
24
0b
fd
d4
00
f9
ef
09
60
f9
f5
0e
f2
0e
09
d8
f2
e8
18
f3
0c
01
d7
ff
ff
17
f1
14
14
e5
f7
1e
e8
04
00
05
f7
19
00
0e
fc
fb
f3
1a
fe
fe
f8
2f
18
f3
f7
17
28
ff
fe
eb
eb
10
08
e5
f1
0a
fc
0e
ef
e9
e1
fc
eb
05
e6
26
03
f6
09
d3
7c
f2
fb
1c
fc
e5
fc
03
0d
49
01
e2
63
14
03
b3
f6
0d
fc
3d
fb
17
31
16
01
20
f2
