ff
f6
00
08
1a
08
09
00
00
f5
06
0f
fe
e4
ff
0a
21
f6
e9
f4
ec
ef
f8
f8
0d
01
09
fc
10
ff
05
ec
fd
0d
07
f3
52
0b
05
7f
09
03
c1
da
19
db
e2
f2
e6
f5
e1
e7
e5
f0
ef
16
06
0f
0e
ff
1a
0a
10
f9
00
1b
e9
f0
0d
00
0b
ef
f6
18
ef
f5
02
ef
1e
0f
0d
e7
02
f8
e2
02
e8
12
fe
08
eb
f9
f9
f4
e9
e7
e1
f3
05
e0
ed
02
ea
0d
15
0b
fa
07
10
fa
f6
de
10
18
f5
0b
ef
0f
10
f7
01
11
04
f8
ec
f8
f9
00
f9
ef
fb
fc
07
fd
05
eb
fb
05
e2
d3
01
ff
fc
03
0c
f9
09
15
dd
e1
0f
04
06
fa
f1
01
23
2f
0c
e2
f3
08
9c
fe
02
96
2e
11
35
05
f3
03
ea
10
14
21
11
d7
f5
0b
ef
16
fa
f8
10
dd
f5
11
f4
38
f2
f5
51
13
0c
cf
fc
13
13
07
f6
fa
0a
0b
08
f8
07
04
f8
ee
fa
fa
06
fa
f0
fa
49
02
0b
35
24
02
d6
fb
01
f4
fb
fe
1c
06
f4
07
1c
e7
13
d1
ef
11
bc
fa
00
f6
e7
1a
0a
00
1d
fe
00
e3
14
08
f1
1f
00
12
03
13
09
08
f6
f6
24
f6
0e
0d
fc
fe
04
09
db
fd
12
10
ed
fe
17
01
0f
f7
05
fe
d5
1d
11
2f
fb
0e
17
00
0c
23
e6
05
07
e0
f9
0c
07
02
01
19
14
fc
f0
16
0d
f2
fc
03
17
03
e8
0a
1b
29
f9
ff
d7
d8
f9
0d
11
fd
ee
04
0c
04
fc
f6
f4
fe
f3
0e
db
f2
1a
f7
12
0d
f7
fb
e8
17
05
ee
02
04
01
08
f3
f0
ec
01
f1
ec
ee
0e
f1
06
f1
0f
fc
38
1a
0a
d8
c9
f9
fd
0f
0a
fb
21
0f
f3
e0
f2
08
1e
fd
dd
09
06
f1
f4
fe
de
f0
fb
da
06
05
0f
16
02
e8
f9
01
10
fe
14
0f
16
08
d0
fe
1b
a6
1f
0c
0c
11
0e
ee
d4
0d
31
fd
f7
ec
03
06
12
f2
fd
fe
15
fc
ee
09
09
1c
ed
e4
23
da
e2
0f
f6
f0
f6
f3
fc
f1
f8
ee
02
fe
ea
01
fe
fe
06
06
e7
1b
0e
ee
f7
10
06
fc
d6
e5
fb
00
05
0a
19
f4
f8
da
fb
22
00
f8
f2
fb
f4
0e
0a
0c
16
0a
17
f8
02
00
ec
07
18
00
13
f3
02
f4
f1
17
0e
15
ff
00
fc
f8
20
f4
ee
17
0e
06
07
07
f0
02
03
f8
f9
0e
f1
ec
fe
09
f2
05
fd
d0
ec
0b
24
f8
c7
12
f6
fc
26
f6
ed
15
12
10
00
f3
2d
d1
cc
ff
fc
f2
fe
0a
f8
e8
01
1d
0c
ee
07
f6
ff
11
09
ed
02
e4
f5
0c
18
c9
04
08
9f
07
e3
f4
08
13
18
62
05
e2
14
02
15
13
1a
3b
d8
0a
15
28
d3
07
19
e0
be
d9
f2
1b
fe
14
ee
2d
d4
eb
05
e5
fd
e7
05
04
0b
05
3f
32
0d
dd
16
ea
ea
08
d8
fd
f5
b5
b0
d9
1d
d9
e9
d6
f5
24
2c
01
dc
17
eb
08
ed
11
21
20
13
e0
1c
fe
f6
17
ef
18
13
d5
db
ff
1a
ff
f4
df
dc
1a
3b
fd
cd
ee
23
10
25
0f
d6
f3
dc
e1
d7
e9
d4
e3
bb
cf
03
ef
d9
da
0e
25
fe
dd
07
f4
f9
07
f8
1a
0f
27
0f
b9
db
f6
f2
cf
d1
0b
f6
ed
d6
09
2a
e7
0b
0f
05
0c
fc
fa
c7
18
1c
c5
19
4a
3e
ec
34
24
c9
f7
ef
ea
14
3d
2c
02
18
f2
de
eb
e1
ea
02
16
36
f1
a7
29
0f
df
fe
f1
fc
0a
1d
f6
10
13
02
15
15
10
03
d8
f9
ff
1b
b4
05
f3
f0
f9
dd
f9
dd
f7
fd
f9
11
f7
15
18
f5
17
fa
28
ef
df
13
f1
f1
fc
29
59
00
fb
08
dc
d3
d3
f9
ec
df
17
02
f9
01
f2
e5
05
09
19
1d
17
1a
dd
19
f9
ea
e8
de
f1
ee
dc
0c
f1
ff
cf
ed
fa
fa
1a
e5
cc
f7
2b
03
e8
fb
04
35
9d
04
33
2e
d6
00
02
0f
d9
01
2d
ff
f3
19
d3
f2
1e
21
3b
18
ed
fd
7f
0a
f8
eb
39
07
c8
f8
37
0b
06
05
05
ca
03
61
16
dd
f8
0d
e6
ec
eb
ee
ca
ef
02
33
11
03
ea
1f
e5
ff
f0
f8
eb
ec
f7
e3
2b
ff
2f
ea
c0
e8
15
f2
d8
12
14
31
e7
ca
da
10
11
f4
ea
ed
34
e3
f7
1d
fd
e0
0a
fe
db
c9
1e
6b
fb
3f
4e
f2
1e
1f
e5
1e
24
05
2c
fd
e6
16
3f
55
ec
da
0f
d4
e0
d6
04
ef
23
1c
42
10
f2
cd
00
c1
d2
21
27
e3
fa
1c
4c
f6
2e
19
f4
f4
43
2c
ee
11
37
f8
1b
de
f9
f4
14
25
ec
e2
29
35
fe
f9
03
f2
cb
06
06
12
15
01
e7
1f
11
f3
04
fc
1e
00
06
d5
df
fa
fa
f6
fc
db
ef
ec
fe
5d
d4
07
03
e0
fc
16
07
15
08
47
15
0c
23
e5
c5
03
11
f2
22
36
01
12
f5
ea
2a
ff
14
f5
04
4b
c2
18
cd
c4
19
e4
e2
df
07
f3
e9
d5
24
10
e0
e3
1f
ff
1a
17
04
e1
d7
fa
29
f4
1a
16
d0
f6
fa
35
18
e1
00
ec
ee
e9
fa
02
f9
d3
1e
fd
01
15
ed
04
f7
05
f4
fa
07
11
d8
ef
da
04
e2
1e
00
fc
28
0e
16
00
0b
fc
19
ef
d3
f1
fb
0d
e6
f7
db
e2
18
37
f8
fa
f5
0c
1f
ea
d2
0b
eb
f6
f7
09
25
09
e8
20
ed
f1
15
e3
f7
e9
21
23
f4
65
21
3c
16
fb
1c
d7
f7
4b
f2
04
11
f2
09
ff
fa
f1
07
e5
f5
09
ec
0f
1a
ff
fe
16
1f
ec
d8
d0
07
19
3d
1e
c9
0b
00
fe
e1
1c
fc
da
fc
a9
ac
0e
e7
11
f8
f1
e2
ea
01
e7
e4
0d
27
0f
12
00
0d
ea
3a
f7
d7
32
ec
05
04
08
57
ef
f9
0f
f5
1f
1c
3a
13
3b
68
1f
27
21
07
f9
e4
0e
cb
eb
02
02
21
0e
e1
e1
0b
ec
fe
f9
eb
d9
fd
f2
e8
d7
ec
12
d2
14
01
fc
d9
26
3c
e7
0f
11
ff
19
03
ef
d0
de
b5
fd
fb
fb
16
28
d6
03
14
c8
1d
08
d6
0d
fe
c5
eb
e8
cb
d8
f9
11
06
fa
49
15
e8
b8
30
0f
b8
18
0c
d6
e2
20
fe
d1
ff
ff
ff
22
1f
ec
00
f1
2a
10
ed
bc
e5
ef
05
e9
00
00
06
16
2e
11
f8
00
0b
b0
0d
fb
af
0c
f9
d1
00
02
0c
f9
1c
10
fb
0e
18
0a
00
0a
fb
04
e5
22
00
22
fe
03
e8
28
15
08
20
01
f2
e0
0c
15
1d
fa
2c
1d
f1
25
02
07
1f
f4
05
25
0b
f5
e7
3c
02
ec
4a
2e
28
28
04
d4
f3
18
fa
be
0c
f2
d5
05
d4
19
04
1b
da
ff
22
fa
e8
0c
ed
ce
43
14
e5
0c
14
f7
fe
06
02
ef
07
de
10
d3
ec
46
1e
03
1d
f4
f5
f8
0e
0b
f3
c8
24
e3
c1
3b
ff
f7
0b
06
d5
12
f6
de
d3
1f
28
f2
18
01
10
08
ec
01
16
fc
18
ef
1d
3e
cd
02
23
c3
17
e6
d3
16
ef
f5
27
e8
1d
24
12
fc
fa
0f
ed
15
03
d5
1b
fb
0b
08
f8
f5
f2
e8
fb
16
d9
dc
be
a2
ac
d2
f7
d9
c8
e7
f9
3b
14
f6
29
03
26
e3
ed
e0
65
1a
e9
0a
04
d5
11
f1
d2
dd
db
f4
fa
e4
e9
dc
09
ee
fd
16
f8
dd
20
ee
e0
18
03
f9
12
0d
15
ea
e7
20
fe
fb
d7
05
fb
10
0c
43
33
f9
56
21
21
1b
2c
e1
f3
16
db
d2
1f
cd
dd
11
e9
16
f7
09
1c
04
f4
f0
1f
fc
ea
f1
f4
e2
fb
f5
e9
02
1f
1f
0a
f5
d0
f9
ff
e9
02
f1
f7
f5
ec
e1
30
f3
da
4f
02
14
22
12
2d
1c
f1
4b
15
d8
33
0d
2a
00
d6
f4
17
ba
fd
09
bd
1f
ef
09
03
d4
e7
0c
d2
02
17
e8
09
d9
e7
06
e4
fd
1f
00
f5
da
01
e5
f4
39
e2
1b
00
32
f9
e8
33
1a
07
f8
f1
e5
f8
10
c5
34
f0
05
07
e7
ec
fb
3f
03
00
eb
1a
ff
e5
18
d0
e5
29
eb
81
0f
ea
b2
0e
21
13
04
04
11
01
05
f2
10
f2
00
28
0b
ca
fc
1b
0f
c5
cd
16
e7
e1
f6
13
cb
03
21
f3
f0
0f
39
27
10
20
e6
27
0c
eb
e7
47
44
12
00
2a
da
ed
c6
e8
fc
f3
fc
3c
fe
ee
1c
1a
2d
77
db
13
f5
10
02
d8
e3
e0
d9
a7
bd
e0
fc
e5
e4
f7
01
15
ff
3a
fc
32
ef
cd
fb
ed
d5
f8
03
fa
05
fc
b9
ff
fe
a0
ec
e4
c2
e7
ee
fa
ec
14
1c
10
de
e6
e7
0b
f3
38
1e
f0
f6
14
73
eb
04
fb
1a
17
0d
04
08
ec
1a
f4
a6
13
f9
e6
f8
42
2e
1b
de
e2
02
ea
9c
da
01
10
07
c7
ad
ac
d5
e2
d3
0b
12
02
f4
fc
fb
c8
07
e4
08
29
01
03
0c
07
fd
10
f6
1e
00
0a
42
0f
21
17
98
ea
d1
c5
ec
e4
12
e6
18
08
14
e7
02
f7
30
05
2d
f5
07
fd
da
e7
e6
2e
09
26
01
c8
c5
f2
92
a8
12
07
10
fc
09
12
31
1c
1f
f8
82
f9
0b
e3
16
e5
da
f4
f9
f9
dc
d6
dd
c6
01
56
1a
e6
c4
04
e6
f4
f1
f6
fc
2a
14
f7
02
e9
e8
d7
17
32
39
fa
f4
18
0b
00
26
00
09
11
f4
ce
fd
ee
b7
f8
22
f4
1e
03
f8
18
0a
ff
20
ed
1c
0a
de
d2
ee
fc
12
1f
fa
e7
05
f0
8b
fe
14
43
fc
e5
35
f1
cf
de
fc
a3
d6
db
fa
f8
b2
0c
f7
fb
f3
31
12
fe
02
f4
1e
26
3b
00
1d
f3
f7
13
e6
e0
0d
e7
ea
ea
30
17
fd
05
f0
04
03
1e
0a
08
11
ff
e6
f9
32
dc
14
1b
c9
f7
17
ed
35
49
40
ed
9e
f3
fc
cb
05
fd
e5
03
f3
e0
f8
f7
07
f7
fb
b1
ec
ef
07
d0
2b
f6
cf
fa
ed
f1
05
23
fe
e1
fe
d0
0c
1a
0a
0c
01
05
f2
d2
af
0e
43
ff
1a
0f
0f
d0
df
e8
08
f8
cf
e9
a2
ff
f7
16
04
34
fb
ef
24
f7
15
06
fb
fc
12
e5
11
f6
e0
04
ed
d1
06
0e
bd
04
05
11
fc
12
f9
f3
26
0b
07
ff
11
26
02
ec
15
04
fd
fa
03
20
13
19
12
e0
15
01
37
08
9e
0a
f3
c4
d2
28
f2
fd
0d
f4
18
d7
6a
0e
16
d8
d6
f1
fa
ef
00
de
10
20
47
1c
ff
c6
f4
f4
b1
0f
05
03
eb
f3
2e
02
fc
4a
07
18
1d
05
0e
02
d3
dc
e3
23
18
dd
fa
08
f8
e3
d6
f8
04
06
ca
13
ef
ec
ea
10
fe
03
e3
e5
ec
06
f0
05
e7
05
01
e8
ec
06
0d
37
3a
f0
f9
19
f8
f3
0f
12
53
1b
f9
d7
05
db
e3
dc
b1
81
aa
07
94
f4
01
2b
10
dc
12
19
e9
2b
f7
03
15
f8
f4
13
f9
c7
b4
cf
26
04
01
31
2b
0c
f0
fd
eb
10
f6
16
6a
1a
16
25
5c
f0
1f
fd
1f
1b
60
f0
e4
04
44
14
03
fd
f8
00
04
fb
3c
18
17
09
05
20
dd
00
0d
1b
d4
0b
0c
f7
e3
f4
08
1c
04
1d
fd
b7
fc
b8
a9
d0
fe
c7
e9
e5
18
0c
f0
c5
e2
12
34
10
01
f7
01
c5
fc
4c
02
fb
fc
f6
ee
fa
35
dd
b7
d7
13
31
1a
06
0f
19
18
20
db
e4
ec
de
06
1b
af
e6
0f
d7
ac
e9
1c
c2
ef
27
04
43
d1
1d
c3
1c
27
df
dd
f4
1f
fa
ce
f6
f0
2b
ec
f1
ca
f0
29
ed
01
05
e2
f7
10
fd
f0
08
f2
fe
12
e1
d1
1e
c5
db
17
00
f7
13
f2
f2
77
01
da
29
dd
fb
11
19
f7
e4
6d
56
07
b7
d7
f1
24
01
fe
11
e0
17
09
ec
fc
08
22
a3
fd
51
21
d6
e6
05
1b
1b
43
eb
f8
1a
2f
db
ea
fc
ea
d4
08
d6
e6
f0
fe
10
d8
fb
0d
39
e4
e5
02
0d
fe
01
03
3f
ec
e6
fa
f9
f2
00
1d
06
fb
04
14
2f
00
04
06
07
f8
ee
f3
17
eb
0c
1d
ff
0f
f5
f3
fb
f7
ce
af
e8
ef
16
f2
fe
0d
f2
d1
de
e4
25
b5
3c
01
12
eb
07
14
24
f5
15
0d
70
26
ec
d4
fb
04
d8
d0
f5
db
0e
0b
e3
01
05
0a
01
f7
43
d9
28
26
69
18
fa
06
fa
ee
01
cb
e9
e2
05
d3
18
22
8e
fe
2c
03
df
12
d3
e1
d5
de
13
0b
0c
f1
69
08
38
f0
22
e1
dc
ce
05
0a
18
1b
4d
de
fc
ee
fd
a9
a1
ef
11
fa
fc
ff
bb
1a
1b
e2
f0
02
02
d7
b6
07
33
2b
e6
2a
f3
f3
03
9f
df
ea
ca
11
df
03
ca
02
02
fa
0a
e2
fa
ef
31
f4
c6
ef
2b
0d
e8
e3
f2
40
d4
da
ce
18
05
d5
13
c3
0e
1f
fd
dc
f8
5d
fe
02
12
f1
08
f2
31
f1
19
41
28
23
d3
0e
17
de
ee
09
07
fa
35
2f
fa
a6
e5
fd
f3
a0
0b
27
13
12
bf
fb
10
3f
da
38
ed
41
ed
ca
fc
dc
f0
d3
1a
fc
cf
ff
e8
d5
d0
0b
2b
f3
ed
2c
00
35
03
fe
23
1e
04
f0
11
eb
c2
cd
dd
f0
c4
f8
00
17
ef
19
f4
15
4a
f7
e9
e6
26
11
e8
32
15
bf
fc
0e
de
e4
3b
07
f1
4b
2d
2a
e1
ff
da
d7
f1
2b
2d
d9
33
f5
cf
0f
24
eb
e1
0f
f6
28
22
f8
d6
11
e6
02
3f
c5
11
2e
e8
df
e4
d2
f6
c1
0d
f8
e1
16
cf
f1
07
00
12
e7
44
0f
1c
13
f6
49
35
c5
06
0f
f3
a6
22
25
25
90
3d
7f
0e
c6
f4
f1
16
f3
03
06
30
ed
22
fa
29
ff
0c
fa
ef
10
bf
06
04
02
06
09
23
e7
10
fa
bd
f7
02
f7
03
04
fc
15
15
03
f9
1b
f6
de
1f
eb
d4
06
04
03
08
fc
01
32
f6
cf
81
c0
0a
10
f8
f4
fb
ff
f1
ed
e2
0b
fb
f7
0c
ec
1b
ec
f7
1a
f3
0a
f1
fc
ff
e9
09
21
00
dc
e7
c9
f0
dc
f1
fe
07
eb
ea
e3
f1
ff
d3
ec
02
f1
f8
04
fc
f7
e1
f2
06
0b
08
0a
fd
13
f1
0a
11
09
10
01
fc
e6
fb
ff
f8
f9
18
0f
00
11
14
e0
0d
fc
0a
04
f8
37
00
00
f1
03
0e
27
14
e4
d9
e2
0b
fe
19
2a
24
40
02
dd
f5
02
1b
09
ea
d7
f4
f9
3b
12
0a
09
21
08
d1
0a
e7
fa
f0
de
0f
04
18
f5
17
17
f7
e2
10
f8
00
16
14
06
11
fe
0f
f7
fc
f5
04
fa
0a
25
f9
1d
ff
eb
f7
0d
14
12
03
e1
0b
ee
e9
f5
0f
0e
e4
04
1a
f9
02
10
f8
ff
d0
02
11
fb
19
00
ed
fa
ff
32
09
00
10
06
fa
05
0c
0a
e3
02
f5
dd
1b
e9
d3
e6
0c
eb
06
27
41
25
fd
fe
f8
05
1f
04
d9
e4
1b
06
e1
0b
fc
b1
08
09
19
21
fb
06
1a
0a
12
f0
f8
07
f0
08
ee
03
e8
a2
eb
0b
12
24
e4
f6
ea
f1
33
f5
e6
08
00
e7
01
11
0d
ee
0e
04
19
e2
ff
fb
fe
fb
19
02
d6
c6
fd
fc
fe
0e
0c
e6
0e
f6
ce
f4
fb
0d
1a
1b
16
d1
e5
0b
19
05
15
0c
f1
08
f6
0a
f3
f2
e8
05
14
f9
0e
32
06
f8
d0
05
29
06
0d
0c
17
fc
27
fc
f8
20
f2
04
b1
fb
01
ae
08
0e
03
f7
16
05
f7
21
e7
f6
f0
02
f3
06
01
e8
01
fd
01
10
ea
e3
23
29
e7
0a
04
da
0a
29
fe
06
07
ff
f8
ea
fa
04
f2
fd
16
27
09
e5
e7
e1
03
0a
fa
14
1b
06
04
f5
e7
f8
04
0c
e3
de
e3
c7
b9
bf
e7
02
06
ed
f4
f8
3a
20
f9
0d
07
eb
14
e5
eb
10
09
1f
12
0b
10
09
f5
e4
0f
e8
f9
01
15
e8
14
e9
19
ee
f1
27
ef
11
f5
0d
0c
04
ed
24
09
02
06
06
ed
1f
21
bd
fe
20
0c
df
ff
16
e2
0c
17
0f
19
02
e7
0d
11
01
14
04
22
17
ee
fb
12
ed
f2
2a
f3
07
20
f9
f1
ef
12
0b
fc
e1
1a
1c
05
f9
07
e4
0b
e8
0c
1d
fd
02
f8
fd
e7
bc
ee
0f
27
09
ef
04
02
f7
13
0a
fd
ee
12
01
0b
00
f9
21
fb
4c
12
06
1e
d5
15
0e
f5
0d
13
0e
13
13
09
f7
2d
22
10
dd
ea
f6
f5
f8
fc
fa
0e
ff
11
dc
1d
17
1f
1c
1e
e5
0b
d8
de
ed
0c
0d
06
d3
13
3e
fc
f8
3e
f6
f9
df
12
e1
fd
e4
17
0f
09
05
07
3a
06
de
ff
16
00
04
f1
1d
1c
fb
05
01
ce
ee
0d
09
0d
d8
f7
4c
fc
f3
fb
e7
0c
eb
34
ed
cb
1f
d4
fa
02
1d
f1
0a
03
12
0f
0c
0b
28
08
1c
c1
c8
d7
fd
fa
fe
05
f6
0d
d3
fc
c7
fb
ec
03
0c
00
13
02
fc
d7
e9
01
f1
05
f0
d7
f2
04
da
ed
f5
1a
08
19
fd
19
f4
f2
12
01
e0
14
0a
0f
e4
fa
f1
f2
de
01
02
f7
01
e3
01
2e
e2
ed
2c
12
e4
1e
f8
af
ff
dd
d2
dc
e9
0f
f8
04
1c
0e
01
c1
02
1e
0c
13
be
ad
bb
ef
de
f8
08
1b
0a
0b
b6
e0
ec
ef
e8
19
fb
21
25
01
0b
f9
e5
ee
10
26
0e
04
f1
0b
fb
0c
06
ea
38
0a
fc
11
ff
0c
0c
0f
ef
15
1d
e6
fd
fc
fc
f1
e6
00
10
f8
14
c6
14
04
f5
07
fb
de
fd
f9
07
e5
15
46
14
fa
f2
f4
d4
15
10
05
0e
10
e6
8f
d2
0a
70
25
0a
fb
fd
fa
f0
fd
09
48
fa
ec
f4
ea
06
f3
ff
e2
e9
ec
19
f0
0b
ed
f9
e3
1a
10
00
f5
eb
fc
1a
e9
16
f8
0c
fd
f8
fe
f5
13
16
13
03
9c
15
15
0b
16
ea
fa
f5
db
d5
41
0a
df
15
c4
d2
f9
f5
0d
23
d5
e2
f6
15
0f
0e
14
28
0c
cf
27
e3
fb
05
f6
f2
df
ec
f8
04
21
ed
ed
ff
1f
0a
ea
01
f3
f7
1a
09
0f
02
0d
ed
0c
cf
f3
df
f8
f1
23
65
1d
06
25
03
19
17
25
06
25
0c
15
df
0b
f3
1d
fb
07
05
ca
1e
24
f1
19
f5
0a
f1
d7
20
08
f3
fd
16
0b
fb
11
d2
fb
1f
25
dc
e9
22
f2
e5
36
dd
e2
81
e3
10
e7
0c
2a
f2
dc
2a
06
dc
f6
f8
f5
e7
2c
0a
f3
f0
ef
0b
da
f4
0c
05
03
23
fc
16
f1
04
1d
01
f7
dd
e5
20
2a
03
16
15
fe
fd
07
d6
ee
09
01
eb
f7
06
ef
d3
0c
f7
16
ee
1f
1a
ee
c6
0a
ec
f0
fa
e1
f3
05
e4
db
f6
16
08
e7
03
06
0c
3d
1e
e4
22
f5
f8
04
2a
16
ef
ff
d6
f4
35
00
ff
13
10
f0
f2
fa
d9
b1
c3
04
07
10
fd
dd
03
e9
0b
38
15
fb
f3
02
18
e5
09
1e
d9
13
1a
11
f6
d1
fa
f3
f5
fd
15
0b
06
0a
d1
17
16
56
03
ed
e5
fb
f2
02
f9
0b
07
fb
0a
f6
e9
0b
fb
09
24
25
03
07
14
11
d3
ea
cf
ef
8c
d6
21
ee
fa
f4
1a
19
08
f1
25
10
e8
0b
05
b7
f6
f5
e9
05
e4
db
f0
f5
3e
20
fe
06
fa
ff
04
07
00
e0
e6
f7
f9
f4
f7
f2
00
0a
3a
df
f8
20
ee
f3
15
f8
00
f4
07
15
08
10
fb
3f
eb
22
1b
df
fa
c6
0e
1e
fe
c3
20
88
f6
07
e9
c7
fc
0e
fe
0a
e2
1f
fe
cf
01
e6
ca
03
e9
fe
f7
0f
1c
04
09
1f
06
13
0b
34
07
06
f3
20
e0
fe
49
f8
cf
05
06
f8
1a
29
07
04
2e
f8
35
fc
07
08
db
09
04
f2
32
dc
f1
c4
f2
f1
f2
f2
ce
1c
f0
bb
fe
f5
0c
ff
bb
74
eb
ee
05
ea
10
f1
3d
1d
12
43
fa
37
dd
19
1b
f9
e8
23
fb
ed
f7
12
16
b9
08
07
09
06
09
fc
f8
f0
e8
1b
cf
f7
f0
0f
1e
e6
fe
e2
cd
c5
e6
08
eb
1c
15
0c
fd
fb
f3
fa
f4
2a
f8
03
05
30
fc
26
d0
fd
0e
98
13
04
f7
09
24
f6
53
00
c8
ef
e5
ec
10
ba
f4
29
bf
f2
3a
fe
17
02
fe
fa
e5
04
12
27
e9
f6
29
fb
08
05
f9
ee
ff
ef
e1
f7
e2
c3
ae
10
d8
0a
12
05
02
ed
36
14
0c
02
f4
f9
0a
08
cd
39
fb
0a
ed
07
f3
00
08
e3
28
17
07
2c
3e
1b
ab
e8
39
dd
e9
08
fd
eb
25
f2
12
37
b3
11
00
05
07
14
18
ee
31
ee
dd
00
ff
29
24
02
16
15
e2
d9
14
14
12
f1
19
10
d4
32
d3
ea
35
f8
0a
cc
de
0a
81
f1
f8
04
e9
ef
05
1a
20
bf
c1
09
1c
02
f5
f6
05
f9
38
c6
1c
d8
0d
17
cd
f2
fc
01
19
f7
04
04
fd
d8
1e
03
fc
2b
1a
14
f4
2a
db
dd
18
fe
f1
f1
0a
30
0c
df
0a
18
ed
03
d8
fb
04
ee
ee
d7
e5
d0
fa
ff
e6
f7
f9
0e
2c
1d
30
01
04
f8
f8
f6
fa
0a
0a
06
1c
f4
2a
0b
e8
d8
d3
f5
c9
e2
fd
d5
f3
10
fc
fc
0b
d0
d2
08
04
fd
07
25
ef
f0
11
e6
f9
20
11
09
06
0b
0d
2d
12
20
2c
fa
fe
05
f5
b2
41
d3
04
10
02
df
48
40
dc
40
d6
fa
d5
e0
18
1b
19
ea
e7
1d
f8
ff
26
ef
df
ea
f4
eb
ee
12
09
2e
fa
f0
1c
e1
ee
e9
e8
ee
f7
0b
f3
15
ee
1a
3f
de
ef
12
f9
de
13
05
d4
07
21
ca
ed
33
fd
ab
0c
e5
e3
1e
f2
07
f0
ee
16
bb
ba
07
df
dc
17
dd
d7
ea
e5
c4
21
14
13
02
1a
10
04
3a
09
f4
f6
16
0a
04
02
f8
f8
42
da
fc
dd
0d
cc
f8
00
fe
c7
0d
f7
ca
fe
06
f6
04
e4
e2
fd
01
e5
f8
18
f5
fd
17
93
45
03
c2
07
0e
f1
cc
fa
33
0e
df
13
20
1e
f0
11
fb
e0
fa
f6
c6
fd
0b
14
0d
0d
e1
20
e2
19
14
fe
da
00
fa
2a
dc
0b
c8
f8
f2
07
14
12
02
02
01
fe
f6
0f
7f
08
f7
ee
fc
e3
28
d8
13
17
ea
21
04
01
ef
f8
09
fd
e8
f4
08
02
05
1c
11
e4
f8
fe
f4
06
e6
fd
04
fe
0a
d5
d8
ec
0a
01
07
0e
14
0e
34
12
2c
e7
19
fa
22
e9
33
25
07
d1
cf
03
0f
1f
03
ee
e6
18
2a
13
c9
0f
02
f8
f9
f8
09
07
f7
f4
f8
f2
10
24
3b
17
21
f9
ab
01
ff
12
e5
f5
f2
0f
e6
da
0b
12
38
13
0d
e1
14
eb
10
ee
00
10
fa
17
f2
07
0b
12
12
0b
21
17
0c
d4
11
27
25
25
09
0e
09
15
01
e4
0d
ff
19
15
1f
03
03
1a
ed
15
05
0c
f6
00
f6
f4
f2
f7
05
d8
ff
2a
1d
14
00
22
18
05
eb
15
01
21
00
27
17
08
f0
d3
1d
07
fb
f4
1c
dd
16
03
36
fc
14
f7
16
f4
18
f2
01
07
10
ef
f6
e5
33
12
d8
33
d7
ff
f5
26
01
f2
15
fa
f2
11
04
f3
fb
e9
12
14
f6
fc
08
00
0a
11
00
08
08
13
10
a4
0e
e4
ce
d6
f5
ca
3e
f0
06
02
00
ed
17
1b
fa
13
10
22
f0
e4
ea
dd
ed
c2
fb
02
1d
f2
f0
f3
ea
fc
f4
f1
f9
01
0f
e1
10
20
dd
cc
de
d7
f0
d1
f0
fb
01
e5
0d
f2
31
c1
25
2c
ff
27
f6
e8
f3
ec
0f
34
19
fd
0b
1a
f1
f1
e0
10
f2
fd
18
1c
28
1d
ee
12
b9
1b
fb
1a
f0
0b
0c
ff
22
fa
15
04
33
04
eb
f3
ec
ff
1d
06
01
31
0e
d0
f5
06
e7
c1
33
f9
21
f8
d6
f8
12
33
25
da
f1
ed
17
01
15
cb
14
0f
f1
0f
fa
fb
05
6b
f9
15
ea
24
02
e8
fb
0d
fe
00
00
d3
01
19
27
12
f8
19
12
f5
25
f5
f9
1d
fd
02
d7
03
f6
20
03
10
e6
06
0a
01
e1
18
d8
fe
21
08
f9
fd
1b
02
f7
e4
fe
28
21
fa
10
2a
f9
fa
e7
fe
fb
0a
0e
eb
f7
23
10
03
07
ee
16
10
1e
14
db
02
e9
0f
fe
e8
02
08
1a
07
29
cc
00
0d
05
ea
10
60
11
12
03
13
fc
f5
f4
e3
68
f7
e2
00
06
17
cc
07
e4
21
0d
ed
16
10
ec
02
fe
f5
de
e7
f4
ef
04
ff
ff
29
14
fe
1f
f3
04
fb
f1
fd
f9
ff
f5
fc
0a
1d
10
fa
f6
fb
11
e1
e3
d7
0c
fd
16
f7
ec
f0
ef
ff
ef
f6
0a
0c
2d
17
10
3d
22
1e
1c
10
f9
f1
f4
ed
03
1b
04
cc
e6
e2
2d
f3
f1
22
fa
11
d8
11
03
21
fe
08
fa
e9
2d
fe
17
06
0e
05
01
0e
f6
f2
cb
bf
0e
e9
f3
f9
f8
f1
0b
d0
bc
ed
02
e9
f5
f6
de
f7
f0
e3
05
fb
2c
f7
22
15
dc
04
03
f6
ec
13
09
01
29
f3
d8
0d
04
22
f1
fe
f4
f1
07
ef
33
25
4b
1a
19
f1
fa
f9
f0
fa
19
3f
18
ee
e4
13
0d
eb
f4
09
e0
17
f5
da
01
d1
bf
3b
13
2f
c8
e3
f4
fc
16
ba
cd
f1
eb
0f
02
18
df
f6
1a
25
11
2a
40
f4
fb
22
f8
01
d2
1c
f5
25
f3
07
1c
2b
ed
eb
ec
dd
eb
ff
fe
fc
fc
e7
0c
12
ee
38
fe
ea
00
eb
e9
1a
ef
f8
0a
f6
eb
1f
d2
b6
34
ed
d4
08
e8
e2
f9
f7
e8
5a
e7
f5
04
10
ef
f9
f4
c1
e4
02
0b
14
06
ef
01
fc
e9
2c
fc
eb
06
02
11
03
39
13
cb
f5
c8
10
f9
30
f5
03
fc
29
01
ef
3c
ee
05
cf
0d
c8
ef
dd
d6
f6
18
e0
05
ff
04
02
fc
09
f5
0b
f8
02
f9
f0
18
f9
d9
07
0e
f9
33
0d
c2
3b
2d
c8
fb
ff
ef
fb
07
2c
da
07
21
c6
fd
0c
11
f1
fb
00
0c
30
16
fb
21
e6
f8
0c
fc
11
f7
e5
e7
30
f1
f2
e1
23
fa
fc
e5
05
16
ed
f2
06
38
04
01
e2
f6
c5
e9
ed
0e
d6
f5
12
ef
0c
df
1c
d5
b3
cd
0a
f9
fe
fa
e7
09
f7
ea
0c
ed
06
e7
0e
06
cc
2b
eb
81
34
f8
fc
19
f9
15
c6
02
14
fd
28
bf
1b
f3
07
06
08
0b
12
f5
fc
2f
0d
ba
2a
82
41
e8
10
55
00
fc
03
e0
f6
0f
f3
21
1d
f4
16
f9
19
c6
d6
fa
e1
2f
fe
fc
f8
f9
fd
ec
e1
f1
1c
0f
f0
25
2a
1a
1d
eb
d5
f8
0f
0c
d4
25
08
e9
10
0e
35
f2
2b
11
08
e4
e9
ff
e5
15
01
2a
ef
e9
de
1b
fc
fd
2b
03
10
04
ff
fc
ef
ff
d5
d4
f5
02
e4
d4
e8
11
04
18
0f
f1
e8
ee
18
1e
fd
28
1b
17
0d
0f
16
26
fa
10
e0
f3
e6
fd
ed
2e
18
18
45
f0
32
fe
f7
fb
07
4a
5d
ea
e1
c2
e6
1d
0d
d9
fa
ff
ac
d6
a6
bf
10
fc
13
14
0e
4d
f5
36
0c
fa
13
0a
03
fd
13
f1
c8
38
0c
16
02
f8
3e
fb
fe
17
c7
fd
20
e3
05
19
d6
fc
f5
e6
ea
fd
f1
03
f6
af
e5
9f
f6
0c
f9
e2
26
d9
e5
1c
1c
03
0f
ec
f2
21
21
eb
1c
00
eb
14
0c
0f
ee
fc
57
1f
4e
e9
f6
fd
f2
e7
05
03
0b
db
0f
01
29
17
e7
f9
2e
05
fc
08
20
14
14
f1
0e
e8
d5
be
f4
0a
f0
fe
05
09
fc
06
f1
1f
0d
fb
29
1d
f0
0f
02
0b
dc
f1
eb
10
04
c6
eb
24
ed
dd
fe
f1
e5
11
11
cc
21
36
e9
07
fa
03
00
d7
f6
ee
03
04
00
1e
00
f0
f9
ec
fa
f9
06
ff
f3
01
ef
d6
00
0c
fa
07
01
ff
fd
fa
ba
e3
fc
dc
1d
f2
ea
eb
ed
db
eb
09
0a
0a
1e
0f
1e
fa
f9
f3
f8
0a
f6
f9
ae
06
dc
d3
da
f7
05
e3
01
fb
fa
f9
43
ff
f0
17
05
fa
1c
fa
fa
5b
eb
0e
1c
e5
f8
f9
1b
26
dd
fb
ff
f7
eb
fd
1f
f0
0e
20
04
f7
37
05
0a
0a
f9
14
2e
d8
f7
00
e5
0d
ee
04
ef
c5
f3
e7
be
e7
ed
07
eb
f5
f0
06
f5
1d
f6
f3
db
ef
10
f7
0e
ff
1e
12
04
f2
00
14
12
f7
e9
f8
ec
02
f1
ff
ef
ee
e2
fa
f0
f4
1b
31
23
e1
e2
ec
ff
c3
fb
f9
31
f9
f1
6f
01
f5
ee
e7
00
f7
e8
1d
0d
dd
fb
e9
05
f5
35
ef
e6
e6
e8
ff
d5
03
f2
e7
fa
ea
97
fa
12
ff
15
fb
18
11
0e
18
f6
0e
f3
f9
12
1a
10
0a
08
12
ef
33
07
f8
04
07
ee
dd
10
ff
0f
05
06
37
09
f9
15
15
0b
1b
08
ff
ff
eb
0d
19
f5
0e
f4
0c
f6
9e
ec
f7
da
f3
07
32
0e
ee
f3
f7
ea
e7
0a
2c
36
25
09
0b
00
ef
b1
ef
12
d4
ec
2b
14
1c
fe
f8
f7
06
21
fc
0f
e5
09
fa
f4
fd
f5
0c
04
05
08
f7
03
04
01
fd
fd
ef
09
0c
f5
29
1d
e2
ec
c2
dc
e7
1b
f6
0b
19
df
01
01
07
fc
f4
f8
1e
fc
27
2d
0f
13
07
18
00
fc
03
fb
fb
f9
04
26
1c
01
0c
16
00
f4
d9
20
01
0d
08
ee
35
ec
01
27
f3
ec
d6
e5
ef
e4
ec
09
f0
04
eb
fa
e4
ff
7f
ef
0e
1d
ff
e8
0f
10
e6
22
05
eb
ed
f3
09
fe
ff
05
ec
f7
fa
08
f5
fa
e3
f9
eb
fd
f4
10
29
17
f3
06
0a
14
f5
00
0e
03
f7
0b
09
0b
f8
d6
19
ee
02
03
eb
0d
f1
08
1a
e3
10
fe
e5
01
df
f7
ed
2c
18
ec
04
f5
02
26
ef
ec
65
01
e2
12
10
ed
e5
e9
e6
bd
10
eb
ef
1c
f3
0d
f3
03
23
03
19
33
16
09
f9
f9
1a
2d
18
06
ef
21
e4
d6
e8
12
f2
32
03
fc
fd
f9
f6
f8
fa
ec
0a
f5
f8
ff
f6
2b
eb
f9
4e
01
e9
dc
ec
12
11
19
16
07
13
04
22
0e
d5
cc
09
d2
cf
23
ea
19
40
1d
11
db
33
eb
ec
07
1d
f0
0a
21
12
00
2b
08
f6
28
f3
04
0d
fc
ef
07
fc
f3
ef
0c
21
29
1e
02
9f
fe
f4
b3
f4
fb
0c
0b
d8
e7
01
f5
32
fa
df
d0
fd
07
d1
ed
fc
21
13
21
13
c9
0c
1b
ef
e0
fe
21
14
f0
f7
00
f3
f5
f5
fc
f1
f5
ed
f7
04
18
08
f8
5a
ee
f4
f3
fe
ed
ee
e4
eb
08
e9
16
01
e3
e6
ca
df
12
2c
07
e5
ee
fb
15
3b
14
f6
f9
f8
d0
ce
d4
d6
f6
ca
07
17
03
f4
b3
e8
06
d0
f4
14
1b
16
00
fc
f3
fb
25
1c
19
08
13
06
1c
0d
02
f5
04
db
ce
03
0e
09
0e
06
10
15
04
fb
25
f6
dd
f9
16
f8
fe
db
95
eb
f2
f8
07
ee
d8
fb
1c
10
07
ff
da
fd
11
0e
07
14
18
1a
f2
07
03
f5
dd
de
05
09
10
ed
1c
ea
06
d3
08
fa
e0
f0
1b
03
07
18
ed
dc
05
04
f7
00
f6
f3
fc
ff
01
05
fe
f6
04
03
09
ee
e8
dc
ea
1c
f3
ea
19
f5
04
ab
d3
f0
4b
14
18
fe
eb
15
1c
01
fe
f6
0d
11
f1
17
14
12
0f
14
03
06
f9
d6
f3
fe
c7
0a
06
30
11
e9
ef
07
fc
15
0a
ef
ee
e2
05
69
1b
f8
23
06
fb
da
e1
e6
e3
11
34
13
e2
f7
f0
ff
fd
f1
03
f4
b5
03
f7
f4
f3
06
0b
fd
f1
ec
06
fc
f8
1a
03
00
07
ef
5e
07
ec
e4
f4
e0
93
de
e9
be
e0
c5
92
c7
dc
f5
16
e3
c0
d9
0c
23
25
20
33
07
e9
fd
0e
fe
f1
f2
0d
f7
13
fe
f2
0d
fe
f0
fe
f8
23
18
07
f5
f6
1d
ff
df
05
0a
ec
e5
0e
f4
05
0e
0f
03
02
c4
21
01
f6
f6
0a
07
f5
ab
fb
ec
33
f4
3e
7f
2a
0a
e7
11
00
dc
f0
10
ee
00
07
fb
f8
04
05
13
f0
f7
09
ea
08
fb
f6
20
f6
0d
17
11
17
0e
07
00
00
f4
1d
0f
03
07
19
fc
00
ba
ee
c5
8a
cd
0d
ef
e1
f6
d9
f0
01
13
32
03
d0
f0
e3
0e
39
ff
f0
ec
fa
0a
fc
f0
ca
06
f1
d3
ff
f9
0c
00
e6
07
01
00
f1
fe
0a
0a
0d
0c
17
0d
1e
fc
fe
fc
02
f6
f7
05
0e
e1
f8
fd
05
0b
05
e9
e7
0b
05
02
04
08
13
12
02
f0
0c
02
ba
db
ee
cf
ec
eb
d4
fd
22
1c
f4
0b
e8
0f
ea
bd
eb
12
1e
12
fc
29
eb
13
21
2a
03
bf
e5
f2
03
06
df
08
10
fb
17
0f
14
32
12
fb
f6
e2
09
ee
08
fd
f9
f5
09
04
fd
15
1c
13
ed
f8
f4
11
ec
07
ee
c4
ee
cb
e6
2e
f1
19
21
17
1e
f3
fa
d4
f2
01
14
ea
0c
14
fb
09
05
0a
fc
10
f2
15
d0
16
d0
dd
0a
e0
de
28
12
10
01
fe
ed
0a
fe
e1
04
ee
05
ef
0c
00
09
f4
3f
f7
f5
06
f6
03
ea
f5
0c
f3
05
0e
08
d3
f5
fa
f2
fe
25
1c
dc
cb
0d
e7
f1
16
d7
fb
3e
f8
fa
1c
ea
05
e3
f2
ff
f4
04
09
0d
08
f4
e0
1f
f6
f1
02
fa
00
f6
0c
fb
07
06
07
e4
08
e6
16
1e
0c
0b
f0
0f
05
0f
08
10
36
02
04
0b
09
f1
13
ee
ef
20
f4
09
52
00
e6
1d
df
f2
fe
0b
e3
0d
20
f0
ff
f8
f5
f1
18
fc
d8
00
01
e8
19
10
f2
03
15
25
1d
01
07
fc
eb
e6
da
ed
be
ce
09
fe
09
f7
0e
13
ee
fd
31
04
2d
20
e7
15
f3
fb
44
04
13
05
10
0a
fc
03
f2
fe
0b
fa
f8
01
02
e5
09
21
e1
11
f3
ee
ec
e2
ff
11
f1
1b
08
03
0d
1c
fd
f4
f0
f7
f4
d6
02
1b
07
fc
fa
fa
0e
3f
07
07
f4
05
f4
cd
e6
f4
ba
d5
07
c6
f0
0a
ee
02
0e
ee
0b
11
d3
0a
f3
f3
e8
09
f6
04
07
07
02
06
fb
0b
1d
02
08
f3
fd
ef
fb
fb
f7
0c
0c
22
fd
04
04
2a
70
46
0b
8e
da
fc
a9
d4
07
f6
10
0f
19
02
f4
d9
f2
1b
f4
05
0b
f6
08
1f
2a
36
ec
10
16
fa
f0
ff
ff
0b
f2
0e
09
1b
0c
0c
1b
00
f7
fb
08
36
04
fa
18
ed
02
e0
14
fe
05
f2
00
0d
ed
ea
0a
04
f9
07
05
e0
f9
f6
fd
05
01
e9
f9
f4
f7
dc
f3
12
19
0c
07
19
f2
00
03
ea
f8
07
1c
fe
e9
e7
e7
ff
05
fd
12
01
02
21
35
eb
f2
20
eb
fc
08
ea
0d
f9
f8
20
f3
17
25
18
e2
d8
cf
11
02
08
07
0d
0a
e5
ef
e7
2c
f1
f8
19
f9
15
0d
01
00
25
26
c8
f8
f2
05
03
eb
fe
13
10
f6
05
1b
ff
ee
81
f5
ff
c8
fc
1e
e9
1a
11
0f
f1
20
06
e8
26
2f
fd
0c
ee
12
15
0f
00
ea
e5
ef
fd
fa
01
f5
57
0b
f0
21
fa
fa
03
14
26
00
ff
06
f5
12
f7
fc
f9
1e
33
1a
f8
ec
ff
0c
0d
18
f6
e7
fc
fa
e0
f5
16
01
e3
04
1c
dc
0e
12
f7
1d
f2
f3
f8
e2
e9
0f
e9
eb
fe
01
fd
00
f2
fb
dd
0f
04
e8
c0
f2
ef
d1
f1
f1
ec
01
fb
e3
ff
fa
d6
e6
ef
fa
f5
0c
fa
16
ec
00
10
f4
19
ef
07
f8
f1
19
0f
0c
02
04
03
f9
01
fa
f5
fe
f9
fc
f2
f7
ec
f3
ed
00
d1
ff
09
fc
f7
fe
f2
fd
0f
29
fb
11
04
df
fd
03
15
0d
35
1e
03
17
07
ee
c1
f1
e6
83
d6
0a
ed
fe
13
15
05
29
ed
0e
0b
ef
f0
14
1d
05
06
da
f1
f2
23
f4
0b
0e
f8
41
18
0c
e3
dc
e7
dd
1c
0d
f6
cf
1a
1e
ee
13
fd
fa
1d
f2
fa
f4
0e
f8
0e
12
f6
f0
27
0a
ef
0f
07
cc
e7
d8
f0
e1
f8
00
f0
f4
39
20
13
e0
08
ed
b7
17
0e
f8
1c
f5
fb
18
22
12
f9
3e
e8
ed
1c
3e
c7
e9
1b
ee
fd
0e
fa
e4
d0
2f
fa
f3
01
f2
ff
23
fd
00
1f
fc
b0
13
15
df
1f
f4
e5
fc
02
ec
2d
01
0e
fc
02
fc
17
1f
0f
17
5a
e5
03
ee
fc
1b
cc
4d
c9
da
6c
00
19
d1
e4
11
f2
23
2c
d5
b9
de
0e
d6
00
1c
b4
ec
09
40
00
d2
30
d9
d9
1e
05
e3
28
c4
fc
fd
d1
23
e7
be
0c
ea
17
fa
af
11
35
08
0f
fe
3c
0e
c9
27
64
f6
3f
26
13
4d
f5
02
f7
d7
17
00
ee
0e
09
f5
05
e0
f2
0b
fe
14
2a
ee
df
40
ee
0a
51
0b
eb
ff
b2
25
00
d8
47
1e
f1
1b
16
06
22
08
f4
e5
d7
0b
fe
01
e7
da
1e
d9
d8
42
0a
f8
ff
26
49
e1
0f
58
fb
16
fc
0a
02
ed
e8
ef
13
0d
fb
da
09
08
d0
e7
f3
f1
f8
12
25
39
09
04
0b
01
fe
08
eb
ed
eb
06
d5
59
23
c2
27
0a
d6
c0
f9
03
16
ed
eb
0a
d6
e7
18
e8
f7
18
2c
08
f6
1e
07
ea
0e
2d
05
eb
f1
f5
33
e7
da
c8
19
03
e8
09
e1
fc
3e
f3
20
fd
f4
d3
00
0d
f0
f1
07
03
f3
dd
13
eb
81
12
14
b0
d1
f9
eb
e7
ff
06
0f
d1
12
e9
ff
5f
e4
1f
5a
e3
15
12
39
31
d3
20
07
d8
15
0d
f7
21
f5
f7
12
e2
2a
eb
c1
1e
02
bd
a2
f8
c9
e9
ef
fc
04
37
06
e1
5e
d6
ec
09
f0
fc
d3
fe
db
c8
2c
33
b4
00
48
f3
f6
eb
c8
2a
2d
a9
22
02
f3
33
5f
f2
2a
13
13
04
27
f6
fd
f8
09
19
f0
e2
e5
d8
09
e3
e5
03
1c
1f
c0
00
2a
28
01
1d
15
3e
18
07
16
fb
de
f7
ff
9f
ef
06
c5
fb
28
0c
30
f4
3f
19
d4
ee
25
15
f4
e6
af
06
bd
94
05
c5
b5
ea
fc
0b
cd
c6
f1
db
bf
c3
f6
f3
11
d8
33
fc
df
25
fc
04
f3
f8
fa
f4
e6
fd
e9
39
19
1f
e7
f3
25
13
ff
06
f7
f9
ec
47
e3
d2
4e
ed
d7
22
bb
bf
04
eb
c8
cc
fe
c3
e6
df
09
18
41
15
b5
43
00
b4
14
fa
e4
4d
e2
ad
f5
f1
05
04
ea
0d
e6
e5
18
f9
09
27
14
15
10
08
08
fe
f2
dd
fa
3f
bb
e9
3b
d7
be
1d
06
01
bd
ef
04
b6
f4
18
cf
ec
fc
25
18
ef
15
d5
c3
09
0d
fb
01
04
f5
da
1b
e0
f5
0c
e5
f8
f0
df
e9
d1
e1
e6
f8
06
1a
18
ee
e2
9a
e8
fa
b2
07
10
e2
f3
19
e6
f3
f7
f9
0b
00
dc
03
f8
cb
eb
f9
17
10
fe
ef
0c
e3
d3
26
e8
e5
2d
fe
0e
fa
1c
fb
e7
61
0e
e9
f7
17
01
4a
ff
fa
1d
ec
f6
df
fa
13
e8
da
df
23
0a
ec
fa
da
f6
d1
03
0c
ae
0b
22
04
0f
03
e2
f6
05
d2
c7
e8
0b
f0
0f
f0
29
03
50
21
ff
2a
08
fa
0b
1e
17
0f
46
02
ff
02
ed
2a
0f
f9
5f
0b
eb
01
09
0a
01
09
14
35
eb
f7
f6
fa
ee
f8
e6
01
15
12
21
f9
ed
24
00
fe
1e
5c
0a
f2
fb
10
01
df
ff
0c
f0
fb
f4
f0
f7
d7
ce
bc
ee
05
f0
1a
ed
fc
27
ff
ec
00
ee
dc
18
fe
05
02
dc
ea
f2
0c
04
d9
0b
19
fc
dc
01
e2
f2
2c
06
05
1e
1f
27
fb
04
26
e7
f6
0e
22
0b
1e
cf
f1
f0
cf
02
fa
f5
03
f6
df
eb
03
f4
07
d8
f9
e4
07
04
fd
37
11
04
1a
eb
03
fc
f1
fc
20
03
dc
04
00
01
01
eb
19
0d
4f
12
e1
15
03
12
29
e0
07
f8
eb
ee
d5
fb
a0
d5
00
9a
d1
08
1f
16
02
07
fe
04
ad
d2
26
15
08
e4
0a
c3
0e
1b
ff
fb
d9
e8
10
e0
c4
f7
c8
f2
eb
de
03
f4
03
f8
fa
1f
e5
e3
ea
ff
ee
39
03
f6
2d
f4
d9
f6
10
ff
22
14
fb
1b
e0
f7
11
fe
ef
13
fe
04
05
10
1f
e3
eb
f2
dd
18
fc
47
2e
ec
f5
18
0c
e4
18
39
09
e1
06
dd
0e
10
eb
03
0c
57
e1
ea
04
f7
fe
07
2b
e4
fd
05
15
e8
e8
09
04
07
1f
72
28
03
ef
0f
f7
06
03
fc
53
0b
00
fe
1a
08
05
01
09
fb
c3
02
e0
f7
e8
03
18
07
d7
fc
f7
f8
e9
14
bf
ea
00
a0
98
ed
f2
02
14
20
0f
e7
12
3d
eb
ff
13
26
be
cb
18
0c
ae
1b
eb
e5
ee
dd
c7
ee
27
a9
eb
f6
fc
ea
00
0c
05
4f
31
24
02
04
24
f5
7f
10
d5
f6
04
de
e4
fd
d8
d8
05
ca
09
f4
20
09
fd
5f
17
f0
4c
f6
09
02
fb
f9
fa
13
03
0d
1b
f0
d6
14
28
c5
ee
04
f1
e5
06
03
ef
fb
df
ed
fd
c6
09
20
1f
fd
fc
12
1c
00
08
1d
fa
0f
20
fc
53
d1
f1
eb
cc
02
25
f7
dd
0c
bd
dc
12
ee
f9
1c
14
e7
24
ec
0c
ee
1a
2d
0e
28
03
bb
e4
f0
a4
f9
fa
0f
f3
fc
05
0b
32
c7
01
21
ff
f7
01
02
07
14
2a
38
df
19
e6
02
f1
ce
fe
1a
f0
fc
f6
0a
f4
f9
fa
14
25
d7
1e
fe
dc
1c
21
ff
35
05
e9
d6
12
f7
1b
eb
0d
fa
14
05
f7
15
0a
e9
2f
b2
cd
1b
ec
db
2f
56
f1
2d
2e
ea
e2
cd
10
ea
ea
e0
d6
fe
3a
d0
e8
fa
07
e4
00
1e
d6
35
f0
bd
e0
0b
82
1c
fa
cb
f9
da
1f
cd
09
00
1b
0d
df
23
22
d1
08
1a
fd
10
09
09
fb
f3
20
ef
1b
e4
fc
f5
fe
ff
ee
de
e2
ec
bf
0a
08
d6
39
ea
6b
f4
ed
0c
ea
ec
fe
f8
3d
14
ff
fd
fe
04
d8
22
f3
18
30
ee
d7
ea
08
1a
da
21
d0
2e
0d
ed
f4
ef
1b
50
f3
20
08
06
2e
4e
02
24
ef
35
19
00
33
f7
0c
22
e9
2e
e7
d8
08
f3
dd
1d
c1
94
52
10
a3
f6
21
08
0c
ff
fc
f2
47
fa
07
17
06
1f
e1
f1
e0
0f
1f
aa
59
1d
1f
43
26
fb
4d
05
17
21
ce
2b
11
9f
d0
2f
9c
c7
1a
f9
eb
17
d0
08
cf
01
c5
f6
06
f1
00
0d
f5
14
00
fb
21
e1
42
44
c5
36
17
d3
f6
11
0e
d9
06
ff
e3
e8
04
00
23
07
3c
27
04
42
06
17
20
00
f0
0a
0c
ec
3b
ef
ef
0a
f7
1f
fe
f3
e6
32
e4
0c
36
0f
64
b0
56
e5
c5
f7
eb
1b
e6
f3
a7
1f
00
ce
02
fe
29
fe
eb
cc
e2
33
d4
09
f4
b4
1f
de
06
ec
d6
13
ed
f0
f5
f1
fb
a3
e6
1d
9a
2b
1c
f5
3f
13
1a
0d
fa
c4
a6
07
3e
25
06
06
11
ef
3b
ea
18
07
02
ec
fe
39
d5
bc
72
9f
d4
2a
0c
1f
37
20
15
2a
03
f2
11
02
f1
fc
fd
12
fa
05
0e
0a
4b
28
d5
54
16
e4
0f
ef
eb
06
ff
ed
c9
f7
c6
df
db
db
98
e5
2e
d1
ef
68
e8
1d
4f
24
37
0d
28
1a
38
2b
b4
2d
1f
e7
ca
22
c0
0e
2b
f9
f1
1e
34
f6
f7
4e
fc
fa
fc
f5
0f
dc
12
e8
18
04
fb
1c
14
e1
0f
14
dd
03
c7
00
0a
01
eb
12
d2
f4
11
df
fa
23
27
cd
17
52
00
0c
f3
39
fe
b8
f6
38
e8
07
20
82
24
de
9f
fc
d0
e1
23
e0
06
0a
36
f4
0f
fa
23
1e
28
1b
db
2a
04
fa
28
ea
05
3a
10
f7
05
e4
0a
5b
12
d3
2d
f2
c5
35
ed
30
f2
a8
2b
16
d5
30
f3
05
d6
0f
de
bd
f1
d2
dd
d9
d4
fe
d8
f0
e7
a5
0b
d8
df
d0
e9
b7
d2
f5
a2
cb
5d
3d
2d
0f
dc
14
fa
22
05
0d
f3
2d
d6
e4
f7
e1
c6
01
3d
33
09
04
14
0d
09
cb
ef
fe
f4
06
1e
16
fe
68
9b
37
10
81
f1
e2
03
e6
03
d6
f2
10
f6
07
c3
e5
fc
cc
ed
ef
02
20
fb
0e
ff
f7
0f
22
06
01
05
ee
fc
03
03
ff
16
fa
06
0a
05
0a
e7
11
ee
e6
32
f7
09
03
0e
f3
ea
16
10
0f
13
1f
fc
f2
f5
0c
24
27
d4
fa
0a
fc
00
fb
1e
e9
e9
1b
da
e7
0a
03
f6
07
0a
07
05
0a
dd
0b
bb
c3
b0
c6
bb
c5
0e
12
0b
04
09
00
09
d3
0d
0f
1c
14
f9
eb
01
07
e6
04
09
01
e9
04
00
0e
08
18
ff
06
20
02
fb
e2
0a
ef
11
1b
0a
e4
d9
07
e3
07
16
0a
0b
0b
c7
13
05
f6
02
f9
f3
18
04
f8
ff
24
02
23
f3
dc
f0
ed
fa
ee
fa
33
04
e4
ed
fb
ef
b2
0d
14
11
17
18
f2
02
0b
09
04
04
ee
fb
08
12
f6
02
f5
fd
07
fa
0c
04
01
0c
f9
04
14
f8
e9
fe
11
29
19
f6
2f
ed
08
04
0e
00
f3
06
f4
12
fe
05
fc
ff
0a
05
08
eb
f7
fd
f7
17
f3
00
0b
07
fd
fc
f4
fb
00
02
ef
06
ed
f8
2b
04
fe
01
fc
eb
0d
1b
eb
06
fe
f5
e4
f3
f6
67
0d
10
d2
0b
fe
fe
fb
0e
07
14
0d
f1
fd
f4
f1
fe
ed
e3
e6
03
2e
21
0a
1b
fc
f6
02
04
04
fe
01
f6
10
fb
01
eb
f8
0a
f9
07
04
0f
1c
f0
f0
03
05
01
ff
16
fb
f4
2a
fd
d8
0c
e3
e1
03
f8
0b
fd
f3
03
0b
f4
e9
0d
1b
10
03
01
11
f1
e4
ef
05
f9
06
eb
00
06
ec
15
2c
0a
12
ed
24
f3
00
11
15
fd
08
0e
03
24
f2
d8
39
03
f2
15
00
10
fb
1d
06
d8
81
e0
f6
c0
f1
fd
aa
fb
00
17
07
fb
fb
f5
03
f0
e8
f7
ee
f5
05
ee
02
f1
0e
02
fd
f0
fb
03
0e
08
f9
fa
ed
fd
de
f4
01
0d
fc
ea
db
e9
02
14
06
08
f2
ff
19
f8
ea
fc
03
fb
fd
fc
03
12
18
02
fc
e9
fd
fe
13
f1
e5
e4
00
e5
f9
f5
fb
fc
f2
21
34
0f
fc
e6
28
0a
f2
02
1b
1a
02
dd
d8
1b
f3
fa
03
f0
07
0f
04
02
ec
f5
e4
08
ef
15
06
ef
fd
fa
0b
fd
03
f3
15
f8
08
1d
13
f0
10
08
01
0b
fc
f9
07
f5
0b
0b
06
03
16
17
fb
03
f5
07
1a
06
f7
09
ee
1b
26
26
01
09
f8
f1
fe
f0
02
fb
ed
f8
08
00
17
2e
0c
1e
c8
f2
03
0e
03
03
15
06
fa
17
03
ff
04
0a
f8
15
f6
10
fd
00
03
18
09
03
07
15
f7
02
0e
f7
fa
02
27
54
e1
0a
e9
da
07
fd
09
0c
f9
0d
fa
18
00
07
f4
00
ee
f7
16
fe
04
28
12
0b
0f
f9
2c
f7
e2
c6
e6
fe
11
fb
1c
1e
07
f1
0d
06
ea
fc
31
04
c8
ee
22
0e
ee
0a
17
fe
e7
f6
19
f8
fb
0c
04
10
07
f2
f6
c1
15
05
fb
f8
f5
f8
22
ef
0f
00
0e
f6
fc
fe
04
da
f9
e1
0b
16
13
16
15
ea
f9
ea
d7
d8
09
11
eb
fa
e6
e1
9d
db
1e
e3
18
18
f6
0e
06
2c
fb
f2
05
05
f7
cb
e8
03
10
00
1b
15
0f
ec
04
f3
e9
f0
0c
0f
19
0d
e1
d6
05
dc
bb
20
ee
17
30
17
fd
e6
22
c9
d2
07
ec
eb
f3
1a
fd
f7
32
f8
0b
43
ff
d0
c2
25
ef
b2
20
e1
e4
24
2e
2d
2d
32
1d
34
d0
e1
d7
dc
07
ed
ea
df
e5
0b
e4
0c
10
da
f7
06
3f
26
05
f8
03
ea
1f
18
d0
81
d8
e3
02
1d
06
0f
0b
00
da
ef
21
03
12
23
fa
26
f4
d6
f8
e1
f1
e1
03
e9
ed
13
f5
15
10
da
0c
f5
f7
07
c7
c7
06
f7
10
1e
05
d3
10
0a
16
10
f6
fc
f4
f8
d9
fe
17
e4
0f
fc
cb
11
eb
1c
2a
01
dc
08
fe
d6
f6
ff
f1
f2
04
03
fd
01
ee
fd
d9
09
12
e2
00
10
0d
f3
f8
f5
d8
0c
0a
bf
2c
e3
c5
fc
29
f9
b2
15
34
0d
00
f6
06
1a
ab
fc
24
1f
05
09
ff
04
e4
e7
e1
e4
e8
df
0e
3d
14
e8
1b
0c
e0
fb
1a
01
1a
df
05
09
2f
23
11
16
28
24
05
ed
fe
f3
ca
91
c3
16
da
f0
dc
f4
2b
cb
03
25
05
dd
f9
fb
0e
00
0c
07
fa
fd
03
03
07
eb
e8
f6
00
0f
fa
e9
0f
ea
ca
e7
08
29
0a
14
09
15
0b
0e
08
e5
c3
e1
f7
f4
f1
2f
18
e4
10
cf
de
03
e8
01
ea
16
00
08
fd
f9
11
25
13
de
01
fc
c8
f4
f8
cb
06
1c
21
05
21
27
d3
22
16
c0
0e
1a
ba
d4
27
ba
00
35
e6
d9
08
0b
d7
11
08
ec
fb
f6
01
1f
0b
1c
0c
f0
1c
23
11
17
ff
f6
fa
1b
12
ea
f4
f5
04
dd
f5
1b
cb
b4
1f
fd
f7
03
e4
f2
20
06
ee
07
0d
ee
08
1c
0e
e4
e2
85
cc
2a
11
f7
03
e4
e2
0d
dd
d2
2b
2c
fb
15
de
e4
f1
d8
0b
0c
20
29
20
df
28
20
c7
0a
1d
ae
10
f3
d7
f7
f8
f3
00
fd
29
fd
05
17
f7
18
0c
d1
1b
13
ca
02
f6
ed
03
f2
f3
01
de
df
d4
f1
ec
d8
e6
e1
12
27
11
e9
10
fd
06
26
02
0b
ed
fe
f1
fb
08
02
01
e6
0c
03
ed
09
ed
fe
10
11
04
06
cb
df
0d
0b
05
07
3b
0a
fc
37
0c
02
f5
f4
eb
f9
f4
2b
f3
fa
03
e9
00
fd
c7
0a
f9
11
f3
ea
f0
19
fa
42
11
fa
1c
f5
33
2c
02
2d
4a
11
fb
1a
10
ee
58
43
0f
d0
0c
20
f3
ea
1c
0a
ed
0f
08
f7
07
04
f6
22
d8
e7
b3
f5
32
1a
0f
0c
18
e7
31
a8
f7
17
07
08
02
a4
27
19
ec
d8
0a
e3
ef
fb
2d
28
f8
cf
10
f6
fd
fd
03
b6
de
e8
03
ec
19
f1
04
00
4c
ea
0f
d1
de
08
14
0f
e8
bd
dd
e7
16
00
0b
11
ea
01
e2
f4
fe
f4
d4
f1
de
f8
f3
87
eb
f8
c1
c2
f0
0d
ef
08
03
23
01
da
13
12
e3
e9
0f
4a
07
fb
f7
ee
fd
fa
15
f6
dc
18
01
de
f5
e7
f8
07
06
23
c9
0d
05
cd
14
06
e8
e8
42
f8
d3
f5
07
f6
05
fc
fb
21
cf
32
37
00
f6
ed
ff
04
02
05
f0
e9
f8
08
ec
18
13
d3
cf
1b
3b
fd
d5
f4
0b
f8
14
17
ec
05
1e
de
22
0a
0c
3d
e1
08
ef
18
14
f1
21
17
dd
10
28
db
d8
fc
09
fa
07
4d
04
eb
fb
db
09
00
ed
f9
1a
c6
0b
d4
d0
13
14
1a
0a
ea
1e
07
f2
fe
00
0d
00
13
06
af
08
9f
cc
f5
e2
dd
ff
22
dc
e8
dd
ed
f4
e3
3b
0d
f4
5d
ff
dd
30
eb
00
0c
fc
19
d1
fe
eb
e5
e5
10
fe
e6
12
03
36
e3
fe
20
03
f1
fa
50
12
15
49
29
df
ea
da
fe
28
fd
0c
00
e1
ed
f3
f0
fb
2a
08
00
e3
ff
12
ee
0c
12
31
df
f1
45
17
0c
ea
e7
16
9a
b6
fb
ab
e0
0e
00
e8
ef
03
0b
d2
e6
f9
ea
fb
f0
db
7f
10
02
23
be
05
15
da
f4
eb
14
ff
15
fa
04
fb
03
f8
cb
20
14
ed
1d
1c
1b
09
06
7f
12
fd
09
fe
19
e1
ed
e8
f0
ed
11
17
e6
f6
21
0c
f9
fb
f4
f2
14
08
04
ef
f4
0b
31
1b
ea
13
28
f1
fb
f6
eb
f1
07
11
3e
16
08
15
26
0c
a4
2f
25
e2
37
1e
df
ff
09
dc
02
ef
f1
fb
1b
fb
0d
0a
2e
17
0b
23
0f
1c
21
20
0a
fd
e8
00
e6
de
03
f7
0c
f5
c6
02
ea
dd
05
e7
f1
07
f1
18
f4
13
17
29
0e
f4
fa
12
db
03
f9
d5
d7
ea
d4
e0
04
10
fc
f9
11
0c
fd
0a
ed
fb
55
36
e0
2f
0a
08
15
1b
01
a0
14
dd
f1
35
fc
17
09
24
f6
02
02
e7
e0
ec
18
ef
ff
2b
18
f6
f2
39
28
07
ed
07
b7
12
2c
b1
05
0d
ef
05
2c
bb
bf
13
b6
b9
fe
1d
05
e9
db
fa
f4
07
e9
f0
f1
e9
e5
2b
c8
e9
fd
ba
e8
fd
18
12
3a
f4
db
32
1a
e9
ea
0a
1b
ff
0d
0b
eb
fd
fd
f3
e2
f3
d6
8a
0d
ce
d5
eb
07
02
f4
fa
fb
05
fe
01
fe
03
f3
ff
02
01
fe
01
f6
03
08
0e
f4
fa
ff
02
03
f0
11
f9
f3
08
07
f8
00
09
0d
0a
fb
c6
fe
03
03
00
00
05
07
f0
ed
f7
0b
08
ef
05
05
ff
f6
f7
e4
f2
fd
f5
01
fd
00
fd
12
f6
f3
fe
f9
f1
ea
f7
13
26
06
fb
f9
00
e8
f7
ea
f4
da
f6
05
0c
0b
f3
0a
fe
04
01
f1
00
fe
05
06
03
fd
0a
fc
e7
0a
0f
04
fe
f1
00
fd
13
0b
f7
fd
00
ff
01
fb
07
55
06
f8
fc
01
04
19
03
04
08
ef
f5
fd
f3
17
07
0c
1a
0c
16
0c
f7
09
04
48
0f
e2
81
f4
f7
01
01
04
07
0a
04
f2
fa
fb
0a
fd
0d
0a
01
05
f3
02
09
02
08
1e
08
03
f1
f4
de
05
08
07
01
02
05
fe
1a
f9
0c
f3
08
03
fe
0c
f8
f8
fc
01
f9
fe
09
fa
00
ff
fc
00
fa
05
fa
fc
ec
f5
02
f8
02
fd
06
f8
ff
13
04
fc
fe
f9
fe
f9
01
09
fa
00
f5
ff
01
03
e6
f8
fb
00
fb
0c
07
13
ff
fc
03
fd
01
05
f6
f9
0b
fc
02
fd
fc
00
ff
05
f6
fc
08
fe
fa
02
03
04
ff
04
01
01
08
f7
fc
01
fb
f4
fe
f6
fb
f7
fa
fa
ed
fc
03
04
04
f9
fd
09
00
ff
08
ec
f6
ff
fe
11
f9
fd
0a
f7
fe
13
04
fc
f6
f9
00
0a
02
f0
e7
f0
0a
06
03
07
0c
ed
08
05
f4
fe
fe
05
01
fb
06
fe
f5
fb
fa
f3
f8
ff
23
18
ff
f4
f8
f3
0d
00
f2
e9
ee
f8
12
ff
05
0a
fd
0c
2b
0c
10
74
11
02
fd
f8
ff
f7
05
04
03
f6
06
07
00
ff
15
e9
ea
ff
0b
ff
fe
02
02
06
fa
04
fe
08
04
01
03
07
1a
07
01
0c
fe
fd
fd
fb
fb
15
07
f6
0d
09
02
f9
00
07
fe
00
09
fe
f8
04
09
fc
f9
14
fb
f0
d2
ed
ff
08
05
ee
eb
f3
0a
18
fd
00
fd
08
0e
f2
f7
02
0c
f7
fb
03
0d
07
08
f4
06
fa
ed
02
0d
ff
01
fd
06
fb
f6
fc
fc
0e
f7
f9
00
0b
f7
f0
08
fc
f8
02
00
0f
07
f7
f8
07
05
09
08
00
10
03
00
fe
f9
ff
fb
f8
0a
03
10
fe
ec
06
05
f6
fb
fb
fa
09
05
ff
00
fe
0c
01
fb
ee
fb
fd
11
08
03
fc
00
f9
f2
f8
f5
f1
ee
02
f0
f7
e7
ce
e5
03
16
08
fd
f9
01
09
03
fd
f1
f9
0f
0c
ff
00
e9
f8
01
0f
14
00
02
ee
02
08
05
08
fa
ee
f5
f8
fe
f7
07
18
04
07
fa
09
f1
d8
f8
fb
05
02
02
05
0f
ff
03
0a
02
f6
09
07
fa
03
f3
e1
f4
09
f4
eb
04
07
f2
05
17
0a
00
43
09
e7
0c
02
2c
11
03
e5
cb
17
fc
02
01
1a
0e
f8
fa
27
0c
dd
d2
03
06
0f
fb
01
21
f1
ea
ff
f9
0e
01
f7
fd
f1
01
ef
0d
e8
dd
ed
f1
ee
f7
ee
1b
fe
dd
14
fe
ef
2d
ec
f6
20
d6
fb
01
09
07
00
6b
06
ec
08
fc
ce
d4
c5
d6
c2
81
d0
dd
dc
f7
f5
e0
0c
f1
f1
e7
04
1c
06
4a
f3
1a
29
1d
11
f7
f6
00
e8
fb
1f
fc
c7
fd
ed
e4
d7
ea
fa
fc
fb
e2
e7
e6
f6
fd
f8
00
f9
c2
ef
ee
f3
fa
18
0d
06
0b
fd
f6
f9
f6
fb
ec
ec
f6
dc
ca
fa
f2
fc
00
08
13
01
10
fe
e7
ed
f6
02
0a
04
f2
ea
12
04
fa
09
ea
f4
08
19
17
ef
04
cc
ed
08
f4
e5
f9
07
0b
f7
18
10
0b
f6
f6
f3
e1
1b
da
e3
0c
df
07
f1
fa
08
0f
0f
e8
01
15
0a
06
06
11
fd
06
16
f0
e3
f1
03
e6
fb
03
eb
0d
10
07
f0
ed
0b
1c
0d
0c
12
1c
f1
f5
f0
f5
fe
eb
fc
db
ed
0e
2d
de
ff
1e
e9
14
04
15
32
19
1d
00
f6
24
f8
02
3f
fc
0a
e6
03
f3
17
e6
f0
11
02
02
eb
03
18
2e
db
09
fe
f8
ed
e4
1d
c9
c8
03
24
f7
06
07
07
04
1e
e3
01
14
cf
f1
d1
ef
21
c2
f8
47
f1
00
23
fe
01
fe
03
f1
fb
f2
0b
2b
da
16
0a
14
39
ff
10
00
fd
d4
e2
01
a1
19
2b
c0
f7
12
13
e6
dc
18
19
e4
07
18
d4
03
f2
f3
17
f6
16
1e
e4
fa
17
2c
01
33
ee
fa
0f
1a
f9
28
0f
2f
73
31
1b
1c
1f
15
e8
f8
06
e0
23
09
e1
ea
13
53
d3
e8
01
e5
16
16
f2
1c
19
d5
ff
00
00
38
11
f6
0c
f6
1d
fd
f2
1a
0e
06
12
f0
fb
00
f7
08
22
0a
0f
f8
fa
ed
f5
26
dc
ed
0e
e7
f4
12
ef
00
07
f4
10
fb
e8
db
f0
e3
f5
0a
01
15
06
00
fe
17
0a
3c
04
26
d6
f7
0f
b7
01
e6
f2
fe
07
d3
0c
0d
08
fe
28
e2
07
2e
fb
17
fc
10
1c
30
f7
ff
41
da
fb
15
f4
02
11
1f
0c
14
2b
f6
0c
2c
df
2d
f7
f3
22
f7
f1
df
19
f4
eb
02
01
16
0c
f5
1c
38
0b
ed
de
07
fa
e2
f8
0f
e6
df
eb
ee
01
0e
f3
16
15
f6
19
f2
f1
fc
e0
4f
03
d7
1c
02
ea
ec
0c
0d
f5
13
3c
f9
0a
26
ff
e6
f6
e2
ef
e9
00
17
0f
fc
0a
fb
c9
30
f4
cb
1d
22
0d
17
04
01
f3
0a
fc
f7
ed
fb
fc
f5
0c
fb
ef
f3
fd
09
09
d3
d3
af
f4
f9
03
0c
0f
10
07
02
e6
32
40
22
f2
e1
c6
ec
13
cd
03
16
d7
0d
a2
2a
58
e0
0b
2c
2a
1d
f0
0a
01
47
f4
d7
d5
f9
04
e8
dd
fd
bb
06
e9
a6
42
db
f6
4e
b7
c1
de
fa
d7
ea
03
13
db
0a
25
08
1b
f6
08
1d
03
0d
05
e0
0c
f2
d9
f1
15
11
cf
a4
b9
b9
05
cb
d4
f2
d6
ef
cf
0f
08
0d
02
1d
2b
0a
fa
28
fd
bb
09
03
dd
22
f0
f3
25
fa
ed
13
18
ec
19
ff
de
b7
15
f7
d4
fa
d7
e5
ec
bb
1d
1d
c0
5c
ed
19
21
df
14
02
06
f9
1d
fc
12
0f
1a
25
2a
0b
bb
c6
f0
15
0a
df
40
2a
67
fb
c8
eb
f9
0d
ff
06
f5
20
1a
07
09
0a
02
00
ca
f6
52
ea
cd
1d
54
04
ca
22
20
11
13
18
0d
00
da
f2
e8
fc
eb
1b
d1
a9
1a
fc
f1
1f
15
f7
de
ca
21
24
ec
04
16
f8
e8
fa
25
0e
38
ea
d1
fe
ea
41
d3
f9
37
27
28
f1
e9
ce
13
d3
e9
17
ef
f5
21
12
fd
11
d7
8a
fe
e3
14
eb
ee
0e
13
02
3a
20
d6
33
fb
c8
1f
c5
da
a8
fc
f2
d7
32
25
23
0b
df
b2
3c
ff
ff
1b
0e
dd
f8
2c
d5
f9
06
0d
f4
23
08
20
f6
29
9a
e4
e9
a5
ee
16
2c
d0
cc
1d
1b
e4
02
3d
85
ed
47
f0
9a
da
01
f5
18
f4
ef
3e
e9
20
12
e5
4c
f4
c7
1d
b3
cc
fe
db
0f
ff
1e
ea
e7
52
d7
9c
14
dc
ef
41
e0
f5
65
34
f3
05
f2
28
1b
f4
d4
f5
10
e8
f5
18
15
dd
00
09
03
fc
e9
f9
ea
f1
4b
06
2a
17
f1
68
fe
e2
0f
ba
e1
38
cf
18
41
dc
04
25
f7
05
0f
e3
2a
20
29
03
04
70
2f
c4
12
62
ad
fd
21
d7
f5
49
fc
04
2b
26
fe
05
23
cb
32
08
02
02
13
2b
0c
af
f8
3e
ec
d3
de
8b
03
de
f8
ea
f9
e7
15
0e
ed
31
f6
f9
ed
9c
0a
21
d5
ef
fb
43
02
d4
b8
eb
fc
35
d5
11
1f
e7
19
c7
10
d7
0c
e4
cb
01
ec
12
ea
f0
e4
c6
10
cd
0c
02
1f
18
03
12
19
db
0f
0c
cc
26
42
d7
16
45
d0
fc
c8
1f
27
42
f8
f6
54
1f
04
f5
f0
e2
f1
14
0f
26
07
de
25
26
d3
e9
20
fa
06
f3
f8
fd
fd
e8
e4
0a
a7
f6
1f
d7
15
1a
f3
eb
00
f0
ae
ed
cf
ce
fa
0f
b2
de
fd
e4
bc
ec
f9
f7
de
00
2a
da
c2
ed
08
11
09
f5
ff
f5
54
27
a5
43
ff
8d
ec
e4
23
fd
0e
f8
10
0c
fb
f2
b1
3a
e4
81
fd
fc
e0
e4
ea
00
0b
0d
19
04
04
2e
ed
f4
ee
f3
11
26
d9
01
01
f9
13
06
f9
08
ff
04
fd
2c
10
0a
23
0d
e7
e2
03
eb
81
e6
00
f0
1c
06
0b
f6
23
26
08
00
e2
04
ef
f7
02
dc
03
19
0e
ff
0c
fa
32
fa
11
0d
14
fb
e6
02
14
49
fe
f6
2a
f5
04
f3
04
e3
a4
d6
18
0d
08
12
f4
f0
fc
02
07
f2
fd
28
f4
ed
f2
c3
14
03
f3
fc
1e
03
fb
e3
fd
e5
e8
04
e7
fc
f4
fe
ff
09
31
0f
ed
e6
f7
00
05
03
01
0e
09
0c
e6
00
f9
f9
05
09
03
05
0e
f6
11
0c
0e
0f
f9
13
fa
10
0e
12
f5
e9
e4
e1
09
f9
2e
0b
34
fb
fc
04
01
00
e7
fa
0f
01
f7
0a
ff
06
06
f9
fa
01
12
0e
1c
11
d6
04
d3
e9
1a
e5
f4
04
e8
04
11
04
12
d4
03
fc
07
0c
0d
0c
ef
f4
fb
07
0f
12
15
00
d3
fc
f9
35
eb
e7
f0
f4
14
15
18
1f
c5
11
f9
06
eb
f7
ef
fa
39
d1
d3
eb
df
ea
e5
1d
ed
f4
e8
e2
00
12
fb
04
f5
11
17
fb
f5
f5
25
fe
0a
ee
f4
ed
eb
de
f1
0c
e5
07
15
1f
09
00
0e
fe
fe
08
18
f7
17
ff
25
fb
f5
cb
f6
ee
fd
0a
f2
f2
d7
f9
f1
fa
fc
03
f7
0e
18
d6
f3
f4
ed
07
0b
f1
e9
e4
08
f7
ef
fa
f7
f3
ec
eb
0d
fc
17
09
fe
e8
0e
13
e4
e0
e3
fb
00
f5
1e
20
f1
e1
f9
07
04
18
08
09
0e
d8
0c
fb
30
fb
0f
01
1b
23
1c
0a
55
0b
17
f9
15
f0
a1
db
09
f9
03
01
06
01
f4
d7
0b
d4
ed
3f
f7
f2
13
09
0e
f0
2e
0c
fd
ee
04
07
05
00
d9
1c
e2
ff
fa
0d
fc
dc
07
e1
05
eb
0c
0d
0d
fa
fc
0c
00
03
d6
04
fe
19
07
08
f4
f8
f5
f0
05
f6
f7
07
fe
0c
f3
e9
e8
ec
fd
13
0a
f1
04
e9
e6
e8
fa
ec
fa
08
de
e1
02
19
f6
02
06
0a
07
e4
01
0e
c8
e4
2e
f8
fd
09
e7
f8
08
00
18
fb
f5
f5
e7
04
2b
d0
20
01
f9
fd
06
f6
03
05
0d
0b
25
03
ea
f8
ff
f7
21
18
09
cc
fc
ef
12
e8
01
e4
fd
e2
9f
c5
fd
f7
f4
f4
00
0e
f8
ee
11
04
06
e8
04
19
fc
07
ea
d8
fd
fe
f0
e1
2c
e9
f8
24
04
18
d5
f9
d2
d3
cd
dd
07
e2
f8
f8
fd
ec
d5
36
0b
1b
fc
14
15
01
22
f9
f2
fe
f6
00
08
f6
05
1b
c8
1e
13
28
0a
fc
09
e7
07
0a
06
41
00
19
f4
dd
ec
c7
d1
ce
ed
d5
e3
08
f1
09
e9
cf
d6
37
33
29
ff
02
fe
fb
f5
02
09
ff
06
02
ea
f9
0a
f4
01
f0
ff
f7
03
fa
fa
fc
01
ea
ec
08
f5
ff
03
03
13
ed
16
0b
d9
07
f5
f9
f8
e2
01
ff
00
00
e5
04
fa
0a
fb
12
01
b3
d4
1c
fa
19
fb
03
08
f8
01
f8
07
ed
ef
f1
15
5a
13
f5
f9
ea
ed
e2
fc
07
f6
ff
0c
05
06
fe
f6
f6
06
fe
ec
06
01
02
fc
05
16
fa
28
f0
df
e8
11
00
f6
04
ea
1a
0f
0e
f5
d8
fa
f5
f6
00
1f
fc
f2
ba
02
fb
0f
fc
f3
ff
08
f6
b4
f4
f7
e7
f7
fc
ec
ee
ff
e0
fc
fd
21
00
e3
45
e4
ee
88
e4
fd
ff
ff
0a
f1
08
0c
f6
11
fd
eb
f7
05
17
24
00
17
12
fe
f4
01
fe
e4
e7
0c
05
0b
f6
ee
f6
e8
01
f0
fc
09
03
fd
0c
08
fd
03
ed
11
07
16
0b
03
01
fb
16
f9
d6
f2
ff
07
ee
05
04
ee
08
fd
47
fc
00
f5
f6
0d
0f
10
07
f7
fc
04
00
f5
0a
f5
0a
10
e8
0b
04
10
06
09
2d
08
05
e5
fd
f6
01
0d
01
fa
0a
08
1b
04
03
02
03
fe
de
fa
08
0d
0a
f0
0f
0a
02
f0
05
06
0c
fa
f6
1b
00
ea
f2
ea
09
31
0d
f8
e8
ff
0d
fe
f9
0c
14
ff
ff
02
02
f8
0d
01
1d
d8
c5
00
fc
fa
06
f2
04
01
eb
f5
fb
f8
f8
f9
02
fb
eb
fd
ef
12
05
fc
04
09
e3
ff
16
26
0a
04
03
ec
f3
07
fe
0a
0d
f6
10
12
fc
35
e8
ed
d3
00
ef
0c
ef
11
28
0c
fe
07
01
fe
06
0b
02
8a
ed
d0
81
bd
f4
fc
05
0c
f3
05
07
ff
ff
f8
ef
fb
e5
fb
0c
ff
fd
03
17
0b
f2
04
23
0b
ed
e7
03
00
18
fa
10
f6
13
f8
d3
fd
01
09
ff
02
fe
f9
f2
c7
ef
01
f8
fb
0a
ff
02
09
1b
02
f1
f2
fd
06
e2
04
fe
db
fb
fa
e7
08
1d
28
e4
eb
35
12
05
f2
fb
0b
26
da
d2
e7
13
0b
14
02
03
00
ea
dd
04
25
f8
fd
04
1b
0f
ff
0c
1c
07
09
0c
f9
00
15
00
16
ef
d4
01
0d
fc
0a
f2
f1
f9
fa
0f
f5
05
f5
0e
1a
0d
fc
e1
f9
fe
22
03
02
21
0f
ff
22
03
f3
0b
19
f0
04
08
0d
f8
e0
07
05
12
fd
20
16
f7
26
f3
0b
f9
08
ed
ee
e5
1b
24
12
f1
eb
f3
ec
12
f3
06
02
ee
04
f2
f6
0a
02
02
f2
f9
fa
f0
f8
02
f9
17
08
15
eb
f0
f8
03
f5
fb
ef
fe
0a
13
0f
fd
16
04
da
26
0e
ff
c9
e5
f3
f3
f7
11
45
0c
f9
ee
07
02
f2
ed
0c
04
10
ea
12
fb
e2
0c
0b
03
ee
ff
12
17
e5
e6
f9
14
f6
0f
00
0c
f9
c4
f2
f4
f9
04
f2
fd
f8
fc
f1
e7
d1
f1
f8
f9
f2
17
a7
14
ff
04
02
01
ff
12
fa
03
e8
f7
16
1f
e8
f7
ff
cf
ee
09
ef
15
f4
ff
f3
fe
01
18
0e
f1
f4
f8
00
02
fa
ed
20
f9
07
1f
f8
e1
d9
db
dd
cb
d2
00
d3
f2
17
0c
15
06
10
27
09
fe
e5
f8
df
d9
1c
03
ec
ff
14
29
fa
15
05
0c
e6
e4
2a
e9
10
00
0d
12
11
56
10
0e
14
27
e7
cc
06
e5
e9
ff
0a
0f
04
1f
1f
13
fc
bd
f3
fa
17
ef
ff
ed
0d
0a
11
1d
11
f0
01
fa
07
17
20
ec
22
f6
fc
1b
fa
fc
06
20
fe
ee
f4
fa
ed
ee
06
e3
0e
06
19
04
f3
00
05
1c
08
fe
0b
e5
0d
f6
07
ed
2b
03
fd
63
1c
da
d3
eb
f7
e4
e1
19
1a
00
06
22
f4
0e
1c
07
ff
dd
06
0d
20
05
eb
e8
df
fa
03
03
f2
e8
01
09
09
f9
17
00
09
02
fe
fc
e9
de
f1
ff
f1
fc
ea
eb
0a
09
0e
09
0c
f5
f2
f4
ee
e8
ee
0b
e9
1e
06
15
f6
e9
f0
1f
0e
f7
0e
14
17
ea
0f
df
f0
d7
e1
0c
f3
0c
07
3a
fb
0a
27
06
1f
14
29
1b
19
f1
04
f0
f7
0d
e9
d3
e2
f3
fa
f1
05
02
fd
1f
f4
0a
18
10
07
ea
fd
11
08
00
e0
e8
ea
d8
0c
23
02
09
fe
e4
ff
10
f0
28
0c
1f
eb
e0
f7
16
04
16
ff
f5
f7
f7
fe
e0
e1
ef
ea
fa
eb
0a
1f
02
f8
1c
0b
08
f9
03
f4
da
f4
e7
f8
ef
ff
05
ef
02
f4
16
10
dd
00
09
0d
1c
19
13
06
2c
3d
1d
f9
08
f5
e7
be
c3
24
1b
13
e8
98
f4
07
7f
0c
12
11
07
01
d4
ef
ff
de
e9
15
f0
e0
fc
17
00
e5
ec
06
0f
f9
08
18
f0
09
0b
1b
0d
f9
e7
f5
f9
f3
f2
ff
06
fc
30
1d
f9
01
11
0c
cd
d5
0c
15
02
08
0c
f4
0a
ee
01
ff
0e
ff
f9
09
f8
f4
ef
05
15
e6
e3
ff
e2
e8
fd
f1
f2
0a
07
09
d8
f0
f4
11
ee
0e
14
00
fb
0d
01
d2
08
ff
f4
f7
e2
b7
e7
f9
ae
f3
de
c3
d3
07
27
1c
01
f0
fb
d4
d4
e2
13
fb
fe
02
18
f9
00
0a
00
fa
eb
fc
0a
05
05
0c
1a
03
07
24
10
24
ee
1b
0f
1a
19
0d
20
df
03
02
07
cc
d9
0b
f8
0a
e9
f7
fb
f7
14
0e
fe
fa
0b
00
24
ef
1b
f8
1c
f5
07
1d
07
fd
01
fd
e8
f4
ef
17
f5
19
e6
c8
d9
f7
0b
f6
f4
16
fe
ff
f2
f6
0f
32
15
fb
00
01
ed
f1
f5
f6
f6
ff
ff
07
04
0d
e3
f0
1e
00
0b
07
03
f5
fc
07
06
f0
f8
fb
ec
0b
fd
f0
1f
fa
d6
1d
1d
f1
f1
fe
6a
18
ee
2f
15
f0
0a
00
08
01
1c
09
e4
22
fd
f9
f3
05
0e
0c
05
fe
ef
fe
01
0c
04
33
14
f3
f7
07
fe
0a
f7
f3
e1
1a
fa
01
07
ef
12
02
00
e2
03
f8
02
00
f9
f4
e3
06
ff
25
06
07
11
f0
09
09
ff
f4
06
04
ec
e4
fa
ff
f6
10
1c
e5
0e
f6
fe
01
fb
02
07
fe
ff
11
e9
08
01
01
07
ff
14
f9
13
03
04
02
07
ee
fe
1a
19
03
00
f3
f9
03
f7
fa
f8
03
24
f3
02
03
03
ff
fd
1b
0a
fb
16
0a
04
fe
fa
04
81
0f
20
dd
f1
0d
fd
08
04
08
06
f6
0d
21
03
04
16
fb
e4
fa
11
05
12
07
f4
01
07
1d
07
0a
19
00
f3
03
00
0a
ed
1c
fa
07
0b
02
08
0e
02
fe
e5
ef
f0
02
f8
f5
09
fa
ff
d8
d0
d5
f5
ee
f2
00
fe
f8
f5
f8
fa
15
17
01
0c
ea
1b
fd
fa
de
0c
0e
07
07
ef
31
fd
02
ff
05
08
fb
09
0f
04
ea
01
03
0a
f6
f2
0d
ff
e2
12
10
01
02
00
fd
fc
00
0e
03
fa
0d
f1
ff
01
fa
0b
e1
eb
ea
04
ef
fd
fe
fa
f5
06
0d
0c
11
05
00
ee
f8
1a
1d
19
09
ea
f0
fd
0c
0e
0d
f8
fa
f7
fc
f3
ed
0b
01
f7
08
f8
f0
f4
f5
f2
f4
e9
fd
0c
16
19
fd
02
02
00
ef
f6
39
ff
0b
16
fb
ea
fb
06
00
0d
05
02
f9
f6
02
09
f2
f6
12
24
0b
12
1a
09
f0
f1
fa
03
06
f9
f2
0c
ff
f2
00
1c
fa
22
03
f1
25
08
00
06
fa
0c
e9
f3
fb
11
12
12
fe
fe
f8
eb
ff
e5
ea
e7
0b
04
fa
f6
df
05
10
f9
07
0f
00
0b
c4
10
01
d8
ff
01
e4
0b
17
1a
e3
05
35
07
fa
f3
fd
05
11
e2
f3
0b
01
03
ec
fc
08
fd
02
01
e0
08
f6
0c
fb
03
f3
ea
ee
f5
f1
fe
04
07
03
e3
f0
f1
07
f3
0c
ee
f5
fe
13
32
06
04
03
00
07
0c
04
02
f2
fe
fe
08
0d
f4
11
04
de
03
0d
f7
f4
09
04
00
fb
f7
ff
fe
ee
ee
0c
01
03
0d
ec
f3
f5
f7
03
00
09
f8
03
fc
01
f5
0e
f2
f8
00
f5
f6
07
fd
e6
08
14
0a
09
0c
fd
09
e3
f9
f6
e9
ed
d9
df
05
f0
cd
09
09
f1
04
f2
10
e9
e5
0a
03
06
0b
01
f9
ef
0c
0c
11
0e
03
07
03
fd
e7
ef
0a
ec
ed
18
10
fd
f3
f4
e8
0e
e3
fb
e9
d6
f1
01
1b
09
fd
27
1e
f7
f9
00
e6
ea
2d
0a
ec
02
00
fb
e8
12
0d
f2
01
1e
fa
06
0c
06
f9
a6
d9
10
27
1c
05
ff
0f
dd
0b
0f
dc
1e
f5
ee
0f
0c
13
19
04
10
f9
0a
09
17
10
08
0f
09
f5
f2
fa
02
f9
fd
27
e2
29
f6
fc
08
f3
14
ff
ef
e2
e0
04
ee
06
11
16
11
04
fe
e7
09
12
11
03
f9
03
0f
e9
eb
f3
f7
10
03
15
01
e4
0b
00
ec
0d
09
fc
02
02
fe
3e
04
0d
e2
05
04
05
fe
03
11
18
f9
10
0a
f9
0b
09
f2
ef
f5
ed
03
ec
05
0e
0a
f7
fb
f6
f5
07
f7
05
1e
f6
f5
19
fb
f0
f6
11
11
13
18
03
ea
09
05
1a
e4
f8
0a
0a
21
ee
0d
3b
db
16
0b
fd
f9
07
15
05
0a
0a
02
04
0b
0a
ff
f5
ff
08
2b
1b
fd
f2
f5
f0
02
fa
02
28
f5
ff
f9
14
f3
12
fd
f3
e4
e0
09
0e
02
dc
d1
d0
f7
07
03
ff
01
04
de
f0
fe
ee
2d
e7
01
f4
01
fc
fc
f4
17
30
12
06
00
f5
06
10
f6
13
08
e7
f9
f5
03
0b
7f
1a
12
2f
10
f2
db
e8
f0
0e
07
07
f7
0f
fe
fe
f6
fb
31
03
f6
e3
f6
ee
f6
eb
e6
d2
f8
f8
ea
f4
ff
04
f6
0b
0d
15
fa
08
0a
08
11
11
f4
ff
04
0b
f7
09
01
01
db
1e
f5
15
f4
1e
f5
f9
13
01
06
fa
08
fb
fe
02
f3
fd
04
02
0b
e8
07
e6
18
e4
02
06
f8
e7
f2
04
1b
13
f5
fb
fe
ec
e4
e8
fe
2a
2d
e7
ef
ea
13
0d
0d
f1
06
f2
ed
07
e9
ff
f4
ea
07
2d
f0
f0
02
ff
f3
03
11
e8
02
f7
05
0e
07
02
f3
0b
18
3d
06
f3
03
02
0c
fa
0c
fb
1c
01
f1
fa
01
12
09
03
fb
0d
ff
16
12
f9
01
0f
09
f8
e4
22
01
ee
e6
0e
36
25
0b
ab
fb
fe
4d
0c
13
ff
eb
0b
0d
07
fb
f7
05
07
03
e7
f9
01
e6
0b
02
fc
07
0f
ea
f8
11
04
03
0b
10
10
f6
06
e7
05
0f
01
f6
fb
f4
f0
f9
08
05
f5
fa
fd
13
17
11
ea
16
39
09
fd
fe
ee
10
f5
09
05
34
0b
fe
05
f8
00
c4
f0
fb
38
0a
2a
17
2d
08
ef
f8
0f
36
32
ff
17
05
ff
0d
0f
ea
0b
eb
fe
fb
fe
ff
03
f6
00
11
fa
f8
f3
f9
f1
f0
fd
03
0e
e8
fc
f8
f3
11
0d
e7
11
ef
fa
fc
f8
f7
05
fd
fb
04
ff
1f
fe
eb
11
fa
0e
fc
d5
ce
df
0d
ec
0d
ff
06
f3
f8
1e
0e
fa
fe
03
0a
0a
00
f2
fd
04
f5
e5
f9
f6
2a
fb
04
f2
f9
04
ec
fe
ea
0b
e6
f5
07
fc
ff
f8
0e
d9
cf
1b
0d
05
15
e8
05
11
fe
06
01
09
ff
f8
fd
0f
08
11
fa
10
11
db
08
fe
fe
0a
09
06
06
fd
0e
0a
05
06
f2
09
ea
e7
ea
15
eb
03
eb
ef
f5
2d
e1
02
ea
f3
fa
fd
f6
cc
ac
db
fc
e4
fa
08
07
00
0a
15
07
0c
d6
18
0a
e7
ff
1d
eb
d9
01
05
03
06
fd
fe
0f
f8
f7
f1
f9
f5
f0
07
fb
fe
09
06
09
0e
f9
fc
11
06
0c
22
16
e8
08
f9
fd
15
fc
fd
0c
f4
f1
0f
04
09
0d
f7
ff
f4
01
07
1d
03
f9
fd
00
df
ef
f1
f5
00
f4
02
12
fa
ec
ff
e7
ea
ee
f4
11
01
0f
fc
fd
ed
01
00
09
12
06
00
16
03
0e
01
fc
07
fa
e9
eb
1a
03
1f
01
f3
05
ef
f2
f7
ed
ee
eb
f1
1a
f6
0e
14
18
fa
fe
f3
0c
07
f2
10
12
f9
07
e4
11
0f
c3
0a
01
e4
04
1d
6e
1d
e6
0b
f6
05
15
0b
18
f5
f3
fa
03
08
f9
0a
06
02
05
fe
0b
1b
0e
04
fb
fe
13
2b
fd
f8
e4
04
13
f4
03
f0
18
e8
f4
f9
e4
01
0c
03
f4
d4
10
0d
fd
09
fb
f3
0f
f5
f0
fc
f4
a0
e7
ee
e4
f1
04
22
03
05
db
09
ff
ed
06
ea
e3
02
ec
09
ef
f7
ec
0a
fa
fb
09
0f
16
fb
ff
fe
f9
ee
f4
f0
f1
ff
e9
f9
fb
fa
ef
f6
0a
e5
fd
1b
16
f6
00
0e
e9
fe
12
f4
0c
00
f8
00
f9
11
ef
00
00
ee
fe
03
00
03
51
fc
f6
16
fe
02
02
06
01
ff
ff
04
ee
fd
02
18
fe
f5
0f
f7
03
0f
f6
04
12
09
e5
f1
1c
fa
fe
f8
f1
04
04
09
f2
fe
f7
07
f0
0d
fe
05
f0
ef
f7
fd
e3
fb
f2
de
fc
f6
11
02
ff
0e
f4
f8
05
0b
fe
18
10
09
d6
fb
ff
f4
0c
f6
81
fc
07
1c
0d
0a
28
07
08
f3
f0
0f
07
04
06
fd
fe
0e
02
07
f1
09
0d
06
09
05
fc
12
f8
fb
fa
07
01
03
0c
ef
f6
fb
07
08
ff
05
04
14
04
f3
0a
f6
00
ec
fc
01
f8
ed
18
d9
f9
07
fe
05
f6
fd
f0
03
f4
0c
1a
02
0f
10
0e
e8
57
00
fa
01
01
0a
e9
07
03
f8
04
fc
f3
fb
04
0e
0d
fc
02
08
f0
04
00
f5
01
08
0a
f0
07
fe
fa
03
f8
fb
fa
03
bd
f6
f9
e5
f1
f5
09
f4
0e
f0
da
0a
fc
09
15
13
f4
07
0b
00
18
e2
fd
0b
1b
0e
f8
fd
fa
0d
9e
03
ec
e6
ec
eb
11
fc
eb
0f
f5
f9
fc
fe
14
20
0f
06
13
07
fe
09
fc
10
eb
ff
01
e7
14
08
06
00
f2
f0
31
f9
07
08
f8
f1
e4
e7
11
06
ee
da
4b
ed
05
0d
e4
0a
fd
2b
1a
f1
ee
fa
ed
24
00
f2
20
10
03
0e
e1
f0
f3
ef
06
23
c8
81
cd
f8
23
da
f8
e6
05
ff
e2
22
fd
30
f9
ff
d5
2c
0c
ea
d6
26
05
c2
e4
30
16
0d
06
fe
10
f9
e7
18
f4
26
52
02
b8
f1
f5
11
1a
35
ce
08
50
1e
0a
26
06
00
de
0c
00
12
d0
e9
23
0f
f5
f7
c7
32
04
e7
06
ff
f4
08
1f
da
ed
4f
bd
52
11
17
c7
c5
03
f3
eb
1b
e9
1f
cd
0a
ff
04
1d
15
29
f9
f0
26
f7
fd
0b
00
05
23
f9
fd
e4
18
e3
0b
13
0e
04
15
fd
f1
1b
29
e0
de
c7
c3
db
18
fa
03
cd
20
1c
d6
dc
05
fe
ec
0d
24
f5
12
0e
00
fd
0f
d7
02
02
e9
14
14
f3
f0
f0
16
07
f4
fb
c2
dc
d6
db
09
1e
1b
0a
dc
19
0d
e7
ee
f0
f9
e2
0f
f0
ed
24
e4
db
f8
ea
e4
0a
f0
ac
12
e0
da
f4
f6
f7
fd
de
e8
1d
d5
f4
04
13
f2
0f
17
b3
10
fb
30
12
fc
ff
03
fd
0e
fd
0a
f6
0e
bb
e7
ea
e6
06
24
07
f7
f6
fa
fd
ea
d0
22
f6
eb
1e
06
f9
06
ed
1f
00
00
e9
10
15
08
c7
2d
15
11
0a
0b
f7
ce
04
cd
00
03
e8
2a
f0
f7
07
0e
f5
ea
5f
07
d2
1d
19
d9
f7
09
1c
0a
10
0b
f6
fb
ef
0a
e9
f9
cf
4d
07
fa
3b
fa
16
24
17
36
00
1f
37
14
20
e1
c8
2a
0f
c8
09
0a
de
0d
d7
26
f6
f7
0c
f2
ee
fa
f3
06
1d
f3
fc
33
ea
1c
07
07
df
f0
ff
b8
e0
22
c8
f7
0a
03
d8
1b
29
c4
f9
21
e1
1c
1a
f1
01
1e
0f
f0
f7
04
1f
f9
1f
f4
11
16
19
f3
15
f6
d4
2c
10
ab
15
0a
d2
bd
15
0f
ff
02
06
57
14
f3
06
fd
de
0f
07
db
eb
f3
dd
f7
06
f8
01
20
1e
b3
10
f0
f4
1a
02
cd
08
20
df
14
2f
1b
19
ed
e2
eb
1e
51
f2
16
10
f7
02
f5
07
15
07
fb
f2
0c
f8
e7
e5
f8
00
b8
2a
c3
fb
23
e7
f6
11
e2
17
21
d7
e7
0e
e8
2c
38
d9
20
34
14
e7
f2
ef
ef
e6
e8
12
f9
0e
f3
f7
e3
47
19
16
20
21
fb
fd
16
10
00
f0
21
f4
e9
de
f5
08
1e
fa
00
f2
ed
fa
eb
0a
12
fe
06
f8
f9
e7
44
f2
3f
19
ac
3d
fd
8a
3a
03
a5
24
f0
e5
e5
f9
f3
f6
17
fb
08
11
d5
ca
c2
ec
f7
f2
fe
da
c2
10
dd
f2
36
e3
f4
eb
f0
0b
ea
e7
3b
f4
f1
44
dd
32
21
f8
da
d4
05
e7
0f
2c
20
3f
f4
f9
ec
ff
0d
e9
f2
c1
fb
0a
26
18
0d
e4
11
07
f7
e4
de
d4
df
dc
f9
f2
02
0d
10
d3
c3
ee
33
1e
e8
18
f8
12
26
20
1c
41
f7
05
f9
f0
1e
25
e5
c6
f0
f1
33
0c
01
32
fe
10
ee
1a
1e
0c
f2
12
fb
03
de
14
c6
f0
0d
00
0d
ef
f5
0b
17
ef
26
f0
dc
02
0e
27
f8
fb
0e
0b
27
3a
07
21
f0
05
15
08
14
09
09
0c
e9
e9
23
19
ea
f8
fe
1b
e3
04
0b
bb
ca
d2
0a
2a
dd
39
11
00
f9
1a
0e
09
d1
ee
fe
f0
0c
fa
f9
07
cd
de
12
d8
1b
04
20
45
c9
f2
58
ed
f0
ef
ee
ca
c3
ed
4e
0b
fd
1d
17
25
16
e7
81
ff
47
de
04
1a
06
e8
0c
06
19
1f
e7
11
17
06
05
29
0e
ce
ff
ce
d8
03
eb
e2
18
dc
10
1f
0e
df
2a
fe
09
fe
11
2c
2a
2d
d8
00
11
10
02
01
1b
df
f4
2c
20
e5
f2
17
3b
67
13
05
37
30
ff
d8
19
0e
e5
f1
22
24
f1
f6
1b
39
2d
3c
e5
3d
11
e8
08
df
f8
dd
0e
e2
f8
09
fe
f9
11
11
08
f2
ff
f7
cd
da
f1
b4
24
f2
27
44
0f
15
fd
23
cd
b5
10
f2
fd
25
fc
ba
fb
0e
d9
dd
b9
bc
e3
df
31
f4
40
12
32
26
06
27
11
ed
5d
09
d7
03
ef
ff
ff
d4
e9
e8
f5
15
e4
08
f0
0c
06
fa
dc
20
1d
24
0e
f7
05
00
f9
f9
db
e1
1f
f8
ee
e3
e3
20
35
0c
09
da
a9
f7
fd
2c
18
15
05
e6
0f
01
e0
19
d0
f1
de
01
ed
c2
b2
b6
e5
c0
dd
f8
f5
fc
2b
3e
0c
1a
07
e1
26
e0
d9
ef
d2
09
2b
17
0b
1c
f2
e7
27
1e
f9
f9
ba
05
2a
1f
00
ef
e3
be
be
e3
fa
f5
1f
20
d9
dd
f6
e2
d7
e6
d5
e8
fa
f7
f9
10
d8
d8
4d
f4
ee
ff
07
cd
ff
11
1b
13
d9
db
f3
e3
cc
be
ed
c2
db
e3
c9
06
f6
21
07
03
f7
03
10
23
1a
f0
02
f9
db
f0
c8
25
0d
0c
06
dc
b5
f5
cd
c8
49
e5
0f
1a
ea
0c
1f
17
fb
18
06
fb
f3
e6
01
e0
12
1f
d0
f2
23
e0
05
17
ed
03
e1
53
3e
17
08
d8
d6
e7
f4
c9
f5
25
0e
e5
13
f8
0b
1f
a7
ed
05
cf
db
2f
44
04
01
13
06
0b
e5
15
fe
eb
18
f3
ea
eb
00
26
06
4d
01
0a
11
ed
d5
f6
f2
e6
d0
0b
22
ea
f6
19
04
16
fe
16
03
f1
03
cf
28
12
19
ef
b9
e2
ca
fd
10
1d
1b
e4
05
f5
e5
01
e5
ef
3a
fb
0f
eb
df
01
ff
fe
eb
01
fa
f9
f9
17
04
00
02
14
0e
0a
e8
15
f3
27
f3
f7
54
ec
fa
f8
eb
f6
03
0f
0e
e9
14
c7
1b
e5
ec
f5
06
0c
21
02
e7
fd
fd
d9
f9
fc
0b
1d
16
0b
0e
f6
e0
ff
eb
e8
e8
00
3e
f3
f1
07
e1
0e
07
1f
00
0f
04
fd
16
f0
f0
11
e3
e2
d2
ec
d5
0c
de
09
26
0c
d8
f7
36
e0
13
68
f1
d7
05
02
21
08
39
1e
ee
0e
e5
d6
d8
08
0f
f1
24
15
f7
06
f8
02
b2
06
1b
c8
1c
da
c7
d0
3a
0e
06
f3
dc
e5
03
fc
f4
d5
f9
d3
d7
18
d2
ff
30
fe
e0
ca
ca
d5
e5
d3
e8
13
e5
f0
2d
f5
dc
ed
dd
10
f0
0e
13
f9
f2
0e
11
fc
ff
09
f6
fd
e6
0e
ef
ff
17
03
f7
14
13
f3
1e
2e
01
41
1b
c2
12
f1
d1
de
d9
0e
e5
db
2d
f0
09
f6
01
29
09
10
10
0f
17
06
13
18
00
03
15
12
d6
15
ff
14
01
f5
30
f0
06
2d
0a
15
f7
d5
e9
06
03
ee
10
00
f7
e0
ff
10
f1
05
0a
06
fe
0c
02
d1
15
18
d4
fd
05
00
15
30
16
fa
4c
fc
f0
0d
f8
cd
07
f7
db
f4
f5
01
08
09
02
f9
07
0e
02
0a
1d
dd
15
f7
f1
f6
fc
e6
07
ea
03
01
06
15
15
fd
e2
d6
f0
d1
e7
fc
ec
d5
16
11
dd
3e
34
dd
22
df
12
14
ed
01
f4
f8
01
15
31
dd
f1
0b
0f
f4
da
08
03
1a
f0
2a
f1
e6
28
17
03
f3
05
22
3e
0c
b3
13
03
e0
06
ea
06
0b
12
09
09
00
04
0a
fc
08
ec
23
e8
f7
f8
e9
c9
f8
19
e7
fd
f5
05
29
0b
37
f1
dd
7f
1d
c8
fb
e0
e9
32
eb
f5
2b
bb
c5
14
02
f4
ee
39
fa
ea
ec
f4
f0
08
00
eb
08
33
d8
e2
f1
ea
ff
11
d2
08
0c
d4
00
06
f9
07
05
fa
da
f4
0c
2f
22
eb
14
e7
e3
e3
14
0f
ed
16
0e
fb
fa
fc
f8
f8
06
2b
0d
f7
10
08
24
18
f7
f7
f9
ed
07
04
f5
fc
fb
05
01
fc
0d
f8
fb
fc
f6
21
ff
ee
18
2d
df
ed
22
0a
fb
07
fa
17
f1
1c
fb
fd
02
d7
f4
cb
34
df
fa
4d
f7
0b
0f
0b
15
32
0a
fd
e6
fa
f5
fa
2b
d7
c5
21
f7
e6
06
ef
eb
f9
e3
09
3f
d7
01
37
17
14
08
05
ff
04
05
f2
fd
f1
f2
e7
11
ff
20
f7
0d
03
ef
f7
2c
12
11
00
32
2c
08
f8
f6
d4
0f
fa
f7
0a
f1
fb
ce
1a
c9
d8
f3
c8
ea
e2
ec
19
15
fb
e9
11
37
fa
fa
01
02
03
ef
ea
e9
f3
e0
03
f3
db
c5
c3
b5
d0
d2
e0
02
fc
f0
ec
f4
1c
28
0e
06
02
f8
1a
24
d9
d5
d0
d1
eb
34
0b
38
1c
f6
69
d8
db
2e
08
f6
0b
0a
2e
eb
ee
03
22
d0
25
0e
25
37
d3
cc
5a
0b
09
19
ec
f3
39
fa
f0
2d
29
f6
e4
f8
e5
f3
2f
f2
12
f2
14
ff
f9
13
f8
0a
12
34
e9
f8
ef
f3
ee
01
d9
fd
e9
0e
2c
0a
d8
ee
f1
c0
eb
3c
f0
ef
f8
e5
02
29
11
10
1a
cb
d2
eb
e3
0a
ef
d2
03
f9
ff
21
e4
08
04
01
0b
03
10
06
20
e4
ec
f5
34
ee
1e
29
f4
fe
f3
bd
f9
af
02
3b
03
1b
3d
1c
14
db
04
1a
d2
14
fe
ca
18
f7
e9
0e
34
db
2a
f5
08
e8
c2
f2
09
eb
33
09
d3
37
2b
0b
cb
f8
27
e9
30
04
fb
16
ee
23
f6
1a
12
0c
36
16
2b
f8
07
16
15
fc
32
0d
d7
04
dd
f1
0b
a2
14
3b
c0
f9
3d
0b
ed
0e
f7
19
f1
02
0b
08
e1
dd
df
fb
d7
05
fb
fb
ef
e4
11
11
ee
f2
fb
05
18
1b
e8
d5
d8
c5
f3
cf
c0
17
dd
ee
20
09
dd
cc
f5
37
11
e9
f9
f2
08
fd
12
1e
da
f0
f6
07
f7
cc
d2
28
b4
f8
f3
f3
1a
c6
0d
1d
02
22
11
33
1b
dc
19
ed
10
de
1c
f9
fe
0a
26
f2
ef
1c
17
e8
e0
de
17
2c
39
1d
e9
d7
d6
fa
fe
fd
17
e6
fa
3f
ea
13
20
a0
13
dc
f9
05
ea
ed
02
f5
fd
0d
ed
23
15
bf
ea
d8
0d
00
f6
17
bb
14
31
e1
10
2a
e5
e9
0a
e7
19
e4
8f
ef
03
d3
07
0f
fd
f3
fb
03
05
ed
e8
ff
23
1d
e1
12
de
09
01
10
ff
01
ee
d7
52
08
b3
07
e7
f5
df
fd
3c
d3
f8
f9
dd
ec
ff
f5
d8
fd
09
f9
f6
01
d9
ff
2b
f0
f9
33
0f
e9
f8
f4
ee
ed
12
ee
f9
d4
dd
e8
0b
37
20
0a
0c
14
46
03
03
02
fa
0f
2a
0a
d7
f0
07
ed
0b
f9
f5
f0
d4
f4
f9
d4
f1
30
06
f9
1a
15
03
2a
e6
11
21
de
0f
12
cc
0d
33
eb
24
2d
bf
27
20
de
f5
1d
13
01
f3
d0
0e
eb
09
fd
2d
13
fb
15
e5
d9
c3
c6
05
f1
f2
f6
c8
e3
e3
f1
e3
02
30
00
12
f0
1c
1b
1c
fb
f1
10
10
f2
f8
d2
ff
11
fd
1d
14
f6
f0
02
e8
14
cb
18
0d
fd
ff
e1
eb
ed
01
09
0f
e3
e3
ec
f4
f1
fb
07
13
24
d4
d3
c1
07
1f
f7
05
fc
06
1c
d5
d6
02
e0
e2
df
d8
ee
df
b1
d4
12
30
0e
1c
e1
16
1b
00
2c
fa
d9
1b
23
03
0e
de
81
ee
ee
c7
fd
c1
de
da
c5
ef
f2
e9
29
f7
f5
e8
00
10
01
ed
0e
1d
fe
fa
07
ea
11
16
12
07
02
0e
00
00
ff
22
ff
e6
28
11
05
0f
9d
15
10
1b
11
f7
f0
f1
03
05
fd
e6
fc
24
10
17
19
05
fd
e4
d7
e8
fb
de
11
f4
e7
ed
ec
e6
04
d3
ec
01
e4
f6
fe
fc
e0
02
e4
f0
05
fb
0e
e5
08
f4
de
04
e9
c8
fa
17
17
0e
03
1b
f0
0c
d6
cb
fa
04
08
de
d5
05
ea
25
ee
05
06
25
08
f3
fd
03
08
1b
03
16
f0
d0
0d
eb
1a
7b
00
f5
07
11
d7
19
11
f7
2a
f1
ff
f5
fe
f0
f1
f0
1a
26
16
fa
18
12
e1
ff
de
e6
62
e7
0d
23
02
fe
e1
05
21
fe
24
0b
0c
10
ee
d5
09
ea
fe
1a
02
ee
de
0c
14
fa
fd
e8
f9
06
e5
fb
f5
c3
ef
e1
c9
d5
04
d0
02
07
16
05
f4
23
f0
f8
0d
0b
ff
fd
01
1c
1c
f6
df
f2
e0
08
c6
ff
f1
b6
f3
fd
98
f5
08
1f
12
f9
27
0c
0d
09
13
e9
07
f9
d9
ff
04
f3
c8
ed
fa
19
ea
05
3a
01
09
ec
09
f6
14
1e
fc
f1
16
eb
06
f1
f9
f7
0a
0f
fb
07
08
fa
f5
0a
16
05
f9
03
33
f6
31
e6
eb
af
df
fb
9f
f4
04
10
f1
f2
c4
f8
03
12
12
ee
04
0a
0c
e4
d2
02
01
f1
f1
e6
03
00
f0
17
06
03
03
ff
f7
fc
d5
f0
ea
e3
0d
ea
02
0e
03
e5
02
06
fe
fb
f6
f3
ed
05
16
ef
12
1c
ff
f4
eb
12
08
e0
f2
ed
f9
2d
e4
e4
0f
f5
fe
24
07
f2
07
fc
0d
19
18
fc
e9
ef
02
60
03
09
f9
0f
f5
f5
e8
fd
fa
fe
06
11
0c
dd
16
0b
bd
d6
0c
fe
e8
0e
f8
01
e1
01
f8
02
07
04
04
0c
da
03
f7
14
f8
05
05
fb
0b
12
ed
f4
1d
fe
03
f5
fd
12
10
e2
07
02
f4
f6
43
f7
fb
e2
f2
e8
2b
f3
f9
04
1a
0e
09
05
0e
f8
e0
39
1a
04
f3
f9
05
16
04
fb
1f
ef
02
f0
f9
07
dc
09
1b
23
0f
0f
12
d8
e8
15
f5
e4
f7
13
ff
04
f5
e7
e7
10
e6
f8
de
e5
fd
0d
0f
fd
12
0a
11
c7
0b
0d
4e
15
01
0b
fd
17
17
25
fb
ff
f8
fe
97
e5
fe
e6
0e
fd
03
f9
ef
00
f3
0f
fe
f5
ff
f2
fa
e4
f3
02
f7
de
fa
fe
d6
ec
11
01
09
ff
cf
f0
f6
af
ef
f9
ee
fa
f8
f8
f2
10
0f
1a
0e
fd
29
13
20
ef
03
10
e9
fe
f7
04
18
06
17
12
c4
08
cd
81
d3
01
03
e0
dd
fa
d8
d7
1d
e6
de
ba
f3
f6
18
fb
17
16
15
f1
35
13
04
f9
07
0c
05
16
dd
f4
0a
dd
4d
17
e5
ee
ed
19
3c
f6
d8
17
50
dc
ec
32
02
09
ee
d1
1e
e7
e2
0a
03
d1
d8
f1
f8
ed
ec
e7
c2
f1
ff
01
f0
ee
30
cb
02
fc
e3
00
02
e6
12
25
04
e1
00
ff
0a
e6
0c
11
f0
05
17
fb
10
f4
0a
f8
0a
f6
0c
11
06
08
fd
d7
e9
12
cd
06
10
09
06
ef
04
10
0b
f7
eb
0d
00
1a
22
13
f0
13
91
f1
c1
c5
43
05
f5
f0
ff
0a
1b
06
1c
15
eb
19
04
e0
00
e8
03
d3
1a
01
dc
0a
0f
ff
f9
15
00
f9
cb
d1
b1
cf
e3
c6
27
28
1b
0b
c4
01
0f
12
03
0c
05
08
ec
07
0a
fd
f4
18
04
e8
00
ea
01
10
e6
c5
e4
f0
f0
32
f4
fe
03
e5
ed
15
07
0d
0d
08
f7
0e
0b
16
0d
ef
13
07
00
ec
e5
10
af
d7
14
f0
01
09
09
0b
e9
0f
f9
0d
06
16
e3
db
ec
f8
10
01
03
07
0e
ee
19
f3
ec
51
ec
d7
e2
df
f9
fb
f5
f3
24
12
d2
f0
f8
18
0b
13
1d
d1
06
02
ff
f8
e5
f9
23
19
0c
fc
1e
f4
0d
f6
bd
f5
b0
a6
b4
02
17
03
22
0d
e8
04
04
0f
0d
fd
f4
f0
e9
ff
e6
27
fc
f9
f2
f6
20
fc
0b
21
e4
12
09
b2
14
e1
06
fb
f5
1a
0a
04
0c
f7
f8
ec
02
10
0a
11
d3
c2
e8
fc
0e
f5
05
02
eb
f4
f8
f5
ed
ff
17
f4
f8
02
fa
f7
06
ea
fb
fc
0d
1c
12
f2
15
fa
e9
e2
20
ec
19
12
fd
03
24
13
25
13
3a
3b
0b
09
cd
08
0c
da
03
fb
30
02
fd
26
fe
ff
e2
0d
08
48
ff
0c
ed
cf
fb
03
ff
e4
05
23
09
0c
03
2f
07
0d
05
de
f9
0e
f0
fe
15
07
1a
dd
cb
dd
0a
f9
11
0d
ef
0a
f3
06
00
ed
f8
10
24
fe
f2
00
1a
08
03
10
25
16
32
1f
01
bb
1c
07
f2
2a
fc
f0
f8
fa
f2
d1
0c
fe
fc
e6
de
12
1a
07
04
1a
2c
09
00
f1
07
ef
f2
1e
f0
e6
02
14
0e
e3
f5
ad
e4
33
df
f3
00
fb
1a
fa
9b
fc
41
f2
b9
21
00
e4
06
51
f2
d9
e6
f7
fb
81
ee
0a
04
14
08
59
09
01
ee
0e
29
e3
08
f4
e2
df
11
df
30
18
d0
1b
0e
f6
ec
e8
07
0b
e7
ec
04
04
f7
f7
e9
f0
ff
da
cb
e9
0c
fc
fe
1d
34
15
32
04
21
ee
f7
03
fc
1d
37
0a
5a
db
26
08
d2
18
c0
e9
1d
27
09
24
19
0c
11
e0
0a
25
30
18
fe
ff
06
0f
ed
f1
07
1f
cc
2a
f8
03
e4
e4
f5
db
0e
d7
e8
19
ed
0f
0e
13
f9
2c
15
df
0a
f6
f0
f6
fa
06
2d
16
09
fd
14
09
11
17
ed
f0
d8
f8
ea
fd
fe
f1
e6
fd
e1
7f
f7
fe
1e
f3
fa
f5
f3
03
f8
f8
fe
d6
f8
f9
0a
f5
fe
2a
01
fc
f6
f8
f2
f5
f7
e1
f4
f2
f0
cf
06
02
f9
fe
00
32
1c
01
0b
17
07
fe
f9
16
24
fe
0c
fb
e9
ee
03
fd
04
e1
f8
f9
0c
03
f6
dc
13
f9
75
08
f5
1a
07
01
03
f4
ec
e3
fc
f2
04
01
00
e6
ef
ce
01
06
ff
1d
07
ff
ff
0f
03
f6
0b
e7
f0
09
fc
e9
0f
0a
d6
f5
ec
cc
fe
11
0c
02
f4
0a
00
0a
04
f0
dd
09
04
00
1a
10
04
f4
0b
fc
fa
26
0a
eb
08
f4
e7
08
0c
02
e6
e4
eb
eb
f8
ee
0f
ec
f9
29
25
db
01
f8
ec
01
1b
f8
05
0f
14
03
08
1b
f9
02
fd
17
10
d0
09
fc
f4
00
ee
f8
18
10
14
08
12
ec
0e
03
0b
01
18
0d
fd
08
15
04
fa
02
f8
f3
f7
fc
fb
eb
e5
ef
0b
02
00
e1
0c
11
f5
fa
f6
0a
f4
e8
f5
03
0b
f6
09
fc
08
f8
f6
cc
09
f4
1a
ec
e5
23
11
f4
2b
03
0e
f4
0f
ff
0f
e5
eb
df
fe
05
b8
07
08
f4
03
2a
11
0c
12
0c
01
fb
fe
f9
ff
12
03
f3
0d
03
01
06
08
1c
0f
f4
01
1f
05
0b
1e
05
1c
30
0b
04
25
11
02
fc
f0
0b
4d
f3
ee
fc
f2
fd
02
26
0c
da
f2
04
0d
f8
05
fe
f2
ee
d3
0e
09
fc
11
dc
ea
1b
24
15
10
09
fc
00
e6
fd
07
fd
46
e7
df
39
f7
0e
f7
f9
f6
1c
00
d6
fb
f7
f9
e9
de
ea
1c
02
04
f2
10
05
0c
f7
e4
c9
04
fe
fd
02
0b
08
12
04
db
f5
e3
da
f4
01
f8
ef
e5
ff
17
01
f7
0d
fd
08
03
f6
fc
17
ed
fe
f0
f7
08
f6
c6
18
01
2d
04
06
07
19
0c
f3
d2
0c
05
e2
04
0c
12
f9
ef
f4
ff
03
f8
fd
0e
06
0a
02
df
f6
e8
eb
fd
fe
0e
db
fb
f8
16
0d
f9
f6
f9
f2
01
10
31
0e
18
12
0e
0a
e9
08
2b
1c
ff
cf
e8
f5
00
05
ea
eb
e4
f4
fb
fa
fa
fe
1b
f0
fc
08
02
00
16
07
04
d9
1a
11
d8
09
fc
04
05
10
ff
fa
f2
14
0b
12
0a
08
08
e7
07
d8
f4
ff
0d
37
fc
fd
13
f1
14
18
06
fb
f7
f6
fe
f9
e3
e8
0c
00
21
18
fb
ff
24
ff
d5
b2
03
19
06
03
ca
d1
fd
eb
dd
01
f4
fe
f4
f5
09
fc
16
fa
01
20
f9
02
f3
f6
11
15
16
07
fd
01
ef
f1
06
ed
fc
07
04
1b
13
fa
ff
e7
04
06
d0
13
03
e8
e3
f3
28
29
1b
d7
e6
06
ee
10
11
01
fe
f5
13
fb
e6
0f
ef
ec
df
15
ce
06
17
0c
fd
cc
c0
c1
f9
36
fc
2d
5c
22
e3
dc
f4
1b
cf
20
fa
fe
05
05
eb
d5
e6
d2
da
16
f8
dd
13
19
08
41
17
45
15
28
16
1b
0e
22
94
8c
af
d6
ec
d1
f7
02
f2
1c
5e
12
1e
cf
19
e6
2a
07
e1
2f
f3
09
be
db
0c
0c
f7
e2
03
fb
e9
f3
d2
15
0f
fd
2c
b3
d5
13
f7
02
0b
34
22
07
f4
04
d1
b8
de
e6
f5
0a
ea
1a
04
25
57
ed
0e
1f
1b
ef
fd
f6
e3
bd
fa
eb
c9
d9
0a
fd
06
c2
24
ab
e6
d6
01
12
39
1a
f4
fe
eb
fc
fa
0b
0c
c8
ce
03
32
f8
09
e8
eb
18
27
fc
18
f7
dd
0e
fa
11
dd
c5
d9
00
1b
e7
fa
f8
0d
e9
2e
fe
e4
00
f3
11
03
fb
e3
f5
24
25
12
07
0f
27
0a
12
44
0a
fb
b3
04
06
08
0a
07
50
15
e3
4d
e6
e7
02
f7
14
00
fe
28
2f
d1
08
c6
fa
19
c7
18
1c
d3
02
f4
e7
f4
21
0c
f8
0d
b7
f2
f2
eb
f4
10
4b
00
11
f0
f9
f8
09
03
0a
4b
34
ff
b7
b4
ec
f7
e9
f2
49
ed
c4
81
b0
e7
f5
e4
12
ee
28
f6
dc
f1
e5
e5
0c
e8
c5
d4
da
07
14
06
f8
04
11
16
f4
eb
0e
fa
09
e6
01
03
0b
21
fd
2b
1d
e1
02
26
f0
ee
01
1e
e2
c4
25
15
1a
10
10
09
b5
db
08
0e
ed
00
0a
e0
ca
f9
0c
08
1c
53
23
f5
f0
f2
cc
c4
d8
04
be
ef
03
e5
0a
f5
f5
eb
fb
f7
e3
e6
f8
20
d6
30
3a
04
31
f4
f7
06
e6
e7
dc
27
12
1a
3a
dd
cf
eb
00
fe
30
22
20
23
11
1f
11
e1
34
be
fe
ea
eb
03
31
e5
ea
67
37
fa
e4
fc
f8
15
22
05
cc
ff
fe
f0
f3
0e
26
16
01
53
e5
26
0a
e5
04
cf
f1
e8
fa
0a
e3
13
1f
e4
af
26
08
f0
02
13
e0
03
11
ff
02
f8
08
0d
05
08
f8
e0
db
17
f5
38
f9
ea
21
00
14
1a
e4
d9
f4
e7
18
f5
f3
f5
2b
25
f0
dd
d7
0b
07
16
f8
f6
03
34
15
1a
f3
17
09
03
03
fe
03
ae
f0
12
fd
04
fe
fa
fc
1a
16
ec
09
0a
3f
f6
dd
fc
fd
06
f3
e1
f2
ec
03
3b
ff
01
e9
05
f3
25
ff
15
f3
2b
cf
fb
cd
f9
02
06
1a
17
06
02
ee
f6
14
f2
05
c2
f1
09
e9
1d
14
f6
d7
fe
01
f8
1b
fd
b6
ff
1c
0a
f5
c9
cd
f4
20
19
04
29
dc
39
05
a8
2c
2a
4c
1d
fa
03
00
21
19
e2
18
07
0c
fa
f0
01
0d
f2
f5
05
f3
f8
0f
0a
fc
f5
fb
f3
fb
04
0d
05
01
f8
24
0a
f8
0a
14
06
0a
f8
ff
0a
27
17
f8
d3
f5
fb
ff
ff
03
0a
1f
06
1d
08
e7
e6
0c
09
07
0c
35
00
e6
fd
07
03
00
12
01
fd
06
ec
ef
f5
f4
db
d8
de
ef
fb
ef
05
e1
11
0a
de
07
e7
ac
e8
18
f8
f4
f7
08
f1
fe
ea
e6
fd
e9
14
fd
0d
02
f9
e7
c9
f8
1d
07
fa
f7
e8
04
fa
02
0a
f9
03
e8
e8
f3
e2
7f
fa
f0
f5
24
00
10
12
08
ee
01
e6
e1
e1
fe
0b
fa
fe
fe
fb
10
fb
ff
04
e3
ff
eb
3c
f9
11
1f
0c
08
21
09
db
dd
e2
f9
f1
f0
05
12
08
fd
03
15
02
13
0e
11
ff
0c
09
0b
0f
ef
e8
ef
00
f5
04
06
ec
09
0e
fb
06
0b
d9
f9
fd
f8
ff
09
16
0a
eb
fd
f6
04
00
e6
08
22
00
0d
ef
03
e2
c4
e0
0b
02
04
f9
e7
f0
fd
ef
fb
f8
f6
00
03
05
06
08
fd
20
0f
de
0c
f8
ec
f7
f7
62
0c
f3
13
0f
f5
0a
fa
ed
e7
01
0d
f0
fc
05
f6
fc
1c
fc
03
0b
e6
05
0a
05
f1
00
17
ec
fa
ec
fd
10
09
16
fa
ef
f4
f7
c3
f3
17
0a
1c
f6
62
fc
0e
ef
d9
10
07
07
ea
fc
39
12
19
10
f6
07
f5
f6
01
08
03
f2
05
04
f9
00
e0
f7
ed
f1
e9
f6
0c
03
f2
e4
f4
04
06
ef
02
fb
00
00
14
0a
e2
f3
ea
e3
0f
06
0e
ed
f6
e3
0b
2b
fb
f7
c9
f3
06
0e
0c
fc
f7
f1
e7
e6
e8
09
33
0d
f8
ef
ff
05
f6
14
20
fa
16
f7
03
12
f4
06
fb
e9
e3
0a
12
0b
f6
02
f1
f8
0d
ff
f4
0a
1f
fd
f9
f1
f3
fd
ea
fe
24
e7
f6
0c
16
00
00
02
07
09
16
f2
fc
10
f2
f7
00
f4
f5
e2
f5
02
13
fe
08
0d
fc
f8
14
f4
02
f1
06
0f
00
e7
08
19
fc
ef
e2
fd
f4
f3
fb
f3
09
13
ef
fd
ed
0a
d3
00
fd
f0
fe
0c
13
09
10
f9
02
0b
f8
f7
fb
0a
fc
c8
ee
fc
00
e7
f6
f5
ea
fe
fd
f1
fd
06
1d
00
f7
e9
f3
0b
01
06
fb
58
f2
02
14
00
f6
c9
f4
05
12
0e
f3
fa
f3
fb
e8
08
02
13
fe
fd
05
0e
e4
01
07
f6
0f
ff
15
f6
1c
ea
e3
f1
f0
04
fb
e6
e5
f2
09
34
17
f7
fe
0f
f2
ef
eb
10
02
06
fb
f7
f9
fb
0d
ff
21
24
ff
ff
f1
f7
f3
c9
e3
e3
dd
e2
f1
e3
ff
06
f2
0d
ee
fb
f0
fa
da
07
13
f6
0f
0b
fa
11
11
e8
f4
0d
13
01
de
fc
fa
03
fe
fa
fd
06
fb
fa
fd
fc
00
03
fa
06
00
06
09
06
fb
ff
fd
05
fa
f7
15
f3
00
ea
09
01
0d
06
fb
0a
0a
ce
0d
00
fe
fc
04
fc
fd
fc
f7
f1
02
ff
f6
ff
12
01
fb
e6
f4
02
fc
fd
ff
02
ff
f1
0d
f2
f7
eb
f1
e7
da
e9
ff
eb
00
fa
ea
ff
f9
fc
f4
f4
c8
f6
06
00
04
04
08
0b
05
f0
f1
03
00
07
02
09
f8
fe
ee
f5
0d
06
03
fe
f4
fe
f4
20
f9
fc
07
00
fb
06
f2
fb
1f
06
f8
02
fe
ff
14
fd
ff
fd
05
fa
fd
f7
f9
00
fe
0b
07
0e
ff
f0
06
07
17
0e
00
5e
f6
f8
01
fb
fe
04
04
08
ec
06
06
07
01
07
04
00
00
fe
f1
04
09
03
04
ff
ff
ff
e3
02
06
f8
02
fb
e1
03
07
04
06
04
06
06
f8
08
f8
05
f6
ff
04
03
02
00
f6
01
08
00
f9
fa
fa
f9
f9
df
fe
06
e6
07
fd
0a
02
00
18
06
f9
f5
ff
f9
00
fb
01
f6
ff
04
f3
06
01
f1
fb
01
04
ff
f5
2a
f3
02
fd
02
ff
00
0a
ed
fe
0b
fb
01
fd
f8
fd
07
ff
08
01
08
0b
f5
02
fc
09
09
f9
f6
04
00
03
06
f0
05
01
e3
fd
01
f8
06
04
ec
06
fd
0e
fd
f9
fd
03
03
0b
03
f4
eb
fb
00
08
04
fe
ff
f5
08
01
16
f7
f3
f8
fb
fa
fe
f2
f7
f5
03
fe
01
ff
06
01
08
f8
fc
ff
fa
f9
0b
fb
03
f5
fd
02
00
fa
01
0a
16
fd
f4
fd
09
fc
01
ff
fd
e9
f5
fa
36
f2
00
13
f9
0b
42
1a
07
81
f8
fe
fb
fb
ff
f1
02
07
fd
01
01
02
04
04
06
00
f4
ec
0f
03
fe
02
ff
fa
f9
ef
0a
0f
06
fa
05
05
fc
0a
03
fa
07
ff
fe
f9
ff
14
00
04
00
05
03
fe
00
08
02
f9
0d
03
f3
01
06
fd
fd
19
fd
02
d5
f6
01
f8
08
fb
ec
f8
fc
39
fb
fe
fe
07
09
f5
fd
f5
18
f1
fe
09
01
fd
06
f5
f2
e7
09
05
07
06
f9
01
07
f6
f4
0a
00
06
02
f5
00
0b
fe
ed
f9
fe
03
07
fd
05
fd
fe
f1
05
03
08
05
0a
0f
07
04
f5
fc
02
0e
03
04
f9
ff
f6
03
f7
fe
fd
f8
fd
fa
03
05
04
f9
09
fd
fe
fb
f0
fd
05
47
f0
08
fb
05
fc
f6
fc
ef
ed
ed
00
ee
f7
f1
f4
f2
fb
2b
fe
ff
02
04
fd
ff
ff
f9
ff
0e
0e
fc
f8
f9
ea
f6
03
36
f6
fd
f8
fc
03
ee
fe
07
cd
03
fa
fb
00
00
0f
fa
07
04
fe
fb
eb
fa
f6
fc
f8
04
47
ff
f6
06
ff
04
07
0d
fc
f9
09
f9
f5
db
f6
1a
22
20
07
ff
00
03
f6
f2
5a
34
18
2d
18
12
f6
03
ca
f0
35
1c
f0
00
0a
e8
e1
f6
c2
db
f0
f0
e5
08
fa
00
2b
01
de
1a
f5
15
24
0c
18
f7
e8
ec
f3
03
04
1c
2b
1c
ff
2b
05
f0
d4
eb
03
fe
01
e0
03
f7
03
ef
ed
ef
e1
0a
11
94
12
09
ec
0b
e2
02
14
54
39
e3
f1
e6
e0
13
1f
2f
e7
c6
0b
01
ed
05
ff
c5
02
10
1b
01
0b
17
fe
cc
25
d8
f1
7f
f9
08
13
f7
12
45
13
f6
0e
fe
08
29
01
0e
b3
ef
0c
e6
0b
fd
28
fc
ec
ff
06
f6
d4
fd
02
d0
fc
da
2d
ed
da
fd
d7
e5
e8
e6
f8
f2
ed
02
f6
41
1a
f9
18
fa
32
cd
17
6f
e6
dd
24
b8
fb
c6
fc
0e
1f
19
ea
37
fc
35
f0
12
04
cd
f6
f4
11
f9
15
1a
fe
19
23
ec
37
11
d3
f8
42
12
19
cd
20
05
d0
04
1b
50
0b
00
f1
fb
de
d6
ed
fc
b8
01
e1
f7
ed
07
0d
19
f0
e7
ef
0d
f5
f6
02
ff
e5
00
f3
e0
f6
32
00
1a
c5
0c
dc
ec
e5
14
58
0b
24
ee
f2
e0
35
f8
1d
da
54
f0
e2
16
c6
41
d9
f6
13
e5
f6
08
f5
fd
eb
02
e1
05
f2
ed
e5
f3
15
02
25
de
d8
22
01
10
1e
03
f2
30
00
4f
ed
db
11
fc
d9
24
e9
c8
48
fd
db
46
ef
f0
0a
ff
f6
ef
fc
13
0d
db
0c
14
23
19
1e
f2
10
fe
02
d3
27
fa
d8
47
fd
f1
2b
ed
db
4b
dd
e3
3a
e4
d6
1f
e2
17
e0
0c
d0
03
ec
fe
fb
0f
f7
c3
05
f9
ee
fc
25
19
f0
fd
fd
d8
d0
22
4a
d0
ee
e5
15
1d
19
e3
00
06
fa
1d
ec
f2
e6
eb
13
f5
35
15
03
01
21
34
18
f9
05
ee
ff
2c
fd
f3
f7
0e
0b
1c
ec
0d
dd
0c
f3
db
e5
ff
d7
08
e4
00
11
fd
e7
c3
eb
fb
e0
cb
e7
09
0a
da
f6
0b
1e
02
0e
0a
fb
0b
16
12
22
13
03
0c
de
04
f9
e0
f4
42
e8
f8
10
ef
12
29
20
14
03
cc
ea
08
f8
fd
f8
21
e3
31
27
f2
0c
fb
1b
ec
ec
e3
f0
cd
e2
1a
34
0a
dd
ee
df
fa
1d
02
f4
42
ea
0f
0f
39
07
23
0c
e7
02
07
f1
f6
05
ed
f0
f1
f4
01
df
0d
1b
1f
40
dd
3b
1f
03
12
0f
d3
02
04
0f
00
e5
da
e3
15
eb
03
0f
6a
1e
0b
06
30
23
24
02
1f
40
01
f0
26
f4
e5
ca
d1
eb
f2
d9
14
dc
0e
e7
3e
f1
00
32
ff
f1
41
eb
e8
c2
00
c9
ba
cd
bb
d3
dd
f9
07
f5
1a
1d
0c
26
fd
ec
42
2b
cc
f3
43
0b
cb
08
26
20
20
e0
fd
30
15
da
f3
34
2e
f8
ff
3a
c8
e9
e5
05
fb
06
1f
06
ef
be
fe
11
19
2c
07
f4
17
e8
d2
30
f3
ff
e6
eb
e0
25
07
0d
26
19
f3
f2
ed
0a
ec
2b
16
27
0d
fe
00
be
c4
9d
c8
ea
b7
ff
f2
0b
03
0a
01
08
01
f2
f5
cf
f8
01
e4
f1
09
15
d5
fb
2c
15
11
e7
ff
e2
01
08
fa
f2
10
f7
07
1c
f1
ff
2a
fb
17
ef
f1
d4
f5
f4
ec
ed
30
fe
2f
f5
fe
03
0a
36
fe
fb
f0
0b
e6
21
cc
36
7f
34
00
03
00
0a
55
05
fb
f1
d3
f7
09
01
f6
cb
02
07
28
14
06
f9
00
e7
07
09
02
e5
28
0b
da
08
dd
01
0e
f6
ff
ff
07
f5
fd
06
e2
f4
e3
f2
fb
fc
ef
0e
f9
03
dc
e7
da
d5
15
ad
f2
12
0f
1a
ed
0a
09
19
fe
f4
09
e6
0b
25
0a
32
f7
ed
0c
23
6a
2b
e3
dc
d6
ef
26
fc
07
e8
fc
ee
df
01
eb
10
1c
ef
08
e1
00
c0
e3
0d
fc
20
e7
f9
01
e6
e8
2e
22
25
f2
09
e1
ef
04
ec
ec
11
06
1d
fe
f8
fc
13
1c
f4
f7
04
15
0b
e9
1c
28
31
36
ff
e1
f6
26
0f
23
32
fc
3d
10
cb
1e
27
ff
d5
27
1e
15
de
02
17
41
36
29
09
0a
e6
11
20
22
ff
b7
f9
02
df
0b
01
07
ec
08
00
e9
df
15
fa
02
15
f4
e3
e6
04
f7
3e
0c
04
0e
ea
d6
15
f8
0e
1b
ef
19
da
f4
f2
f4
f1
f7
dc
f0
fb
e9
fd
f3
fe
df
df
29
e8
f5
3c
00
f0
d5
2d
0d
f5
01
45
04
f2
fe
e2
02
d6
1e
09
1c
23
fb
fc
e8
13
21
e7
f4
0b
e8
df
0d
17
05
f3
18
f2
ec
ff
f9
02
01
ed
f5
20
0f
03
0f
00
13
f2
de
24
fe
ea
eb
30
1e
f4
f7
e2
f4
5e
e4
18
3b
f8
e9
00
18
03
f4
17
ff
fb
fd
14
fb
e2
17
16
e2
e6
13
ff
db
20
13
c6
ef
fe
22
0b
eb
0e
0f
ec
22
e9
05
11
e3
f7
f6
e4
0c
29
fd
e1
14
04
ea
d2
40
3b
13
40
de
24
03
de
09
46
07
fc
39
01
01
19
f0
29
ee
18
25
b2
12
eb
d1
04
fe
f4
fc
f8
e5
1b
e8
dd
09
2b
0c
f1
09
f3
f7
fe
0d
16
fa
d6
f6
fd
e8
f5
1f
04
0b
e6
d9
da
f4
e1
ee
ec
e4
ea
0d
2d
22
d1
20
16
2e
0b
e2
f7
3f
0f
da
ce
cd
f3
09
d7
f2
d2
ed
00
da
f0
04
0d
ed
f3
19
ed
ee
f9
1b
f9
e5
0e
ef
05
f3
e4
d9
1b
0e
37
12
f0
1b
e5
08
12
fd
e6
26
0e
db
e8
ef
ef
c6
f7
17
f6
e9
f3
f6
e1
fb
32
c8
0d
24
f1
02
ef
f3
ab
e8
f3
fb
f5
e0
eb
f1
19
13
de
20
09
fe
f9
06
13
fe
fa
2f
45
f5
03
fc
0a
df
29
11
14
3b
ec
ff
04
df
14
0c
e8
0c
15
f9
1b
ec
13
f4
dd
f5
29
0e
ff
15
f1
ea
04
0b
10
19
2d
07
e6
e0
0e
fb
df
2d
0b
c0
00
0d
02
0b
15
19
1e
12
1f
0b
0d
c8
18
24
fc
ff
c3
f5
0b
fb
f6
1c
03
b8
36
0d
b1
39
0a
df
19
25
e1
2e
0e
05
19
29
e2
ff
fd
d5
0f
18
fd
05
01
1d
f4
38
15
ed
21
09
fb
14
09
d4
11
f0
fd
06
f5
22
06
ef
ed
f1
df
07
45
0e
03
19
12
e5
0c
1b
09
02
19
f0
fe
09
0d
0e
f9
ea
07
06
00
28
0e
ed
e2
e6
06
de
18
02
de
07
1c
ef
1b
f9
ee
3f
0d
10
16
19
f9
0a
0d
0c
e7
f5
00
f6
f4
f9
05
15
e3
06
08
ee
ef
08
27
03
f3
15
ef
ff
09
f9
fb
fb
ff
06
e0
d5
0a
03
fa
0a
28
ef
fa
08
c2
06
b9
dd
0f
01
ff
03
09
f8
fc
f9
fe
0d
d4
eb
18
22
c9
0e
16
f3
fa
ee
ec
e8
08
fb
16
0b
05
fc
02
f0
e4
1e
02
07
1c
fa
eb
fc
f1
f2
e9
12
1a
0e
2e
20
04
b6
0b
09
ba
1b
08
ee
f2
eb
06
f3
fd
3e
e1
f4
0e
1b
1a
ef
18
20
0b
00
f2
05
0b
f7
e7
1b
0d
e8
0d
f5
01
fa
cf
f6
02
e0
e4
f8
e1
e9
fc
ff
e8
f3
0c
d9
fc
ed
e2
00
f9
20
fa
e9
09
f8
fd
03
07
e7
dc
fd
c6
d1
f4
ef
ef
0e
18
02
1b
05
d7
17
0b
f3
08
03
14
1f
1a
26
05
ec
08
f2
06
1f
ee
13
18
02
01
f1
c6
d0
1d
d3
f8
fd
08
ea
00
fd
e4
f1
0e
c2
eb
01
35
29
01
ea
15
0f
36
31
e9
f4
0c
f0
1b
ef
f9
1a
f7
11
06
f0
e9
ef
e5
fe
2a
d2
0c
09
d6
14
02
ef
12
08
e8
e8
08
f1
13
17
f6
d2
f4
ce
fe
eb
ca
e2
03
0e
fb
f3
fc
16
f0
e5
0d
fd
00
08
02
fb
da
f8
fd
fa
00
e9
01
07
e6
e8
ed
f0
22
ee
fe
2b
fa
fb
03
fb
01
f3
ce
0f
f8
c5
f8
fd
05
f6
13
fc
05
03
01
fe
09
0c
f9
0b
19
08
ec
09
05
01
f9
e4
17
09
08
f8
dc
0d
fc
f6
07
ff
0f
f5
1b
4a
bf
0a
0d
02
1a
81
f1
1c
8e
e2
23
c0
c6
f5
de
00
fc
f0
04
f8
1b
01
f3
21
14
04
ec
3a
07
ff
36
e2
08
fe
db
fe
27
f0
fd
fb
14
1d
af
e9
39
a3
01
39
e8
17
e9
e8
07
12
0a
e5
f7
1b
0f
06
09
13
17
df
eb
f6
be
0b
02
04
1c
e9
25
fa
f7
01
00
ff
13
ec
d9
0a
00
2f
09
03
f4
1c
48
ea
22
0c
e9
05
f4
ea
3e
de
fe
ee
f5
fc
02
05
15
fd
1e
3d
10
1e
bd
15
fb
ec
ee
fa
0f
fa
fd
06
fd
1a
ca
0c
ec
ea
f4
f8
17
fb
fb
ec
f7
c5
fc
76
f8
f0
03
05
00
37
ea
ec
ec
f9
2b
fb
da
ed
14
e2
ef
f8
02
ec
03
14
fb
12
fb
c9
05
e2
ed
ff
03
03
f3
11
f1
bc
26
04
e7
0d
c9
0c
f5
e5
f8
00
06
07
04
09
fd
0d
fa
e6
f8
e5
e3
fc
ed
f4
f8
f6
e4
ea
e9
ee
e5
fe
08
df
dc
fd
e7
02
e5
00
f8
0d
05
21
34
05
01
04
f8
fb
f7
f8
01
02
00
fb
09
e8
18
f2
dd
0a
ed
eb
35
0a
e0
fe
05
d0
e0
13
fe
01
05
fe
ee
03
f6
09
02
1f
d4
1b
f0
e5
eb
0e
d6
06
ff
f7
f5
17
f9
d8
1e
1c
d5
04
1c
21
00
02
06
e2
24
f6
f5
15
00
e2
e1
e6
05
e3
f4
01
fb
03
db
f2
e0
04
0e
05
18
3f
1b
cd
dd
18
ef
f9
d0
1e
1f
ff
2a
98
35
26
c0
37
f9
02
10
06
e7
07
21
c3
2a
fc
d2
06
2d
e8
ea
f4
f6
e0
08
09
f7
09
24
fa
2a
46
f1
19
22
df
1f
eb
03
fe
ef
e5
e9
f8
fe
e3
e6
08
b7
cf
24
d8
e4
16
ff
04
04
05
f5
db
27
1b
15
02
07
ed
17
d0
bf
fc
ee
ff
19
e9
0a
1a
f5
07
09
f5
f0
0b
1b
1a
fc
1f
06
e8
e4
f1
e4
f8
0f
e9
1a
31
25
18
05
0c
fc
ee
7f
1e
ca
05
fe
e0
1b
0e
f3
22
20
15
fa
f3
fd
ec
01
e9
0b
ee
fb
f1
ee
eb
f2
07
f2
cd
f1
09
dd
fb
24
ed
f2
d7
f6
ec
01
fd
00
17
08
15
0a
eb
3d
0a
e0
fd
ef
0b
20
fe
18
1d
fa
15
fb
f4
00
f1
df
02
00
f5
09
e6
07
0c
f8
dd
e1
e9
08
1b
0c
f3
05
f4
dc
f5
ec
d1
db
00
ed
2d
14
fc
f0
f8
d6
02
24
05
ee
f3
14
05
09
ee
12
fc
e2
fb
fe
f9
fb
f3
02
eb
f3
f1
d1
01
e8
ea
18
f5
04
17
10
e7
f6
17
0b
1e
f4
09
0b
05
0a
48
31
e8
37
3e
ef
12
3a
02
e2
fd
e8
ea
f2
04
e9
0f
f4
fe
ef
fb
0c
fd
f8
04
07
01
21
09
f6
da
45
c8
da
f6
f9
f7
f9
21
f4
03
f7
d3
04
01
14
05
e9
23
ea
03
da
f9
07
f5
f0
07
d4
f7
06
00
ec
f0
ef
e3
22
ce
11
07
b2
09
2c
ed
04
0c
df
fb
d3
f5
08
fd
00
fb
ea
0d
1f
02
f3
c2
12
12
20
e7
22
31
08
15
0d
26
12
f9
7f
3b
08
1d
f7
22
f2
e9
e9
e3
bd
1e
f7
11
0c
f6
03
de
b7
cc
b8
f8
e5
dc
07
e3
eb
eb
da
0f
15
03
f7
2b
0d
f4
1f
1d
f3
fd
0c
0a
cf
0f
0b
08
20
ff
09
07
fd
fe
f7
e3
27
de
eb
10
fa
fb
ec
fa
fb
0c
e4
e0
fa
df
02
22
29
ba
f4
03
b8
e2
0d
f6
e6
e7
f9
0c
14
fa
ee
08
16
a2
fb
18
b7
0b
21
d7
16
35
02
d4
cd
e5
19
e7
09
fd
dc
cc
da
ec
e4
0c
e8
ff
12
18
fa
f3
f9
04
d8
05
09
ec
0d
0e
09
e1
d7
f0
cc
e3
23
32
ee
0d
1f
e4
15
cd
01
13
e7
14
06
e3
4a
ff
e6
13
f9
f0
fe
fd
f1
00
0e
ee
00
3b
1e
dd
ec
c6
0b
dd
d1
0e
e5
e5
e3
12
0e
cf
18
fc
ea
1d
f7
eb
dd
14
2b
fb
09
fc
f0
0a
e5
f0
ed
f2
fe
09
03
07
12
dd
d4
f0
ba
fd
04
f5
10
fa
fb
02
e4
e6
07
df
e6
f6
04
af
c9
0c
cd
a8
19
39
1c
12
de
0d
21
d4
d2
0f
cd
f8
34
d4
16
21
12
0b
14
f6
fc
06
0d
04
09
15
18
c0
14
09
22
11
0c
02
06
0d
d4
29
fd
0d
5a
06
d8
2b
29
18
f5
e7
fc
16
fa
ff
05
11
cb
13
12
f0
0e
0e
05
08
e9
37
ee
e8
e0
df
ca
f3
c3
0e
31
03
fd
12
a9
cb
e4
ca
10
02
11
f8
04
2c
27
13
23
00
09
27
1a
c4
e7
da
f1
c2
d9
23
00
db
fc
0e
15
0d
0f
e7
1d
e6
f9
0a
2a
3d
08
dc
ec
00
f1
14
12
0c
de
fb
09
21
3a
2a
25
05
f8
08
fc
ff
f3
e5
f4
06
cf
07
16
cb
ef
10
e8
e0
f5
ea
f4
24
3d
03
10
5b
f4
1f
2d
14
0d
13
fe
fb
f2
f9
df
f3
10
20
ef
07
35
0b
06
ef
dd
1b
1a
2a
f6
ec
fe
f8
0a
0b
18
16
fa
db
fc
f2
f3
1b
df
ea
d3
ed
ff
07
ec
0a
3d
ee
b9
ed
f8
ff
33
2e
07
14
1e
26
32
03
07
2f
31
d1
10
14
fc
de
d1
de
c9
e7
10
04
1b
0e
00
dd
03
dc
fb
23
fb
bb
df
ef
16
fa
e5
2e
fc
02
fa
27
38
2f
34
3c
27
f2
ea
21
e0
dd
df
f2
13
fe
07
16
2c
e6
34
3e
09
27
ee
ed
17
0f
ff
0c
17
27
f2
ec
1f
e7
ce
bb
ec
0c
c6
dc
0b
f3
ed
02
a3
0a
fe
b5
1a
f6
af
f3
dc
1f
f7
de
3b
f9
ab
0b
2a
f9
24
ea
10
ff
c8
27
ec
ef
31
05
16
eb
01
f4
c5
ff
0d
ca
a7
b9
f7
bf
c4
db
ea
04
05
f7
f8
fa
d5
d4
f4
0b
14
23
05
f4
0b
fc
01
fa
10
f2
fc
fc
0c
03
3d
00
de
fb
23
11
b7
0f
cb
0b
14
05
fc
c9
09
06
11
02
df
e8
4b
0f
29
f8
ee
e1
23
e1
bf
fe
ea
d1
fa
0c
f7
03
f8
f7
fd
fe
f9
fd
0d
23
0d
0d
e6
03
01
f0
ff
ed
bd
f9
08
20
05
16
12
12
e9
04
07
d1
0a
cc
f6
08
fa
19
fd
ff
f3
ce
db
05
ef
14
e7
11
23
14
0b
f1
13
e6
f5
de
02
db
05
ff
eb
de
ce
dc
f0
de
0d
d3
e5
1a
ef
fe
08
d4
e9
cf
4e
3d
49
40
4b
2e
f9
fc
03
f4
bd
f1
f4
e1
e4
09
0f
0b
11
d1
1e
f6
ff
f2
fc
22
15
03
e9
00
04
e0
08
13
2d
15
23
1c
04
fa
08
ee
fb
f2
01
1c
1f
24
f6
c9
e6
f1
fe
ec
e7
0f
f4
f4
1f
10
0a
ff
0c
d5
ce
23
c1
b5
fc
e8
01
e2
ee
06
df
fa
01
ea
07
08
f4
fe
0e
ef
18
09
01
01
ed
ef
e2
03
0e
fb
db
e3
e6
c1
df
09
17
06
0a
7f
1b
12
08
00
06
05
fc
d1
e1
f4
f1
2e
fa
02
ff
02
39
12
41
e6
22
10
e9
0c
d2
fe
29
f7
f3
2a
f1
05
23
11
05
eb
02
01
0c
0f
dd
24
c0
fc
d2
0a
0f
ef
fa
11
cf
f2
fd
e8
f1
1f
29
08
e6
e9
f9
06
14
04
f5
08
ff
1c
14
15
eb
e6
d6
00
fe
06
ee
f3
38
01
10
23
08
ea
d7
ed
0d
18
03
06
fe
05
1b
23
0f
d3
cd
0e
f8
ed
f4
fe
eb
ff
1c
f4
09
1c
fc
fc
2e
13
02
23
13
0b
ce
02
e8
f9
f9
25
ff
d6
ef
d9
f1
03
20
05
e8
f9
c4
ec
ff
e3
04
f1
ff
e8
be
bc
f5
d1
d7
f8
d1
fe
1b
21
1a
ec
cb
de
10
f0
fe
1d
f0
ee
11
eb
e8
05
0b
0a
ee
f7
03
f9
ec
e9
ec
f4
eb
0b
08
02
dd
d3
eb
21
08
0f
e9
f8
2a
03
1a
29
17
13
ea
fa
f8
14
fc
e8
1b
f4
f5
10
0c
f8
dc
06
e3
f6
02
25
fd
f1
ef
f9
fe
e7
f1
04
f4
1b
e5
d1
00
10
09
06
f7
fb
f3
f1
da
e3
29
21
06
02
e4
fc
11
59
0d
f7
e7
ff
fb
0d
ef
fa
15
f6
dc
11
ef
0f
f0
f7
d8
c3
b3
e8
d4
e3
0c
0e
10
03
f4
cf
09
21
ed
17
00
15
f3
f9
e9
ef
07
f4
0b
10
04
f4
14
01
f4
f6
f7
18
03
0d
ed
f8
eb
07
03
ee
05
26
0c
e8
02
1c
07
03
13
fe
0b
f9
19
48
18
e3
f1
d5
1d
16
08
ea
d9
04
db
ec
07
ff
03
fb
00
01
0d
f2
e6
f2
22
2d
17
eb
fe
ca
17
28
02
f5
cf
0e
04
cc
16
07
03
f5
17
43
19
d1
e7
0b
ad
c9
e5
ea
00
15
0e
07
21
e7
00
eb
fe
c5
e9
e1
e3
ee
2d
fd
05
0c
1a
fd
06
19
ff
fc
fa
e1
3a
e1
c6
0a
f7
19
fb
25
0a
2c
54
32
fd
1e
fe
ed
e5
de
f1
12
e5
04
d0
0f
ed
ef
f1
13
f7
f8
fb
96
ef
ff
ef
08
ec
e6
e5
01
f7
fc
05
f2
f0
b0
dc
25
c3
db
b8
b8
ae
ee
1b
e6
e9
f8
c6
f2
ed
d1
30
de
e3
e2
d7
f9
fc
01
15
15
3b
14
20
63
08
f2
d8
ae
f6
25
f5
ff
12
d8
1c
f4
f1
f8
c1
8f
e2
dd
dd
e4
fa
e5
f1
f7
1d
f3
f4
ef
d6
e1
29
e4
09
f1
48
d9
ca
ec
e2
eb
f9
b7
f6
c2
ef
33
fc
22
38
05
d0
35
c3
02
66
16
1d
29
1d
04
cc
f1
00
f7
dc
fa
dd
e4
ef
07
32
fa
db
24
ef
bd
11
f6
19
f9
e9
9f
d7
10
1b
0d
0b
20
15
e9
e5
02
14
cb
fd
e1
05
26
f9
e7
02
1c
00
f0
21
05
2c
04
7b
2f
fb
49
f5
f2
e2
f5
0e
0a
0d
04
0f
1b
e9
21
ef
11
55
15
eb
e3
d0
d2
a3
0f
2a
99
9c
01
16
0b
0b
f3
14
ef
ce
e9
ea
00
fc
0b
1a
16
2a
dd
07
e5
b3
00
df
de
31
13
01
1c
0d
3e
da
bc
db
08
18
1b
e2
f8
eb
0f
09
39
e3
bf
c8
be
e6
21
e6
1a
e7
c8
55
03
c2
f5
06
2a
ca
f6
e9
d8
06
19
1d
23
f2
d8
d5
0e
d1
d7
2c
2f
3b
1e
d8
f1
e3
4e
41
21
18
17
10
02
e6
00
06
14
17
02
f7
04
16
d4
f7
dd
d0
10
0e
07
01
f4
da
e8
10
fd
1d
f1
04
f6
1b
c2
b3
38
cf
ea
fd
db
f8
ea
c6
f4
3e
3c
45
f1
d0
ff
fe
0f
35
04
0a
7f
fc
b5
ea
06
be
d7
04
3e
0c
fe
13
e1
14
e3
e4
24
dc
f9
2c
e2
1c
c1
e0
23
c8
f3
1f
ea
13
11
ea
e4
0e
f8
e6
e8
12
d0
fa
24
fb
e3
ec
fa
00
d4
fd
1c
48
f9
0f
f3
d2
c7
ff
f9
d4
0a
de
ba
d4
db
be
07
c8
cc
34
d6
ee
de
aa
f1
ed
05
11
05
13
26
fa
4d
09
f7
d1
e8
fe
ee
01
03
fa
f9
20
cc
fb
e0
ae
f8
de
d7
f4
f3
eb
fe
ff
df
af
09
0b
c0
f9
24
fd
eb
cf
ea
fa
e9
eb
ee
1b
f6
26
31
18
f8
d4
02
25
e4
fb
0d
44
13
06
2e
ee
ef
e4
a9
1a
fb
e5
31
33
fb
22
24
ea
0c
ec
1b
dc
f6
c7
ed
c3
ed
09
d6
df
29
f5
f2
18
22
43
e4
18
00
34
26
0f
15
c0
29
1b
bf
1a
c4
83
05
d9
07
12
fd
06
05
14
53
16
07
1a
09
0f
1d
f5
f2
eb
fe
f3
ed
fb
f9
e4
e1
fb
68
81
f5
06
00
10
23
05
eb
03
f6
08
06
c2
01
01
0d
31
4b
af
fa
05
04
0b
f5
e4
da
f2
f3
06
f6
21
eb
0e
e5
03
26
d8
f5
ed
f6
0f
ed
1b
ec
25
e0
f9
ec
fe
f4
1f
e0
0e
09
11
07
fa
3b
ed
eb
fa
fe
3f
b7
fc
03
f4
07
f7
fc
f6
d8
ee
00
f8
17
f2
cc
eb
df
d2
1c
16
f7
06
02
20
01
f6
05
36
f4
e8
16
f8
f9
fb
e0
e6
d8
ed
e5
00
f2
06
f6
30
37
4b
17
11
24
01
06
f0
f3
22
fd
eb
f4
e4
e0
29
ea
13
fe
f7
09
df
1a
f6
fe
0b
08
f1
f1
14
06
f1
05
13
e6
1f
e0
9f
03
03
e8
fe
ec
0e
05
30
e0
0d
49
e5
fc
f1
0c
09
1d
f3
fc
16
00
f4
f1
f4
1b
06
c1
08
fc
cc
fb
17
ee
fd
22
e9
fb
25
f7
ff
0b
02
f7
e5
08
11
da
05
fe
f5
f4
06
14
2c
0e
30
fe
18
21
03
fd
97
ee
11
df
01
04
14
fa
11
ee
16
11
06
04
03
fd
06
0b
07
fd
fe
14
c8
f7
f0
02
e9
f1
fa
00
0f
fc
fd
14
de
15
46
c8
09
f1
0c
04
1f
14
ea
f0
0b
f0
1e
03
01
26
0a
19
2d
f3
0b
02
8c
ed
16
2e
03
21
21
fe
1f
0a
14
14
0e
f8
10
be
f5
fd
ae
12
f8
f4
13
ed
1d
e1
f8
0c
02
27
0b
f9
f7
0f
1e
13
fa
08
0a
18
0e
26
ed
fd
e9
06
0c
14
fe
08
45
ed
f7
f4
17
12
ea
05
01
e5
ed
03
f2
f0
f3
df
f4
be
d0
fa
ee
f7
f4
f9
f7
eb
2a
2d
1b
05
07
f3
19
ea
08
13
e5
21
ed
0f
18
f1
ab
23
e3
bf
0e
0f
14
10
ce
0c
19
ca
e5
02
10
e7
f0
fe
f9
07
f5
25
29
fb
e3
ea
27
06
eb
11
d0
f6
07
f5
12
f1
39
f3
fd
f2
df
09
1b
f3
e8
ee
05
16
14
01
e1
e6
0f
04
e9
e9
00
e9
2a
fe
1f
2f
fa
f6
0a
e5
17
2d
eb
07
10
0c
03
1c
ec
0c
ef
11
ef
e6
f6
e2
f7
19
0d
fa
03
f8
14
f1
02
10
dd
dc
01
f0
e5
0b
f7
f8
06
05
0a
f9
ee
26
f3
07
f0
17
23
00
48
07
0d
e6
18
ed
e3
ef
ff
06
fe
11
cb
fa
00
e0
f3
db
ec
ee
e2
24
de
21
f0
fe
0a
04
11
1b
f2
03
06
e7
0e
e7
f9
04
16
10
0a
17
fb
e5
32
27
e8
25
ff
ed
eb
e6
eb
01
d2
04
32
05
0e
ea
e1
07
42
ea
fb
09
1b
ca
cd
ee
f0
09
f7
0c
24
f1
fc
ed
01
19
21
11
dc
df
c4
fd
fe
fa
02
05
fa
06
0a
00
05
fe
08
f7
f8
ef
03
0a
f9
fb
04
c5
0d
15
81
05
01
d7
fe
f4
05
00
ff
fc
fd
f3
0c
07
fa
0c
f7
08
17
fc
ff
08
ff
fb
0d
ff
02
10
04
f6
e9
01
0a
ff
f9
08
06
0b
10
0b
f7
05
01
f8
01
fb
08
f6
0a
01
f5
e9
0a
f0
ea
fd
09
fc
06
fb
ff
08
0c
f3
08
ff
0e
ff
0f
0c
06
10
04
f7
f0
eb
04
03
f9
ff
fa
f7
05
f9
f4
04
e9
09
02
fe
0c
f5
fd
fe
01
03
00
05
0a
07
05
fa
fe
17
08
16
ee
ec
e5
fd
ff
ff
f4
f5
ff
ff
e8
f6
05
10
ff
ff
0f
0e
f9
f0
05
09
f4
05
02
fb
02
10
15
05
0a
08
fd
07
ff
0d
1f
0d
43
fa
f7
03
04
0f
04
07
0e
0a
fd
02
0b
01
f8
fb
f1
ff
fc
0f
f0
00
fa
ef
ff
06
05
07
f3
f6
0f
00
02
fe
0b
f9
13
fe
0e
05
f9
03
f7
03
19
05
08
fe
0d
04
f1
fc
fb
f4
e9
10
0a
fb
00
06
03
09
0a
09
fa
02
07
01
01
ff
fa
fd
f4
00
0a
fc
00
fe
f5
ff
01
07
05
0e
0e
fe
08
03
fe
01
f1
04
04
f9
ff
10
fe
fb
16
14
0b
0b
0d
07
ff
01
f8
f3
eb
05
13
f9
00
09
03
06
fa
fc
f6
ff
13
01
f2
fa
09
fb
10
04
01
01
fc
0a
07
fe
03
ff
fd
0c
00
03
01
0e
13
0c
f9
04
fe
05
fa
04
fc
f4
02
f3
fa
05
fc
03
f6
06
11
0d
03
fe
fe
f1
07
05
f2
08
04
df
08
01
f6
02
05
05
02
f5
fe
ff
fc
fe
f5
eb
fc
02
fa
f8
fe
0b
14
09
f1
04
1e
f6
16
02
f7
09
02
0c
02
07
0f
09
ff
02
f1
f2
ef
e9
f9
1a
f8
fd
03
02
06
05
fa
fa
fa
f8
01
f0
05
ff
0c
f4
f5
f2
f7
03
0e
1b
fc
01
10
01
dc
19
fb
fe
01
f8
fb
08
f6
ff
06
07
f9
03
00
fa
01
09
07
fd
f5
fd
0d
02
01
02
06
05
f5
00
fc
f4
01
f2
f5
f8
01
02
01
09
fc
0c
17
04
fd
fd
fc
00
f4
e5
f7
06
07
f5
16
0b
f9
04
f9
ff
0b
fe
fa
1a
fb
fb
f8
fd
07
04
f7
0c
fe
0d
06
00
00
eb
06
fb
f1
00
04
f2
ec
ff
08
05
0e
ff
fc
e9
0a
fa
eb
05
04
07
ff
fc
0e
02
07
f3
ff
08
f7
ec
f8
f2
02
02
01
02
fb
01
f9
04
e0
fa
06
fe
08
f0
11
0f
f9
2a
07
06
09
02
04
fa
fd
05
05
05
fe
00
ff
05
02
04
07
12
f9
02
08
06
fb
03
06
07
09
07
f9
05
07
0b
f3
fb
f5
fc
fe
00
fd
f6
fa
25
f8
2a
51
04
07
3d
00
eb
2b
fd
05
2d
24
43
f1
06
01
10
19
f2
e6
1d
f1
f5
f7
d7
e8
01
dd
00
09
2d
0c
fc
da
10
eb
ee
21
fb
f4
ec
08
ea
f7
fd
c3
f4
f4
f4
d4
ef
08
01
f1
fd
41
f3
ec
18
19
fb
fc
e0
d8
f8
fa
fd
37
10
db
fc
16
fd
de
0e
fd
c0
0a
e7
e8
14
09
06
04
1c
52
fb
e4
e2
fc
c9
de
f2
fd
b9
f7
f1
ed
f3
e3
f6
eb
c5
f6
06
0d
0e
f8
fd
2f
df
1e
4b
f9
03
ee
fc
13
05
f2
1c
e8
e4
05
f4
0d
fb
00
0d
18
15
04
f6
ea
2e
0e
e7
ff
24
41
07
0f
fa
21
fb
d3
f5
f7
f3
10
f7
fb
ff
68
0a
0c
eb
de
fb
f2
e8
dc
fb
0c
fe
fd
f4
fa
fc
0a
fa
13
eb
d7
15
17
04
0e
0f
01
04
f5
f1
17
1c
0e
f8
fb
0a
f9
0e
0f
20
fc
07
1d
10
e5
cd
27
07
cc
fc
03
fd
f7
f4
f1
e0
f5
02
06
ef
d7
07
e7
28
f2
01
07
00
01
e5
07
00
f1
fd
f3
ff
1e
0c
ed
09
0c
05
b4
e1
9f
81
ef
18
e8
f5
26
06
f9
f6
22
01
1d
f2
fb
12
5a
0a
e3
06
ea
1f
15
05
f2
09
35
d4
b0
f1
01
12
f6
d3
27
02
02
1e
f7
fa
02
ef
08
0b
f0
14
57
02
e9
f9
0d
e5
e2
fb
16
c3
f5
04
ec
04
01
1d
d9
f1
55
0a
f6
fd
f9
d8
da
06
0f
ef
fd
01
11
07
b9
ac
00
a1
c7
1a
18
f7
03
f9
e9
d7
1b
1a
00
23
fc
1d
21
f0
f8
f2
f7
06
1a
e4
08
17
03
f8
fe
61
f9
0e
fb
fb
d7
06
00
09
34
02
07
0d
01
09
04
e0
c5
ad
ec
02
0a
f8
04
e9
19
06
b5
f2
0f
0b
0b
0c
01
f9
e7
e8
ff
f8
ea
0d
17
ea
fd
fc
2d
fe
00
07
0d
ed
0c
19
53
09
0d
f6
fc
f0
04
23
eb
38
11
fa
05
11
ff
ff
12
f7
ff
03
08
f6
18
0a
0a
fe
02
4e
22
01
0d
0c
e5
fd
fa
dc
c6
ad
e7
0e
05
e2
b6
cf
06
fa
08
fb
e9
0c
07
08
e8
fd
29
54
e8
ee
ef
e5
d8
e5
12
f7
d8
f8
fa
04
05
13
02
fa
16
fc
1f
2d
e4
00
f8
b1
12
f7
d1
f6
0a
01
ff
03
df
0a
fa
48
19
18
11
06
dc
ef
0c
c6
14
ff
ff
06
f2
f3
52
f6
cd
0d
fb
ef
24
ee
b5
04
f2
c0
1a
f5
ff
18
03
ea
cd
fa
e4
d4
25
f8
0b
e9
bf
fd
f0
b8
26
fb
fa
0e
19
13
04
16
fe
cc
fa
fc
d7
08
20
d8
f3
33
4d
ed
f5
18
df
f2
10
f8
07
e9
ef
f6
0e
f9
fe
db
04
f9
a9
ef
0e
11
f9
f5
0b
08
0e
18
fd
f0
1d
f9
09
14
f4
e8
00
0f
0b
06
16
00
1b
28
1d
ed
04
fd
07
13
1a
1c
06
2f
05
08
16
01
03
f1
1d
fa
0c
36
04
0c
f1
0c
07
d3
2c
0e
ed
fe
04
0b
0d
01
10
ed
e2
e2
ff
0b
ee
92
81
a8
d7
8c
df
fd
fe
f7
fa
17
e9
07
e1
09
f4
ed
0f
07
19
1f
06
07
fe
ea
e6
06
0b
14
04
15
fa
e7
eb
01
fe
05
f9
fe
06
e7
02
12
f7
0d
06
05
0b
e3
20
f2
15
38
11
ff
11
ec
19
13
de
f7
ed
f9
1f
19
29
18
25
18
f9
26
ef
15
0e
07
f7
f8
ff
11
31
08
ee
d4
cf
be
c8
c2
07
01
d7
0e
f2
21
05
0f
2b
05
1f
fe
f4
f1
ec
fd
f1
e0
14
2c
05
0a
09
1f
d2
8b
db
0b
f4
f7
fb
1c
fa
07
2a
11
07
06
05
00
0f
20
f2
f4
e7
17
e9
17
fc
da
f9
db
8d
e5
d0
db
d9
fc
03
f8
00
43
09
09
fa
dc
fe
1a
00
13
38
1f
09
c3
fd
0b
e6
f5
13
1b
fc
0b
1f
f6
28
20
eb
f3
e2
03
f2
20
02
0d
2c
14
f6
ce
df
fb
e5
0e
fc
f3
f6
0f
12
05
00
14
fe
00
14
e3
eb
c0
d0
02
1c
10
07
e1
0f
02
d8
1e
f2
15
05
d6
f8
0b
f4
fc
37
01
0e
d4
0a
fc
e8
21
1b
fd
15
f5
10
27
0d
2a
eb
fc
fd
06
01
ea
26
ff
d7
ea
f2
fd
05
e5
10
0b
0c
0e
11
f0
d9
f9
ff
07
08
07
01
e6
f4
ed
14
31
0f
01
13
ef
ed
ed
fa
f3
19
fd
ea
07
f7
17
ec
1d
de
f8
f4
08
05
04
18
1c
16
18
f9
f0
37
23
0d
fe
ff
f4
12
e0
de
08
e5
f2
1b
0b
16
1a
1e
04
0f
18
14
f8
1a
f7
18
2f
09
ff
18
0e
db
14
0f
ef
1f
25
e1
29
1a
01
fc
fd
06
16
0e
ee
2d
05
05
02
10
fc
0d
20
f7
e3
0f
f1
e9
e1
fa
fd
fd
11
04
0c
03
f4
05
0c
01
f1
16
fe
fa
1b
15
f0
d8
f6
05
24
e1
0c
33
20
0e
05
f4
f5
0b
f3
17
e6
f2
28
04
00
01
0f
e5
f5
02
02
fd
01
fb
09
0b
fa
03
01
0e
f9
08
f5
06
ec
01
e6
ef
f2
f8
f2
dc
09
fa
f6
14
12
1a
1b
ec
17
03
00
f2
fe
e7
c3
d8
08
ef
10
12
f9
13
15
f3
15
0c
fb
10
d9
8b
d4
eb
b1
c2
10
01
f6
16
fe
f5
fe
e1
f5
e4
13
05
fd
f0
0a
14
1a
fe
08
eb
0c
fb
45
fd
fd
f1
ff
fd
f6
d1
06
25
01
ee
09
ed
cd
e8
cd
00
e6
06
19
0a
18
05
04
e1
12
f1
f4
f5
f8
07
24
3e
16
fc
d3
e9
13
0f
e7
00
f8
05
0f
24
d0
f8
fa
dd
07
28
11
f0
34
f0
02
06
ff
f4
f7
f4
da
ec
db
ed
f5
ed
0e
29
03
0a
13
ec
11
fb
01
02
1b
20
cc
f3
10
17
1c
eb
01
f6
09
06
0d
ef
f1
f5
f0
33
23
40
e6
e7
e7
f1
18
fb
39
06
25
0b
28
0f
09
c2
e4
1c
34
37
04
e2
fb
ee
c5
dc
e7
f4
fb
d7
04
f8
05
06
08
f9
63
25
2c
f5
be
04
f3
0a
f1
07
fb
d0
88
d9
fe
81
24
f6
e8
ec
fa
df
e8
10
4b
07
14
0e
24
fc
fc
0d
e9
ff
ec
d7
ae
df
e0
d6
e8
ce
f2
cb
0c
0f
07
05
fb
fb
00
f6
03
16
1f
19
fa
09
07
e6
fb
00
fb
e3
ec
21
11
29
09
1d
f2
2a
fa
14
0c
0a
0c
03
e2
fd
f3
f8
f3
02
e5
f0
04
fb
fb
f7
14
23
cc
f9
0e
fb
f6
04
eb
0d
eb
ff
23
ea
23
0e
1b
d7
fa
d0
e8
d5
e2
08
18
e9
05
07
05
f0
07
fc
11
45
f5
11
4b
1b
df
b3
de
f5
e9
e5
17
27
ee
f3
07
e1
fe
f8
ff
ff
17
f6
06
78
06
19
54
2b
eb
cf
00
1d
f8
d9
0b
0f
02
f1
0f
09
fc
28
f2
f3
03
02
40
63
f9
1c
66
13
01
aa
1a
23
11
08
0a
03
e3
eb
fd
fd
ef
0b
1a
de
d1
f4
f8
eb
1e
22
19
1b
de
1d
e7
eb
4b
e6
d8
db
10
cb
0d
67
fe
ea
01
c9
d3
ff
15
1d
07
01
f5
f3
03
d4
cb
fa
da
bf
2b
23
e9
f5
e0
ed
03
e0
f5
eb
db
d0
08
8b
f6
03
07
02
f5
01
e1
ee
30
fd
30
00
f3
10
2d
05
2a
20
31
0c
02
ec
d4
a9
ea
26
38
ee
fb
bb
f4
13
d3
e9
ef
9f
e9
0e
da
09
13
11
ff
ea
e0
02
e5
ea
06
f9
33
04
f1
22
07
d5
0f
01
f6
04
02
ed
e6
da
f2
d9
f1
02
f9
fd
29
f6
bb
03
e5
f0
fe
0c
02
2f
61
e2
bc
d8
1d
00
f3
f6
31
f1
d3
fb
26
0c
f9
10
fb
1c
31
10
04
08
f0
01
ff
e3
f0
ed
ef
ff
0e
c8
14
ed
ec
08
31
24
d2
c4
eb
e4
10
06
03
ec
f8
fd
f2
05
05
f8
00
3b
5b
47
33
5a
1f
22
38
2a
fe
2e
3f
ed
b7
d5
e6
df
07
d9
cf
e8
f4
ee
ec
03
13
1a
f6
df
f7
35
59
22
13
df
2d
05
27
02
06
3c
07
ec
fb
f2
0e
0f
f4
cf
ec
21
e8
fd
ed
08
32
ff
1a
23
12
03
07
ed
e5
f8
ed
eb
ca
e2
04
fd
ff
dd
ff
05
d8
ca
d5
d5
0f
24
14
5c
0c
10
d8
ef
f3
ec
10
26
33
fe
f3
07
fa
fd
49
14
fc
e6
f3
fd
c7
25
e6
f9
30
07
0a
10
08
35
f8
fc
27
e2
23
0c
dd
fa
15
cf
02
36
12
fc
04
f4
1b
ea
ff
db
92
dc
f6
1f
2f
f6
28
f3
0a
31
0f
bd
ea
2c
14
e3
08
f4
e9
13
28
fb
1c
1c
26
11
e5
04
e3
1d
33
15
fd
18
eb
01
0f
01
29
f5
08
f2
bb
f0
fb
37
f2
f8
fd
fd
f5
ee
0a
e5
ff
3a
ff
04
1b
1e
3f
ec
02
0b
03
c7
17
05
ff
66
11
08
25
1c
28
c6
0d
f0
f1
f8
f5
e4
f8
01
17
f7
14
03
07
21
c5
29
3f
0a
25
37
0b
24
c4
bc
b8
09
f4
e5
1b
fc
17
1d
ec
19
fc
e1
ec
f0
1c
ff
ec
09
f3
14
17
f8
f0
ef
27
fd
ef
ff
f9
e8
09
ed
da
35
0a
01
1a
ed
e3
e9
f6
09
f5
2f
d4
43
15
03
16
d9
67
0b
d4
f8
cf
33
07
f0
10
0f
01
05
11
05
06
14
04
e9
f3
f2
ed
c7
f9
07
93
ed
ef
a4
df
18
15
24
02
16
ec
02
ff
11
34
0c
18
ef
dd
ea
e4
0c
df
f5
1a
01
23
e4
f1
f5
df
07
19
ee
01
11
33
fe
ed
09
01
04
da
f2
ea
f8
18
eb
0a
f2
f1
f0
ee
1f
b1
04
31
02
0f
0a
19
15
04
ef
18
19
1a
34
26
75
28
15
0b
b2
05
c8
1b
18
e6
f8
f0
f4
f7
13
26
0f
1a
3e
11
1a
28
09
fa
ce
e4
06
ac
f7
11
e5
04
1b
f7
0f
fc
e9
08
f9
fb
05
1a
37
e0
0b
fc
f2
09
05
17
c7
c8
44
ef
01
11
0e
ef
03
10
e9
0d
35
67
26
e7
46
0f
01
f5
f1
19
45
0c
f9
f6
ff
09
d4
f6
38
17
3c
fc
07
e7
17
e4
ee
19
03
ee
f8
0f
0c
bc
c2
c4
42
df
01
12
c4
1e
f2
c3
03
f5
4b
ee
f7
1c
05
11
f6
27
28
b1
1e
ec
de
14
0e
ce
e2
05
fb
0a
01
7f
2b
09
10
1e
0e
0b
0f
00
f1
fa
d6
01
e0
38
35
17
1b
15
d8
03
52
1e
11
15
13
f3
ff
32
07
e9
3a
ea
f3
ff
fb
f1
17
2c
fa
eb
02
f2
f1
2d
11
fc
e1
17
21
ee
18
11
fb
e1
02
1d
c3
f6
1e
d8
d9
e8
b4
e7
04
a5
12
0d
51
2c
f8
f5
f5
03
8a
e8
1e
a5
fc
1d
0a
d8
e2
d7
c3
f6
dd
24
e3
09
fc
03
05
ef
10
10
1c
09
ee
05
f0
db
0d
f0
0b
f9
1c
d3
12
24
06
37
0c
ef
18
12
fc
10
f2
10
38
f7
1f
07
f8
e7
16
2e
2f
0d
0c
d7
29
0a
d3
08
3f
65
37
ec
0c
f4
18
fa
0f
32
db
d4
02
de
e9
1e
1a
21
01
2c
f6
1a
f9
0e
18
fd
f5
ff
ed
e6
e1
1a
f3
f4
00
f4
ea
bf
f4
0d
f8
ee
0e
cc
83
01
db
81
fd
e9
ff
15
00
5b
f9
eb
e7
0e
f5
e0
09
ec
10
25
e7
c6
f6
00
22
ec
ef
03
e2
f4
32
14
f1
0c
fe
1d
58
f2
2a
2d
e8
e5
01
f3
1d
2a
fd
00
ff
0b
04
23
e7
e9
a8
01
ec
ee
0c
0d
f2
f0
04
36
f4
bd
f9
08
15
1f
e8
0d
79
2b
06
36
f7
e2
f1
fc
ed
33
f5
47
0e
ef
00
ed
01
fe
28
15
02
22
f4
32
04
ec
12
fb
1f
2d
c7
12
ed
ea
f2
38
1a
01
17
fb
f5
1d
0c
05
f8
ea
ed
15
de
01
05
fd
e8
fa
0e
16
08
e1
f5
fc
f0
d7
ff
25
cd
ee
d9
14
00
fd
0e
e9
b6
fd
14
ed
f2
04
ee
e6
ee
1b
fc
19
29
f9
09
02
24
d4
cc
eb
fa
26
fd
2e
fa
02
0e
1b
04
f1
0e
09
0e
06
0c
18
19
0b
ee
30
0b
e8
0d
0b
07
f7
f9
d7
01
f3
03
09
d6
e6
17
07
fe
e6
e8
f3
26
05
18
b0
0b
fe
df
fd
f5
28
0d
d4
f5
ff
f4
e6
01
1a
07
13
19
f8
14
17
32
f5
0f
1a
fe
f2
0c
f1
f2
e8
f0
0f
ec
eb
a6
e6
fc
02
b0
fd
14
db
fa
f6
32
d8
c9
14
f5
1d
04
20
fc
f0
f8
f0
f4
fb
09
17
ef
f6
aa
ec
c3
05
ef
ef
e3
05
2c
de
07
dd
d1
f4
e9
fe
0b
0d
47
0f
10
0e
0e
00
e8
07
10
f8
16
e4
d4
e9
d6
f9
09
1b
f8
05
14
17
f2
11
0b
e8
f5
1f
05
09
18
1a
11
ee
e5
1a
60
f7
e4
2a
fd
07
0e
f0
f3
0f
1c
f4
0b
08
fe
cd
0d
f6
39
28
ef
04
07
11
03
e9
e4
b2
d1
00
13
e1
ef
0a
ee
21
da
10
3b
0d
11
f7
09
ed
ee
ec
f5
35
ec
ee
17
f7
e6
f9
1a
0e
fb
04
fb
f3
d9
0c
c5
1a
f7
a2
b2
f3
df
0a
26
f3
ce
0f
26
d6
04
09
e2
e7
ce
14
04
f9
f6
0e
ec
04
13
de
88
0c
05
d5
13
1d
01
18
2e
ef
16
2a
f8
e6
0d
30
35
fc
3f
f1
f1
46
fe
06
fc
e3
f9
09
ea
e2
0a
f5
04
f7
04
25
36
04
27
20
07
0b
fc
f9
0e
0e
02
f2
f4
ec
ec
15
ea
0f
45
fb
21
2d
00
1f
12
05
07
f5
15
0b
12
fc
10
02
f4
03
f8
fb
03
2a
10
01
10
00
21
0d
ff
10
fb
0c
fe
fb
0a
24
cd
12
2e
c1
06
f3
10
1c
1f
09
0e
ef
ee
e2
e6
28
f8
d3
17
0f
c3
dd
f7
c3
07
f7
ce
17
be
91
2f
0d
1f
12
f6
11
04
00
f3
0b
ed
fe
ef
09
0f
e3
f2
f1
f4
f2
fe
f3
08
0c
bc
e8
ff
cf
f9
11
0d
f2
ec
d9
d0
00
d0
ec
0a
cf
25
13
25
cb
c5
0e
e2
5a
02
19
e4
72
18
e3
78
1e
d5
9e
f9
df
08
0e
db
06
00
1d
04
f9
f4
e5
f9
06
f8
01
22
2b
16
0a
ed
0b
1a
0e
27
1e
3a
e4
20
f3
1a
eb
e6
09
0d
20
0f
ff
0e
fe
f3
c9
ed
fd
1b
fd
0b
d8
e0
eb
13
18
49
d9
08
1d
18
fb
e0
43
f3
c1
b2
ed
f1
0a
d9
e8
2c
d5
28
21
16
cc
08
f3
23
29
1e
bd
b6
12
05
11
2d
1e
e6
fb
f0
f3
fd
ec
dc
da
e5
e2
18
2a
21
1c
1c
ee
0c
03
02
04
eb
de
00
dd
ef
de
b3
11
f4
43
01
dd
15
1b
f4
db
46
04
03
42
f4
ea
f5
d8
dc
d7
df
3a
13
04
06
9d
55
10
93
e6
dd
7f
0d
ec
0a
14
2d
36
34
d3
b6
07
c2
07
0a
e5
fd
2c
33
ee
08
02
fe
0d
09
13
e4
0a
31
f6
04
07
3a
27
eb
f6
0e
f7
e9
13
30
d1
ed
33
f4
cc
cb
f7
ee
bb
d2
ce
cd
07
29
00
03
43
05
ff
d9
4a
d2
00
50
10
f9
b1
16
f7
12
0d
36
16
e4
fe
10
04
19
05
fe
0b
12
fc
ec
3d
f4
b0
b2
06
11
ef
f1
3e
e0
02
51
fe
10
f4
0d
db
e6
1f
c4
fe
02
22
33
1f
f3
ea
c7
e3
f1
d0
cc
d1
b4
f8
29
1b
d0
41
36
db
23
18
f8
04
f5
60
37
bf
1f
0d
cf
02
1c
f8
11
0a
fc
00
f7
f5
0b
3e
06
f4
20
0c
0b
f7
dc
fc
22
1a
32
d0
be
07
da
11
dc
1b
24
dc
46
d9
12
4c
d9
f4
dd
03
f9
ce
e2
24
0a
2c
08
e9
2f
0a
70
2a
ee
17
ed
f1
e8
e3
26
3e
1d
46
f7
cf
da
11
e3
f3
05
c6
01
42
0e
eb
ba
1f
ad
be
24
08
fa
1d
e0
3b
27
e8
19
07
ef
d1
d3
fb
d8
04
e6
c9
f7
d4
e8
ef
14
09
c2
50
f5
92
23
fa
fe
ea
fe
fb
2f
1d
d6
22
0f
07
f9
c3
c6
0a
0c
1c
06
1a
12
f4
00
eb
d4
f0
26
15
37
db
e7
c7
d1
31
5f
4d
f5
e7
d1
31
d1
f4
eb
c5
f6
13
1a
18
0a
c7
f4
0e
75
26
ff
33
26
07
eb
ed
e6
29
fc
08
ff
23
00
e1
0f
f5
f6
19
fb
05
1b
09
2f
ed
f4
28
ec
e3
b8
cb
1c
cf
f4
1a
ee
4f
03
ad
cf
eb
36
d7
2b
de
ef
08
04
28
03
1e
d5
e4
fe
0b
00
d7
1e
09
11
c7
ee
e3
e7
0e
0b
2b
db
e8
da
01
14
e5
40
c3
05
e5
e8
e9
da
f7
3f
dd
e8
11
01
ec
f1
0b
2a
12
df
d3
d6
00
f2
e2
10
38
0c
08
f6
e5
16
17
02
07
2d
f9
01
ce
da
07
e4
f1
dd
d3
c1
0d
05
ec
fe
ee
dc
db
c4
0b
fd
fa
4c
d5
ea
dd
01
f7
cf
fc
0a
00
17
05
29
f2
f8
fb
fe
1a
00
f5
0c
e7
d7
07
f7
f8
04
05
13
27
f2
22
f0
cf
e6
0b
13
1d
6e
17
05
71
02
d8
dd
f4
0c
f7
1a
07
09
0c
e6
20
ec
e9
aa
e7
ee
aa
f7
f8
e8
13
fa
13
21
de
c1
71
0b
dc
fe
1d
42
de
38
df
c3
11
d1
0b
13
9f
c6
1e
dd
ad
1a
e7
fd
21
18
0c
1a
f3
31
d7
f9
df
3e
33
e1
06
39
02
be
fa
f5
18
ce
0c
20
d7
0e
0c
e5
1f
09
ba
ff
14
d9
04
06
04
f4
e4
17
e8
00
49
e5
fa
21
00
f4
c6
f6
30
e8
ec
1d
e0
e7
01
02
e8
c7
c8
cf
f7
1b
05
f8
f5
fb
e0
e3
e9
e3
ef
f3
d9
10
e6
e2
db
c1
fc
0e
e8
ef
dc
ee
1b
03
f9
42
36
1c
2d
16
23
e9
00
1e
04
06
0e
0f
06
18
12
7f
33
25
5a
20
e1
c8
f8
f7
e3
02
f3
f8
f0
f1
e3
e9
5b
06
66
18
b4
f7
f8
bd
09
1a
ef
08
0e
f4
1c
1f
d2
1c
34
d9
2e
f4
e7
07
e7
30
0d
21
20
c5
ee
f5
e1
00
12
17
ff
20
ef
24
f9
12
e3
03
01
f6
35
16
fc
36
06
02
1b
11
d2
f1
2c
f2
ea
d7
0c
13
fb
f2
fb
db
06
1f
d4
1f
48
25
3c
f4
21
0d
d5
fa
11
f8
f3
ea
d5
0a
0e
cc
ee
fc
1d
22
e5
ee
d2
f6
d4
d6
f1
00
ef
d0
d5
db
f7
ef
f1
fe
07
f7
0c
0e
04
fa
fe
01
ea
06
fe
16
f0
12
f8
12
e4
ee
a4
d8
f1
ec
14
09
09
ee
1a
15
f2
6c
0a
e2
dc
ee
05
0c
e6
e4
ff
06
04
0f
f5
f3
ce
f9
d5
ee
01
f4
13
77
18
d9
33
29
f8
30
07
fc
df
df
16
bc
f1
08
02
10
0e
fc
12
f5
fc
f8
ea
f7
ef
d7
0c
d4
db
c7
15
d9
e6
fd
f3
eb
08
cf
91
1a
ba
ab
1c
0d
db
0d
22
ed
e0
06
d7
ea
f8
df
18
05
ad
fe
ee
fc
46
ed
e4
12
f9
3c
1b
fb
da
33
02
c6
16
f7
f2
05
b9
cb
d7
e5
fa
16
ef
b2
fb
14
f8
26
10
a8
fd
db
2c
fc
ed
2c
05
f4
09
e9
fc
e5
30
fb
bf
1b
f9
e5
02
03
fe
de
05
34
fc
f5
1a
13
f4
06
18
d2
0a
f8
db
f7
f9
16
f4
05
0a
d8
07
13
f0
10
e7
be
ea
09
fb
bd
2c
26
e2
3a
fb
f5
0e
fc
d9
d4
d1
0b
1f
f5
0e
da
1d
d3
f2
cf
f3
e6
ed
b9
fb
ea
ac
f1
0c
e8
15
3c
2d
f4
3b
ef
da
08
c2
24
02
19
de
d5
ec
dc
f7
d8
fa
f9
21
f8
f3
f8
01
02
d5
0f
dd
fb
21
20
f9
1a
ea
dc
10
05
f5
d3
d2
e1
07
03
ff
ee
ee
f5
f2
f6
ff
09
0d
fe
fd
11
1d
f7
c8
e6
f7
00
07
fa
19
11
fc
0b
09
f2
0f
09
f0
ed
f3
da
e4
d1
f8
06
fb
e1
d7
e7
21
0c
11
f8
01
f7
ed
09
ea
ef
ef
fc
04
0c
03
ef
03
08
ff
22
02
ec
04
03
f5
1f
f2
fd
02
ee
09
09
f4
e3
07
15
f4
11
07
0a
0a
0c
df
a6
c2
ee
dc
fb
12
2d
0f
2a
2f
fe
f2
f8
f7
f7
f0
05
03
2a
09
02
0c
06
07
06
0c
0a
7f
0d
ed
3b
f2
ed
23
e5
1b
01
06
fb
d6
00
07
fb
06
0b
e4
fd
03
e8
f8
fc
e2
fd
09
11
05
0c
06
fe
0d
fc
f7
02
07
f4
15
1d
20
09
10
04
06
37
09
0f
f1
00
0f
f8
19
12
ff
f5
1b
14
fc
f4
f8
fe
fc
b1
f0
fd
c2
f6
0b
fd
fa
f7
ee
e9
f8
c7
f8
0c
05
02
09
f7
f3
02
12
20
f8
ec
ea
f4
2b
f1
f3
26
00
fa
28
f5
e0
f8
1f
db
ba
18
ee
fd
09
dd
c2
d1
d8
c5
d1
23
0f
26
de
9f
fd
16
20
0f
05
f2
f9
da
c9
ca
04
c0
f8
03
ff
0d
f6
31
f6
e9
1a
e6
f2
f8
ec
16
1f
00
0a
0a
f9
0a
1a
da
15
2a
11
fd
02
06
f5
01
fb
f2
1e
ea
ec
13
e5
06
14
04
21
ff
dd
fd
fe
f5
06
ff
f8
ed
d8
11
0c
0a
1a
ef
f5
14
03
2d
28
ff
f9
f3
07
0f
f9
1f
13
1d
f3
ed
fa
07
e3
0a
24
50
30
02
fd
fa
f8
02
f2
ff
f1
03
2e
f5
f7
e9
eb
fc
06
fd
f7
06
13
fe
09
0b
ee
ff
14
0d
f5
10
fc
f0
0d
0b
fa
2f
01
fe
fd
02
03
09
0d
04
38
1c
fa
f2
eb
10
f9
f6
25
07
d1
15
ce
ce
09
03
e5
04
ff
0f
13
3a
02
03
fd
00
fe
14
06
f7
00
fb
04
fb
00
14
10
df
05
0d
f3
11
0b
02
fd
eb
fa
f6
fb
12
00
ff
04
fe
e1
08
08
f2
03
f9
ea
05
f7
0f
f6
fe
0c
fb
f0
ff
05
20
f2
fa
f4
ed
0b
e1
0a
08
02
0e
fd
f9
0d
02
0f
eb
13
0d
e7
f9
13
24
15
00
27
f7
15
07
f2
ff
16
f2
fc
1d
f7
18
17
14
08
05
fc
00
02
fe
ff
d5
fc
f4
e9
fb
01
f6
00
db
a3
de
ef
30
08
02
ff
0f
11
f1
04
00
ec
32
f9
e7
07
10
41
04
16
fa
06
e5
00
08
e5
e0
f5
0a
d5
0f
fc
fe
fd
20
20
ff
03
08
fe
fe
1c
02
14
2e
11
12
ee
12
07
e8
0e
0e
e0
f1
f5
e8
f4
04
11
fe
f6
0e
01
0f
c2
f1
f4
ec
f7
c7
c1
05
07
d2
e7
17
f8
06
0e
21
1d
cc
05
10
f2
db
f2
b7
a3
ba
e0
c2
c6
1c
59
10
12
1d
14
08
28
be
ea
f4
f9
ee
18
21
28
d7
c6
21
0a
e9
da
12
da
08
fd
08
36
05
36
14
e3
23
02
fd
f9
f9
f6
ef
fd
f0
04
ee
39
ee
07
f2
15
f1
df
cf
09
28
2f
ef
01
f5
1d
f9
cf
fa
0d
f9
01
0d
ee
e1
f1
2b
00
05
04
0c
10
1d
ea
da
09
08
4f
14
12
37
0d
f3
0a
13
df
a3
e1
1d
20
f0
00
3f
03
14
13
fd
fa
2b
0d
02
31
1c
f6
7e
ec
14
48
0d
e6
de
f2
11
3d
30
35
db
13
f9
e5
fe
1f
3d
04
19
25
f9
17
ff
15
14
e7
0e
04
02
0e
ff
fa
f6
0b
d8
15
0b
25
02
e9
b9
d1
f4
93
c6
08
dc
ea
cc
d1
02
1b
1b
ec
0a
2b
ff
03
fb
10
04
4a
00
03
f1
1f
03
2f
23
dd
81
cb
e6
c9
c0
e0
ff
0e
e4
2c
f1
f1
15
df
fe
f2
eb
16
22
15
ed
2d
fd
dd
da
03
20
f4
e3
0d
e3
ff
ea
05
e3
dc
51
e0
e5
ee
d7
0e
cb
d5
09
2c
1c
e3
d6
06
df
31
ec
ea
36
01
04
ff
15
1d
7a
14
05
1b
08
0a
e4
03
32
1a
ed
c1
c3
14
11
ef
2c
04
e6
da
f3
ed
23
ec
e5
23
08
14
15
f7
00
ef
fb
16
06
db
e3
07
c9
db
53
4a
fd
d3
e4
ed
fd
48
14
01
fb
ce
15
15
f3
ec
3a
06
ee
eb
22
14
04
e0
f3
fd
ef
05
13
2e
21
24
ea
0d
fe
37
f7
05
2c
00
19
1f
da
0a
fd
e5
d9
13
f0
d9
f2
ed
05
07
f3
00
18
fa
5c
3e
11
f6
bf
da
07
0b
04
f8
f3
ea
f9
64
e1
0c
f0
10
0e
09
05
f5
9e
d6
06
30
16
05
ef
e2
e3
10
27
02
ed
ff
01
2a
f4
0e
f6
24
e7
ff
ee
2d
d2
e2
00
d6
0e
18
f5
f5
39
0e
cf
19
0d
f3
24
1e
0e
11
d8
0b
09
f4
1b
d9
ea
0e
03
e9
e1
08
26
21
fc
10
16
c2
ea
0e
e5
29
06
f7
f5
00
fc
f5
f2
e8
d5
2f
07
eb
e4
06
f5
fc
f7
bb
e9
ee
c2
de
c9
a7
cb
00
df
f7
e9
de
de
08
0e
38
fc
fa
f8
fc
f0
20
02
06
25
dd
c9
f0
10
fb
16
ec
ec
d7
0f
0e
fb
fa
f0
e7
00
04
f6
f0
05
f3
03
3d
0d
fe
fd
d3
f5
d2
01
f8
f2
1e
14
0f
f6
02
f6
f5
f1
10
12
fa
a0
ed
04
f3
05
ff
ea
fd
15
1e
2d
bf
dd
16
10
35
05
21
3a
03
fa
05
f7
fc
ed
02
fe
13
f7
e1
f4
fb
fd
02
f9
0f
08
03
fc
14
0f
f8
fa
f2
f2
07
fa
fd
ef
1d
05
e2
f6
cf
09
13
0b
c9
fb
ec
ed
fc
06
21
f8
f2
1b
12
06
de
f0
f3
20
fd
f6
e5
29
f7
07
0e
13
f6
26
e3
d5
0a
0e
ff
0f
ea
dc
01
02
db
ea
08
0e
0b
04
1a
06
2e
ef
07
01
00
05
ff
f7
18
f4
d3
46
f5
e9
17
ee
f9
ff
eb
ac
dd
03
eb
fc
f1
f2
f7
f0
e5
fd
21
f9
0d
f9
10
03
dd
2a
c4
04
20
fb
f5
fe
f7
f9
1e
fa
ea
22
fe
04
ff
07
f8
d5
f9
fd
d0
07
fa
15
0a
f2
15
e9
05
fe
f8
1b
e9
fb
02
f6
01
00
fb
08
1a
01
ef
0d
16
c2
d3
0c
12
11
05
0c
0a
f5
e0
13
f1
fd
fe
07
26
03
01
04
04
08
18
07
1e
fb
09
ea
22
0d
b6
f7
ff
eb
0a
15
1b
fb
f6
03
03
f9
f4
f8
01
df
fa
0f
d1
1c
00
06
04
eb
02
f0
0f
0c
fc
1a
0b
f2
fc
12
fe
eb
f5
03
08
08
f7
fd
0d
2a
f5
01
e9
0b
12
10
0f
26
09
fe
03
0a
f6
04
fc
f5
e6
10
f9
ff
09
fd
00
fa
0c
2a
ca
1d
25
f4
0f
f7
06
df
05
c5
fa
eb
03
0f
f1
1c
1a
ed
fc
05
f3
08
f9
1a
f4
f9
ef
2a
0e
fc
0b
f7
0e
05
1f
fd
1c
f7
f2
f8
03
05
f1
0b
d8
d5
10
e9
01
df
db
05
e0
81
28
f4
e4
1a
fc
f5
ea
0d
01
16
16
08
0d
07
02
fc
ff
e5
1f
02
18
07
fb
03
2a
23
91
2e
f7
c4
10
0f
f0
f6
29
e6
fa
f4
ee
1c
e7
02
1f
e5
00
15
1b
fd
f4
fa
0c
ea
ee
c5
f5
05
d7
0e
0a
0a
0f
06
36
fe
09
00
28
de
0d
00
e4
c5
20
f6
c8
0a
07
ff
f4
23
ec
fc
19
02
04
18
ea
0c
2e
ee
29
f4
2a
fe
0f
f3
06
fd
4a
f3
03
fd
0a
02
f9
0a
fa
04
f0
fe
0d
08
04
e2
02
04
cb
e4
06
f9
f4
f8
ff
08
20
d1
f6
01
e3
f8
df
d5
17
fc
dd
11
23
1f
07
e9
ea
ff
0b
f7
cd
0e
2c
ee
fe
dd
03
26
28
fd
d5
0e
e8
fd
fc
0b
09
e7
06
05
f4
03
06
ec
00
19
20
f9
0f
11
e2
14
e3
f1
15
dc
0c
f3
d1
16
1c
0d
e6
f0
32
f5
0d
09
1c
02
1b
ec
fb
37
03
01
31
04
f8
e0
fb
20
c7
e1
f6
12
0d
fe
01
11
de
00
2f
05
28
ff
f8
0d
f8
05
11
27
f8
0c
03
fc
d3
09
e8
df
ff
f9
13
0a
05
fd
fb
00
0c
f2
f5
de
07
fa
d9
11
10
fb
ec
f8
05
ea
dc
fc
03
1e
0b
00
27
f8
f4
fc
0e
0b
14
e0
27
07
e8
05
11
f9
ef
ed
c0
d1
15
cd
27
01
df
dd
f0
04
03
d6
f8
15
0b
2a
00
06
f7
10
16
fe
f8
23
17
d9
0d
04
ed
ce
fb
01
0a
fb
06
d1
e8
0e
1b
11
0c
e5
41
0c
35
2d
01
f0
23
fc
09
0a
df
df
b0
0e
12
f4
0e
16
11
f6
03
05
07
f7
0b
0f
11
1a
fa
00
0a
19
27
0c
f9
eb
e7
ff
00
50
52
11
18
18
f2
5c
f5
28
24
1b
03
0e
d4
03
1c
23
0c
08
e7
0e
d0
15
03
e2
07
e6
1e
1d
04
3a
03
41
06
c0
04
c1
f5
e3
25
24
e0
eb
fd
0a
20
ff
24
f4
0d
f6
01
0b
fe
ed
f5
09
1a
fc
0f
09
0a
9d
26
57
0b
f8
f6
fc
df
fa
e7
14
e3
07
26
fa
fe
04
f6
f7
e7
15
05
08
21
0b
e6
ee
1a
f9
e9
eb
f8
2e
0b
1f
f1
f4
c8
fe
d7
11
26
16
13
eb
c8
dc
f3
f1
f6
08
ef
f6
13
ec
4b
ee
22
14
01
1d
00
d3
ea
d9
1f
09
0f
1b
10
dd
f2
af
c6
f2
ec
04
ed
07
f8
f0
0d
e6
e8
09
fc
13
18
d7
13
e7
60
02
32
1a
12
12
01
ea
fe
c2
0f
fe
ee
f7
ee
27
06
2b
e0
1b
eb
e2
f1
ff
0a
10
aa
15
7f
1c
01
f7
13
10
ef
0d
1c
e7
37
ff
eb
e4
dd
12
f5
f8
d0
ed
bd
fe
1c
d3
13
d6
ee
14
e6
2b
f5
0e
22
f9
26
d7
e5
d6
f8
0e
1f
12
1e
d9
05
11
ed
c3
b9
14
b6
1d
d3
1c
dd
10
c9
26
f2
01
ce
fd
e5
0f
19
36
36
10
d9
db
09
09
fe
dc
0c
11
fc
06
e1
fe
f1
e7
f6
19
26
06
01
f8
18
0f
1d
fc
5a
1f
f9
d9
e3
c8
d0
e3
f3
f8
18
1e
d3
d0
3d
05
06
eb
21
23
ef
f1
f3
06
cc
ee
fb
1c
ff
fb
17
0a
0f
cd
e5
15
d0
f4
02
fc
ee
06
e6
2e
ed
d8
0d
db
1b
26
02
13
03
19
f8
d6
dd
0e
f9
3d
29
0b
0c
08
ea
e4
c5
15
f0
13
02
e7
20
e1
0f
ca
ae
29
1c
17
00
3b
06
0a
38
0a
20
0f
fe
09
d9
1a
04
36
1e
d9
cd
f9
18
ed
04
40
2b
f8
16
0c
27
f4
3a
ef
16
08
e1
2a
e8
f0
d4
3d
19
05
e4
f3
1a
c8
ee
14
bd
c0
02
15
2a
26
d7
c1
0a
b4
dd
f7
08
25
f2
f6
f2
