00000440
ffffffdb
ffffff58
0000037f
0000007b
ffffffba
000001e6
000001ad
0000024a
0000025f
000001c8
00000438
ffffff76
000000a2
000001c5
00000068
ffffffe0
00000068
ffffffdd
0000007c
ffffffe8
000000fa
00000143
00000204
000000ea
00000522
000000a2
0000001f
ffffffc5
0000011d
0000009d
000001ab
00000080
00000191
ffffff1b
00000068
0000009d
00000184
000002c8
0000009e
00000133
000000af
000001d5
ffffffc8
0000022b
000000fa
0000007f
ffffff9f
00000020
0000035b
0000016c
00000292
ffffff95
ffffffe1
0000007e
0000012a
0000018b
00000202
00000502
ffffffb6
0000025a
ffffffd3
000000b0
00000210
00000157
000001f0
ffffffd2
0000000d
00000182
0000008d
0000011e
0000025b
000000db
000001de
ffffffd4
00000164
0000012d
00000204
fffffff3
000000f8
