f0
ed
2d
fb
0f
32
e2
d7
d7
24
11
b2
39
0a
ff
f6
03
e4
e7
c1
e6
09
fe
f4
e6
e5
1f
32
1d
f6
00
b0
b2
02
11
d2
39
2f
9f
16
e2
10
0c
ce
c8
0c
0b
20
f7
20
ff
e9
0e
d6
db
c4
08
fd
cb
17
c9
aa
ca
c8
13
ea
c3
29
15
e8
ab
f8
fe
15
e7
f7
f5
e3
f5
db
e4
e0
2c
f9
0c
fc
fd
ec
e0
2c
2e
00
f5
3a
03
81
c1
f7
39
d4
c9
00
2c
fb
03
2e
e4
0f
02
ef
ff
15
20
07
40
b5
00
c3
0d
da
ba
d5
fc
03
e3
11
b6
9b
21
de
cc
e6
e4
18
9f
d6
bc
e2
07
1d
1a
26
02
0a
07
0e
25
ac
e3
20
54
f6
e4
c5
0f
09
27
fd
03
0c
05
fb
15
00
21
ea
ee
8f
f4
15
ee
e1
d5
24
e9
e0
d7
ea
0f
d5
d0
c0
eb
f9
04
2b
fd
3d
cb
e8
1d
ef
fc
09
2e
ea
d2
d1
b1
d5
ed
f4
3a
2a
dc
f7
ca
d5
04
b7
f4
f0
0e
de
0d
ac
19
fc
be
34
fb
d8
de
f8
c9
d6
0b
e4
e2
09
eb
06
fd
cb
11
1b
bf
4f
f3
d8
3b
1f
05
2c
d0
0a
f3
a8
c3
18
df
f4
de
f8
05
e7
fc
1a
2b
18
1a
0a
ba
de
02
a2
20
d4
18
10
04
e9
14
ce
c6
d4
2c
eb
08
0d
c0
f5
13
e7
33
15
ea
15
fd
17
f4
1a
0e
81
c0
f1
08
34
f4
09
fe
17
08
23
1d
fe
24
fe
15
f9
b5
fe
02
e3
04
15
ad
e4
f4
d7
fd
13
27
0c
5b
b0
fc
b5
f4
0c
41
f4
1d
26
f1
64
3d
d6
02
fb
ff
f6
14
e6
1b
26
27
ea
16
ff
dd
2e
f8
30
27
0b
dd
19
e7
ff
d1
0b
4b
08
18
18
2c
11
e8
90
18
1e
f6
07
ab
e2
f6
41
e8
1b
ed
0c
34
a9
0b
35
08
2f
fc
43
de
c4
d3
33
03
ce
06
f6
e8
12
ec
04
15
03
9e
cf
1e
15
13
31
03
e1
d9
d3
36
3f
16
f8
f2
0f
19
17
41
03
36
da
ee
9b
ff
f9
fc
e4
11
c5
1e
e7
e4
f3
fb
d5
02
15
1a
ea
fd
1d
f1
fe
1d
e2
23
ee
fb
04
f0
fd
04
2c
06
0d
f8
0a
e2
fb
e5
02
13
16
fe
0d
db
20
e1
fa
ed
df
ff
ef
d2
e2
e8
2b
fa
0b
f6
fe
4f
14
1b
23
1d
e9
e0
ee
d5
c2
e0
ef
fe
0b
dd
1b
eb
01
c6
e5
be
f8
0e
f4
ee
33
2e
16
cc
e8
cd
06
39
12
e6
e6
e0
47
0e
17
08
06
b4
1b
45
d9
b3
21
d6
e1
fc
1b
2e
c8
df
06
f3
c9
9c
f3
e6
b3
fa
10
e3
1e
da
ef
ed
e3
f8
f3
0e
f8
00
14
cd
af
3f
27
11
ee
14
f7
06
fa
08
e7
29
f2
e0
e6
45
ec
e1
d6
10
20
d6
8a
f0
f2
fe
23
a0
f5
d2
b1
13
0f
24
d8
51
11
18
a3
bb
15
d2
f7
c5
19
13
6b
c4
0b
2b
e7
e3
f4
b5
4b
19
78
31
26
f1
37
09
cd
02
b2
0d
eb
cf
11
a6
ef
ed
ed
eb
24
d5
16
44
eb
f5
21
16
f5
9f
25
7f
0f
0d
19
fd
fa
f0
19
09
c3
f7
0e
8b
16
d0
09
03
de
f1
e3
01
07
f7
ff
3a
c3
40
c4
b7
a4
d9
fa
15
ef
0e
01
f9
e0
cb
4a
de
5c
21
b6
09
11
32
c0
f2
06
c8
b9
24
11
cd
09
ca
d7
0c
34
d6
f7
a5
de
fa
ed
d8
de
28
01
1a
05
25
07
e9
e5
20
e0
fb
ed
e2
0b
08
0c
f8
c8
0e
12
fb
e7
f9
56
40
5d
ea
d4
bc
09
c0
ff
fc
df
f3
e9
30
2e
d2
1e
49
15
37
0d
a5
e6
08
d2
cc
72
2c
21
f9
d0
08
1e
f9
3b
ee
d5
d4
c8
f3
f4
a3
ed
03
24
de
00
fc
ba
ea
fe
29
df
eb
e5
00
e4
ad
0c
2b
dc
0e
28
e1
e6
ff
ed
ed
e2
45
ed
21
01
d7
f8
35
4d
c1
be
e0
ef
f9
04
f3
03
b2
08
42
22
da
e7
ce
d6
fa
61
22
bc
00
c8
e5
c7
fd
fd
fe
25
ee
19
13
16
f3
9a
1b
25
fc
fc
9d
ca
c2
a3
18
2e
ed
f2
dd
26
dc
f1
46
30
f4
c7
f1
13
09
e6
ed
ef
23
fc
04
1e
38
c9
0d
ef
0c
c2
e7
d1
fc
17
68
5b
28
f2
da
09
ec
ee
f9
04
fc
cb
f5
28
cc
d7
03
d7
cb
d8
6f
f1
eb
1c
02
ed
ff
d9
98
f7
bc
fe
f0
0f
36
4f
b6
1d
db
b9
00
21
d7
40
c9
fb
38
0e
ea
d5
60
f1
ef
cf
f6
b6
15
06
f6
ea
ee
f2
e2
e5
03
b1
24
b6
19
f8
19
cc
f8
3d
c2
ef
da
01
f8
16
11
97
d7
21
2c
f7
17
e0
fc
f3
eb
17
0b
e9
12
e3
f6
10
e0
0d
f8
ee
09
e7
f5
d6
d8
dd
da
ac
af
b7
f2
2c
f7
c5
9f
ef
81
c5
40
22
d0
cf
3b
ff
a8
37
ec
ee
db
47
ae
f5
14
fb
10
e4
34
f0
df
f9
73
f9
d9
02
d9
29
17
ad
df
28
e0
f9
0d
f6
13
f4
87
e5
fd
57
f1
1a
e9
e4
19
f9
f0
f3
ee
ec
f4
f4
11
c9
ed
20
f0
0e
36
ff
fa
e1
de
fe
2e
c3
f1
da
ad
f3
2a
f6
04
ce
d0
e0
bc
ff
95
e7
11
ad
19
3c
fa
33
11
c7
cd
0a
e8
0b
22
cb
f5
f6
c8
26
ea
31
18
10
12
e6
ff
e1
ec
d5
18
d6
30
f8
e1
e3
dc
1b
b4
3a
0e
0d
30
d1
d4
fb
05
0b
d7
cf
dc
0f
21
ff
cb
ed
e8
e6
d7
03
3b
4d
13
24
37
dc
0d
c6
cd
e3
20
dd
e6
46
0a
c9
08
33
15
ff
f1
bb
f6
ff
07
f7
fc
05
a4
f9
ba
fb
af
df
b9
c4
1a
0e
ba
dc
e6
eb
de
bc
f0
44
ce
16
49
ef
da
42
f4
ee
fd
3f
9e
dd
d7
1c
14
f4
19
e6
3e
05
27
d2
d1
cc
27
0f
1e
8d
fd
5a
14
bc
da
c4
ef
dd
31
bb
37
27
e3
c8
0c
ca
e8
20
d2
d0
11
07
cb
ce
e4
8f
f2
14
08
ec
eb
c7
15
fc
f8
34
17
0e
f8
ad
81
f2
c5
21
f6
d9
0e
e7
ef
cf
0b
15
0b
f9
e8
f6
f4
c9
e1
d6
ee
f4
e0
dc
dc
c1
43
48
2d
00
10
bd
0a
e1
c9
11
cc
0f
fa
df
e4
bc
e7
cc
ce
89
20
e5
01
e5
20
f0
6e
29
04
d2
07
c3
2d
75
f3
f9
e6
e7
39
fa
e8
0e
c8
06
81
c4
f8
f2
05
fc
28
0f
ef
f3
d0
cd
f5
f4
17
03
26
17
f8
be
fb
1e
f0
42
2f
f2
f8
e6
dc
dd
b1
2c
df
23
df
78
0f
10
1c
c6
ea
d1
20
ff
2a
f3
df
e5
de
23
0e
ee
e2
d0
0a
02
0d
fc
15
04
00
62
11
f0
1d
f1
ee
c5
0c
ef
35
e6
d7
f4
26
df
0a
1a
33
ff
f3
1f
34
cb
d2
bc
07
e9
05
fc
f0
e8
f5
c2
ff
b0
1f
05
16
da
23
d6
df
cd
ea
e7
00
05
d7
01
e3
fb
42
24
c9
ec
dd
db
f1
e4
d9
db
c8
1f
fd
9f
f8
2a
fc
21
ab
e7
39
3d
2e
f6
cb
f0
0a
16
d9
33
0b
9c
18
d1
21
de
43
8f
22
c1
c3
22
40
e3
fa
33
c5
16
28
0e
ef
dd
ea
b4
05
fd
e7
dd
d0
f7
93
04
08
03
f9
20
e0
d8
02
41
07
f0
c4
e1
66
34
1a
18
ce
bc
5f
05
11
08
0a
0a
aa
de
e7
60
2d
c4
b0
07
27
0c
07
22
ed
b6
dc
d9
fd
e7
18
2b
2a
c7
01
d5
ce
50
cb
40
0c
0d
d5
07
0f
92
1a
e7
4a
79
fc
d7
19
30
ba
17
b0
f2
08
9f
b1
21
d7
d8
ca
c4
2a
33
05
b3
ed
d6
9f
db
e8
00
bd
09
dd
d9
4b
00
e9
02
58
db
ef
17
fc
29
53
2b
c6
f9
c5
bc
dc
e4
ae
e3
c4
08
20
19
d0
08
f1
c4
08
eb
fa
ce
ae
1a
11
bf
fb
24
8d
19
32
a3
30
c0
19
48
da
f6
09
4f
97
dd
2b
ee
e6
1f
13
0c
98
1f
29
44
cf
e2
10
00
36
0b
fe
19
29
03
14
cc
15
0d
c9
34
fd
f8
04
ff
0b
dc
04
b8
f1
0a
8e
b9
dd
ee
94
25
49
fb
04
f2
23
13
2a
e0
2e
f2
f7
cc
aa
d3
2a
24
f1
20
28
f4
fa
ec
ea
c4
2a
e8
35
f2
15
f1
12
f4
32
e1
05
39
fb
01
13
0e
ad
41
08
e1
6c
0e
51
e4
4d
d0
f7
db
fc
0e
22
05
09
fa
27
b8
e5
fc
ef
05
c2
81
0b
2c
06
b9
db
04
33
50
ae
df
20
e8
d9
e6
0a
98
fa
fb
94
32
e1
fd
dc
13
56
fa
09
99
4c
31
fd
a9
bf
ec
d4
15
1b
c3
ab
d7
f1
d3
17
ff
21
95
09
f9
94
e0
c2
17
f2
4f
0a
8d
f6
41
aa
af
ec
fc
e5
11
f2
18
af
aa
fb
10
fb
20
2d
1c
cd
fa
da
a3
36
e4
cb
ca
a4
e3
fc
0f
11
fd
0c
c6
fc
26
0f
f9
2e
ef
0b
f0
9a
ee
d8
0f
fa
c0
a9
c9
f7
10
97
00
fc
10
40
03
f8
17
02
2d
2a
ea
ed
04
a7
1f
b2
1e
e1
29
cd
2c
0d
e7
0b
fd
bb
27
fd
36
eb
fb
0a
fb
25
17
1a
f8
df
25
ee
cb
cd
e5
40
fa
bf
2d
23
4c
f4
9e
e9
a5
fc
d3
f2
eb
e2
ed
07
27
51
0f
f0
35
fe
07
c6
e8
ec
f7
32
0f
da
2a
cb
f6
f5
b5
40
18
31
09
3c
19
12
05
10
e8
cf
14
db
be
c8
1a
d6
0c
2b
ef
0a
15
2f
32
1c
12
00
f6
05
e9
ba
30
cd
24
1a
fe
ce
ce
d9
f2
a9
f2
c9
35
03
b5
1d
b9
25
ea
c0
e1
fa
f2
bf
84
27
05
14
2a
dc
a5
81
9f
29
be
10
da
e4
35
e9
ee
e2
d2
ea
1f
ba
f2
5a
e4
d4
e5
16
f8
a6
0a
fe
d4
c8
13
d9
ae
b2
10
bb
03
d2
fb
ec
28
02
29
e8
07
24
b5
71
af
2a
08
da
23
ed
9a
e2
9d
12
fd
e8
cc
e8
0a
cd
31
fc
f6
e3
f6
f9
11
fd
18
f5
37
f1
08
e4
27
f1
fe
0b
c9
ee
04
1c
04
18
18
1d
d8
24
07
de
15
f6
eb
f2
17
01
fd
0f
0e
df
17
1c
fa
2d
e3
f3
da
0a
e3
f9
1d
e4
0e
08
e2
0d
de
08
ba
e7
de
03
e3
f1
fe
d6
ca
ef
d1
2c
2f
ff
02
15
1e
06
b9
ed
da
31
09
e7
e0
2c
ee
f8
18
0e
b1
1e
d1
5f
f7
f7
cd
2b
30
d1
95
ea
d6
d3
ec
24
e1
02
1a
02
e4
e9
f8
c5
31
ea
13
0e
d8
23
cf
2f
ec
de
ca
0b
f7
0c
32
f4
f1
d6
fe
e8
ff
c4
1f
08
ea
1a
ea
db
fb
e0
33
2c
ee
14
04
d5
1e
fb
11
19
9a
81
fd
2e
fa
cf
11
17
bc
ee
f9
05
11
d6
36
d4
f3
f8
da
f4
ec
bf
fe
2e
86
e6
c8
18
df
03
f1
20
1a
e5
08
2f
d7
00
f6
16
0d
dc
f3
ff
dd
0b
1a
f8
40
48
18
ab
13
fa
d3
f9
0f
e1
f8
f8
17
1f
f3
d3
2e
03
f1
1d
e3
ec
dd
ed
ea
21
04
f0
f9
06
ed
08
0b
37
f0
13
17
03
f4
df
46
04
fc
a4
e3
0c
d3
0e
c8
01
28
1f
18
f7
18
be
eb
a0
a6
25
cd
0e
0b
fd
23
f6
c2
fd
30
ec
e4
06
12
d7
5c
92
81
d3
22
12
15
00
9a
df
cd
fb
f5
d0
d7
6a
b8
a4
07
0f
1e
06
e8
15
a5
48
bf
dd
d3
3d
16
e0
db
2a
b9
c7
e8
f5
1c
e6
da
fc
06
f3
fd
38
dc
f5
ab
0c
f6
f8
f7
e9
eb
1d
c4
50
e6
e9
be
d5
22
12
b9
dd
27
df
e5
e8
13
b8
17
ef
04
40
f1
eb
0c
02
2b
32
18
b6
1a
f3
ce
c7
d9
c8
07
10
ad
f4
23
c4
2b
1d
3e
ec
f0
c4
d8
16
2c
13
15
cb
26
d5
03
a4
03
a5
f6
03
05
42
fa
1a
f1
c0
db
c5
f4
08
b2
f5
fb
dc
21
09
0d
11
1b
ba
27
e8
10
f5
ee
bb
18
14
e1
12
c4
ef
0f
de
f9
3b
b2
0c
44
ea
d8
d7
0e
e9
3a
ea
f9
0c
00
e8
1d
10
05
d7
1a
1a
bc
22
c7
42
f5
52
b3
49
d5
30
1b
e0
05
e5
e1
04
f4
d2
d6
d9
e3
e6
e9
20
fb
bf
cd
fd
c1
19
fa
c1
d0
af
35
0c
30
d3
f1
c7
16
d6
ed
df
de
ed
ed
ef
18
17
53
e6
04
ee
18
d4
05
e4
04
18
f3
0c
35
03
ef
ff
c2
2b
eb
28
dc
f7
08
06
1a
11
09
e6
15
b0
ed
f0
d9
cf
ac
20
02
10
2d
e6
02
1a
d2
09
e0
f3
fa
0c
24
c4
e1
ca
01
00
03
bd
e6
1d
20
f3
3a
4f
40
14
cc
01
d9
ce
1c
d9
d5
d2
e9
f5
12
fb
30
c3
f9
05
fa
f1
13
d6
f8
de
a1
e7
0a
0b
ad
3b
2a
d2
11
24
f9
e8
1b
2c
eb
1e
1a
f6
33
23
e2
d0
c0
e1
20
d0
e6
ed
e0
16
e6
27
e8
2d
e8
cc
fe
e0
e3
ee
b4
fb
e4
e7
f8
04
da
ed
fb
33
db
29
f1
f8
e5
ea
ff
e6
00
49
e6
fd
b8
81
e0
4a
0a
d5
d4
25
04
fd
ff
15
0b
a2
36
f8
e5
22
11
30
f3
ea
e2
c3
e8
0b
58
0b
12
cd
ad
39
fe
c4
f0
22
f7
cb
16
ec
01
00
00
f4
f2
f7
bd
27
ef
09
23
f2
e6
0c
d0
fd
ce
f9
d2
b3
ff
14
0f
12
34
fe
be
13
11
d6
ea
1d
0a
ef
db
f4
e1
0e
0b
cf
eb
0d
d8
ca
f1
f0
e7
2b
f4
b3
e4
07
1b
18
e4
0c
07
1e
0f
e7
19
e6
fe
f8
e8
0c
c1
ef
d9
0b
e6
ea
0e
59
81
e9
03
df
a0
09
c1
e9
33
ee
19
39
e3
d9
d7
46
01
03
56
2b
f8
e9
0a
e7
04
df
d9
ff
da
ee
dc
fc
9a
40
f1
e7
f1
be
09
0f
f6
0d
f5
27
c3
26
d0
0c
14
5c
c7
f9
d1
ec
ef
14
0d
24
fe
d9
1d
24
21
b5
c2
cc
17
12
13
c6
07
f6
e5
1d
15
e8
e5
20
eb
cb
d9
1b
d6
e4
da
11
02
20
f6
06
3a
db
f2
90
1d
07
fe
0a
b2
25
d6
eb
1b
d6
d8
06
c3
bb
bd
ef
ed
d8
fd
1c
2d
dd
f8
21
d7
0e
d0
fa
a2
d3
c1
ed
e5
ff
e4
f3
b7
19
c5
b9
17
06
1f
9d
fe
17
0a
62
d5
06
e6
da
f0
aa
22
00
ec
fa
08
06
17
12
b9
ea
01
1a
f8
da
e3
1c
31
b6
21
e5
cd
eb
14
0d
1a
c2
f6
0b
d6
ef
1b
1a
e9
11
f7
1c
13
c3
09
e5
f3
1d
b7
0f
e2
bd
1a
e9
04
e4
e6
b6
dc
22
e4
45
0c
e4
fd
f1
1c
ee
2f
02
e3
e7
28
0a
c2
02
bd
f6
f6
e9
f5
de
32
fa
07
10
ea
bd
ca
f1
00
da
c1
f8
99
f4
93
e7
0b
05
f6
40
2a
1f
fc
36
14
ed
b6
2d
e4
e0
e5
d4
39
10
f6
27
e1
a8
f6
ca
35
b9
ff
f8
ca
32
61
93
27
f5
e9
03
c8
fa
35
03
e3
ef
d2
f3
df
46
09
f6
1b
3d
db
bd
0d
ce
1a
14
e3
06
be
11
e3
f2
1d
09
e8
a6
0a
06
19
e3
d5
f6
34
0d
08
f5
12
25
48
46
bb
24
b0
38
b6
cc
d7
db
f2
b1
e2
a2
e5
23
db
e1
4a
e6
e7
fa
00
f4
bc
e1
d8
d3
16
05
9b
13
e4
21
d9
e7
35
b4
1b
b4
d2
ef
34
22
d9
c6
da
07
85
07
3a
ac
aa
dd
0d
16
fc
e9
ea
81
e4
20
fc
fb
73
e3
26
ea
dd
b1
2d
0f
e4
e8
a4
11
16
cc
58
2c
e6
25
cf
ee
02
15
02
1c
ed
1d
d7
1b
ec
bd
e5
f0
09
aa
40
12
fa
9a
ed
03
0c
1f
15
e6
d2
22
07
34
ca
44
08
18
fa
e3
1b
03
21
ca
e8
02
17
cd
51
20
e7
fe
fb
f8
cb
06
07
e4
21
e5
36
df
fb
10
23
c2
eb
eb
12
f1
2c
03
f6
24
43
ef
e0
bd
08
90
f9
da
c8
d2
32
17
e3
d4
17
d8
f9
20
14
13
f0
d5
21
09
ee
0e
10
01
02
55
04
f6
e0
28
19
2b
2f
48
11
ff
41
e5
ce
0b
d0
c5
1b
c6
0d
a9
f9
1e
21
ff
e2
fb
1e
f0
dc
bd
fc
b3
ee
c7
00
13
43
c4
36
19
14
f1
d6
1f
d9
0e
f7
de
de
26
d2
41
03
b5
f6
ae
28
fe
f7
e7
15
21
ff
0e
13
10
13
26
d5
69
fe
f4
f3
07
cc
32
3f
6e
e5
bb
c7
1d
0c
dc
f7
08
e1
79
dc
f1
d3
f4
25
fc
ba
df
f7
ec
15
f6
13
20
30
96
c4
ce
22
05
d8
08
d4
e5
a5
b2
fb
dd
16
ca
e5
b7
f2
a9
0d
de
38
e8
c6
ed
d7
1a
1e
c5
a5
a9
30
08
d7
07
0e
eb
c2
31
13
7b
0e
e5
bf
0d
f0
d5
f4
4a
81
de
dc
c1
2e
ba
fa
10
b8
00
ac
d5
d0
dc
e6
03
0e
24
c3
c6
0a
1f
06
ea
31
5d
29
40
1c
f6
fc
22
09
d1
42
12
0e
05
d7
f9
fb
10
1f
d4
d2
c9
d7
db
e5
64
f7
bd
f6
d4
e2
ee
e0
e8
12
e5
c9
16
2c
a7
d2
01
01
b3
15
ec
db
42
c4
dd
32
f9
2c
e1
9e
9a
95
08
e0
d2
d8
05
32
dc
d1
38
10
2c
fd
19
02
31
1c
04
f4
e6
da
f2
33
16
c8
1b
f9
02
df
fa
b0
e9
fb
d8
f6
df
ce
16
36
20
bc
d6
01
d4
dd
d4
1e
dd
f8
be
f4
04
28
fa
09
1b
cb
11
fd
2f
09
f5
9f
e7
df
b8
e5
0a
ae
29
20
f2
f4
c0
1b
28
f3
27
16
81
0b
d8
0f
a9
df
ff
c3
e6
21
f8
2b
f4
0e
11
c7
e5
e1
1b
eb
ea
26
cf
0a
d7
ef
31
fd
22
fd
14
c6
21
17
11
94
d0
f3
02
05
c6
f6
24
fb
2a
2c
04
0c
15
0d
f6
fe
02
ff
3e
f2
dd
f5
3b
26
07
26
f8
e9
f4
e2
0c
e4
0e
fa
15
a0
df
db
d5
19
e0
de
f7
0f
f8
3b
c5
fe
10
fd
1e
df
d2
f3
f6
02
ca
0b
d4
f9
3a
ec
f0
0f
08
16
f6
ff
d4
e7
f7
f5
d7
f2
18
08
30
21
e6
fa
06
e1
dd
f1
f5
f4
cc
ef
10
00
a9
cc
05
ec
b5
09
f9
f5
de
e8
ef
03
c8
21
04
0d
d9
f8
23
85
16
d7
e4
ef
18
e5
e2
b1
17
de
f9
dd
f1
26
ea
00
ec
d5
00
24
28
df
14
d5
e5
06
29
05
24
bd
06
1b
f5
f9
e2
08
f9
da
da
ab
ff
bc
c6
0e
12
26
09
b4
14
eb
16
05
18
c0
15
ee
f3
0a
fa
07
1b
f0
0d
06
f7
03
00
17
15
e3
fc
fe
fb
e4
02
13
01
f8
eb
ef
0c
18
15
19
f5
ea
d7
09
10
27
0b
14
f2
27
07
f4
ff
ed
f0
eb
06
df
00
10
f4
e9
08
00
02
f4
09
eb
fb
11
06
f1
e1
e3
fc
fd
fa
fd
d6
fd
f7
1e
eb
0a
4f
04
f7
13
0b
0a
08
f3
09
fd
00
e1
05
03
00
ef
e6
e8
0f
fc
e8
08
27
f5
1b
e9
e4
f8
f2
e7
f3
f0
f0
ec
2f
fc
01
f9
dd
01
0c
00
09
f1
f8
2f
19
db
fd
f5
ef
0c
15
fd
fa
fb
26
f4
14
ff
03
13
05
02
da
f4
ef
ef
28
ee
02
d8
eb
0c
cd
e6
fa
0c
1b
13
05
e3
1a
f4
1c
fb
f2
ed
f9
07
fc
16
22
f6
00
21
81
db
fb
15
17
fd
b5
f9
e1
eb
eb
16
09
03
ed
fe
0d
f6
e5
ed
e1
0c
f7
15
21
f1
f7
fa
1c
f1
eb
e3
08
34
e2
c9
15
11
14
fa
2e
2f
1a
06
17
16
1b
fd
cc
37
fe
e5
0b
0e
00
15
e0
18
0b
d4
11
fe
01
e8
eb
21
e9
dd
34
bd
1f
ef
20
13
0c
e9
12
e4
12
ea
fb
20
07
06
fd
f6
d4
fe
d9
1b
fd
de
bb
2b
fe
f7
0b
f1
04
f5
10
d2
de
ed
f1
f0
d2
09
1c
33
c4
c3
b1
07
fd
12
e9
e3
f5
23
c2
51
c8
f4
e6
0c
ed
15
09
09
cd
04
11
12
1b
ef
25
02
3b
e9
9c
db
ee
04
fc
13
fb
fc
f6
f7
1a
08
de
b0
dc
d4
f1
ea
db
96
da
b1
bc
fb
db
09
1b
df
cd
df
cf
d3
1f
81
14
e6
cb
19
1c
e9
ef
0a
e9
1f
b1
c5
53
19
0a
f8
18
34
f4
21
1b
35
af
d6
f4
0f
d0
18
17
e0
03
e0
07
ed
ad
c4
da
07
e3
0c
db
ac
39
f5
ff
d2
e9
33
19
c8
fd
19
26
19
39
eb
35
d6
f5
c5
3c
fa
15
06
0c
40
35
05
c4
14
06
1b
c3
53
ed
fe
fb
33
e9
10
e6
04
d6
fa
fa
2c
f2
06
ea
ad
e7
f0
cf
f3
c7
d0
22
dc
07
c9
c4
04
f5
e9
0c
cf
bb
c1
08
06
fc
f4
d0
2a
20
26
28
11
33
e2
e8
56
05
30
df
f8
e4
1d
f9
17
1e
0a
ea
fb
16
ea
34
06
de
f8
01
f5
cd
e8
f2
f5
b1
fd
05
da
18
eb
ab
fa
e7
0c
27
db
d1
f8
e1
d6
01
ec
f9
e5
d0
2c
d7
d3
ee
10
36
04
2b
19
ea
eb
ff
f7
e4
f8
12
f6
f2
1a
24
1b
0d
1c
18
d4
19
15
13
e3
f6
36
ec
06
d9
f1
00
e4
db
f2
19
1a
3a
00
ea
e2
d1
1e
d6
fa
de
22
10
c0
fb
ef
0b
0b
12
16
d1
08
fa
0a
f4
09
02
09
ce
09
e0
cc
23
11
ef
ec
d4
cf
0c
ed
09
f1
16
e6
f6
fc
fd
bb
f7
e8
ee
3c
04
0c
e8
d8
e4
07
22
f8
14
f5
2e
14
ec
e0
f7
10
29
07
24
e6
0a
b1
13
e2
fc
f6
ee
eb
37
c1
13
08
f6
da
1d
e5
fa
f5
32
14
f4
09
fc
81
0e
11
10
f1
17
f9
04
05
da
0f
e8
40
05
f4
0d
fc
0a
04
0e
fc
3a
0f
cc
f8
d2
fd
09
0a
f6
d0
f2
f3
20
22
f2
e3
01
f4
0f
ed
10
f7
e3
17
f9
f8
0b
0b
fd
1c
0d
01
0c
cd
28
f1
e2
07
d5
fa
10
b3
14
bb
d4
09
fc
11
4c
c2
21
1a
26
e6
21
09
f5
d3
1b
db
f5
e7
b9
2b
11
1d
e9
03
c5
e6
19
04
19
1a
19
11
05
33
00
05
fe
e4
fb
e7
e7
00
0b
e9
e6
13
cc
05
05
ed
da
c0
ce
d3
fe
08
f3
10
f9
fe
04
1c
01
03
08
ff
05
00
ff
ff
fd
03
03
fa
05
02
0b
ff
f0
fb
fc
02
01
ff
f7
ff
00
04
02
fe
01
f9
09
04
06
dc
ff
fb
02
fb
fe
01
05
05
01
06
ff
fc
f8
fa
03
ff
fc
ff
00
f9
fd
40
ff
03
09
a8
f8
fb
fd
fe
02
03
01
f7
ec
fe
07
01
ef
05
03
04
0a
fe
fe
0c
fd
f5
fd
fe
05
04
fe
f5
f5
f2
e1
06
00
f6
00
fc
01
f6
f2
00
fd
01
04
02
e6
fd
fb
f4
f7
05
03
ff
ff
fd
f7
01
fd
03
06
fc
fc
f4
f7
06
f7
05
05
fd
03
ff
00
fa
ff
06
01
fc
00
03
fc
08
ff
fb
7f
01
05
fb
00
16
fd
ff
07
ff
08
05
fc
02
01
ff
f6
fe
fb
01
ff
fb
05
08
e8
fd
fe
ff
f0
01
fe
fc
ff
fd
fb
f0
00
02
fe
07
02
05
04
f8
06
11
fc
01
f4
f0
02
f0
fa
ff
03
f9
09
fa
fd
00
fb
ff
fa
02
01
fe
00
07
04
03
fa
05
02
01
0a
00
07
01
fa
06
04
09
fd
00
01
01
04
04
09
fa
f9
ed
06
19
fa
fe
f9
f7
fa
05
03
07
03
04
fc
ea
ff
ff
f5
04
d8
f7
d1
e8
09
52
f1
ed
60
05
57
01
34
1a
ed
d3
dc
01
fd
ce
d5
2c
b0
fd
a3
1e
e0
c5
ea
aa
0a
e9
ba
dc
7f
1b
e5
05
03
f5
db
e9
dd
0b
9d
d7
2a
01
0f
d2
a7
09
cf
32
31
0b
bd
e1
e3
00
10
93
fd
28
f9
be
e3
b4
f4
9d
03
0b
f3
34
f1
95
24
1e
db
26
25
ed
11
17
d0
05
19
10
c0
23
08
be
ae
02
fc
be
20
1c
e6
e0
f6
1d
fa
01
14
ed
4d
0f
02
45
54
d4
f1
0f
c7
00
f0
2f
d5
f0
05
e4
04
d5
ef
b9
b4
e9
57
2a
c1
b3
de
f8
0a
0b
0a
de
f8
e7
e7
90
ea
e9
c6
1d
26
25
12
12
d1
f2
da
0b
e3
f6
d4
ab
d8
d1
2b
e3
fd
df
3c
d8
20
10
00
f7
f4
c7
19
0a
1d
3a
ef
fb
ec
f2
38
e0
25
53
00
0f
d5
e1
30
2c
3d
04
18
0e
d7
e5
ea
00
b2
f3
20
f5
19
f1
f8
da
fd
ce
06
14
1f
03
1f
f0
fa
fc
dd
01
b1
f7
06
fa
cd
fb
e9
13
d7
15
aa
0a
3a
b5
f8
ee
c8
e0
a5
f1
cd
d4
1b
e6
0c
6c
c3
8b
35
10
00
f2
f2
e6
0e
b3
02
d4
09
f3
03
f9
f1
11
1e
12
eb
e2
d9
21
0b
dd
e2
fa
f5
02
f9
f0
f5
07
1a
14
e3
0a
0f
0c
ff
df
ff
02
01
0c
f1
f9
01
fe
ef
f6
01
06
07
14
ee
18
0e
f9
d3
e4
df
06
0a
d9
fc
12
02
fd
0f
ee
03
df
0c
fd
f2
ea
09
d3
fb
cc
0e
f9
81
f2
ff
ee
e1
13
00
0a
0e
fc
10
01
03
f0
06
e7
fa
cc
fb
d8
1c
ed
fd
c9
00
ed
24
f6
cf
11
01
ef
ee
e4
f6
0f
e8
e7
d6
ef
02
fb
fe
07
ed
2e
f6
db
f7
df
fb
e4
f9
07
02
17
01
0a
e7
fe
f7
f5
fc
dd
26
cb
f0
df
cb
da
01
f1
0b
f0
aa
16
f5
00
d9
17
f5
0c
fe
fc
fd
02
ec
f5
04
f3
f1
05
f6
f9
0d
ea
f7
fe
f9
02
ec
f7
e9
04
eb
13
09
09
00
de
08
f8
e3
c5
10
c6
fd
0f
28
0a
03
0e
f9
eb
15
f8
01
f1
fd
c2
04
dc
f7
fc
fa
ef
e1
09
04
fe
de
ec
dc
c4
1a
0f
fa
31
05
02
f2
f4
e6
05
16
00
13
01
e0
f3
12
ec
02
f2
19
f2
eb
14
f7
f3
af
fb
e8
00
0a
05
03
de
06
f0
27
05
db
fd
03
02
fe
eb
fa
03
e3
f9
05
01
02
0c
00
fd
01
fe
06
02
f9
fe
01
fd
eb
03
02
04
04
fb
00
fd
02
fc
00
01
08
03
04
ef
fb
ff
01
f3
00
f9
fd
07
06
f4
00
04
01
04
f9
06
fb
fd
07
00
fd
42
01
fa
00
dc
07
f9
ff
fd
04
04
00
fa
0b
00
fb
04
fc
01
00
07
01
f8
f7
fc
02
02
03
08
0b
ff
02
0c
f6
00
05
02
fb
fe
07
fc
fc
fd
fe
fb
00
fd
fe
ff
7f
07
f9
00
06
ff
fc
fd
06
f6
fa
04
ff
0c
ff
05
ff
f5
fe
00
04
00
0b
0c
06
fb
fa
f4
ff
03
fb
fe
fc
ff
f6
f2
fc
02
18
fd
fb
ff
ff
e6
00
00
02
f7
04
de
ff
fd
01
05
05
01
07
06
f9
fc
fb
ff
fa
fd
f8
02
07
02
01
fc
00
fc
04
0b
fb
03
08
f8
08
ff
01
03
eb
35
01
00
03
fd
f8
fc
01
fb
02
e9
eb
fe
08
fe
fd
00
00
03
f9
f1
fa
fd
fa
05
07
07
fd
fc
02
02
ff
02
09
fa
fb
00
fe
04
04
01
01
fe
08
03
02
05
f7
0c
fc
f9
ff
03
05
03
00
06
f9
fe
01
10
07
f8
f7
07
f0
1b
19
07
0c
20
fb
17
01
f6
02
d0
e8
0e
f2
27
c4
f6
1b
de
e8
1f
e6
f5
1b
00
0f
1b
22
ef
04
19
f8
2a
f7
f2
02
c1
44
fb
e1
fc
0e
e5
e9
0e
e2
f8
04
11
05
04
1c
09
ee
02
e0
f2
ef
18
13
fd
ed
00
fd
0b
04
e8
0d
1a
f6
fa
f9
22
0a
ff
fc
f3
fb
fd
08
ef
f6
16
f4
23
ed
eb
2e
c7
fb
19
e6
be
ed
df
09
21
e1
12
ee
ee
f6
e3
f0
e8
f1
14
1a
12
1c
e5
f7
0a
31
02
f5
03
f6
f7
19
0b
eb
1a
dd
16
e2
18
d4
ff
f9
15
e9
fc
e7
ee
09
1f
f6
f0
32
c6
e7
09
f2
04
05
10
e7
0d
0b
09
d1
25
55
06
05
0c
1d
d6
eb
fe
f7
42
e3
0a
13
0e
0e
0c
e0
06
ed
f3
0a
f4
ea
01
14
0b
38
f8
f6
09
19
0f
20
03
eb
e9
0d
05
12
33
12
19
fa
e6
e6
d9
f3
f3
f6
ee
fd
09
10
e0
f4
28
cf
ee
02
22
fa
15
ef
e5
08
f2
81
f0
eb
f4
d1
e9
13
f6
f2
ec
ff
f5
ff
07
f5
0d
e9
fc
24
11
24
f8
0b
d1
e8
11
10
fe
e8
fa
f7
ef
1a
ef
22
eb
ff
ff
00
fa
fe
03
f7
03
00
fd
00
01
00
ff
ff
fe
fd
fa
00
02
00
ff
fc
fe
fe
fe
fe
01
00
fe
01
00
ff
00
ff
fe
fa
f3
fe
ff
04
ff
05
00
ff
fc
00
fe
02
01
ff
fd
00
00
01
02
ff
01
fe
e4
02
00
00
f5
01
fd
05
01
ff
02
fe
00
fc
00
02
01
02
fe
ff
08
02
ef
ff
02
02
03
fd
03
fb
ff
fb
ff
fe
fe
57
fd
fd
fe
03
02
03
ff
00
fd
02
00
01
00
14
fe
fe
00
fe
ff
fc
fe
00
fe
00
03
ff
03
fd
fe
fe
ff
01
00
01
fe
fc
04
00
00
01
08
02
fe
fe
01
fd
00
02
06
00
00
02
fd
fb
00
04
7f
ff
ff
ff
01
ff
02
02
02
fd
fc
00
01
fd
02
ff
01
fd
01
f9
00
fc
02
01
ff
fd
fe
ff
00
fd
fd
02
ff
ff
fe
01
ff
03
ff
f6
e6
01
ff
04
00
fe
03
fd
fc
00
01
f9
ff
ff
02
04
fe
ff
04
00
00
00
ff
fe
01
ff
fc
fe
02
fd
00
ff
ff
00
01
00
00
fd
fe
00
01
03
fe
01
01
01
fc
00
04
01
fe
02
fd
04
ff
00
01
01
fe
01
fd
00
ff
fe
00
ff
15
14
f0
c9
f0
21
2d
06
33
dd
a8
fc
fc
fb
02
21
f3
26
f4
0a
da
de
f2
ce
e9
0b
04
02
e2
2a
07
0f
ec
1c
20
a8
fd
f9
07
f6
0d
02
10
09
db
21
16
05
1d
ce
c8
f6
d8
09
fc
16
f0
1d
f2
e7
26
f4
e2
23
1e
01
f3
d7
f1
f7
05
fe
d5
32
06
b1
30
ce
db
d9
fe
fd
ec
30
d8
cf
f0
00
f3
f6
1e
ea
e6
f5
12
08
2b
db
43
f5
a2
ff
0f
f7
f6
d6
d0
29
12
ec
ff
14
d7
10
f4
05
07
f2
2c
bb
ee
19
fa
24
02
17
e2
0c
fc
f5
f2
f0
0a
c5
01
ed
09
eb
09
d7
cd
2d
13
00
f8
02
1b
da
fa
34
f4
dc
2c
1d
fe
c8
2e
0d
f4
0d
e6
fb
12
14
ef
16
ff
16
25
dc
e3
20
09
c1
28
f3
cc
11
18
fe
fd
00
f7
9b
de
03
ec
f4
18
3a
ff
f4
bb
a8
e2
ee
1a
14
08
13
21
06
df
e7
ed
03
ed
18
dd
c7
ec
f6
fe
01
ed
f6
05
05
0d
93
e7
0a
9a
fc
be
81
31
02
16
14
0e
12
34
36
f8
da
ee
0c
fa
14
45
f0
e8
e9
2d
cb
03
fa
0a
eb
0c
f1
ba
fa
b6
d8
30
17
07
22
e7
dd
f2
e8
d3
ea
37
ca
88
7f
10
d0
ea
cf
0f
21
eb
eb
db
d0
e1
40
49
00
f7
0c
18
d1
0d
fb
08
09
b6
ff
cc
d9
ef
c6
10
c4
fd
0d
dd
ec
2d
dd
f7
e0
d8
c0
db
f6
dc
1a
02
dc
f8
f3
17
b4
f9
09
d0
15
05
da
db
fd
f5
e7
27
fd
f2
14
0a
34
ef
d0
e6
f4
de
b6
16
23
33
e7
df
21
d5
e8
d4
2c
d4
06
06
01
cf
11
24
13
08
f7
cb
12
25
da
05
3f
f2
00
ee
e4
0b
e9
32
d0
dc
10
2f
e3
d3
1a
2e
65
12
db
15
eb
e5
04
e3
f6
e2
1c
01
21
ff
ec
b1
01
cb
f4
e3
e3
28
32
06
fa
f5
fb
12
3a
f2
02
c8
17
d8
f2
e2
16
bc
0a
01
38
0c
f3
f9
e9
22
d9
26
ee
01
f5
fc
1e
ec
e9
26
ab
23
08
17
ed
ec
e2
06
d5
14
0c
ec
e3
30
e7
03
e3
1a
33
de
14
14
f2
22
d7
e6
07
1c
22
13
0b
ce
c2
de
e1
2e
0d
cc
1e
e3
cc
01
13
f6
ea
eb
33
d8
c8
15
ee
e8
f2
04
25
18
d6
16
f0
19
03
05
be
2c
12
dd
f7
eb
19
c9
13
17
14
1d
3c
d7
f3
f6
c3
19
13
24
f6
0e
d5
ca
16
db
08
cc
30
5e
00
2f
0e
93
fd
f5
f4
03
08
47
08
e0
31
bb
31
d1
06
ce
45
dd
dd
16
24
e0
74
27
e9
db
1c
c8
eb
18
01
10
f2
f9
f8
0f
b6
ed
ed
15
45
09
ae
37
10
26
15
da
3f
10
d3
f0
09
f5
db
e0
05
fa
0d
d2
fb
06
07
34
ce
cc
ee
f5
4d
0f
09
24
ce
fb
e1
07
df
8f
ee
24
de
cf
88
c3
fc
32
28
09
21
12
c6
d0
01
8e
1a
e3
fb
ba
e4
c3
0e
ff
02
31
de
f6
15
c3
1a
e0
d0
2b
d3
ef
df
dc
11
e2
11
f4
e4
35
17
e9
ed
1c
c0
d0
e2
19
da
ef
d7
3d
b5
cc
f2
d9
c4
dc
a2
14
28
b4
1d
0f
e8
ff
e1
e4
4d
34
c9
c5
09
35
ff
2a
0b
dc
e4
cb
3b
25
be
03
81
d5
ce
eb
d4
c5
c5
d8
0e
b2
ed
ed
23
1d
63
24
cf
36
d1
94
e2
f1
b9
24
d7
36
32
c8
fb
ed
b4
fb
fb
f2
11
d4
c1
bf
0f
a0
df
b9
da
df
f7
22
12
55
f9
d8
10
24
06
fa
e2
12
55
fb
21
15
f3
eb
38
fd
4c
9f
f5
c6
f8
df
ea
10
2a
07
ff
f7
e9
f2
07
18
f6
ae
d2
ff
31
29
d9
e6
0a
02
e3
02
18
00
de
3f
e7
23
fb
e7
f7
f3
ea
d7
fc
11
eb
d6
cf
d9
1a
e9
20
dd
0a
1e
db
0e
db
fb
b6
b0
ed
bf
d9
d5
25
21
d0
4c
b1
07
29
02
f7
09
d6
e5
db
f6
03
d9
03
ff
ef
08
26
dd
34
f0
04
f6
fc
0a
d7
c4
db
df
e4
44
0f
c4
f6
ce
d3
0d
22
07
e9
ac
01
e9
d3
e8
fa
e6
14
06
c4
42
f6
1e
d0
e8
ef
2a
f6
e4
08
f9
ed
30
34
7c
00
0a
dc
d9
aa
e0
ee
fd
22
15
2b
2d
ff
cc
ee
2b
07
be
f3
fb
fe
0c
05
f2
0a
f6
ba
ea
f0
2f
03
c2
81
34
e3
09
d3
df
18
f2
00
e3
e2
2a
eb
ba
47
11
f6
d9
0e
25
f5
08
08
e6
05
0b
f2
01
fc
25
0c
04
ed
fe
12
24
02
e7
e6
e9
e8
a4
f0
0f
20
d5
f9
33
d7
e9
ba
ef
f0
18
85
fb
da
e2
cd
f5
e5
e5
26
e3
ef
07
0f
f4
ab
0c
f3
07
df
0c
51
e6
f3
de
19
ea
24
ef
13
d0
13
09
ed
e6
ab
cb
fe
f2
e1
c9
ee
e7
1b
be
00
16
c7
00
ed
fa
5b
04
fb
db
fa
11
f2
03
c2
13
14
21
eb
09
08
13
9d
f4
19
d6
ef
0b
1c
21
14
0a
af
07
d1
81
0a
11
0e
e1
2a
0f
e6
1a
36
e0
c0
01
f2
fa
fa
57
e4
f9
f8
ec
c7
eb
24
11
e4
e7
ff
f8
ea
eb
a0
05
03
04
22
07
de
4b
db
1b
e5
de
fd
d8
ec
fb
10
ee
3e
1a
3d
eb
06
09
cb
16
f1
ca
de
4f
fa
32
07
11
22
fc
20
0b
1c
10
e6
f7
3f
c0
08
ea
fb
27
dc
12
18
3a
e5
10
15
da
04
ef
e2
0e
f0
bc
06
fa
01
01
ba
5b
d9
03
d5
1b
fd
05
14
1c
27
12
c5
30
00
01
21
bd
21
1f
00
ff
2c
d8
38
00
e7
fe
db
d1
f3
2d
0c
ed
fc
9c
e5
3a
f7
fe
36
d7
ef
06
af
2a
f2
c0
32
0a
ea
18
f6
fd
05
b6
2f
c9
fd
f4
c4
26
02
e0
01
d4
28
fb
01
29
2b
e7
34
e6
ee
da
f4
ec
43
e5
f6
ec
10
1d
f5
db
eb
0c
fd
ca
09
0e
05
d8
c1
18
f2
29
f9
f8
08
2f
fd
ee
f3
fd
2c
e9
fd
31
0b
15
39
fa
f5
da
c7
0b
dc
f2
f6
35
e6
2d
f7
00
08
31
03
12
19
f2
13
01
04
07
1d
fc
f1
fd
0c
ee
fc
03
fa
09
0f
0e
da
f5
14
00
04
fa
0b
ce
f9
00
f0
e0
08
0b
f7
01
ec
12
05
f9
fa
f5
ff
0c
f9
04
13
fe
0d
ea
ff
e1
f7
e7
fc
10
f0
0e
f7
e9
f8
f7
0b
12
fc
03
08
02
81
00
f3
03
ed
fc
ff
f7
07
01
08
f5
f3
f9
07
ff
22
fc
ff
11
fc
09
fa
00
00
f3
fd
f7
1d
06
f5
03
fb
0d
eb
fc
db
fc
fb
17
f8
04
fe
04
06
fc
07
f7
ea
e7
0a
03
f0
fa
f0
0d
0d
07
fb
0f
ed
09
12
d6
e6
08
02
08
13
09
09
fc
fc
f3
bd
f9
f5
f5
01
13
f6
09
0e
fe
f5
0d
fc
0c
04
f7
09
f7
d5
00
f8
0f
f1
0d
ce
0a
07
fc
f1
08
df
f6
01
fe
0b
16
06
f6
e6
e4
eb
ff
f7
0a
0f
0c
fc
13
f1
e7
05
f9
00
f2
f6
de
f8
fe
0e
ff
fe
04
01
00
f3
07
f5
f6
e6
0d
fc
f0
0b
03
f6
02
f2
04
fa
03
05
06
f8
f8
fe
fc
f1
f8
f7
f8
00
05
0a
fe
f7
f1
16
fd
ff
ff
f7
f5
f9
0b
f8
f4
10
0f
fc
04
c7
14
b3
e5
1f
00
0c
0d
12
1b
19
08
ee
ea
ca
f4
03
f3
0f
18
02
11
0d
d2
db
d2
fe
ed
f2
09
bd
fe
f1
e3
19
03
e9
fc
01
05
f2
2c
78
c8
f2
01
12
18
f9
06
0c
c4
e5
e7
ee
14
f6
ed
eb
15
ae
cb
09
fa
d3
16
13
39
db
9d
e2
09
ed
ee
d5
f7
e2
38
13
e1
01
cc
0b
f3
f4
29
1c
02
0f
20
1c
9d
13
18
f2
e1
f7
b8
09
f4
a4
f6
fb
02
5f
e4
0e
ef
2f
f4
31
c5
e8
e2
ba
d6
cb
30
f5
1d
d1
1f
04
37
7f
15
12
f0
47
d9
fb
20
09
ca
07
2b
e3
34
1e
0e
08
17
3a
e9
2c
d3
fd
d5
00
e2
ff
02
d4
ed
05
c1
46
03
cb
b2
e1
17
3b
ea
ce
d9
f4
db
e1
f2
ea
d7
c7
f9
af
0e
c5
fb
0f
2c
10
cc
fa
15
f5
14
2e
0a
08
51
de
0b
f7
0c
02
d6
37
f6
d3
00
e5
ed
3e
ef
ab
27
e2
d8
0b
b5
fc
0f
9d
4e
fe
cd
13
f8
3a
0e
cb
42
03
db
10
08
f5
eb
f6
29
f7
ee
ba
4b
e7
da
d0
d7
21
f0
1e
d6
79
04
c3
0d
fe
2c
19
0d
03
e4
ee
27
dc
a8
07
fb
f3
1b
f5
fc
d0
1e
d1
42
1d
ef
2e
ed
06
fe
09
e3
fe
02
f1
eb
eb
5e
eb
02
e4
eb
f2
15
f0
18
e4
08
07
bf
ff
01
81
e9
ee
10
ef
fb
30
20
1a
19
bd
e2
d9
cc
f0
0b
22
37
e4
19
15
08
f8
e7
00
ff
ed
1a
17
ce
1c
22
f8
07
d1
02
f0
30
e8
c4
c9
e0
ff
cd
fa
e9
a8
fb
f6
03
ea
07
ef
0e
05
cc
e3
b3
d0
09
0b
ff
06
f1
da
25
a3
31
02
eb
34
f8
05
ee
0d
fa
f1
10
bb
0d
ef
2d
c4
2d
e6
02
0d
cf
fb
f1
16
f0
ca
f2
05
f2
ed
02
e1
f8
e0
de
08
1a
da
3b
3b
ff
c4
d5
fc
08
fc
06
07
dc
f4
f7
01
3b
0d
24
36
10
ea
0a
11
eb
dc
15
cd
d2
ca
f6
f0
e3
25
ef
2a
fe
0c
e8
f9
fe
1b
21
01
42
e9
10
d9
ed
28
fa
ec
0d
04
f2
f6
31
0a
2e
e2
ea
4b
11
cb
2e
07
1e
01
21
df
eb
a9
f0
e0
1b
00
f5
f3
c3
07
17
06
0c
c7
ea
05
1b
d3
e6
16
e6
44
ec
15
f5
e5
42
2c
f4
2a
d1
22
f0
ea
0c
34
24
08
fa
44
d2
f4
08
fd
1e
cf
ef
db
10
e5
22
df
08
db
ff
06
ae
fa
05
e9
28
f9
c8
dd
1a
f8
11
e9
26
ee
04
fa
cf
f3
c1
dc
b3
f2
12
ff
e9
14
81
dc
fb
fe
0c
bd
ed
0c
b2
e9
d4
fa
18
2f
f3
0c
f8
00
05
e2
cf
2f
fa
04
ef
1d
e7
f0
eb
e5
1f
1a
ce
2c
b6
de
0d
ed
f3
08
c0
dc
04
d7
e6
06
0e
ea
06
01
15
05
f1
01
e7
23
f1
f6
f0
0a
1b
0e
23
fc
ed
f3
fb
f4
1f
d4
0e
17
0d
f2
01
d5
fb
f4
17
df
ea
f7
eb
10
ea
03
da
ff
e9
f0
19
ff
0c
d9
e9
f6
ec
c2
d1
ed
f2
fa
e6
db
09
0d
0b
07
ee
e0
08
e4
1a
41
08
12
0f
c9
1a
35
eb
22
bc
f7
14
04
ef
02
3e
21
ec
eb
ee
f0
19
fe
ed
f0
f4
f7
fa
f9
09
13
16
02
ce
02
ba
fb
15
0c
cd
31
05
eb
e9
bc
f6
10
d2
c4
d0
09
f4
e0
e8
de
e0
11
16
18
21
e2
ef
fb
ef
fb
19
fc
fc
28
30
df
10
f9
24
00
e0
e2
26
05
15
02
de
d3
07
08
19
22
27
f4
d4
fb
32
e1
05
fd
08
e3
0b
27
36
19
d9
10
ce
05
fb
05
f6
ff
ef
ff
fe
e2
fb
08
e7
19
dc
05
dd
b7
2d
d9
10
0b
2c
03
f8
22
10
ec
04
09
2f
f2
fa
4b
09
ce
00
bd
0b
20
f5
e5
e9
f7
c8
c0
f4
ce
15
0a
08
d5
1a
30
0d
d3
23
b5
fb
f3
0e
03
04
f3
e4
d7
d0
f5
dc
f3
bd
e9
19
17
0e
0e
0c
df
e6
e5
fd
e5
09
07
c0
e4
ef
30
f6
03
bf
d3
e6
f5
f6
0f
fe
12
1a
4a
e4
c0
d1
03
f2
42
31
3a
c6
10
ba
05
e7
12
11
08
e2
d4
cf
d3
1a
06
25
f7
11
ae
e3
fe
e6
15
da
db
15
fb
29
df
2e
dc
ff
fe
10
00
ef
08
1b
f8
d1
13
01
08
ea
b3
ee
02
f0
ff
c4
2d
e3
1d
19
f1
dd
26
ea
f9
f9
af
9a
e4
0c
da
01
bc
fb
09
2a
f1
e7
02
0c
fa
3f
17
1d
01
09
eb
c6
3b
c3
15
22
08
f9
c7
d7
f9
08
05
de
19
11
2d
1c
3c
f8
0d
15
44
f7
2c
2a
f8
d7
2f
1b
5d
0b
31
04
18
e1
09
cb
eb
42
c8
d1
ba
ff
0d
f2
da
c8
ee
e7
f5
ed
32
81
2c
0e
ff
ec
1a
d5
e1
cb
d0
05
23
ef
00
f3
f5
fb
fc
da
f5
f5
00
10
bf
0b
1c
38
0f
f4
df
0b
05
e3
17
ee
f4
16
e0
dc
c4
eb
ef
ba
0f
0c
df
d4
1d
00
ec
f8
08
d4
b7
d9
0e
1d
01
01
07
d3
d8
14
e1
0c
d4
0c
1d
da
12
d7
0c
15
f9
fb
de
e3
12
fe
d2
11
06
04
22
e4
ef
c5
06
e6
ec
0e
fe
e4
f4
fb
2c
13
f8
15
e6
ef
12
08
49
07
06
fa
01
e6
0e
2f
da
10
e8
ec
c2
12
ff
27
f8
1c
08
3f
ed
f7
00
f7
1e
eb
2a
fb
05
3d
ad
fb
f3
df
2b
9f
e5
f1
e9
ca
c6
00
23
f5
ba
eb
1b
33
e2
12
db
1c
1c
01
f7
13
0c
0b
0d
2b
ff
d6
05
c0
1c
f5
17
fb
09
db
e1
01
0f
13
0e
fe
08
f1
11
f8
eb
dd
e4
07
d8
f4
05
10
0d
ad
13
0d
d8
18
01
04
ce
e8
fc
b9
f9
22
0e
dc
e5
1b
d1
09
b7
e3
05
de
f2
ff
d0
f3
05
23
2d
13
18
27
e5
f7
e2
08
ef
03
eb
d4
1b
e7
00
fd
ce
01
26
fe
15
fd
0b
81
fb
fc
e7
de
e2
ca
06
09
db
00
f7
cf
ea
e0
ff
12
ee
ee
f2
05
1b
fe
16
dc
d4
da
f2
d5
ec
e9
18
ed
8e
ff
e7
03
33
2f
d8
d1
2e
b9
8b
14
0f
c1
25
f3
fe
d9
1b
d1
fa
dd
f3
02
e6
06
f8
0a
9c
c2
1e
e4
e1
e3
1b
ff
43
ee
00
11
0b
13
cc
d5
0a
21
e6
e2
23
1e
15
cf
26
24
2e
2e
0d
26
61
28
bb
fe
fd
ea
1d
e6
dd
0a
c7
b2
fe
f2
04
cd
06
d8
f4
cb
0c
d0
88
2c
1a
d9
f4
8f
12
fd
d2
ee
2c
1a
04
a2
dc
0b
c7
e8
08
de
2f
18
05
e1
fd
ba
11
e2
21
ca
d9
1b
db
16
c6
e7
b3
ee
fe
00
06
fd
40
16
f1
34
0b
1b
05
33
f9
3e
f3
d2
1c
fc
06
35
e8
f2
0c
fb
e3
05
fa
e9
0a
0c
c9
f6
fd
b3
02
04
b9
a6
24
1c
1c
e1
0c
6b
f0
e2
d9
48
ca
17
d4
0e
e6
18
c8
1d
2c
c4
ff
e3
7f
10
19
08
f9
01
0b
31
05
06
06
01
fa
d7
e6
02
0f
27
8d
19
d0
eb
f8
f9
b0
0d
e2
f2
0b
10
0f
45
0e
e0
df
db
d9
13
8a
ee
3a
06
f2
05
15
e4
30
a0
d5
ee
01
a2
31
d0
15
f1
db
f7
cb
12
dc
cf
ed
c9
03
c6
2a
ea
de
fa
e5
17
12
fd
22
22
4e
e5
cf
fe
af
e9
f0
3b
23
f7
c9
f6
e5
f8
fd
e4
13
f0
aa
1b
f6
b8
b6
a3
ec
0a
05
f8
eb
fc
da
be
28
d3
34
c6
03
a9
2d
a4
24
f7
c3
27
cf
e7
ee
04
15
0f
b2
e8
da
f2
05
ed
1c
44
e1
0f
9c
fe
1a
2a
40
e3
ea
f4
f1
03
df
8e
e4
fc
ac
29
81
dd
06
2d
11
1b
aa
a3
b3
f4
0c
f9
04
f6
12
d4
9b
15
ea
3f
23
f4
c3
12
07
c2
fc
27
fb
c8
3c
0a
07
da
a3
34
d5
ee
ff
12
eb
db
00
be
e0
eb
db
e0
d6
e6
25
5c
cf
d8
ee
25
02
fc
d4
e9
1a
5a
16
f3
da
ff
f7
be
06
2e
f3
24
dd
b8
05
13
69
c7
f9
06
05
fb
af
db
ee
ef
d5
b9
a4
4e
08
bf
94
fc
d3
48
bb
24
e5
db
17
af
0c
ed
d5
0f
3c
0f
e4
db
d7
d9
fa
31
f2
fb
b5
01
03
be
bf
dd
08
12
b3
ef
25
23
f9
f9
f2
c1
b8
e1
97
49
1c
1f
e4
f2
25
13
01
a4
ea
0f
42
a8
bd
f2
f0
f8
bc
f1
0d
fd
e4
b8
46
e7
fa
1c
f3
25
ed
fa
fe
16
c9
11
08
ee
f5
fc
f4
f1
b2
0c
32
0f
de
c3
d4
1e
03
17
48
dc
24
bc
ad
22
0d
f4
33
f5
f6
cf
01
06
0d
c8
e1
bd
28
fe
19
09
03
c7
eb
d4
20
f3
de
1c
cd
e9
e6
42
0c
f8
1e
06
25
12
29
ff
43
fb
d8
fe
de
ff
ee
d0
27
f7
3e
23
0b
cd
b8
fb
eb
07
00
1a
0e
ac
ed
e3
f1
04
14
fa
cb
1b
fc
0f
2a
ee
f3
2a
03
fc
bb
f0
d1
22
f5
09
e8
e7
08
bc
bb
ff
e5
0f
d8
20
05
05
f7
20
f5
f6
f8
cc
ff
48
05
13
cb
fe
46
1a
23
12
1d
05
0d
c9
13
3c
2b
2f
31
34
15
d1
ea
3e
b8
bd
f8
fa
35
0b
fa
dd
12
25
23
1d
fb
40
16
df
ee
f3
30
e3
1f
2d
f2
fb
00
ed
06
ff
2c
ec
1b
d8
e5
f8
32
3d
10
0f
1a
db
59
f8
09
df
d8
0c
2f
d9
23
ff
f2
ed
e1
d1
0c
fa
f9
09
eb
be
fa
25
ed
ef
ef
f6
fb
fb
27
f8
12
fd
06
b8
14
fd
81
b0
0c
1f
0a
fc
25
d5
20
d5
08
ec
13
ec
e7
e0
e4
26
ee
c9
0c
24
eb
d5
0a
d8
b9
cd
0b
ba
d1
0e
0a
06
ef
ce
f9
e9
34
1d
d0
09
ed
ec
0e
f0
b2
04
f9
b9
0a
31
9b
29
3f
07
ff
00
bb
dc
eb
22
ee
df
ce
b5
f3
6f
89
cd
bf
ef
10
c5
2d
2a
b8
f5
e5
ec
f7
c7
ee
3c
23
f5
16
e3
9a
e2
13
12
00
ea
e1
f0
b1
ca
cd
c4
1b
01
e4
32
14
da
fe
aa
87
d3
bc
ec
e0
e3
22
2a
61
cd
e8
10
02
03
43
e3
f8
d5
06
d7
3e
f0
e1
b8
e3
e5
02
f4
37
ff
1f
ed
28
ef
dd
e8
ce
c6
26
cd
05
ea
f1
e1
d6
39
ee
ef
d4
06
04
68
da
fe
0a
12
0c
33
07
d8
f3
e6
b1
0f
27
f0
ea
ae
c2
3d
0b
e1
b5
3e
2d
0a
e8
09
19
16
f8
c2
ed
ff
ea
f8
e2
02
ee
d9
d3
18
dd
11
90
03
f7
c5
fa
e3
fd
14
d0
b6
d3
15
ec
c5
ba
22
e0
eb
02
3d
ee
50
db
34
39
29
3f
83
03
0f
cb
e7
2c
b2
6e
2a
30
0c
0b
e4
26
fa
24
f4
ed
26
5e
ff
14
da
ee
f1
12
f6
0b
1d
e4
06
22
db
bf
69
35
07
06
f4
f9
13
02
ea
26
db
89
ef
16
fc
7f
25
eb
cf
15
e6
ed
d0
08
b6
e4
47
d5
0a
1c
e9
ef
2a
02
fa
f1
d0
03
f3
13
2a
f3
fc
ab
0c
c6
31
cc
ee
e0
e3
11
96
e9
21
3e
f9
15
e5
25
fb
04
f6
f6
13
ca
1f
02
e6
19
df
0e
fc
eb
c1
f1
d5
40
f8
f7
10
f3
e8
f5
11
34
fb
fb
d7
aa
d9
06
d8
e5
f2
01
20
c9
0b
f4
b1
1c
e2
0d
14
e0
04
fe
fb
05
c5
03
60
dc
e0
21
ea
fb
0b
f5
04
09
e5
41
1b
f8
fb
f0
2a
cc
21
e7
3d
f4
35
1b
e2
f4
5f
96
f4
ed
d3
0f
3e
99
2f
2a
fe
dd
de
30
ed
fa
fd
01
e0
e2
c0
30
1e
1c
0a
1c
f1
fe
fe
fb
01
25
f9
1c
0f
cd
fc
fd
f3
01
13
06
35
f7
e2
32
f8
f4
0a
14
fc
f8
f7
03
26
e9
1b
f5
05
fc
fa
07
f7
01
f9
f7
23
0b
f4
81
31
ba
17
1a
08
bb
06
da
14
ef
01
f6
07
d1
01
37
0f
09
ef
df
f6
1a
07
1b
09
ea
e7
fa
ed
4a
e4
1c
ca
40
d2
f7
13
11
f2
b9
f2
a8
fc
4e
db
34
e2
d0
eb
da
f8
d7
2f
e5
59
e4
dd
17
02
fc
1e
35
9e
f3
fc
e1
e9
d9
dd
f2
fb
d4
08
5c
bf
f7
2d
4a
03
21
d8
f6
f5
06
3a
eb
15
07
ea
e4
f6
08
c0
fb
f3
07
fe
d7
d6
d8
09
0f
c1
10
02
04
0a
36
d4
dd
f2
02
17
c8
e9
fd
b2
dc
fe
e8
aa
10
01
14
35
0e
03
33
1a
ed
f2
c2
27
1d
da
ef
ec
e2
0c
ca
60
01
0a
df
b0
ee
10
02
b3
09
0a
41
fe
f7
1a
1e
21
ed
22
fd
2b
0d
27
06
b6
fd
0a
37
da
28
f5
df
e7
18
0e
ab
fa
fa
d2
fc
02
0f
24
28
38
e0
05
e1
ad
0d
16
02
fd
b7
05
08
ec
1f
16
dc
bc
0c
ef
c0
06
de
03
13
0b
d6
1f
e0
e3
39
fe
fd
e8
13
d4
26
11
00
f6
0b
f4
f1
28
f2
f8
dd
2d
e4
c7
e0
0c
1c
da
2c
f1
27
0c
25
dd
0e
0b
d9
f5
e1
2b
2b
1f
04
ef
1c
f7
10
c9
e8
c2
1e
9d
ed
0a
04
f1
28
bc
e0
ff
10
04
c8
31
01
81
05
24
43
fe
22
28
ec
2d
fc
d9
c1
f8
ee
e9
44
e9
1a
e5
32
00
de
15
f9
ea
bd
12
03
37
e6
9b
d4
e4
f0
fa
d5
e1
da
04
4b
05
34
17
e9
10
b9
06
f3
d7
e2
c6
01
3a
15
3d
3b
dc
dc
e7
0c
eb
16
dd
db
da
3c
e6
de
2a
40
f0
0b
11
e8
f2
f7
df
f1
e7
06
f7
f9
ed
00
d3
22
26
dc
12
e5
23
cb
1e
11
d0
ea
f7
02
0a
c3
04
d6
05
e9
e7
f1
dd
01
0a
0a
eb
15
f3
f6
ea
26
c7
08
f7
06
fa
fb
1a
f2
2e
12
e6
df
15
1a
ec
05
f3
09
05
06
fe
10
e3
31
df
f2
23
e8
0c
07
20
20
0f
01
e7
f7
56
d8
1e
1a
f2
08
fc
e2
db
de
ff
f8
f1
05
35
1a
db
14
0d
07
06
19
0c
29
01
18
f0
f8
1a
0a
1b
e3
ef
fc
f0
f8
09
f4
06
fa
e1
09
07
fe
13
13
3f
c4
fc
d3
28
f5
fa
16
01
41
1e
fe
e6
f4
00
06
22
f5
dc
d1
f1
35
02
f0
12
d0
04
fe
d6
f1
b8
11
c5
1b
f1
f9
11
f2
eb
1f
03
f8
cb
f2
22
12
c9
fd
33
fd
09
d6
18
ff
d3
f2
21
13
0f
dd
f7
09
2d
f2
1d
eb
06
f1
01
27
ef
fe
c2
11
ed
21
09
f1
21
e8
dc
81
1f
fa
e0
eb
d8
ea
04
f0
01
f4
de
ec
06
f6
09
ec
db
14
ec
f0
23
fb
e0
04
45
f2
e6
17
e9
27
f8
18
05
0a
f8
00
fc
3a
26
04
e8
06
03
e9
e6
df
ef
f7
2a
0c
1b
da
1a
e7
cd
ed
f6
f7
45
fe
40
0b
21
0b
e1
1f
b6
f5
f8
2a
33
d9
f3
f0
ab
29
0b
f8
40
bf
04
06
d5
0c
90
da
08
f8
15
f2
f8
28
1c
d4
ec
15
e6
17
ef
0a
f8
f3
fb
14
21
26
aa
0e
04
fd
e3
08
08
0c
b2
1f
00
f1
3b
03
ad
c9
20
13
12
3d
d0
f5
ee
fa
f4
34
19
fb
dd
0d
e5
fa
10
09
00
1f
c4
ee
15
f2
2f
c5
19
32
0e
09
bf
0e
f5
fb
f1
23
f1
08
1c
56
f4
3e
e8
06
81
d0
24
fd
da
bd
f7
ec
dc
27
f1
d6
1e
21
0a
ed
e2
26
26
1e
d8
09
d1
e0
bd
e6
1e
f7
cb
f9
fc
ec
c3
f2
e3
e7
a6
cd
01
12
d8
9e
45
18
db
2f
2d
07
16
ee
bf
8a
1f
08
14
16
fe
04
e2
0d
fb
11
22
c2
0c
24
38
0c
da
fc
0f
08
dc
ee
04
09
e2
ca
ea
ed
cf
25
f0
c7
2f
a6
25
06
fd
e1
08
23
18
dd
f5
f3
b9
fa
ff
e5
ff
01
24
c8
c8
05
22
c4
c5
d7
c3
fa
34
dc
c8
e6
aa
2a
d6
a2
0c
1d
f7
28
19
28
07
ff
e5
01
0f
0d
0c
f3
f0
ea
15
29
0a
d6
f8
14
1a
1a
19
c4
e0
05
15
c0
fd
10
e8
05
ff
07
2c
04
d6
ec
e5
17
c3
1f
28
dc
ef
09
22
21
01
10
0d
00
13
f6
fa
eb
30
eb
f2
f4
19
f4
bc
10
17
c4
f6
e2
1a
cc
e7
46
11
2b
c4
10
f7
fa
2f
b6
bf
cf
c7
d3
38
02
28
02
1e
15
e7
08
e5
f5
d3
0c
d5
0f
15
bc
f7
36
df
15
05
fa
f8
e6
d8
f1
06
f0
e1
f8
b2
31
17
e3
e5
e4
f4
15
ed
ef
db
df
fc
f6
a1
10
f2
21
28
22
e9
33
fe
de
36
15
e1
d5
e9
1c
04
10
c9
fb
fb
33
d5
2e
27
fd
04
d6
0d
eb
f6
0d
05
cd
f3
dd
11
2a
d0
1f
e1
d8
81
32
f9
15
b9
fc
12
1b
22
04
1e
0a
e1
e6
f8
2d
29
f9
30
cc
4e
e2
ef
d5
0b
11
24
e2
05
12
00
ee
f6
11
fb
14
0f
c8
05
e9
f3
00
40
fe
00
25
0a
f9
e7
f8
d5
b3
ed
dc
27
e4
19
44
15
e6
da
20
e8
f9
d0
04
da
17
0e
0c
ef
18
0f
0b
fc
fc
b8
fd
e5
0e
0f
2e
e9
03
19
0e
04
e5
d1
02
e9
05
17
b6
db
cd
3b
e9
d8
11
08
08
11
f3
fe
07
14
f9
29
ed
0d
f6
0c
17
f1
f5
1f
01
0d
ed
1f
19
10
ca
0b
fa
08
ff
fd
f3
ec
f3
13
2d
fe
f6
0e
f9
f9
08
e4
0c
00
00
10
e1
03
81
20
f8
e7
d3
f5
1a
cf
d0
05
dd
09
11
e8
c5
e4
2e
08
e7
ff
18
11
05
ed
ee
23
f7
02
09
df
f8
1c
ee
06
13
15
f9
00
f6
fc
0d
db
f8
ed
fd
f2
e4
ff
fe
e2
e4
03
e4
f5
1a
f8
0d
eb
eb
e8
29
19
e5
02
07
0d
2e
03
f5
e8
0c
24
f3
ba
04
ca
dc
04
13
f6
f7
1e
d0
c7
01
26
d8
18
d3
dc
fe
f6
0e
f8
29
0c
23
fb
f0
0d
01
03
0d
09
ea
e8
ff
03
11
fa
f7
fd
09
f6
00
17
f2
3d
02
f8
1d
0b
c8
1b
18
e3
e6
fd
03
16
ef
fd
f9
fc
fe
e9
da
dd
03
19
f8
18
b6
fa
f4
f9
05
06
ec
0a
fa
11
04
fc
21
07
0d
f3
de
ee
28
ed
d5
17
e7
03
e8
f1
15
08
db
f9
00
01
e3
fa
d6
15
ef
e7
b7
e9
1d
0b
09
24
ea
9d
26
e6
f0
dd
0f
1a
04
ef
04
d3
08
f4
f1
f9
35
ed
d8
1e
ec
fc
05
17
ee
12
2c
fc
1a
07
fd
05
01
1d
15
f9
e7
05
f2
e6
d4
03
dc
e8
13
09
0c
0e
cd
f2
fa
1b
ea
fe
14
0d
d0
fd
f8
b8
f5
10
19
f8
ff
04
03
15
1f
fa
12
00
14
e8
0c
0f
15
c0
02
e8
ed
17
f7
ec
13
0d
ff
f3
19
02
fa
04
1d
15
fc
28
0f
eb
02
ef
dd
ff
04
e5
fa
f2
f2
07
0c
ff
fd
ee
1b
1d
fb
d3
fe
fe
11
f7
f4
d2
0d
ff
12
f2
ff
07
df
f8
09
f8
03
f0
0b
08
f1
f2
e5
13
d9
17
09
d3
1a
f7
1f
01
0b
ee
fc
13
f6
ea
05
f7
03
eb
00
15
81
e0
1d
02
02
05
11
18
02
09
db
fb
e4
02
eb
0e
4a
e2
0b
f6
f5
f0
04
f5
fb
16
f0
06
f3
fd
ce
04
09
04
f5
df
f9
f5
f3
0d
e2
12
fb
ff
02
00
0f
16
fe
12
d5
e1
e5
08
e1
ee
fb
dc
0d
ff
f5
1c
e7
f0
1c
0b
e0
05
21
da
0e
f9
48
d6
f7
f7
e5
ed
00
03
fa
e5
f7
f5
25
0a
fe
03
c1
f2
df
bb
0b
fd
f2
e9
1d
ea
fa
fc
fe
00
bd
09
1f
00
f0
07
fe
0e
22
09
f8
f8
0b
19
0b
ee
fe
15
0d
11
f5
fa
f5
ec
ed
07
fc
05
06
e7
0e
d5
fd
0c
28
08
e7
f1
19
e4
11
fe
e1
ec
06
f4
04
fe
ff
f5
fa
e9
18
15
2a
2e
1b
ea
d4
e1
f9
93
ff
17
15
0a
07
ec
fc
e9
ed
11
08
0b
ec
1a
09
f0
16
e6
fb
17
d7
d5
0a
f0
df
cf
ed
2b
ff
14
ca
f3
cf
f8
f5
fa
0e
d4
dc
0c
f6
1d
0a
03
09
08
e7
d4
03
03
ec
f7
30
e8
24
fa
e3
0c
0c
f7
ed
e2
08
dc
f5
08
ea
12
f3
e1
f2
07
e4
d4
0f
f5
f1
0d
e6
03
eb
0c
fa
ff
1b
e3
fd
f3
00
dd
20
eb
99
18
f0
28
ea
e1
02
0d
fb
2b
ef
1b
fd
0c
eb
e2
e6
f0
f7
fd
07
06
cf
ee
00
f3
04
17
e1
e0
0b
02
d0
21
ee
0e
fe
03
fc
01
1f
f8
0c
19
e0
03
d1
03
ed
07
ed
f6
ea
02
04
e7
00
db
06
01
fe
e4
fc
f5
31
fb
0a
ed
e0
d6
00
06
7f
fe
ee
05
12
05
fc
f0
35
f5
f8
f1
fe
1d
f0
13
11
0c
fc
05
e0
27
df
1e
0b
01
df
05
d2
fa
11
02
0c
f1
1c
09
fc
d2
f5
f1
fc
f1
08
d3
f8
0d
fb
f2
07
0b
d2
09
08
14
0a
15
05
0a
0b
0a
05
14
f3
f8
e9
11
fe
91
01
ec
1b
de
03
e9
fb
03
03
fc
f1
0a
09
0a
f1
d4
ef
0d
ff
18
01
fd
ff
08
fa
ff
fd
dc
cd
f3
ff
03
01
0c
fc
f9
f3
04
0b
fe
e3
06
05
0a
09
f3
f5
04
10
07
f3
d9
e9
12
02
f6
26
05
fe
e0
1f
fe
0d
f7
f7
fd
11
02
0a
fc
fd
13
f1
07
f6
08
fa
0c
f4
0c
ff
04
0b
0b
0c
0b
15
f4
e0
19
0a
07
06
19
fa
f1
08
0f
2b
fd
02
0d
22
10
f0
0a
14
df
f5
08
10
0c
eb
07
0f
fc
98
10
e5
01
eb
e9
f3
f9
f5
f8
16
f6
03
0a
e4
03
df
f5
f6
f2
02
0e
01
f1
0e
12
04
03
01
fe
f6
01
e9
07
06
1b
06
e6
1b
15
ed
0a
f8
06
0e
f4
08
0e
00
f2
f2
23
35
16
07
1c
0c
fe
1e
fc
13
1b
08
f5
fb
04
c3
e6
f8
0f
dd
17
7f
0f
0b
ef
11
fb
f5
07
ef
10
0e
05
fd
f8
12
23
0e
14
04
f5
0e
12
ee
08
f1
02
01
1a
20
06
06
f4
f5
0b
06
ee
0c
02
03
12
e6
03
fe
da
f4
08
f6
f8
03
49
f1
f2
19
ec
fb
ee
02
0f
fc
f7
0a
e9
09
04
ef
ec
02
0f
fd
e7
09
04
0b
f9
fd
01
08
19
ff
f7
ea
df
f2
03
e8
ea
fa
ec
00
e9
fd
0b
f9
f1
16
07
14
08
f9
f5
08
eb
1a
f0
e7
1b
02
1c
f1
0c
0c
f0
d6
fa
13
03
e8
f3
81
f2
01
df
12
0d
0e
00
ed
12
09
fc
09
f3
17
08
fb
0c
09
01
38
02
fd
08
0b
17
00
09
00
08
08
e7
f8
ff
ed
f2
f4
ef
08
0d
f4
0d
f2
0a
05
0f
fe
fc
07
14
10
06
fc
06
16
de
10
f2
fa
db
f2
05
26
b7
00
ed
fe
fc
f6
f1
17
f4
fd
06
a4
02
ee
00
03
27
00
f3
f1
00
0c
01
13
fe
fd
17
09
0c
f6
04
fa
03
e3
07
d9
19
0f
f4
f4
fb
04
13
0d
00
0d
0b
13
05
22
f7
e8
f2
0a
f9
1f
28
05
fe
f2
f9
e6
f3
d9
ff
fd
dc
31
de
0f
ea
f8
0d
01
fd
02
f5
05
f5
09
f7
13
12
f1
00
15
f4
00
2c
f6
e0
e7
02
c9
16
0c
16
e7
03
e4
f5
fa
0c
08
fd
f1
f7
0f
0f
02
f8
02
05
11
f8
f8
0a
f8
09
19
05
e7
37
de
09
fd
2e
dc
e9
12
e4
12
f9
f7
f2
00
cd
0d
0b
0f
ed
6e
1a
ea
03
d0
d8
ec
1d
ef
eb
f5
28
12
2e
f9
e0
38
df
01
f7
d8
00
f5
19
14
bf
00
11
3c
d0
00
dd
ea
0a
00
23
13
0e
ef
e6
e7
13
fa
0b
ff
39
eb
f3
22
f5
15
0d
e9
ee
f2
0c
e5
f1
0b
b8
28
cd
e2
09
fe
d7
26
ef
ee
ec
d8
d6
ff
e0
eb
de
ee
0c
f6
dc
dd
f1
1c
0f
0a
33
00
ec
17
c5
2b
17
f6
2f
3b
f4
37
da
cf
fd
fc
0f
20
0a
e0
fa
55
f9
eb
eb
08
15
e7
ff
dc
dc
28
12
10
03
f4
c0
01
0c
fa
0f
f2
f4
f9
e6
d7
15
eb
03
e7
f3
da
2e
d8
00
18
b8
e0
dd
fa
cf
e5
06
db
ea
d5
00
c0
d2
d2
e6
11
1b
f7
09
f4
d6
13
f6
37
cc
fd
fc
0e
f0
de
0d
01
16
c6
2e
dc
fa
ee
f9
e9
f5
1b
de
cd
0d
30
07
02
ed
13
f1
ea
15
dd
dd
18
f7
0b
81
06
03
0d
26
1a
2f
20
eb
f4
02
0c
dc
ee
d8
20
f7
37
33
cc
04
01
fd
e0
fc
19
03
ef
fe
d6
fa
e3
f5
f2
17
02
c7
f9
3e
45
12
14
11
08
fc
4d
15
20
d1
3d
28
33
08
f8
13
f7
08
df
e2
03
0b
e5
2c
d0
12
0b
f7
f4
dd
47
dd
ee
b2
35
9c
d1
43
e5
e0
ed
f8
08
11
e6
ff
07
5b
2c
26
23
ce
44
0b
28
f5
1f
1f
34
22
e2
27
e2
34
14
30
2e
b2
f1
f6
de
03
fe
b8
fe
d5
e6
17
0f
0a
ca
0b
fe
c9
c6
59
ef
02
ea
bb
19
d4
e4
28
d2
a9
e1
24
01
cb
03
e3
16
9c
00
0e
2e
0d
20
ec
da
f3
ef
f3
e1
f0
07
08
03
a4
ae
ae
cd
08
2f
01
33
c7
d6
1b
24
e8
29
b8
26
0a
3e
e5
1d
0b
08
a8
44
b5
13
c9
ee
d7
f1
0d
4e
ba
cc
54
eb
fb
07
f3
04
fd
dd
47
03
09
ef
26
d2
cc
d3
c2
1b
b3
2f
dc
31
f9
0b
ea
dc
fb
0f
36
16
48
08
fa
c5
1d
e0
07
48
f4
97
f5
e0
24
c6
2e
1e
1b
42
0b
1b
19
20
fd
f7
81
10
cf
1d
e8
3d
d8
40
ff
23
ef
22
f6
27
b7
13
59
56
35
1a
f1
18
c0
e7
dd
20
fc
1f
b6
06
15
c6
09
44
de
e5
19
f4
e5
2a
08
eb
f7
cb
de
1f
01
c0
0c
0b
03
f1
f3
f6
34
44
c1
2f
d4
09
f9
18
f4
05
15
f5
d2
fe
ed
03
07
0b
24
11
f2
ee
21
0a
15
08
19
d4
0d
1c
f3
0e
c6
f9
c0
18
1c
ff
0a
fe
0a
24
ea
f2
2e
f6
ff
f9
ec
02
21
e7
07
f8
23
ef
ff
04
d5
ef
fc
e9
03
e2
18
f7
00
40
0e
bf
12
13
18
f1
13
10
43
ba
bf
0b
08
ec
01
f8
fc
19
09
f3
fb
00
fc
ba
d4
d5
e5
fa
de
13
1f
e2
24
21
f8
f6
42
d7
ea
f5
03
ea
fd
d1
d6
0d
ce
0c
06
01
ef
0a
cd
08
dd
d7
cc
d8
ff
cd
08
0f
f3
f9
c2
01
03
01
1e
13
2f
fd
0b
ea
eb
13
12
f7
f1
14
0c
0c
f1
0e
ff
00
cf
f4
a8
1c
fe
15
ee
fa
12
df
01
c6
c6
08
54
d1
f3
25
ff
04
10
fb
f1
f9
10
ca
1b
f1
f3
bf
fe
fe
2f
05
ee
00
fc
0a
df
de
01
3a
e9
f0
1d
15
2e
27
2a
ea
14
e1
f6
0d
26
c1
35
0a
13
f8
08
04
f3
11
81
dc
f8
f6
f4
fa
00
03
0e
e2
27
03
10
21
b4
06
16
f3
fe
de
f7
fb
f1
ee
ed
fe
f8
0e
f3
e1
f6
16
0e
e8
29
c8
ce
10
f1
b9
01
0b
ca
fd
04
d4
d1
0b
09
f6
c2
e2
a8
44
e0
6f
00
f4
f1
d9
dd
5b
af
f3
1d
c0
ec
56
22
a8
96
ee
06
cb
e7
e2
10
00
0d
65
27
b4
11
16
c4
5f
e1
24
db
da
27
d0
23
ef
cd
d7
7f
dd
dd
0e
e4
19
ee
f9
03
f7
06
1c
ea
0c
24
00
dc
98
03
e4
d4
0d
45
29
24
12
29
f2
c3
12
18
14
f7
f5
dc
f1
f2
a6
cf
b6
d4
83
b0
d1
f1
15
0b
0f
ef
ba
11
b3
97
d6
df
dd
11
17
0a
18
32
ca
19
e4
ec
e7
d8
d1
ff
a0
15
45
a3
13
ff
f8
ba
da
f9
da
04
eb
1a
d8
e2
02
e4
0f
f2
c2
b7
15
f8
18
e1
dd
09
2e
00
cb
f8
a7
22
32
f5
11
fb
b1
d2
fd
0e
fd
0c
2b
18
f4
ec
f8
d5
f3
fc
24
05
ef
1d
b6
ff
04
d3
f8
f3
1a
e7
19
e6
3a
fa
37
cc
14
ef
f9
ef
ff
08
f7
b5
ed
cf
28
e3
da
bc
d4
05
32
e8
e6
0f
99
5d
07
2b
29
fb
b2
db
2c
c1
08
db
e4
e2
07
11
03
b1
01
16
f4
ed
e1
d7
01
1f
60
1f
fe
cc
f4
d7
c8
15
18
05
ef
ed
39
d4
e5
1a
07
e6
19
26
fa
db
06
ae
ef
f2
49
2a
d5
a2
02
26
fe
4e
22
fd
0e
23
32
fd
fe
31
e3
c6
1c
06
3e
f5
d3
dd
34
dc
01
d7
f6
d4
0e
e5
01
e6
f4
00
dd
20
fe
0c
07
0c
1e
03
c3
0f
03
0a
47
e7
d2
ee
e4
09
1c
c7
cb
dd
21
c8
01
e5
b0
1f
1c
f5
27
04
f3
01
1a
1b
01
2f
ec
06
f3
00
e7
1c
e7
bf
cf
f0
f9
f9
12
1e
2c
a2
e3
e7
0d
f6
0f
f4
16
1f
2e
02
3f
f9
dc
ce
12
cb
30
f2
e5
fc
fe
f8
07
a8
db
05
0a
e8
1b
1a
de
24
20
ce
ef
0e
07
0c
d1
e4
ff
ff
fc
e8
13
c1
29
ed
20
07
07
02
09
0b
ea
f9
ec
25
fe
10
e4
e2
19
d3
ca
ce
08
ff
f0
06
bf
12
e6
ba
e1
0e
cc
0d
1a
fd
e1
22
de
cd
d1
11
e5
21
2b
f8
d5
36
2f
f0
18
f2
d9
06
81
1d
f7
f3
29
b2
d7
0d
f5
15
d5
d2
cb
0f
28
e0
1a
bd
0b
13
bb
fb
f5
0a
f8
ef
d2
a8
20
25
19
ea
28
23
16
04
fa
e0
e6
fa
2b
f6
6c
ff
a0
0c
de
fb
d8
b4
0b
1f
b9
37
25
bd
dd
fc
e6
e5
e4
e2
3e
be
36
c6
e8
d5
eb
c7
0e
e8
dd
92
e7
e8
2b
c1
aa
fc
f5
d3
df
ee
f3
7f
f4
f0
4e
f0
15
ed
fe
ed
1c
fc
da
3e
e4
af
b2
1d
d2
31
f9
d8
ec
1c
fd
00
ef
0d
23
2d
ef
f4
dd
ee
44
d8
07
22
f0
22
f3
09
f1
d7
30
bf
c5
e5
0c
ee
f9
fd
f9
11
f8
05
41
e1
0c
17
e9
02
15
0a
ec
03
b3
c6
39
de
0d
ef
0f
09
b7
03
ef
f4
e9
19
1e
08
cf
f2
db
31
02
d4
21
ff
c4
c4
47
c8
0c
02
d6
d2
4b
ec
1c
ea
cc
fa
e3
af
fd
33
e6
fe
15
ab
16
e5
15
f3
ef
d6
f7
c3
89
ed
16
c5
1e
21
fb
0f
2c
14
c0
1a
d4
e1
f0
da
f4
14
12
2a
ff
0b
bb
5c
fe
fa
fb
d0
b8
f8
e2
16
d3
06
2c
10
d2
1f
28
0c
07
de
34
2e
2a
ba
34
ea
0c
25
c5
11
fb
e9
1c
32
21
0e
18
07
e8
0b
0f
e8
c4
04
31
23
0f
2a
03
27
f7
b0
f3
a7
3a
dc
b6
f4
1d
e6
a5
f2
e3
23
c2
bb
f0
dc
24
e8
19
0c
ef
a4
d4
1d
30
fe
48
fd
eb
f1
e0
ca
f0
be
1a
12
c6
c9
c8
e0
1a
fa
fb
fb
e0
e5
f9
0f
06
16
1b
d7
05
ca
f7
e2
c6
b1
d1
e8
2b
dd
1e
3a
40
db
47
1a
fe
1e
ff
0d
e1
1a
f1
10
07
09
0e
f8
ef
de
f9
dc
f2
11
16
f3
0b
03
c2
ee
0d
ef
be
de
15
07
f7
fa
1f
f0
af
17
f7
cd
f7
e0
ef
26
0c
fa
0e
1b
0c
cb
36
0a
20
ca
fa
40
ec
ed
04
00
e0
f9
fe
e5
09
eb
f9
0c
03
e5
01
0a
e9
d9
16
fa
de
ec
ce
e1
12
ef
df
fd
08
e8
20
05
d2
0a
24
ff
f8
f4
04
13
de
14
d7
19
f8
36
2c
da
0d
d5
10
c4
e1
e2
ea
01
f7
e7
22
ef
41
22
04
fd
ef
db
06
f6
eb
c3
1e
81
de
32
ef
ee
de
e6
f7
f9
e8
d6
df
fb
e1
3d
f6
06
ee
c0
9f
1e
f3
1c
fb
ed
04
e5
c5
e4
d6
e2
9a
e2
0d
d6
2e
f1
10
bb
3e
18
cb
f4
36
ed
47
f0
c8
c5
ed
d1
1b
e0
d9
23
ed
17
f4
f2
0e
ca
fc
96
e4
0e
cf
fe
f2
0f
22
bb
0b
c1
3b
11
04
05
be
b8
f5
16
c0
d0
cb
f7
f6
f9
02
dd
fb
fd
00
8a
02
fc
fe
02
ff
01
00
01
ff
00
01
fc
02
fb
06
fe
fd
03
ff
03
01
fe
fb
02
ff
01
03
ff
f9
fd
fd
00
02
dc
02
fc
02
06
00
fd
fe
04
00
f0
01
00
01
ff
fe
fa
03
01
01
fb
fb
f8
ff
fb
fc
23
02
01
fd
fe
00
ff
00
01
ff
03
fa
01
f8
03
ff
00
07
f0
01
01
ff
02
fe
02
f6
01
01
ff
fc
06
f3
01
03
fd
fe
00
05
02
fa
04
fe
fc
fc
00
fb
02
fb
f9
f7
01
01
03
fe
00
01
fb
03
03
01
05
02
06
ff
fc
fb
02
fc
fb
f9
01
fe
f0
01
f9
00
00
ff
ff
02
fd
02
fd
81
fd
05
04
00
0a
01
fc
fb
05
fe
02
02
01
00
03
00
fe
00
04
01
03
04
fe
01
00
fc
ff
ff
02
02
fe
fb
01
fd
ff
07
01
fd
fa
04
00
02
03
fd
01
05
ff
ff
00
ff
00
03
00
fd
f7
07
ff
01
06
01
fd
01
fe
00
fb
03
00
04
07
01
ff
ff
ff
01
fd
02
08
ff
05
fc
01
ff
00
fb
01
01
02
02
03
fc
ff
03
d1
ff
ff
f9
fe
04
01
00
02
fa
fe
fe
f2
fd
fb
fd
fe
14
d8
09
34
39
f7
3b
fd
ea
d6
d2
dc
39
f4
e3
da
cc
d0
23
f3
df
03
f3
0b
f9
f1
00
1a
fe
00
f8
81
fc
e0
0f
a7
3e
f4
b9
09
fa
e4
62
bf
fe
ef
d2
e9
0f
e4
22
50
26
e1
14
22
16
dc
1e
2a
ce
d6
e9
f2
00
df
08
e5
e5
dc
0a
0c
be
23
1b
e5
2a
f5
e8
f8
18
ee
09
e4
33
2e
eb
bf
18
f2
23
11
30
18
f9
0a
d7
1e
be
f7
0e
dd
f6
f3
f0
a5
0d
b6
19
e7
eb
e2
04
f0
82
f5
04
23
ff
f7
b9
f4
fe
e1
ce
e0
e5
f5
d4
e5
f9
29
06
0d
04
3f
4a
ef
bc
08
1b
f7
25
f2
ef
1e
d9
f8
1e
d4
5b
0e
fd
22
11
f1
2b
13
f1
a5
10
d7
de
dc
e8
fe
f1
d2
18
d6
db
25
11
b7
10
ed
08
05
11
12
09
e9
0e
f8
24
0d
ac
bd
ec
fb
e7
05
d4
08
d7
06
de
20
0d
f0
24
17
0c
ca
38
ed
e3
e7
bc
d5
f7
07
30
51
e7
d4
f7
ee
10
d3
df
f3
e9
01
dd
e7
fb
cb
13
f3
d8
f3
1d
e3
12
e7
ed
d7
27
f8
33
e5
d1
1b
fc
27
0a
fb
1d
1e
f3
dd
cb
f5
ef
f0
1c
f2
33
2e
e8
bd
de
fc
e0
1d
ef
36
11
27
c4
2f
ce
1a
09
ee
0b
1d
cf
f5
34
09
0f
24
04
f6
ee
ee
ba
fd
1b
fc
e1
35
ea
f1
11
e8
17
b7
ec
e8
08
eb
1c
ff
0e
f7
2e
da
07
e6
f3
b8
df
34
df
ec
dc
f9
cb
08
08
de
a7
2a
f6
c7
e2
c2
ee
34
ea
ec
25
1c
f9
e3
07
aa
bf
f1
33
3f
2b
d5
9e
08
0a
ef
08
05
81
e2
f0
0e
14
0d
f8
c4
f4
1c
4c
2d
f5
07
23
df
01
04
42
fa
ec
ff
12
70
15
10
0d
50
c0
cb
f2
f2
0a
34
f2
14
ff
05
e8
ce
b0
c6
db
29
18
e5
1c
0e
29
1d
08
11
46
03
0f
01
d7
e5
0a
07
b1
b3
e0
d8
e5
f4
e1
1f
d7
d6
f9
e9
d9
e1
03
af
9f
1e
0a
eb
f6
d0
34
1e
ea
c6
dc
d4
c9
06
0d
07
9f
8a
99
15
14
e7
a6
f5
13
3f
d6
f8
14
05
58
08
2d
ed
f8
10
d5
c0
d7
f0
ca
1d
fa
10
12
f2
0e
d6
f8
d4
9e
09
f0
e9
17
aa
03
45
c6
1d
06
f3
de
25
27
d0
f2
e2
03
1c
f2
03
d3
c5
de
45
f3
00
b4
19
f1
14
b2
39
de
ff
cd
ef
11
e2
ed
d0
dd
0d
ed
39
d8
c2
ab
a6
11
d6
0c
4f
1a
ec
1d
0a
20
2d
f8
23
42
ec
10
c7
f0
33
02
53
dd
1c
40
bd
c6
e9
e4
5c
e6
ed
09
f8
ca
e0
fd
f7
10
52
30
2b
00
ef
d1
fc
11
00
e9
ed
d1
24
c7
ee
e3
c5
be
bd
13
bc
3a
c3
cb
f2
f6
e9
33
bf
f6
0b
12
ae
bd
e4
35
30
fe
09
df
08
ee
ac
90
ee
17
1d
44
53
e3
da
40
1c
ea
e7
26
3d
e2
19
02
ef
1f
df
0c
e5
09
4a
da
fd
f7
d2
d9
a9
e5
ee
e7
fd
df
1d
01
08
e6
dc
07
1d
f8
da
2b
ca
1b
e8
81
f6
12
e0
fd
3c
b5
06
d8
c6
1e
27
fc
bd
d8
f6
1a
d1
0c
ce
ef
99
bd
0f
cd
e4
e8
e4
1c
ef
fe
ea
02
f1
e8
bf
b1
e8
06
fb
06
c0
f4
f9
e9
01
5e
ff
31
19
44
03
ba
3e
05
28
bc
11
3e
f6
29
b6
f9
f2
05
11
f9
20
8c
ee
e8
e6
ec
be
1c
11
cf
b9
52
11
a5
f8
e8
f4
0f
09
c2
16
3f
db
d8
ca
2c
f6
16
0a
0d
11
28
13
12
c9
01
13
ee
db
0a
dc
ed
ad
ef
3d
d1
12
bc
f3
03
ef
10
2c
0a
f7
00
fa
09
05
fe
b4
e6
15
f7
f5
00
e7
f2
f6
30
18
3e
ea
f7
ff
e9
15
f8
26
e9
34
f8
19
f1
a8
19
06
13
ed
f8
e7
f5
f7
e3
f0
c0
fb
11
22
ff
d9
14
ec
cc
07
0e
1c
ec
dc
e5
f8
00
53
04
e5
20
f4
fa
e9
18
cf
f9
13
e4
ec
04
d7
c1
e7
06
48
19
27
cf
ec
26
fa
d6
23
fe
d8
12
0a
dc
d8
d9
18
f1
ec
fb
18
f1
0e
33
e4
f8
36
cd
05
0d
b5
07
e9
c3
25
f9
e5
23
39
f0
fa
1e
0d
0e
0a
13
25
1e
fe
dd
f7
04
02
27
cb
0a
1a
49
3f
03
08
23
fd
cc
0e
0e
f9
00
1c
82
28
b3
1c
fd
b6
f9
2b
14
ff
fa
2d
09
21
00
10
de
18
12
f0
f9
11
4a
18
cf
e3
24
f6
ec
e6
e3
ef
ec
dc
32
25
41
fc
b4
d6
de
0c
ad
fa
00
0a
db
33
33
03
dc
04
0e
02
f7
1f
00
49
0b
f9
2b
2d
24
ba
ff
ba
7f
17
cb
03
42
50
3f
25
f0
f4
15
e6
d2
4d
1d
2c
01
df
c1
b6
16
c2
4d
d2
0a
e8
ff
c9
c8
ff
ea
cc
d4
2f
f7
03
49
b5
0d
0a
20
dd
ca
35
cc
0e
1a
2b
16
f0
05
19
4e
14
03
ef
1f
c2
0e
e8
25
f4
1d
e5
ea
0a
fc
c3
1b
1b
05
f3
21
b9
ec
29
0e
f0
bc
fa
d5
00
3c
21
36
31
f3
04
c2
45
cb
fa
08
07
d0
fb
07
0c
07
db
2d
ee
c0
f3
16
1d
de
6d
0c
34
ef
da
d7
0c
e9
f9
0b
cf
5b
31
e3
b8
f7
03
c8
ee
39
81
e0
01
ee
ff
c1
08
db
41
d9
eb
21
f1
d2
f7
08
75
0e
6a
c2
e5
10
08
19
2b
ce
e8
25
d4
d7
e2
b7
f7
2a
29
b1
f9
da
3c
df
08
ed
f4
e2
f2
cb
f1
e3
af
e3
08
1a
d7
c9
b9
e9
ef
f2
ef
fe
f8
2d
22
38
01
f0
2a
22
42
c0
cb
02
fd
e6
15
d8
08
2d
f7
cc
18
f1
22
e3
73
47
d9
01
1d
c7
05
d9
f4
04
01
b4
d2
30
11
c7
ee
19
d7
ad
11
c9
c3
07
e4
29
e5
51
38
ef
d1
ea
16
c3
ee
ec
ad
13
ff
e8
e1
45
1a
f2
f6
10
bb
d6
1f
5f
3b
f6
b7
92
19
0b
57
d2
32
95
e2
65
f9
1c
19
a1
11
0d
a4
e8
a8
0a
d2
ed
1d
e3
da
08
c6
21
9f
00
eb
ed
11
f0
09
c3
ac
03
f5
f3
6d
54
14
db
15
00
25
e1
ce
dc
1c
81
04
b9
ac
f5
e4
34
ee
1e
02
12
2e
eb
ef
eb
ec
da
26
04
14
a6
f2
12
ff
20
00
1f
e0
f8
e9
d4
e2
ef
1c
92
32
17
f3
1a
e1
d8
c8
f1
ad
40
20
fa
fc
f6
ec
08
fe
f9
05
08
f8
cf
e3
d2
e8
cc
55
dd
df
d9
0f
c6
de
38
d9
e0
32
ef
2e
27
1b
e9
f5
e2
b1
ff
bd
fd
0a
dc
41
27
0a
e7
1d
16
2b
fd
db
d2
13
02
0a
00
d0
25
b5
f8
1d
f5
10
f4
d4
ea
24
3e
34
e3
fb
da
1d
e3
cd
18
c1
dc
07
3f
1a
f4
1b
4e
f8
ea
05
db
82
f7
0b
2f
0a
f0
0c
0d
13
ca
ff
d4
f0
e3
d0
ff
00
02
38
21
22
d1
f9
df
1e
f9
c1
d5
d4
0b
c8
18
39
fb
d9
e7
e5
1b
eb
10
d4
e6
01
ac
e9
1d
00
09
12
67
0d
01
c8
14
2a
05
1b
29
1c
f3
d0
0f
25
ef
e9
0d
df
0f
18
ea
02
fc
05
2c
eb
3c
11
ed
cc
09
e9
ff
ad
d2
bb
04
ee
2b
0c
c7
ea
1d
e3
16
f6
e8
1a
f3
fa
0e
ce
28
f8
25
36
04
18
fe
03
d0
e8
d1
23
c5
0f
06
1c
c9
f1
ea
e2
37
b7
f0
57
01
fc
dd
fa
f0
0d
cc
1f
ee
fa
06
e6
ec
e0
d5
d7
f5
1e
18
f3
08
0f
f5
2a
ec
f7
01
d4
0b
fd
fd
f1
ec
dd
0e
19
f5
2d
e9
a6
48
e4
fc
ea
1c
f3
07
54
00
d7
d4
f0
27
26
f3
d9
02
f5
06
cf
fa
b2
ee
a7
08
0e
d8
47
21
fb
de
2b
f9
eb
0c
25
19
21
46
ca
07
2f
25
cf
10
0b
03
c9
08
15
fe
ec
c4
c7
4a
f2
e4
42
17
e4
e7
d4
4e
08
e0
2f
02
1f
d2
fc
fe
c3
f5
fa
b0
ff
0c
2c
09
f8
07
00
04
d8
ea
25
e6
ca
2c
13
23
f1
eb
c9
f7
d8
25
08
bb
d4
c8
de
07
c7
ff
db
f3
f4
b3
11
e0
09
f9
1c
e0
f3
15
c4
23
f5
1e
d6
1c
0a
e5
14
06
ec
bb
ed
ec
ee
11
d8
ec
d1
ed
ed
fd
cc
07
de
cf
dd
c5
2d
11
cd
a0
08
0d
e7
41
05
db
c4
41
41
6e
ed
d0
08
3b
0e
f9
dd
81
0d
10
f2
05
db
0e
03
cc
f6
11
15
f5
f6
c7
a2
1d
32
23
e5
e5
e5
af
d5
0e
ef
40
fd
f3
f2
fb
13
d4
28
18
0d
f3
06
ce
9c
34
ee
c2
c8
e8
0b
07
2d
c3
1f
8e
f4
b9
9a
19
43
f0
eb
2f
27
cf
d6
15
e0
bd
26
d9
f8
09
13
1a
05
ff
c7
fb
1a
fd
e9
e0
e7
ea
b9
07
f9
2d
03
e1
25
48
24
fc
e0
28
e0
c6
1a
19
cd
66
be
f5
ef
9f
b8
d6
ea
a3
20
df
c0
08
5d
c0
ec
f3
a1
17
c2
49
f3
c4
30
0d
0e
38
dd
2c
5d
34
c2
2c
b3
1f
9f
ad
d9
1f
e3
d7
4b
6c
dd
0e
dc
0a
e9
fd
f4
1e
13
89
0c
10
06
b5
39
34
0b
25
fa
0a
ad
da
11
03
d1
cb
d4
2e
c7
d7
4b
0b
db
ee
12
33
cc
f1
fa
2a
e9
fd
e8
eb
ed
38
d8
ea
c6
45
ca
f2
ab
2a
fb
b4
2e
0e
d4
32
01
dd
cf
d8
b8
9a
ed
d3
05
f9
b9
de
12
02
f7
31
b0
ff
1d
41
de
f2
19
f0
1d
2f
13
dd
06
1e
c2
28
db
bd
dc
0c
bc
6a
0f
ec
ee
f8
f7
11
fe
fa
ea
c0
f3
81
41
20
13
3a
d6
88
46
0e
09
e3
c3
fb
2c
c7
fa
13
a3
f7
c2
f7
c9
d6
00
d6
0f
f4
1a
06
c9
a7
e8
03
29
e2
3d
13
2c
c0
fb
2a
21
03
fb
c8
11
30
fa
01
d6
f8
17
fc
91
1d
03
13
bf
3a
a8
1a
0a
0f
b6
cf
13
d3
cd
1f
f5
e8
0c
fa
c6
f6
dc
d6
e2
4a
33
1b
fa
de
c8
2b
19
34
05
f2
08
1f
9e
fa
4e
fb
2c
df
21
19
9b
4f
ea
15
14
10
42
de
ed
ff
0c
21
19
28
09
05
b0
fb
0d
06
e9
b0
ec
17
d1
1a
0f
03
1e
1a
ea
01
de
32
0d
05
10
fb
e3
d6
1a
bf
12
1a
e8
2b
cf
e5
16
26
d1
99
21
12
fb
01
bb
0b
45
05
08
e9
37
ff
dd
45
cd
30
bb
22
0f
25
0c
17
10
f5
13
fb
cb
f6
e6
28
b8
c2
d6
06
03
25
d6
0f
00
c6
16
09
10
f7
d8
d6
0f
07
dd
39
0e
e4
cb
b8
e8
32
10
42
1c
a4
08
df
c8
7f
f8
fa
0d
da
dd
f7
f4
e4
13
3e
2f
02
c9
f4
f1
f6
0f
0e
47
b9
cf
4e
7a
e1
dc
22
20
0f
ee
c3
e6
16
a9
0d
f4
ba
ff
e0
c9
d6
15
24
f1
c4
31
0f
04
fe
d3
f0
cb
0d
21
c7
f6
13
d7
0e
a2
3e
37
01
e9
df
11
37
11
17
f0
32
df
11
fa
17
bc
0c
9c
de
04
c8
aa
c4
21
a7
40
9b
1e
0e
e8
54
1c
fa
29
35
e0
1d
17
e2
08
1c
32
0a
e6
d4
98
01
20
f3
eb
f9
e4
23
83
e5
3e
e4
02
d5
c6
12
1d
ef
f0
21
2c
eb
ec
c5
a4
07
bd
15
ec
44
ff
f2
02
c8
12
20
25
c2
cf
e9
08
29
00
f2
e4
ef
e2
ad
61
2b
13
a3
e4
03
00
18
2e
f9
fe
ef
f7
09
f2
f4
a3
ef
05
ca
c9
ad
fb
03
19
eb
ff
ef
1d
05
ee
08
b9
ff
28
ea
03
09
0b
d3
ec
e9
ff
e2
d4
e3
f9
e1
c5
09
d4
12
c0
e5
c9
12
e5
ca
c0
d4
2c
18
f5
01
65
f0
0e
17
5c
15
ff
81
d6
e7
fe
d5
11
1e
14
c8
43
ec
d9
18
c2
6a
38
1c
cc
d4
3c
f3
aa
e8
54
26
4f
ea
ce
ab
1c
b0
cd
02
18
af
f7
03
2d
e6
c6
23
f3
14
fa
30
f3
30
04
08
e6
c2
fe
07
dd
bf
1a
01
28
32
64
fa
f3
25
37
ce
09
36
1e
05
f5
f4
11
2f
62
e3
a5
36
32
eb
09
ef
1a
ca
1f
c2
d1
e2
29
1f
c9
f0
20
aa
6b
ec
11
19
e4
16
83
f2
07
30
e3
e5
ec
c4
d6
fc
e8
c8
19
25
1c
d6
e3
13
0a
f2
e2
45
e4
e2
be
ee
16
0e
19
d2
16
1a
11
08
18
0f
1b
e4
ff
ef
c3
17
f1
02
dd
f3
e0
08
ea
1a
dc
e6
1c
f8
81
09
16
d2
25
f2
31
05
1e
22
0c
f1
17
f7
11
ed
f9
0c
e1
02
14
19
ed
bf
c6
00
13
dc
dc
28
fa
fd
0b
21
f3
54
c2
b1
0f
e7
06
f1
e4
09
d3
d8
c4
ed
09
f1
f5
2b
1b
00
36
d3
12
f7
40
02
f4
06
18
14
f0
b8
12
fc
c5
11
09
ee
d4
cf
20
06
06
b3
1b
bd
2e
1d
b6
16
f0
15
e8
45
50
0c
fd
16
f5
f2
14
ee
16
fa
df
fe
10
ed
c5
ed
30
e9
04
f4
c8
2e
16
09
ee
b8
c7
f3
c7
e2
cb
ee
f8
c9
f6
28
21
f3
09
d5
00
f4
dc
f9
ea
f7
21
f4
ea
17
aa
f4
3c
07
f0
18
18
03
12
f0
fb
fa
04
eb
ec
19
0d
2b
15
f5
17
be
09
cc
e6
00
d3
25
41
ff
4b
fd
e8
be
f8
13
24
03
e7
f0
f7
c9
25
d7
ee
09
d0
eb
ba
df
14
c3
e6
e9
f6
ea
ee
d0
0d
02
e3
07
f9
33
fd
02
1d
05
d3
00
d6
0c
ff
fc
03
28
53
fd
f8
fd
ec
d5
30
00
0b
0f
fa
e9
c8
00
10
1d
1a
48
0a
29
d7
06
e8
c6
ec
0e
2d
d9
d7
07
3f
11
a5
ec
e7
fa
dc
0d
f2
16
04
fa
4b
db
11
d4
17
fc
07
e3
b0
0b
15
ce
f1
e0
34
bf
1b
fb
ff
f5
d9
0a
1a
e7
13
f8
45
81
13
2f
23
20
06
25
ee
e5
08
0e
cd
2e
0c
e3
13
e4
02
fb
04
05
d6
f4
60
03
29
00
e3
1d
e1
00
ce
2f
ef
fb
0e
48
28
01
fa
e2
2b
e6
e8
f3
05
ed
e4
ee
fd
04
27
de
ea
fa
f0
f7
18
ff
2c
14
03
3e
30
d6
fb
2a
02
e7
fb
09
e9
fd
fc
ba
fb
fc
f8
e8
29
d4
23
1b
d6
dd
53
ff
0d
f7
eb
dd
e7
06
08
db
13
27
26
cb
4c
ec
e9
fe
14
ff
0d
e3
df
0c
ad
41
e9
ed
25
29
e9
cb
cf
63
19
38
f9
08
1f
f0
eb
65
00
f6
f8
34
07
4a
da
f5
01
f8
c7
9f
eb
05
e1
fa
40
0b
f5
0c
fe
d9
d6
f1
ef
c2
14
fe
12
19
04
1a
0d
f4
01
13
f5
f3
09
16
d9
b7
a5
0c
c5
64
23
ea
fc
2e
ec
da
d3
e7
3b
67
25
c9
28
06
ef
df
0d
e7
40
c4
1c
00
0c
1c
f9
05
03
e3
f7
2c
03
0a
f3
0a
12
f6
f5
e2
ee
37
fe
e0
26
24
12
da
ea
d9
16
eb
db
14
23
08
f6
eb
e2
d6
3c
ec
f2
d0
24
c5
02
da
08
f3
42
29
16
4f
06
e2
f6
ff
1b
27
3d
e2
e5
1e
1b
ef
fb
ee
f5
0a
e0
05
04
0c
d1
f8
f2
15
be
d7
e1
f8
e4
e3
03
de
dd
eb
0a
01
ff
0e
ef
dc
ee
d6
03
e2
01
e8
fe
ff
2d
04
ee
e5
f1
11
3a
3d
ec
fa
f4
10
10
f8
00
fe
ed
31
10
00
06
ff
03
ff
18
fd
17
29
19
0c
26
26
e8
14
0e
26
04
f0
81
05
f2
ec
fc
0a
02
fd
fc
f9
ce
ee
02
f2
e9
fa
cb
ee
14
34
2c
f8
fc
df
e0
e7
fb
17
f9
14
fc
0c
3f
d2
19
b2
f2
3a
03
d3
02
20
e7
e0
19
4d
ee
2d
f0
24
d8
ea
c7
32
dd
4b
1a
f4
fd
f7
e6
fa
e1
dc
f4
f9
19
24
fd
f3
f5
e8
11
fc
cf
1d
f3
e9
ca
d1
fc
09
ea
21
26
2a
06
df
0f
20
f1
f9
d8
0b
f3
06
15
e3
f6
17
a3
f0
fc
db
fc
f3
e0
40
f5
d3
d9
27
0b
f4
0d
06
5e
0e
0d
17
26
ef
0e
38
2a
df
f8
c2
c0
ee
27
1d
ff
c3
dc
e4
19
fe
2c
00
bb
c9
fe
e2
05
0a
19
e5
fc
0c
98
40
15
1a
bd
27
df
f9
0c
06
22
c8
c4
2e
ba
26
84
d4
2b
50
09
fb
06
02
0a
c6
e4
3c
44
db
ea
c8
ea
e7
19
bf
c0
49
32
e7
de
ea
cf
02
d6
f3
b2
04
ca
2f
fb
ce
d4
06
f4
cb
d2
f2
0e
c4
ad
e8
de
2a
c5
e8
f1
f2
f0
ac
28
d3
e8
38
ed
fd
01
c7
18
0c
1b
ed
1b
46
19
fa
de
e8
e1
cd
df
12
3f
f8
14
c9
bf
14
0a
c9
e8
11
18
f1
d7
f1
35
c7
fd
06
f8
3b
eb
dc
45
2d
ff
df
d5
cc
17
19
81
df
df
23
d8
49
b6
06
13
19
1a
46
17
f2
bc
c8
cb
fe
ff
ba
fb
2f
38
b0
c7
99
f3
0c
f6
bf
30
e1
13
ff
ca
08
1e
0c
1b
f5
0b
41
e1
ea
da
0f
db
19
e8
b9
50
15
23
b9
f1
e4
07
1f
0b
d1
09
cd
c8
d1
2b
c9
e8
ce
dc
b2
ce
c4
df
ff
cf
c4
00
1b
09
ee
df
e0
15
09
27
12
fa
cd
dd
10
e3
cd
e7
e3
f1
01
fd
02
dc
0f
1a
0b
0f
f3
03
fc
16
0f
09
f4
06
0f
0c
f8
81
eb
c9
12
18
ff
01
09
ef
fa
d7
fe
f6
07
f3
e6
17
fd
e4
fd
f4
0a
ef
1a
20
e6
f5
18
db
0e
08
f4
f5
03
e8
2b
0b
fb
fc
fd
fd
0c
f3
0a
e9
16
f3
f0
01
06
20
fb
f5
1f
07
04
fa
f4
ed
d8
e9
06
10
f2
f5
07
f1
10
21
04
00
f6
ff
09
fa
f2
0b
f7
e4
18
f5
11
09
ed
15
0d
08
0f
e8
f9
e6
03
f6
fb
ff
01
f2
fd
fa
17
ec
01
0c
f4
03
f5
0b
e4
16
eb
d7
d6
ea
07
08
15
09
d0
03
ed
04
00
ee
f7
dc
f5
fe
0f
f8
04
fa
f6
f7
f8
28
fb
07
e3
ed
0f
06
fd
eb
dd
f6
f5
03
06
f9
03
07
0f
01
de
fa
e7
03
2b
01
d7
f3
f1
f5
09
dc
06
06
ff
f9
31
11
07
f6
ff
1e
03
f5
0f
ec
07
09
15
f5
0d
f6
15
06
04
06
24
06
00
e5
f1
05
fe
f9
e9
17
09
03
f7
01
0a
18
e9
02
a0
03
f9
fc
01
fc
f1
d8
08
fb
00
fb
0f
ef
0d
ff
e8
ed
f1
fd
0d
fe
ef
ec
b1
14
f7
ea
ee
e7
d3
00
f1
d1
2b
f1
09
e4
01
2b
b4
09
06
12
0a
05
20
26
f8
c3
e9
19
fc
ee
ed
00
0f
32
eb
1d
be
e9
33
0a
14
d6
ef
00
d1
20
d2
dd
ec
24
dd
fb
e0
04
df
16
c0
dc
1a
fc
00
c6
28
22
2c
d2
fa
ea
f3
f9
1b
10
e4
00
06
22
ed
bd
eb
cb
cd
ec
ef
5b
00
bf
ea
f3
ac
39
f0
9e
01
3d
10
2c
1a
37
11
f9
f4
00
0e
06
bb
1a
f5
11
d4
fa
05
11
f3
0a
12
ec
b5
db
ed
00
fe
0b
1a
c7
fa
fd
03
f5
eb
34
eb
06
1e
d3
cb
04
ad
2d
e8
3d
31
be
eb
d5
f0
04
f2
c5
26
01
12
ed
f8
9f
d0
ee
05
f3
26
8b
fb
d1
15
d0
02
24
b6
ed
a2
eb
23
e6
23
cd
a7
10
e0
fe
d8
26
d1
c8
26
ed
02
30
0f
f9
13
0a
d0
19
14
c0
0e
16
cc
39
d0
f7
1a
22
f3
fa
c2
bb
bf
8b
06
0e
01
32
23
e1
20
04
fb
0b
f4
1d
cd
e3
95
0f
ec
0a
e2
0e
0a
bf
38
ea
ed
a5
32
24
dd
be
f3
31
de
bd
e3
e9
f4
1f
33
ee
10
0d
e3
db
81
ff
14
0f
dd
19
eb
fa
df
cc
f0
f4
42
f5
f9
e7
a7
df
59
06
b9
e0
33
0d
ce
29
33
e1
a4
1f
0a
06
ed
8b
ee
d8
31
f6
fe
f7
fe
57
0a
1c
08
f5
cc
c0
fd
e8
ee
3e
16
f4
e5
1a
28
ee
36
1a
00
3d
1c
f1
fe
eb
fb
13
f1
31
9f
ef
0a
ab
db
11
f7
d7
1f
e4
ec
c5
5e
20
f6
ed
04
ac
ee
d1
81
00
e9
cc
76
c4
2a
f7
5b
cd
ed
0d
11
e8
29
f0
f9
c9
f3
ad
fb
15
12
1a
35
18
02
e2
f0
a3
24
14
f7
c4
bb
e7
ee
c3
04
e1
18
2e
cb
f1
a0
1c
26
12
fb
fc
d6
ac
8a
2b
e5
fd
df
f2
31
ec
14
0e
ec
ea
e9
d4
06
e8
f6
eb
22
e0
44
df
18
e2
eb
08
46
e4
0d
e1
fc
c9
e3
cf
18
f7
02
f7
eb
6a
2e
cf
f6
ea
e0
cb
ff
26
e3
f0
20
d2
2f
1e
21
14
28
07
fa
e0
e0
ce
2b
b8
cf
cc
f0
18
35
0d
e5
2e
ac
ac
a7
dc
dd
99
0e
ce
07
de
0f
f2
06
43
0c
3d
33
1a
89
ca
2a
fc
b4
16
e0
0c
13
f9
fa
28
03
df
f7
2f
c0
10
e1
de
d3
05
e8
c0
a0
20
00
e7
e0
3e
d2
b1
3c
f4
11
39
1c
2d
d8
34
f3
20
f8
33
05
00
fe
0a
ed
21
e3
dd
07
f7
3c
f3
10
fb
e2
f9
09
ea
f4
07
16
da
d8
3f
ef
03
1b
02
03
f0
fd
d7
1b
fe
08
20
27
ee
ea
38
0d
31
02
4d
1d
05
0c
04
0d
f0
ba
d9
1d
fd
e8
fa
06
0d
0b
1e
81
d0
13
26
29
1b
fb
e6
47
02
f4
2c
d4
2f
10
f2
ee
08
d6
de
e5
f0
ca
e7
28
f0
22
14
d0
c6
15
03
fb
00
ee
fd
53
1f
d9
e1
30
da
ed
c5
05
0d
f8
11
0a
df
d3
dd
d5
f7
d0
f8
e4
f0
2f
ed
fc
f3
22
39
06
f2
09
01
e6
29
de
e8
10
26
a4
13
fc
e6
2d
34
fd
f3
3d
fe
f6
16
f7
f1
f4
09
d3
0e
07
11
1b
07
44
cc
a9
a7
1f
c9
fc
19
13
0b
f6
d7
da
26
fa
0e
e2
0c
fe
2b
03
04
78
f4
05
23
e7
f6
2f
d9
11
e8
19
d2
0d
05
d5
09
c7
f0
0a
fb
10
e8
00
c2
e3
f0
ce
1b
00
04
f8
f2
14
12
07
20
13
e1
00
20
f5
ef
2e
0e
df
f6
f4
fb
f2
c2
25
16
bc
e3
1c
f8
e2
0c
0f
0c
00
b2
c7
cf
fe
20
f7
05
04
8c
f0
00
0e
02
fb
f6
f4
e8
04
09
08
fa
ed
12
08
fe
ff
c7
f0
fa
f9
01
01
03
05
f4
03
f9
f5
f3
fc
fb
05
f5
fd
f3
f2
ff
ff
fb
09
ee
01
0c
f5
05
fb
f5
f3
0b
09
ee
01
ee
f6
ec
04
fb
12
81
f6
ec
f9
00
fd
02
07
00
f2
07
fd
05
16
f2
fd
ad
c4
19
01
ed
ee
10
ee
fd
d5
f8
e1
0f
29
09
d7
ef
f9
0d
fb
fb
01
ef
f2
fd
fe
f5
05
08
e7
f0
03
f9
ff
04
f7
da
ff
fb
fb
06
10
fd
ff
0c
ff
db
ee
e6
15
f7
03
04
fd
f5
11
04
09
f1
0e
f7
03
08
0c
fd
ff
ff
f6
fe
fd
f1
07
1d
0c
0b
fc
fc
01
ed
ca
dd
10
f8
02
f2
04
fa
01
ee
04
06
d7
fe
17
03
ff
01
fd
f3
04
f8
04
04
fc
ff
f1
05
04
00
fe
f3
bf
e5
f9
fd
02
fe
00
06
ed
fc
e3
0c
0b
f6
10
ea
ff
fe
f7
05
00
f4
04
09
07
de
fb
f6
02
ff
03
f8
f7
f1
fe
08
fa
03
0b
ff
04
fc
fd
eb
f3
eb
0c
fd
e8
f5
f0
ff
e2
03
04
f1
03
ec
10
f9
0e
1a
00
0a
0e
fb
03
54
e7
1c
7f
07
3d
2d
f4
fc
cb
b8
0a
e3
ed
29
38
dc
1b
17
3e
32
b0
b1
08
ea
24
b7
ff
f7
cc
e9
d3
14
f9
eb
07
30
f6
08
cc
3c
e6
1f
01
ee
e9
cc
fc
26
07
12
fb
c7
e6
fb
1c
14
fe
23
0f
ec
ac
d8
96
ef
01
ed
0c
32
f5
0b
f9
08
eb
17
44
d4
14
f9
43
1b
04
04
d9
dd
0f
f9
d6
e8
26
20
ee
e1
03
d5
30
23
00
20
e9
18
ff
1b
2c
fb
4f
d4
29
df
e6
f3
3a
e4
28
19
0b
ed
01
e1
ef
d8
22
30
02
09
ca
a0
9a
1f
d6
d3
5d
13
94
0d
2c
f1
0c
33
fd
c4
f2
f1
e1
1a
ee
2d
e6
15
d5
07
17
bf
34
3c
f5
06
2c
34
f0
e0
23
d9
18
d6
ee
2e
f9
03
ec
f1
ab
e9
1b
cb
e3
17
2a
1a
0a
8c
c7
dc
e2
f5
c5
37
e3
37
ff
1e
fb
cd
e5
03
0c
04
ed
02
06
d2
31
b7
e2
43
f8
e3
91
25
f0
31
2e
02
1b
09
cf
09
0e
05
19
11
02
e3
f3
f8
08
5b
2a
16
ab
bd
f8
31
e1
15
e3
fb
05
f2
f4
17
ee
cf
4b
b3
f7
16
0b
00
d3
ec
c3
24
de
ca
fd
ff
c5
d7
1f
3a
d5
06
21
cf
15
04
d6
2f
e8
db
1d
eb
ee
00
c0
15
33
ed
0d
d5
3c
fe
12
11
c7
ca
c9
d2
1f
13
08
e2
00
db
1a
a5
f5
f7
05
d1
07
e1
09
e8
f9
bc
96
a2
c9
16
a7
0d
e7
f3
a7
e3
1b
9d
f1
ee
3b
d7
bd
f3
02
37
00
d4
cd
e5
ed
ee
03
42
3d
b0
fb
20
d9
05
c8
f0
ff
1f
dc
37
31
f5
e8
f5
1f
22
31
f7
14
11
c4
f6
18
d6
ff
c7
04
dc
3c
d1
1d
17
2e
e8
0a
cc
cd
de
27
bb
fa
1e
f9
ed
2f
0f
d2
49
ff
e1
ff
dc
d8
e1
2a
09
f2
0d
e6
23
35
25
23
d9
ed
aa
3f
ec
cf
00
2c
d2
ed
09
f9
11
53
f7
ce
c4
0e
cf
0f
b7
16
3e
00
04
e9
fe
d7
08
03
ee
04
00
f9
fc
12
9d
12
1a
d4
32
de
13
f3
fe
21
00
11
13
2b
e9
07
df
1d
e6
9f
81
fa
c6
13
e7
eb
05
c1
ea
d9
16
ea
e5
9c
02
ca
b8
df
fd
39
56
e8
f9
f5
d9
01
e3
e4
0a
e6
12
10
57
ae
ed
08
1a
c5
30
03
2b
2c
c8
02
d7
b6
02
4d
ff
d0
e6
01
b8
e9
f1
d8
ed
e8
04
02
db
11
23
a3
fc
22
03
16
0d
0a
15
ec
ce
e0
08
2f
f5
b2
d9
f7
ed
0e
01
15
44
fc
b5
f9
ce
e9
0c
e5
0f
fe
12
de
e5
0e
29
10
df
e6
19
e9
04
b4
29
38
33
48
37
01
1f
fe
17
17
29
d9
f3
e1
15
1c
18
c5
1d
fb
cf
f3
19
2e
0f
18
0d
fc
ef
15
0b
07
0d
e9
ee
1b
0a
f8
f2
09
0f
e6
2b
f7
f2
17
ff
3e
f1
f9
23
ee
d2
e2
15
c9
08
22
2f
14
13
e0
09
30
fb
f2
fb
1a
e1
c4
0a
d0
d7
e9
db
15
cd
ff
02
30
ec
b2
02
d8
d7
d2
ef
f3
b8
34
20
11
0b
2e
de
f3
ae
34
d6
e3
f9
ba
0e
c8
08
e1
f6
c0
07
0f
e8
25
e2
32
be
b7
1d
e0
fb
d0
0e
fa
29
eb
e9
d8
3e
f7
fe
02
fc
c7
1e
a9
f4
1d
06
07
c6
17
1a
f5
db
a9
00
19
05
e5
fe
c3
c7
11
a5
f4
1b
42
0a
fe
a5
f8
cf
e0
0f
f3
cd
e4
fd
05
19
f0
1a
22
fe
0e
13
ea
ca
f7
ed
09
1e
f2
f7
e0
b6
7f
d6
2a
02
d0
df
da
e2
22
1a
b7
ca
28
16
d3
bc
e1
f5
f9
0b
f1
f7
f3
f9
27
e6
4e
f5
03
03
dc
f9
ec
0e
34
f2
07
23
22
0e
f1
3f
20
ec
ef
29
4a
10
29
dd
04
cc
ed
eb
fa
0f
08
d9
de
0e
f5
19
e6
f7
30
f1
14
05
8a
0a
c0
d9
d7
05
e1
1b
17
f7
0a
0f
dd
f6
e6
dc
05
e0
20
05
be
f8
00
1c
e5
02
0f
1b
28
ed
c0
de
fb
e9
f2
23
0f
1d
f6
06
08
ee
0b
d2
0a
d0
f8
12
8f
e5
11
da
17
e7
31
02
e1
02
e3
d6
14
f9
15
e1
fe
fc
bb
10
19
ca
ff
da
1e
1f
02
e1
ca
03
fe
a8
17
04
04
a1
f1
db
ee
d5
f6
f8
0e
07
e9
10
21
53
24
dc
01
f8
2a
03
20
02
f3
16
45
fa
fd
0d
02
f1
f9
d2
f1
07
16
30
da
37
ee
81
ef
12
ce
8e
00
2e
af
e1
ff
e4
fd
f6
f2
30
e9
e1
f9
1f
20
00
98
06
ff
01
f2
0b
f4
fa
37
29
29
ee
ef
05
f3
fc
02
19
f8
f5
21
25
ff
eb
df
0d
f8
df
c9
db
14
06
27
11
f6
f3
13
cc
b9
ec
0a
d7
ed
f4
19
36
17
e2
31
00
15
04
f7
ef
f5
ea
ff
07
df
1d
cf
22
01
29
bb
fa
ec
2f
bb
fc
a9
19
03
f5
c3
ae
de
0d
f9
f0
3c
2a
df
f5
2e
24
ef
06
e7
cc
cd
19
15
de
8a
0c
15
db
af
10
2c
cb
75
22
d0
ff
e3
cd
ab
e0
13
15
fe
df
dd
d8
e3
16
e7
06
b7
f2
19
ce
a1
f2
4e
0b
cb
f0
d6
e8
df
f0
fe
81
e6
13
09
ea
ea
00
f3
61
29
1e
eb
a8
a6
f5
d2
ab
0d
0f
14
fd
ef
bd
03
ed
05
c8
dd
15
39
1f
e8
91
ed
b2
9f
de
d0
08
03
d3
47
f8
15
c2
f2
fb
b4
77
2e
1a
0c
02
22
d8
1c
f0
47
be
13
c2
ea
01
1a
29
bf
32
c5
0d
ef
0a
fd
f7
0b
4e
13
63
00
08
f8
02
f1
ed
fd
16
0a
04
bd
2b
f4
16
b8
fa
1e
fc
c8
0a
e7
03
f3
58
0c
ea
02
10
e8
f8
dc
b2
42
1c
e8
e6
b7
ed
a3
ed
49
22
03
0d
21
0e
c0
ea
4b
fc
e7
32
25
27
f7
c9
20
cc
ee
25
3c
e1
bf
cb
ee
15
d3
4b
34
29
fe
23
f2
04
23
dc
1b
fb
bd
4a
b7
e9
e8
e7
20
c1
de
07
de
de
1f
1c
df
0e
18
f7
0d
b8
5e
22
c4
a5
1e
01
fd
06
f5
1d
c0
d3
1e
09
ed
1b
fd
14
ea
a9
2f
ea
90
30
0d
e5
09
35
e4
f3
b9
19
b1
b2
fe
17
bf
f4
e4
ee
4d
a4
f5
0f
f9
8b
47
20
01
a4
2e
be
d8
2d
8f
dd
ae
ef
0f
22
11
59
b5
03
01
44
01
ca
f4
40
13
15
70
1e
d2
f4
22
bf
0d
d1
df
ff
f1
a4
fd
c9
c5
1e
28
1a
df
d9
fe
1b
52
d6
f3
fb
bd
ee
08
04
03
20
44
2a
ea
aa
39
fd
fa
9c
25
e7
ce
e2
09
26
0e
d4
1f
10
a3
e0
be
1c
b6
cc
b1
56
2a
29
b1
1c
1e
d7
b2
c0
ac
3c
b7
c7
c7
d7
0c
c0
30
f3
0e
05
1c
55
81
f9
d5
0d
ff
b6
f8
05
d9
d5
f3
16
05
1b
af
ef
c8
ea
19
23
04
11
18
fb
a7
18
d1
ed
0d
d0
ba
1a
de
02
f4
a6
d7
02
1a
00
d6
28
ed
26
00
f6
f4
4c
c3
fa
e6
f3
ee
0a
a2
fe
50
db
ae
09
40
b2
44
2c
e2
28
fc
41
46
0f
9e
21
0e
46
a8
10
17
07
09
f4
90
43
07
61
c6
0e
09
f1
fc
e6
93
4d
fd
5d
17
2d
2f
f9
1c
ab
c0
d7
f6
93
a8
dd
19
f9
9c
09
f8
e6
2d
fe
0e
eb
dd
cd
df
fc
f4
f4
ff
93
1e
01
e5
ab
f0
e7
17
d2
13
00
14
05
1a
62
f1
00
f4
0d
d3
fd
e1
f1
f5
fb
21
2c
ef
0e
e6
d0
fc
01
bb
2e
fb
e8
c0
fb
e3
e6
d8
9b
e6
fa
f4
19
46
26
fc
f0
07
1a
0f
22
25
eb
ff
32
fc
f5
e6
e3
d2
d5
dc
a7
01
e5
f0
fb
df
55
f1
a0
2f
cb
e1
fc
24
2f
0e
aa
fb
ad
30
00
e0
e9
2e
11
38
e6
0e
fb
0d
13
fa
e2
af
3d
09
13
0e
30
e3
f2
ed
ff
08
0d
a5
0a
1e
d2
06
f2
ed
06
e5
7f
04
0e
f6
08
fa
01
04
13
0a
f0
d8
fd
f2
1b
13
f1
f1
f3
20
10
dc
ab
f7
05
14
ab
73
f7
fe
f3
bd
c6
09
3a
f1
d1
0d
d1
f6
23
0d
e0
be
ca
09
17
1e
16
0a
24
ca
23
04
d9
f1
be
e3
20
49
fa
f9
30
b9
ff
d1
fe
10
49
21
07
1f
d7
a7
ff
3b
f6
19
13
01
55
05
e9
b3
e9
2a
b0
0a
18
de
e8
04
1a
a4
13
fd
f4
eb
fa
b1
e5
31
18
08
01
da
f4
d8
e7
19
ed
f9
d5
fe
c7
19
e0
11
29
0f
fd
f4
9c
d1
05
0d
04
28
0d
31
fd
36
fd
f2
ec
4a
e7
ae
e9
f6
9e
1b
04
fb
06
fc
d7
a5
38
ed
75
9a
be
4a
8c
e8
b2
ca
df
e8
dd
e9
fe
0d
24
19
18
14
0a
10
fb
d5
fa
f5
4b
1e
02
fc
fc
fb
f8
df
eb
ce
e3
e5
19
b9
14
04
1c
d1
d2
30
07
25
e3
0c
2c
0f
e1
08
0f
ec
e6
e9
a6
28
21
fd
cc
cb
25
e5
be
1c
07
f4
13
08
ac
dc
09
fa
e8
0d
c0
bc
92
d1
ec
0d
5e
d8
ea
c9
de
11
04
0e
ec
09
e8
10
e1
e9
d2
12
e1
dc
29
eb
c2
07
e9
3a
03
e1
da
d2
42
00
ef
d3
e3
03
04
0e
3b
fc
f8
7f
08
29
eb
ff
e8
1b
cc
22
f4
eb
eb
cc
47
4b
06
fc
1f
ec
bf
fa
59
e9
bd
f2
ea
06
38
e9
08
18
d4
15
c9
ef
e5
1b
db
0d
0b
ed
17
39
bb
df
12
da
94
c7
fc
f4
10
1f
22
19
0a
0d
b0
e7
2d
41
16
48
db
e6
12
f5
f4
d6
e5
1a
05
3f
50
f5
ae
d2
2d
16
0b
d8
14
c0
f4
ae
c5
1e
42
dc
01
22
16
cc
e1
fb
f9
f7
c9
c2
ba
ee
f8
33
d1
15
9e
0a
45
ef
1e
d5
f2
28
34
04
fc
fe
f6
fe
fd
f7
02
01
00
ff
fc
f9
f6
00
fe
fb
fe
fd
01
fe
ff
05
ff
00
05
fc
04
03
03
ff
fc
00
01
03
03
05
05
03
fe
fc
fe
ff
fc
00
fe
ff
03
01
fe
fe
00
fe
fd
00
fe
fc
fb
fe
d2
03
ff
02
f3
fe
00
02
fc
00
fe
fc
02
08
fe
ff
01
f7
ff
fc
fd
04
f3
fe
fd
ff
01
f6
fe
fb
02
fe
ff
fb
fb
fb
ff
fe
fb
fe
fe
05
00
01
02
00
00
01
00
ef
06
ff
00
02
fc
02
01
01
ff
01
ff
fa
f3
fc
fa
01
00
fe
fd
f8
ff
05
fe
01
fc
02
11
01
f6
fc
06
01
02
fe
f7
fe
02
f6
02
00
fc
00
0a
02
fa
ff
fc
07
fd
ff
00
fd
fe
fb
02
fe
fd
03
f6
ff
01
f8
06
06
01
03
02
ff
f6
fc
00
00
fc
fd
05
00
ff
00
01
ff
ff
fa
7f
ff
01
04
00
03
01
f9
ff
fb
fa
fd
fc
fe
01
f8
ff
02
02
fa
f8
02
ff
04
04
00
04
03
fa
ff
02
ff
f9
02
02
00
fa
00
ff
f6
fa
01
f7
04
03
f8
01
00
01
f4
fe
ff
ff
fd
04
ff
fc
fb
01
fd
fd
01
fc
fa
03
06
dd
08
04
cc
85
16
fe
05
38
ea
cc
00
a7
e8
d1
05
de
a2
11
12
e9
08
2a
0c
c0
e2
fa
f4
1b
f0
1d
f4
2b
f9
06
c2
4d
f9
07
f2
0a
f6
12
f9
e5
09
d2
d6
18
d4
e8
e1
fe
13
f4
fb
b9
0c
08
16
06
0a
f4
0c
d4
d0
c2
0a
b7
05
f5
02
e0
cd
00
e2
14
11
e2
35
16
26
f8
18
de
f2
f4
d7
ef
18
f0
02
2d
da
bd
eb
d5
0c
1c
fd
fe
20
0a
f8
f5
0d
00
40
07
1d
cf
fa
e1
cc
e6
b0
20
16
05
0e
f0
fc
06
14
22
f6
dd
09
24
c4
04
d1
03
01
dc
c8
e8
09
09
93
13
f9
bc
1f
05
f6
ff
0a
f6
e4
19
16
20
ee
f2
e6
d9
05
f9
ea
e6
0f
13
d0
ea
f4
08
a8
1d
0f
e2
f2
f6
f4
09
b0
fe
05
0d
fb
f8
15
00
f3
f2
ee
08
d0
e9
40
f6
ea
06
34
21
ea
ef
be
eb
28
01
34
81
ef
e7
e7
05
ed
0a
30
03
ed
f5
ea
3f
fa
07
0b
fa
15
03
e6
fb
dc
b2
0f
16
e7
8a
08
0a
a5
44
11
02
00
f1
17
de
e6
b5
15
0a
cf
e6
08
12
b1
d2
f4
e9
1d
e8
02
df
f7
f4
f0
0b
18
0b
dc
f3
e9
c9
f4
05
fd
0b
ea
09
05
ee
00
f8
02
0e
f5
eb
12
0a
05
0d
e8
b8
de
03
40
e7
d5
e8
fb
1e
f9
fb
9b
1d
2d
13
13
00
ee
f8
ec
f2
ec
db
fa
e2
0d
24
f2
00
03
12
f2
f7
de
f8
e3
10
ef
c4
e3
06
0c
f1
fb
ce
fa
19
0d
e4
e1
1a
ff
c3
fa
0c
04
ee
fa
03
08
1a
e1
ef
f5
0a
06
11
04
ea
ea
d2
ed
e1
e6
ce
fa
cf
f3
ea
f7
0f
14
f4
e5
fb
fb
0a
ec
0b
f1
ed
f9
f5
11
e7
12
27
08
e4
ea
d5
f7
1c
fc
e4
ec
0f
d1
08
01
16
0e
c1
ef
1d
df
0a
f5
f8
0d
12
e4
fa
eb
0f
2b
e1
0a
f7
03
01
fb
d9
0b
cb
ea
cc
ed
06
ef
03
0a
05
05
fb
0e
fd
07
ed
dd
e1
06
f5
11
81
e3
07
13
1f
e4
d7
f5
01
12
e3
df
f4
1c
d4
ff
f4
00
df
2a
07
19
19
fc
f6
05
f4
f6
c5
29
00
e2
fe
1b
11
e5
24
f7
ea
df
f0
bb
db
e1
05
ff
01
ec
09
18
0e
06
d6
12
06
07
f4
02
01
ff
f4
f0
f5
02
19
05
1a
f8
06
f3
d3
9e
0f
e7
1b
cc
03
ea
32
dd
1b
fa
fc
24
e9
0d
d6
16
08
02
6e
0a
c5
b3
18
2f
a0
15
82
d2
06
02
06
f6
11
29
ef
f9
c3
14
a5
16
22
c7
05
ef
0a
21
ff
c1
fe
52
2e
44
16
d6
f9
0b
19
a4
17
e7
26
0e
1b
4b
d7
fd
c8
06
f9
22
34
ec
02
d8
3f
eb
03
d4
dd
e9
f4
1b
0e
e8
fb
f8
e2
f6
20
fa
d7
f1
e1
f7
9c
06
16
ec
b9
0a
00
32
59
23
fc
1a
db
e1
23
29
b1
3c
16
04
cb
2f
27
b6
40
fa
17
16
fe
16
1c
34
4f
ea
e1
13
d2
14
22
11
09
fb
bd
12
d6
7f
d8
b9
0b
dc
de
f0
fb
f8
8e
dd
41
f6
09
d6
ca
07
96
c2
1f
a6
c2
c8
de
08
cb
b3
fc
d9
db
f0
e2
e9
d6
e8
67
da
e9
01
ef
1f
dc
24
1e
1b
aa
d3
e0
9a
11
ee
f2
4d
02
28
18
0e
ec
3c
f9
b4
e9
ed
17
14
05
1b
d5
10
f1
a3
38
8d
1c
26
cc
23
dd
ff
9d
1c
f4
8a
d5
2b
40
42
f1
39
c6
19
ef
e2
15
d9
05
d3
0d
e5
16
c9
d5
02
15
10
f6
28
e1
b8
cc
a8
bf
da
fc
fa
df
c9
09
2b
e4
d1
1c
01
29
fe
e4
ed
ef
16
16
29
f2
14
06
fd
01
43
0d
16
f4
2c
1c
d1
f5
0d
d3
d8
f3
02
f0
0d
fb
e4
d9
f3
fa
03
e9
fb
28
25
06
0c
5a
1c
de
1e
23
20
35
cb
e8
e5
be
ea
c5
33
26
f1
07
1d
42
0e
31
f4
e6
fb
16
b9
f6
f3
d5
e6
ed
e3
f7
e7
fb
16
2b
2a
dc
e0
32
2b
23
1e
11
fc
ff
2b
f3
19
03
21
0b
cb
0c
16
d0
d8
fe
e8
f9
ec
e1
1a
02
12
37
2d
ef
37
af
36
f1
0d
19
2c
e5
08
22
f2
f0
e5
03
ff
f5
f2
2e
e5
f6
9b
c0
14
e9
c6
fc
12
1d
cb
05
10
f4
ff
dd
09
02
04
0f
3b
35
18
f7
18
e2
d2
e6
13
e6
12
1d
f4
06
ec
fc
23
2d
07
ed
40
d7
d8
fc
00
21
27
0c
fe
ee
fc
04
19
ec
a7
20
30
09
df
2f
d5
99
48
f9
dd
e4
d9
2d
15
db
c8
0b
3f
b2
c6
fd
fb
1e
2c
00
ed
f4
0a
f9
36
81
0f
1a
da
0b
22
18
b7
04
1e
f2
06
d6
1a
f8
ec
e6
db
15
f0
0e
b0
e9
ee
dd
f0
1a
f3
16
fb
02
02
15
0e
c9
03
cb
eb
fb
37
f1
ee
f2
13
1a
2a
e9
fd
c9
08
1f
18
81
2c
f6
db
0d
dd
f8
f7
9a
fa
bb
de
ed
f2
cf
c5
ff
11
24
11
20
f1
d2
0d
db
0c
fd
b2
e1
01
25
fd
0b
fa
8a
ec
fc
0e
c8
07
e4
f3
f4
04
e1
f6
25
08
2c
16
e3
21
16
ff
12
df
0d
0e
e9
f6
15
1c
de
07
b5
f8
ac
08
cc
c2
1e
13
0c
2c
0b
30
06
fb
47
e6
22
ea
ff
27
dd
1b
e0
f9
17
ea
db
05
df
13
1f
28
fc
b0
15
22
c4
fa
ef
d6
03
ea
ba
f5
f0
20
e6
1a
34
24
d7
01
07
18
16
e7
e8
f9
d4
0f
aa
55
f8
31
1c
cf
f2
f7
c2
2c
cd
df
eb
0d
12
fa
1f
ec
19
f5
05
ec
eb
bf
09
0b
c1
08
03
f7
f6
e4
2b
e0
04
fa
09
03
30
18
05
39
15
f0
f8
2c
eb
e5
30
0f
39
19
21
26
07
ba
fd
13
0d
0b
28
f9
3d
ba
ec
18
c4
ec
aa
f5
3c
03
d2
da
d8
b7
ca
14
48
2d
27
f4
d4
f6
1c
a7
f3
ee
b8
ae
ef
e1
1a
0f
32
1c
01
e4
3d
c2
1c
fa
31
02
e0
e2
f5
19
ea
43
21
ec
2a
ab
d1
08
ed
0c
09
1f
24
f5
09
1c
18
01
b7
c3
e0
f5
1b
01
e5
ef
f2
24
d3
6b
f8
16
f8
3b
ad
f3
d2
21
0c
f6
1e
0d
fd
27
d2
d2
2a
21
c0
ea
d5
15
d2
41
fa
f5
ec
88
18
1e
b7
f2
2c
dd
ef
dd
ff
f1
e5
f2
0a
3e
3c
cc
d6
3e
ca
d6
44
ee
cd
3d
30
f0
48
14
3d
f6
08
d1
13
ec
d4
fc
25
cf
e8
d7
ed
01
2a
3c
e5
f2
f9
fe
14
e0
2d
ea
eb
e7
17
2e
d1
ef
0b
1b
e3
24
fb
e8
d6
fe
0e
e9
16
d3
ff
cf
1a
2b
26
d8
f6
1c
ec
e3
f6
e8
19
f2
36
1c
f5
e3
0d
fa
12
19
fd
7f
ee
08
c7
f7
e8
f2
0f
25
ee
e2
ff
d9
05
c7
07
22
02
c6
02
09
cb
1d
19
eb
15
df
17
b0
dc
fe
22
f0
4d
f7
06
1d
f6
1b
04
1f
f6
3a
0f
ef
ea
b4
ef
f5
26
ee
06
10
ff
db
1b
da
42
dc
0a
d4
f3
43
e1
f1
5e
04
2e
c5
15
f8
0f
e4
2a
0e
e3
fc
0e
05
30
f4
e4
f4
00
c6
bf
08
fc
0c
ad
f4
ec
ff
0b
d9
1f
04
f9
ec
f6
11
15
0f
1a
ec
02
ea
f7
bf
0e
0e
d2
04
e8
d9
bb
07
07
02
0d
00
09
02
00
fd
11
05
07
fd
08
01
fb
fc
f4
fd
fa
06
f2
f9
fd
0a
fa
ee
05
03
04
0d
f0
07
0b
03
00
ef
f6
ff
07
f6
05
16
02
0d
fc
fe
fc
00
06
f5
13
0d
f9
fc
f7
d3
fc
f9
0e
03
05
fc
14
07
ed
07
00
f1
fb
ea
12
f7
ff
fe
fc
fb
02
ee
0b
05
fd
fb
ee
fd
0b
f8
fc
fc
f5
07
04
f7
23
fd
12
f7
ea
f5
fa
17
f9
06
fb
ff
f5
fb
ed
09
0e
04
f1
fe
ee
0b
0a
ec
03
f8
f3
1b
dc
fe
15
10
01
02
fc
06
08
f2
f5
f7
f2
eb
f2
04
fe
11
fc
e5
09
e8
11
fd
07
00
e8
07
07
f8
05
02
e5
81
ff
08
0b
fc
fc
e9
f9
0d
03
e8
01
02
ff
ff
07
ea
f2
09
08
fd
f7
fe
00
f2
f2
d5
00
f4
03
05
02
09
03
09
db
04
05
f3
fd
fb
f5
f9
01
f0
0d
0f
f9
00
f9
f2
fa
0b
f4
06
09
d9
f7
f7
f7
fb
00
01
00
fc
fb
37
f4
02
0b
f9
0d
fe
fe
17
05
02
f7
f8
f5
fe
f8
ff
fd
05
07
03
02
f4
f3
fb
03
03
05
f1
fb
fd
fd
11
04
f3
06
02
fd
fb
f7
02
fe
fc
01
05
01
04
fb
fb
f6
fc
00
fd
fd
00
01
fb
00
01
03
fe
04
fa
fd
02
00
fa
00
ff
ff
09
00
05
06
fd
03
ff
00
ff
ff
ff
fb
fb
00
fe
fa
02
fb
ff
00
f9
03
04
01
fe
7f
fd
04
03
e9
00
00
01
fe
00
fd
00
02
fe
fd
02
02
f8
05
f7
05
06
f7
00
01
02
fe
00
fc
fb
00
fe
00
fe
00
fe
fe
02
02
03
fd
ff
00
fe
fe
fc
04
ff
fd
f0
03
00
00
02
03
02
fe
00
fe
04
fc
f7
fd
ff
fd
01
fd
01
00
fb
06
fd
f9
06
fa
01
02
00
ff
fe
04
ff
fa
fe
fa
ff
00
f0
00
08
01
05
11
fb
00
04
ff
04
04
ff
02
fe
00
fa
01
01
fc
03
fc
00
01
01
fe
02
02
fb
03
ff
05
f5
05
ff
f8
f9
00
02
fe
01
02
fa
fa
07
d2
fc
03
ff
fc
05
00
01
fd
fe
03
f7
fd
fd
01
fe
00
fc
05
fd
00
00
fd
01
ff
00
01
04
00
fe
fe
fc
f9
ff
01
fe
fb
02
fd
fb
fe
01
01
ff
fd
03
04
00
0b
fb
01
fa
ff
fe
01
03
fe
fb
04
05
00
fd
02
fa
01
f3
1a
d5
24
e9
fb
d3
06
11
01
18
30
e5
e2
cc
d9
34
dc
02
f2
24
d5
10
ff
9d
35
2f
e2
e7
d1
f8
0f
09
fa
f9
d0
1f
08
30
b0
03
d0
d9
39
11
17
e1
e6
d5
cf
00
0e
ca
0d
f7
e2
1a
f0
e2
12
e9
ce
c4
fe
17
f2
81
04
e6
dc
09
55
ec
f3
ab
29
d4
3a
ff
e5
4a
f0
1e
4f
1d
c3
ef
19
0e
ee
ee
29
e2
ea
0c
d8
d4
38
c1
37
11
23
e5
e3
b3
d0
dc
47
dc
be
d1
cf
fb
04
01
00
d7
2b
dc
1d
43
19
de
30
dc
fc
e0
00
22
14
07
27
fd
cf
0f
1b
cd
f2
14
e9
12
2b
e7
ac
e1
c7
06
2b
04
f7
31
ee
02
d6
ef
0c
e3
10
00
a0
ce
ee
00
fe
24
0b
10
40
bd
16
df
e0
be
13
dd
08
fa
0e
da
bd
ca
15
f7
ce
f1
c4
2e
29
0e
e9
d0
21
fc
fd
07
03
25
5d
14
09
e6
cc
42
a1
d9
c8
f4
1d
2a
f8
f6
d4
ef
fc
bf
ee
f6
c0
ee
f6
f4
f3
ff
08
f1
d4
04
28
e2
d8
db
24
f1
14
d3
09
32
f9
0a
0a
d2
d9
e6
01
42
fd
e1
ff
00
fa
1c
16
b2
fb
3a
f7
d2
05
16
02
fa
1c
88
e5
f3
b5
39
b7
ea
df
25
f9
06
28
07
08
1c
4f
16
eb
40
03
d7
e7
ef
b9
ea
15
17
f1
0c
d6
dc
f6
e3
be
e4
ef
2c
d1
d1
1f
2f
59
e6
fc
aa
09
e6
3a
f0
fe
1f
de
e3
06
e9
37
12
c4
01
0b
ec
08
d1
12
06
1d
ed
d1
ff
15
0d
c4
ed
f5
10
d0
f7
12
02
2a
fc
e2
0e
e1
4a
c4
27
08
f4
fe
bf
23
0f
23
f7
f9
2b
0d
09
a1
19
f4
19
a7
ed
23
e1
db
b0
f1
18
f9
e3
c8
14
e5
db
2e
54
bb
cc
06
d7
bf
eb
06
e0
f5
0a
0c
08
f9
05
f6
c8
ed
81
d1
b6
0b
c0
93
dc
2b
f8
ff
f2
23
f2
1d
28
1d
c3
26
28
cd
ff
08
d8
ef
dd
f9
18
ec
01
e8
f7
40
09
e5
f8
20
e0
14
e8
f5
ff
b3
dc
00
01
cc
18
ee
0e
fe
1f
db
f7
f0
ee
b0
29
07
00
f2
32
1c
ef
ec
09
fe
23
f5
e0
d2
fc
47
fe
fa
00
e1
2b
d6
32
1f
d3
0a
ec
eb
fc
34
fc
cf
ff
1a
06
fb
b0
2c
d7
c9
dd
07
25
14
e8
43
fa
12
e1
06
0a
ef
d9
e2
c1
e5
cc
08
18
0c
cb
1c
fc
fb
df
0d
c1
3e
03
08
07
ee
2d
bd
11
e5
f6
34
ff
14
f9
13
22
04
07
0a
fa
f5
0e
f6
a4
f8
ec
f4
0b
f2
1f
f3
fb
24
df
db
d5
20
e1
d4
0a
37
d7
ff
00
ea
da
f8
fe
36
cb
11
16
1c
fe
e8
cc
d5
da
0e
1c
0b
c1
1d
ef
23
01
d4
00
17
cf
ff
fc
e2
ee
2b
d6
d9
d0
29
e0
d2
ee
dd
ab
aa
0c
00
f5
f8
48
1e
f2
3c
22
19
d5
f3
2d
dd
19
0e
c6
12
05
c9
dd
e3
2b
22
e6
ae
e1
dc
08
ec
e5
03
c6
f0
bf
e3
ac
f2
ea
d9
d7
d3
36
18
df
0f
e9
4a
01
7f
bd
c4
e2
e9
11
f8
09
fe
ed
27
eb
17
fb
f9
e0
da
09
5b
90
31
ad
0a
f9
e4
1f
dd
f3
35
b1
16
ce
09
d1
03
c1
0c
01
f2
6c
e2
0d
e5
10
05
c6
2b
f1
1f
9b
2e
f8
1d
20
d1
12
e4
0e
12
2f
24
09
f8
15
d2
dd
bc
20
10
e3
1a
0a
d3
0f
e1
15
27
fb
94
f5
1c
cb
e8
ed
03
09
25
4a
d3
e2
b6
b8
f4
23
be
e0
13
f1
fb
12
0d
0c
26
03
2f
29
ff
d4
f5
c2
22
04
e2
f4
d7
f4
16
0f
00
ed
02
ee
d2
d6
46
02
16
e0
02
13
11
97
13
eb
ec
15
07
f4
e7
ce
15
ef
1e
e3
dc
04
e9
ad
05
ec
de
0d
11
fb
e0
06
f1
e1
07
fb
fd
81
f8
ba
f0
21
00
16
f3
06
05
e4
09
1d
15
19
17
f7
aa
d8
e8
24
f2
08
fc
ef
0d
1f
d8
99
e7
e3
12
2d
d7
fc
d4
02
bb
f0
cd
f1
e5
06
c0
3a
e9
f5
0e
d7
0f
ec
c3
f6
ff
29
f4
de
06
f8
e5
14
e8
b3
00
da
1b
17
f2
eb
ee
ec
fb
12
19
f2
d8
2f
f8
ea
0f
0d
f6
b9
e6
1e
f5
f2
f0
e9
f1
2f
0a
fd
0f
17
07
ce
fe
fe
dc
fb
fc
20
10
08
f5
10
e7
ff
fb
f8
dd
1d
f8
15
2f
2d
ff
3d
0a
44
1c
f7
26
07
d4
00
de
f2
f0
10
31
0a
14
16
e6
e0
e8
dc
ec
e4
07
c5
0f
0a
08
04
2e
12
ea
e9
be
0c
d8
1d
18
c0
e1
f9
d5
ff
1e
e6
f5
0f
f4
03
f2
f9
ff
11
f1
2f
11
0c
02
02
20
f6
19
b7
2c
f2
01
04
18
fa
08
c1
0d
e1
fd
e5
09
fd
06
0b
f4
d4
ee
dc
21
09
dd
0e
07
e2
fb
f3
fb
d7
fe
f8
d7
12
f0
18
13
ee
3e
2e
e3
f2
06
ec
3c
10
03
ec
29
81
f1
cc
f4
bf
2f
0e
12
e5
fc
0b
29
ca
2f
be
f3
e2
e7
23
1e
f4
00
e7
f4
03
e2
19
13
2b
f6
ea
d8
fc
fa
0d
e3
f5
0f
fd
17
0f
f8
02
1f
cd
10
1f
fa
09
21
02
ff
fc
ad
e0
16
f3
fe
da
f4
06
f5
f5
ea
ca
01
13
03
0d
f5
17
06
f2
1e
07
d6
db
09
f7
d5
e3
1a
23
07
f7
cb
1a
b8
e3
14
09
fa
de
05
ff
e6
09
10
1b
f6
17
f6
19
e4
f7
dd
0b
de
1b
cf
f2
fe
ec
d8
e1
1b
0b
f6
33
12
2a
3a
dc
fd
12
1f
ee
f5
15
06
e0
21
e2
e4
e3
f4
fd
0a
0f
1b
e2
fc
e2
c8
06
ee
f0
de
f6
f6
33
2f
fc
f3
0a
cb
0f
f8
fb
0f
fc
1f
01
03
b7
bb
ff
24
11
f7
e8
e9
1e
c1
60
e4
c2
d3
d9
dd
0d
27
20
e4
f4
d3
fd
f2
f6
fa
cd
e2
1f
01
ed
ed
d4
eb
ed
ee
06
0a
11
37
f6
f4
05
fa
03
0d
e8
fb
fa
db
01
00
e0
02
0d
e8
fa
fd
dc
f4
00
e7
0d
55
d4
f5
26
c6
fc
df
e2
b8
e6
fe
05
bd
99
15
de
fe
ee
f9
8b
1f
da
2b
04
fc
db
02
1e
b4
f5
13
bf
e7
e5
fa
d8
17
e6
ad
f2
17
f7
c5
0d
35
2c
98
5a
2f
f1
d4
cd
f0
d1
17
28
eb
02
f6
25
dd
23
f2
e9
b7
c7
29
04
a9
14
3a
e9
d3
ef
03
21
29
13
d3
e5
e4
07
32
8e
31
b9
09
36
0a
d5
e8
e4
1a
dc
d2
a0
0e
f7
e1
31
de
ef
17
e4
d5
9c
23
58
c2
e6
0f
f5
fc
f1
dd
0c
f4
02
8f
16
fb
00
9a
19
00
c1
fc
08
0d
42
c0
1c
ad
b6
0d
f5
d6
06
bc
ef
cc
e4
e8
04
f7
e7
0a
20
08
35
f9
fb
01
e6
2b
9e
81
04
0f
07
d4
38
5c
e8
fb
f8
e9
de
13
bd
b5
b9
16
f7
0c
f5
31
a8
32
05
0b
d3
ff
ed
e6
27
18
07
86
f9
f5
f7
04
ee
de
1d
f1
f8
ef
0a
d9
14
e2
0e
fc
df
23
11
f6
22
8c
3b
31
e4
52
ac
d9
bc
0a
2a
2c
ec
41
91
ca
ef
0f
04
d4
d1
49
d7
1b
f7
17
d9
03
fd
f7
fc
f3
f6
ea
06
29
e4
fe
ef
f1
14
db
14
fd
fd
f8
e3
e5
f0
d0
07
d9
c7
26
f2
af
b9
04
f5
0e
46
07
11
0b
e6
c5
22
23
d1
ec
f1
0b
07
0c
ea
08
47
fb
1a
f6
ee
d7
0f
0b
03
05
fc
fc
0f
bc
e0
bc
e3
ca
fa
da
f7
f5
15
11
e4
0f
1e
18
d9
2f
ed
3d
25
3d
f9
19
19
20
ef
09
cc
2c
dd
44
fd
1d
f7
ea
f7
f2
98
02
20
99
10
05
15
0a
f4
04
ba
0f
03
10
0f
ba
f1
0b
d4
1f
09
17
11
e5
00
03
de
cc
d2
0d
2a
04
26
c1
f2
e4
21
ec
9c
eb
c0
da
ef
ad
fd
be
f9
0c
01
1e
e8
ec
04
ff
b9
d2
3a
d2
36
14
4d
0e
fa
3d
d8
1f
e6
ee
fc
15
c9
ed
b6
14
b9
dc
fe
d3
f8
18
ed
fb
10
e5
2e
03
99
7f
14
e3
e9
f1
19
ed
de
d4
0e
0e
0f
1a
1c
38
e5
13
ba
aa
fa
1f
f8
22
00
a7
c6
23
c1
39
fd
db
13
26
13
ef
d5
ea
c6
1d
d9
ec
0d
ea
43
2b
08
db
20
18
23
f8
28
e7
47
ed
e3
59
1b
15
dd
e0
dc
ec
e0
0a
df
bd
f0
14
fa
33
22
f8
1b
be
c5
44
ef
cb
f5
11
30
af
08
f0
12
d1
ca
05
20
13
26
ca
f5
0f
f4
c6
ff
ff
f3
40
05
f2
fa
f4
07
ff
ff
ee
e8
16
09
15
f6
01
1c
ff
fa
01
0d
ee
0c
0c
02
fc
03
02
05
15
00
09
0a
05
fe
ff
14
03
11
ef
f0
05
06
03
f9
ff
0d
fb
e8
fc
f1
07
f8
fe
01
f9
00
12
00
fc
fe
f2
09
0b
f6
02
03
fe
fe
00
81
04
11
02
eb
0d
ee
fd
01
1c
00
f6
02
fe
ff
0c
ec
fd
ec
f4
14
ef
ff
0e
04
0f
0d
05
f2
f6
fe
f2
fc
05
07
03
c5
00
fd
e1
00
08
0f
f0
fd
08
f9
04
ed
0c
03
e9
11
0e
09
f7
f7
0d
f4
d9
fa
e7
03
0a
02
f5
fe
fb
ff
05
0f
0d
04
f7
a8
05
04
ee
02
21
02
f0
f6
f6
11
fb
fb
f4
fd
0c
fb
06
0d
f9
10
e2
01
f5
e1
06
fc
fe
fc
f9
fd
07
f7
f7
ff
ee
fa
06
fd
15
fe
0a
f8
02
2b
10
0a
e7
0e
05
00
fb
f6
04
f4
0d
12
02
e7
01
02
02
07
0a
00
0a
fb
f2
03
11
f6
f3
03
f7
1c
f9
10
06
02
0f
07
fa
fe
f9
ff
fe
0b
fb
00
fe
fa
13
f7
fa
f8
07
fe
f5
f4
f7
fe
0a
f6
f9
01
00
e7
ed
0b
fc
dc
3e
21
09
99
db
35
fe
d2
07
f4
fb
18
c0
15
a2
d3
fd
1d
18
0d
f1
3b
e4
0c
e7
4f
18
20
8a
1c
f0
e8
ec
f9
04
3f
f9
f5
f4
fa
e2
c1
0e
05
0a
f0
3b
07
21
05
f0
dc
f5
50
ec
0a
fc
06
29
ed
e1
31
ef
76
b2
c6
f2
1a
f3
32
e2
ed
f7
01
81
be
03
2d
f9
d6
0b
f5
d0
0d
dc
29
fd
f1
36
e3
ca
20
04
f6
03
ff
f5
c1
ed
f2
e3
fc
23
45
cc
24
b3
2e
3e
21
2c
e3
2a
df
9d
bb
ee
c0
ec
09
eb
14
ec
f8
34
05
31
de
d8
02
3e
18
10
f1
1e
f2
24
16
ef
f6
dc
0c
18
c6
18
f8
e7
2a
43
c2
17
bb
03
08
4b
fe
f1
07
e4
da
e1
8e
e3
d1
da
4c
20
c2
d4
cc
fe
f5
28
cb
d3
2f
e9
0e
07
9d
a5
ca
fc
de
11
19
0c
e7
fe
1f
0b
f7
44
05
0d
10
0d
06
e0
0b
a3
3f
00
68
e7
e0
ea
37
17
de
e7
e3
f8
f0
f3
d2
f5
a1
fb
f2
eb
e4
28
fe
99
18
e9
18
f1
e4
b0
f9
10
28
e1
40
0a
f3
ac
fb
1e
f6
05
7e
d0
1b
ff
0b
24
da
ed
e4
67
e7
f6
b6
ee
f9
f1
19
44
f1
d1
d6
e3
f2
ea
df
ac
e9
03
81
4f
d8
db
2f
33
f6
e5
1f
cd
e4
e4
d9
ba
2a
10
1b
02
0a
15
d7
f6
0b
e3
37
51
db
ec
f3
f9
66
fa
f4
0c
fb
2e
37
2d
cd
f5
e2
26
d8
02
90
17
e6
e3
ec
22
f6
c8
dd
2e
4b
f6
09
2d
1b
08
e1
32
c1
d6
0c
f0
d5
e6
20
f0
a3
f3
2a
26
cf
23
ea
e5
e5
fa
f7
e7
24
c8
cb
3a
f2
14
f6
e7
f2
e0
17
d9
e6
ec
1a
38
f9
1d
00
d9
f4
09
33
e6
12
87
ac
f1
d1
a8
22
ed
d6
03
d0
4f
af
e9
0e
b1
cd
29
1d
bd
04
f9
fc
fe
f6
22
df
d0
24
04
1b
0d
e9
2d
31
2a
2e
22
da
ba
de
ff
e5
04
28
06
14
b7
e8
e6
0d
12
33
a3
ee
04
e0
a2
e0
e5
1c
29
28
1f
d7
20
03
49
ee
eb
ef
56
97
24
e7
30
1b
2a
12
fc
5b
f7
ef
16
18
19
fe
0a
30
af
27
fc
e0
05
f1
0d
11
10
03
21
8c
0e
22
14
bb
b5
fd
dc
ae
f9
ca
d7
fb
36
fe
0e
ea
03
05
1e
10
21
eb
32
2e
10
bc
11
d1
de
bd
3f
f4
04
05
1e
e5
11
0b
db
dd
06
f4
ee
f7
d3
34
f4
11
f1
11
f5
f6
21
16
db
0e
a7
24
4a
ff
30
bc
fb
8e
db
2b
22
f5
f4
f1
f8
e5
4e
ce
f6
eb
e7
f1
f1
d6
dc
d0
01
28
04
e3
c2
d3
02
0d
f0
53
0c
34
50
f2
02
16
e3
0e
21
da
fb
1f
c6
03
46
0b
df
3d
c5
01
cb
1a
d6
b6
e3
09
f9
06
aa
f8
e9
8d
f8
f4
b5
fb
24
03
e7
ea
fe
81
0e
b6
2b
11
c3
f5
1e
0d
f6
16
fa
dc
d8
ce
fa
17
18
dd
0e
3d
1e
e9
ea
05
0d
05
1f
fa
af
c4
e0
18
29
e8
47
0b
39
c4
ef
e6
06
02
f2
07
d6
fc
1d
00
c4
1b
fb
cd
09
da
04
2a
fc
2b
cf
ab
e0
a0
9b
f3
d6
00
02
02
ed
fe
fd
fe
f9
0f
3f
f0
df
a9
fd
e9
e3
e8
2a
38
fd
04
f4
0c
d3
02
fc
06
df
ff
16
c6
09
dc
ed
d8
d7
24
15
c8
e1
f5
29
b7
94
30
eb
f6
c1
c5
ee
20
08
da
da
f2
ed
f0
04
a8
24
02
0f
27
10
f0
f5
de
d6
d4
18
e6
e2
54
03
e7
e7
df
c3
13
00
f1
05
2e
05
fb
fc
00
55
f3
dc
0f
0b
2b
23
0b
0c
1b
12
ff
fd
f8
fb
fc
fc
d4
e3
39
34
ee
0e
1e
fc
08
f6
00
e3
0d
31
ef
e4
ee
e5
03
07
20
05
00
b3
ed
4f
18
18
e0
21
13
2e
2d
07
0c
fe
2b
df
e8
16
e3
1c
ed
0a
0d
10
ff
dc
c6
01
1c
15
28
13
05
02
f5
f9
81
1f
d6
02
00
1c
11
fa
eb
df
07
fc
0b
12
0f
e7
17
fb
39
2a
d8
fd
fc
cc
0b
e1
0a
0b
e6
ff
db
e8
37
f7
1c
0f
ef
f5
07
03
ec
e7
04
09
fb
e8
01
1b
f1
fb
09
ee
08
ef
de
00
f4
cb
f1
3a
28
5d
fb
1b
02
29
db
ff
0c
0e
22
06
25
cc
b3
12
17
db
1e
2e
0b
10
f3
06
26
08
0e
d3
e2
09
0c
e6
11
46
e8
0f
29
0e
c9
d5
f9
fa
3b
0e
f4
f4
1f
f6
0d
ff
07
0e
3a
ec
22
f6
03
2a
20
0e
04
f6
e4
04
0e
0b
d7
1f
f4
17
0d
e7
0e
d8
d1
f8
13
1f
ff
28
e4
ff
f8
c5
e4
fe
ee
1b
0e
12
14
f3
16
0a
0b
19
fd
d4
03
26
25
fb
0f
da
0a
bb
0e
14
fd
0c
08
60
02
27
24
f0
30
df
d1
e9
02
36
fa
ef
0c
44
ed
0b
c8
c9
26
5b
fc
e8
db
e4
1a
eb
0f
fa
f2
e7
e4
bd
f1
a8
03
02
fb
a0
01
e0
de
21
cf
e4
02
e4
27
04
49
ed
e4
df
13
c5
f1
d1
f7
09
ef
be
eb
0c
cc
06
32
09
e2
0e
ff
b4
12
f8
e4
d7
cf
f7
dd
cc
d4
eb
0b
f4
ea
f3
ff
1d
2a
ee
49
35
1e
fc
38
f5
f4
b1
e4
53
05
ea
f9
e5
0d
e9
d6
1a
01
da
c9
f6
12
fa
19
df
18
fe
01
06
05
f6
ef
1d
c6
0a
e0
ee
ee
fb
fe
ee
f1
d2
50
1e
e4
d1
a8
d8
ce
18
30
18
ed
00
37
e1
ef
19
f8
01
fb
f2
12
fb
df
fd
b3
4b
e3
06
f9
f9
21
02
a1
12
0c
f0
e0
b9
d2
f9
81
10
f4
db
f6
ec
e4
f6
fc
da
e2
af
d0
c2
14
d0
e6
d3
cf
dc
e8
51
f1
e3
10
c0
ed
f7
13
fe
16
16
d1
0f
04
9e
dc
03
e0
cb
c4
b7
0c
cc
15
ef
11
f5
1e
0f
bf
cb
12
fe
d0
18
0e
e1
18
00
10
e0
fa
c1
ed
f1
db
cf
de
00
f6
e5
e4
1c
dd
fb
a5
d0
0f
00
16
35
4a
0f
09
0a
10
41
0f
e6
f3
f5
e3
d1
f6
d5
07
3e
0a
d9
c8
c3
05
0d
d4
d8
f0
df
dc
d7
a1
55
18
ab
3a
f1
47
f4
c2
5b
c0
cf
be
fe
1c
b8
15
9d
f4
bf
23
f1
d5
c0
fd
fb
f2
e8
27
19
05
2a
0a
f0
fa
e7
c1
05
0f
0f
ff
d2
1e
19
fc
05
eb
6f
a5
c0
e7
f5
dd
aa
f4
eb
29
f3
e2
ca
1e
0c
ec
ec
07
c4
21
0d
2b
e2
f0
29
e0
b5
3f
f3
dd
c5
e9
bb
0a
df
2b
ee
26
05
4a
10
c3
4c
a7
2d
fb
e1
0b
29
f6
06
03
0e
2c
fa
21
b6
1b
30
f6
25
b7
09
00
22
0e
f8
07
ff
e8
14
f6
a2
14
0a
f3
02
28
19
f3
e7
d9
d2
12
e7
fb
e9
0f
c5
15
e5
0c
e1
23
e5
f5
55
0b
06
aa
23
f1
40
03
19
0a
c7
e7
e8
bd
fa
05
ee
da
d4
b3
bd
bf
09
d1
cb
34
de
ee
e4
1a
e4
d0
46
11
ce
e5
06
12
81
d4
05
f8
22
26
ff
20
e9
e2
fb
d0
12
18
01
dc
1e
da
ca
14
28
db
e1
d6
03
02
c5
f9
50
ff
18
11
f1
e9
15
21
09
b5
04
30
c6
bd
b6
02
a7
e2
c3
15
fd
f0
f1
d6
df
da
12
01
0e
1a
b5
d2
29
ff
c3
26
15
56
15
64
f3
db
15
53
33
01
23
03
58
d2
ae
ff
f1
c5
d3
18
15
1d
fd
cc
19
e2
e4
59
32
1c
28
2d
f7
d0
db
22
ea
31
dd
0e
c7
c7
f0
fb
01
26
05
31
d3
e1
fe
f2
ea
a3
cb
07
12
f5
ef
b9
e9
d0
fb
15
e2
e0
32
e0
e2
03
f6
fb
ff
2c
17
ff
dd
fb
f8
51
f2
f6
07
e7
4e
de
04
47
13
26
e9
f0
f8
f2
eb
ef
ea
c1
c3
37
f1
f5
f6
18
0e
3b
0c
f6
31
f0
11
ce
0e
37
f7
eb
09
53
1f
f0
19
00
1a
0c
28
e1
07
29
57
21
ef
9d
42
d5
ae
1b
07
f7
2b
11
23
df
f0
d4
d0
bc
54
c1
03
d4
f9
ef
2c
1d
24
fd
fa
eb
d7
ec
00
c2
12
db
e5
17
f3
ed
00
18
f7
92
e8
df
b8
f5
1d
be
da
cb
3c
e7
25
0e
05
ab
f5
16
1c
91
10
e8
09
1b
f1
4d
33
f3
47
d1
09
b5
03
d3
e9
10
06
a2
0e
dc
0e
fe
eb
ec
0d
d5
f8
27
da
fa
14
e7
43
da
4d
31
f9
1b
06
e3
0b
1b
f1
15
81
18
dd
2b
e9
d7
b6
e4
1c
14
e3
38
ea
10
e9
2c
ad
ec
02
e5
93
29
fe
0e
ce
4d
14
4a
ed
fd
f5
ed
ea
d6
b2
0e
e4
c7
19
0a
f5
dc
1f
f4
bb
0e
1a
d4
17
d5
1c
14
e4
df
16
f6
e5
d8
10
2a
1d
02
d3
e0
ef
e7
1f
e5
da
fe
1c
1d
f3
39
10
2c
27
ff
1c
da
21
b1
f3
f2
df
c2
27
e0
01
d8
02
f7
f7
26
d3
cf
36
0c
e6
25
ca
14
f5
e3
af
19
e1
3a
c7
d9
df
15
2a
fd
24
2b
11
e1
c2
bb
ef
17
ad
10
f5
f4
7f
40
e5
01
d6
13
11
05
2c
37
2a
ee
52
fc
da
3a
2c
ee
8b
dc
f9
f0
a6
dc
42
ab
19
21
01
df
db
09
d4
1d
ef
e7
eb
ed
ef
22
e0
04
d2
ea
1c
0c
e8
c5
f5
0e
1d
1b
e5
c3
c5
b7
43
3d
04
da
30
44
c5
df
26
dd
d7
18
4f
dd
14
bc
eb
fe
06
1f
0b
de
18
fc
c9
07
fb
f8
17
08
dd
fb
f1
cc
c0
ea
05
ec
dc
ff
ef
08
33
2d
ff
fd
e1
bd
fa
21
e6
16
f1
00
d5
ee
fe
0a
fa
17
11
ef
fb
30
04
e6
33
dd
de
f2
b9
18
ca
dd
25
e8
e2
fb
7c
03
d4
ef
e7
c5
fa
26
e3
ec
02
e0
e9
d3
b7
2c
06
f4
29
01
f3
9f
e0
21
0d
f8
ec
fc
e1
f3
eb
d7
d6
05
f2
f1
fa
f2
03
12
02
26
eb
e5
c7
fa
c6
f7
01
ee
fb
f5
f8
d1
f4
1a
d2
1c
f7
de
e6
0c
fa
bd
03
db
e0
f8
e3
d0
dc
eb
d8
0a
0d
29
1b
13
c7
1a
ef
ef
c1
ff
d1
ef
0d
d8
f5
10
04
df
17
16
0a
54
c2
ef
2a
1a
2e
e7
ba
0a
1f
fa
fb
bc
eb
dd
0e
0d
06
f0
ea
1f
e2
16
e5
fb
04
c7
fc
f5
10
1c
1a
cf
fb
ed
f2
01
f8
09
f7
e9
19
15
fc
ef
f2
01
12
e2
27
bf
81
cc
de
10
a2
e9
dc
00
10
05
d2
12
e3
e6
09
b7
e5
ec
00
00
2d
15
03
1e
01
f3
94
0c
fa
25
17
de
03
d0
e5
e0
e8
fc
06
b8
31
00
1c
f2
ee
ee
f5
fc
11
f6
37
f6
0d
16
be
b9
50
12
e1
18
03
05
dd
ec
cc
02
e4
d7
05
0d
c2
d9
06
1b
fd
ec
e7
f1
d7
16
f0
0c
f6
c7
32
20
14
e1
f9
dc
12
eb
d8
df
37
f9
10
b3
ed
11
e7
df
a7
1d
05
ea
00
e2
14
ee
ff
e7
13
f5
c7
f7
f5
c8
21
10
b1
df
11
fe
1e
04
fe
00
fb
fd
02
fb
ff
00
fb
00
f4
01
ff
fc
ff
f6
f6
02
04
ff
f9
01
ff
fe
fe
fe
fd
01
03
01
ff
01
fe
03
fb
f8
f7
01
01
05
fe
03
04
fa
fe
03
f9
03
fe
ff
fe
fd
02
02
03
07
04
fc
d0
fb
00
00
e9
01
fa
01
ff
fe
07
01
fe
9c
fe
05
ff
06
fc
ff
09
03
dd
02
fd
02
06
04
02
fd
01
fa
01
07
00
6f
fe
fc
ff
03
ff
06
00
fd
ef
fc
fe
fe
fc
59
fb
ff
03
ff
05
00
07
00
00
03
00
f7
02
ff
04
fd
fb
01
fb
02
fb
06
fb
01
fc
0b
10
03
ff
03
0d
00
fc
fd
f6
02
05
fa
ff
fb
fe
01
81
fb
fd
03
f9
03
ea
02
05
00
fc
01
ff
fa
02
02
f8
fe
00
f3
08
ff
03
03
fd
02
fb
fb
00
f7
ff
03
fe
fe
fd
02
fa
03
ff
f8
cb
ff
04
08
00
fe
fd
ff
fc
00
f1
ee
03
00
fe
fd
fd
fe
04
f7
ff
02
fb
ff
ff
02
ff
00
02
03
fa
fd
fd
00
ff
01
f6
fc
fb
fc
04
05
ff
01
04
fc
fd
05
07
f7
fe
02
01
05
00
ff
fe
01
01
ff
03
fe
fd
01
fc
3a
07
0e
01
e8
f5
e1
09
12
17
d9
d1
f3
10
01
a2
cf
da
e1
5b
c4
52
cb
f0
29
da
03
f6
da
f9
15
2b
06
ef
b8
03
c4
0d
e7
15
e5
15
c6
01
dc
01
d9
08
19
b8
07
65
03
b3
03
5e
1b
ea
ef
01
dc
fd
ed
00
fa
e7
c4
d2
02
af
aa
2d
f2
24
ed
ea
04
db
23
1a
d9
bf
4e
ed
0b
a1
0c
27
12
12
e9
f4
12
e0
df
b7
d2
3b
e8
f1
10
0e
d4
01
f2
1d
1f
f9
1b
ea
ef
fd
06
ec
b3
e7
fe
01
c9
06
81
e5
15
e1
de
eb
03
e3
f2
d4
08
f5
1d
f2
fc
1e
b1
e6
c4
2c
12
d7
02
01
c6
e1
05
f6
35
f0
f0
0a
c7
d7
da
e5
fc
f3
e5
e4
1d
f1
f5
e0
ce
0a
cf
29
08
f8
f5
10
01
e4
ec
ce
c6
f2
ca
c9
c8
11
04
1e
00
a0
e0
f7
4e
fc
f6
00
d5
f1
c0
cf
04
fb
2f
3b
c3
27
ee
18
0d
08
1a
fd
ef
d8
a6
fa
f1
fb
0b
1a
e2
05
f7
20
0b
d4
b0
ea
07
df
f0
d7
ed
db
e8
30
2a
25
24
28
f7
cf
ee
f1
fa
26
16
c3
45
03
24
00
f0
f1
12
08
fa
d2
f8
08
12
c3
a5
08
da
ef
28
e2
fd
af
2d
ff
ee
1d
19
d5
28
04
1a
ff
db
c7
ec
c1
0e
2b
26
f7
11
ea
e9
03
13
c6
04
c5
00
5b
0d
ad
d6
02
2d
14
1c
e4
6e
ee
2f
e0
bd
ec
03
04
cd
f0
fd
0a
d0
ff
1b
d5
c5
e2
f3
f4
28
1e
d2
f6
cb
1b
ee
37
fb
d6
e8
00
dc
df
da
d6
ec
f6
04
ee
ef
0f
f8
0c
d1
26
52
1d
d8
16
dd
1d
da
de
ff
0f
06
1d
ec
cd
ff
cb
17
e2
db
db
05
01
eb
fa
b1
db
04
56
02
24
a4
c5
11
1f
ea
20
1e
ed
1a
20
d4
4e
f7
5e
2a
18
f2
cc
0d
37
da
b9
ec
07
e2
bc
11
fe
03
21
13
18
f1
d7
ca
f6
e5
ee
b7
ee
d3
cf
0a
06
e8
23
b7
07
16
b6
d9
f4
ce
f5
01
bf
da
e0
cc
10
e5
a4
8a
0e
16
f7
e1
be
15
ee
06
de
a9
0f
f7
0a
0d
e9
f3
1f
2d
5b
f1
15
bb
29
cc
3b
c4
e7
0e
f9
02
30
db
0e
07
fb
f6
f5
e0
06
d0
fd
0c
03
2c
e8
3f
d5
20
1c
ff
e3
0c
b4
da
f2
e6
e2
f8
f9
d7
7f
e3
0e
10
e5
d4
d5
ff
a7
d7
11
17
0b
e2
10
be
ae
1b
fa
9d
2e
30
b1
d3
3c
d8
f6
2e
39
a2
df
bc
d4
02
42
ff
2b
37
c0
98
1f
4b
0d
eb
f5
f9
ee
ae
f7
35
c7
e7
ee
f2
fb
dd
26
cf
04
f5
f9
38
ae
f1
a3
ff
00
e8
a2
c8
1b
d8
24
e0
ec
cd
33
25
b8
ab
c5
34
3f
df
ee
bb
dd
ac
10
b0
23
2b
f0
13
27
b7
f6
ea
b8
09
ab
2f
df
d4
f6
0d
db
c2
47
a1
29
ff
b6
b4
6d
e6
c2
05
f2
fc
18
47
e5
05
a8
ec
0a
ab
d1
09
d9
0d
19
e6
ac
04
dd
1f
e9
fa
3d
c3
f5
37
15
98
e7
e5
c3
e5
13
d0
c6
f9
b5
b7
bd
fe
0b
28
1e
0e
02
ae
e9
c9
09
e4
a3
ee
04
09
0b
f0
1d
4e
29
c9
12
db
f6
c2
50
15
af
f9
0c
f2
2c
e9
d6
f7
16
0d
c3
ef
d1
f2
3e
b5
12
d6
e4
03
0e
0a
c9
92
0d
d6
f0
d5
e7
1c
fd
0b
e2
e0
f8
e7
28
fd
d4
eb
f1
6f
f7
1b
06
78
18
13
13
3a
b8
ce
e1
17
ee
18
db
fa
ea
c3
c5
44
26
d3
fa
2d
e9
cd
81
a7
13
d2
41
0f
f4
03
d0
9f
d8
28
20
26
f0
c7
12
4a
03
d9
b5
3b
ee
f6
f6
a5
e3
34
d4
10
a7
05
d4
06
e2
d2
16
a9
ba
ac
d2
1e
d6
e5
ef
e0
f2
aa
e9
9f
c5
2e
0d
0d
e9
ee
a9
f0
c9
0c
14
d5
f0
c5
25
1e
d7
c5
d6
db
ca
14
da
57
03
e5
13
db
d7
0a
02
f3
ef
58
2d
c7
35
13
0c
9f
a0
f5
07
17
02
ce
8a
ba
f4
f1
09
f6
28
ae
fa
ea
ca
12
11
0f
14
e5
d9
12
33
dc
bf
05
ac
d9
47
3f
06
e8
6b
f1
ac
05
ff
ce
d3
e7
e2
d7
f6
00
e5
dd
e3
c7
02
08
fb
cc
24
6f
b9
e8
f5
f9
e5
3a
ec
03
02
d1
38
ff
cf
e3
db
e6
27
fe
0d
d4
e9
ae
f6
ec
f1
0f
f3
dc
e9
0f
b0
b6
11
14
e6
f7
38
f5
a6
fe
e9
16
2d
01
06
93
e1
08
b7
0e
c8
00
d6
ff
d7
eb
f1
24
48
28
f7
9f
07
0b
19
0e
20
89
36
7f
e8
14
f1
36
41
fa
28
f1
e6
1e
d7
1e
b5
34
f6
c3
01
29
0b
f5
21
21
cf
c2
d6
c3
b7
e0
17
15
08
c7
ff
e5
1b
d5
0a
c8
11
2f
14
23
50
00
08
fe
eb
12
46
f0
fa
df
eb
de
f7
03
23
ff
fe
cd
1c
13
fc
e5
ca
09
fc
dc
d9
be
c5
0d
ce
ea
05
0b
f0
ef
c1
f5
16
01
fd
03
22
0b
f0
33
24
3b
2b
f0
1a
d2
06
da
f6
2f
f5
d3
40
d0
56
e8
10
f5
c3
30
2f
cb
19
e0
cb
f1
1c
fc
ac
10
24
c8
12
e6
d4
f5
e5
15
14
00
20
28
59
30
b1
da
03
f5
e2
d9
7f
c9
12
3b
01
28
04
0b
e4
37
18
06
35
1d
c9
c9
0c
01
b4
fb
fb
95
e5
e2
00
19
08
15
18
08
07
01
18
f1
03
d3
ee
da
cf
fd
e5
e2
e1
f8
06
fa
f7
38
17
f0
d7
ef
32
fb
59
28
fe
e8
28
df
26
e1
ba
c7
d7
0f
aa
c4
f3
b7
f1
cf
f0
ba
19
ff
09
fa
1e
e8
ef
d7
c7
11
fc
ce
f0
17
e1
55
00
0d
0e
f7
f3
32
17
d3
f2
c9
07
01
e2
de
a6
db
fe
1d
20
15
ed
1e
06
dd
10
21
ee
d6
31
1b
06
e8
f3
d3
29
d6
a8
0f
14
b1
2e
e2
b4
ce
09
e4
05
fd
24
0d
52
f3
99
ea
0e
19
db
d7
d1
ee
d5
db
ef
a1
da
08
19
16
10
a3
0c
d6
07
ee
03
00
d4
f8
f3
12
37
06
ef
0d
09
e4
fa
3e
12
35
ea
f6
0d
ec
c7
ec
18
0f
db
d9
20
eb
01
09
f5
3b
01
c6
03
25
d7
f0
1e
3d
fc
03
c5
de
a7
25
12
28
22
f5
d9
3e
41
eb
14
dc
09
59
e4
2a
d8
a8
1e
fe
f4
22
c7
d2
04
0d
03
43
ea
d3
cf
9c
1a
0a
30
cb
fd
cf
0c
14
0c
0d
c8
18
fb
fa
df
53
db
1c
45
39
d6
dd
f1
19
01
b7
30
1b
11
f3
ff
e4
d4
02
21
e4
ea
e6
08
14
03
2d
c6
1e
0d
f5
ed
39
d2
a9
0b
09
34
0d
21
df
fa
e8
f2
ed
cd
24
df
0d
a8
c0
06
a9
d9
14
f6
06
14
08
eb
25
f7
11
c8
cd
e1
0e
e6
0a
05
1b
f5
cf
d7
23
36
c4
23
0d
a8
ad
c7
41
dd
fd
b5
f0
fa
c3
e4
f9
16
cc
1f
81
e0
c7
23
f3
22
44
42
d8
c4
9d
14
c9
2b
40
20
ee
e6
fa
2c
bc
ce
ce
16
f6
d0
57
d4
ea
02
4e
dd
3f
08
da
2b
20
12
f2
d5
f6
c3
ed
ca
0f
f0
bc
c4
de
19
1e
12
13
f5
ee
f9
3b
de
ef
e4
11
27
1a
de
b9
f9
e9
c1
16
b0
59
c2
5a
f0
f4
01
2f
fb
fd
21
32
c4
f9
15
21
f9
11
be
ca
d2
e9
d2
44
2f
18
25
1f
00
06
a1
f0
0c
fe
c9
e9
fc
fa
fc
c1
2c
ff
3f
01
e4
e8
e1
29
13
f3
cd
eb
11
f6
50
fb
d0
da
0e
c5
eb
02
f2
1e
ea
e4
c3
36
00
eb
21
43
f3
d5
fe
f6
06
07
be
e9
bb
09
1d
08
ce
ef
d2
f0
24
f1
02
bb
c6
16
da
1d
69
fe
32
38
b2
32
0d
f0
1a
09
4b
e8
c8
00
03
c1
f8
e9
e7
f3
ce
03
0b
39
f5
03
2a
0e
25
ed
08
f6
d8
4f
1a
e6
41
f5
40
07
0e
f4
d6
f5
05
ee
f6
d8
bb
ca
0b
37
11
08
c2
ec
14
f0
f0
f8
ed
1c
30
ed
0c
f5
02
05
b2
fe
26
14
f1
c4
11
22
13
f9
06
d0
ef
14
f3
32
f4
ee
ec
1f
24
06
dc
c9
a7
ed
a8
ff
d3
21
07
28
c8
bd
e5
15
02
0d
38
23
d2
ff
e1
6d
14
49
20
2a
2b
7f
db
0c
0e
4b
fb
e6
d8
fb
1d
da
f1
0f
d9
13
f9
12
21
21
1d
de
1b
ce
ad
da
f0
f2
23
ca
fc
d8
eb
10
0e
25
e8
dc
c2
23
07
be
22
2e
10
c8
cb
ce
be
13
d8
ef
d0
2b
47
cd
06
08
08
07
03
15
fe
ed
e7
f0
09
03
04
f1
f0
d1
e4
ec
db
f2
81
ec
10
ea
f0
05
05
f4
1c
02
20
f1
ed
00
f6
f9
ed
db
03
12
02
f5
fb
0b
06
01
fe
e5
eb
fc
1e
d7
e9
17
fc
f6
0b
ee
f2
ea
08
0f
1f
e8
e3
13
fb
08
ee
17
ec
f3
06
e8
06
09
04
f5
0c
ff
eb
f7
f5
f2
00
0a
08
fb
d6
e4
e4
03
ac
01
e8
f1
0c
f6
0d
e0
ef
ec
03
fa
fa
fb
e3
e1
10
da
0d
ed
05
fa
e5
e7
ef
05
eb
f8
e2
09
05
0a
0d
1e
f8
ef
0c
21
de
03
12
ec
ff
15
fd
f4
13
03
fa
fe
17
e9
fe
f7
f6
00
15
17
fd
00
d2
3e
f8
1c
05
f9
f4
00
f2
f5
1b
0d
ff
ed
d8
eb
d9
f3
ed
f7
04
ec
ee
01
16
e6
f8
fa
10
0c
0b
06
01
f5
0c
06
06
12
00
02
eb
fe
f2
ff
ee
2b
28
d0
f5
0e
ed
ee
ec
f7
11
dd
12
ae
1c
f0
f7
fe
0e
18
12
f9
ee
97
f6
ba
0f
0e
31
07
f5
00
18
1b
f4
ff
f4
17
fe
0b
f0
dc
f2
d9
06
f5
0e
04
00
ed
09
d6
06
ef
f7
08
fd
ec
fc
cb
d0
27
02
01
14
cd
17
db
f8
dc
06
02
12
da
e6
e4
fa
fd
ca
21
0b
05
e8
f5
f3
03
2c
e7
fc
d9
0d
25
c1
0d
f4
06
de
e4
09
24
dc
34
dd
e4
e8
20
da
00
e5
0c
11
1e
19
1d
ee
00
12
e2
0f
28
03
e3
cf
01
ea
d7
ef
09
e3
c7
dd
01
20
0a
03
ee
13
2f
fb
1b
e8
02
02
fb
d7
0b
ea
f8
cb
e3
00
0f
ee
ee
f1
09
0f
09
fb
10
f6
ed
f4
df
f7
16
03
1a
0d
d1
f6
f0
f6
e1
d4
12
1c
3e
c1
0c
2b
0d
d0
f8
ed
0c
cb
d0
0e
e9
f2
b7
0d
2c
54
ea
f2
da
cc
df
be
e8
ed
28
f2
ea
e2
ce
1c
14
fa
19
08
e5
f4
18
21
f0
f5
06
0e
11
12
17
08
ee
02
df
01
f9
0d
dc
ed
25
ed
e7
e4
2e
27
f7
fb
10
0a
e2
b7
d0
12
27
fe
e6
fb
e3
cc
f8
ee
0e
1b
e8
2c
e8
ea
33
01
3d
f3
02
fa
21
ea
64
e2
ce
ee
e1
da
e2
d8
dd
f8
45
ea
14
fc
d9
06
3b
1e
ff
13
e1
09
3d
fe
16
d3
18
81
2c
f0
18
f8
df
09
f0
12
f3
ed
08
06
14
cc
13
fc
12
dc
05
f5
fc
c8
dd
0e
ec
12
fa
09
ed
08
fc
eb
05
01
0b
e2
02
f7
fd
e2
eb
fe
22
02
06
01
09
0b
f3
f2
fd
12
f9
fd
0e
6d
f2
0a
07
e9
03
fb
f1
dc
f8
00
ed
fa
0b
f7
0a
f3
09
f9
f6
eb
e6
ee
f7
f7
00
81
0c
13
f7
f9
05
08
fb
11
ca
e7
f3
ee
cd
07
fc
02
f7
e4
f3
eb
04
05
f1
f3
e5
06
f0
ed
0f
f7
e5
fb
04
f8
f5
fd
0b
f8
f8
f0
e7
dd
f2
12
05
ea
f0
f8
ec
f1
f1
f8
f1
08
f2
ff
e9
e6
fa
ec
fb
01
ff
03
ef
0b
e8
cd
01
1b
fd
f9
f4
f3
13
fd
08
f8
d7
d2
f1
f2
e3
f5
fe
fd
ec
e5
f5
f1
e8
16
df
f7
f6
11
fb
07
f1
fa
00
f9
13
ee
fe
e9
f2
17
f5
0a
fb
04
e8
ef
d2
ea
02
f5
18
07
f3
e6
e2
fe
04
03
ed
03
f8
f1
0d
d7
fa
f9
eb
16
f2
bd
28
fd
fa
0c
f8
f3
f2
05
e1
ea
ff
f1
07
0d
fe
f9
01
fc
0b
ec
f4
f2
eb
f7
08
f3
ee
e9
03
ff
f8
fe
02
ed
f3
ea
eb
44
07
fb
07
ff
f0
14
11
0a
f4
0f
fc
27
03
fa
e2
fd
ff
fc
f9
00
fc
fe
d6
fe
ff
02
f9
01
05
02
09
02
03
f4
fd
f9
01
f4
d8
08
00
ff
fe
fc
fe
fb
03
f4
fe
02
f8
03
02
e9
fd
fd
04
06
09
fd
02
f9
f8
02
f4
04
02
ff
fb
08
08
01
fb
05
fd
b5
fe
04
07
ee
08
f8
07
00
fc
ff
fb
00
27
0b
00
00
fd
f9
fe
03
fd
f7
07
01
ff
09
04
01
f6
00
04
fd
f5
08
81
fd
05
f7
fe
03
00
fd
00
ff
fb
fa
f9
05
fd
04
02
fb
f8
04
f7
fc
05
fe
07
03
05
07
fa
05
06
ff
fe
04
00
f8
fb
f9
01
fc
f7
e8
fc
f7
ff
06
04
02
00
05
03
fc
0f
f7
f5
02
03
ac
00
07
ff
fc
f9
ad
05
ff
f2
ff
01
07
02
fc
ff
fe
fe
ec
03
03
fb
ff
00
fe
05
fa
fc
03
02
ff
fe
fb
ff
e9
05
09
fd
f5
c3
a2
04
06
09
f3
00
05
ff
04
06
05
f3
03
03
05
f9
fe
fe
0e
06
04
ff
04
01
0d
fb
eb
f7
01
f7
ff
00
fe
fe
05
fd
ff
06
fd
03
fd
fc
02
fc
02
f7
f4
ff
07
01
ff
f7
02
04
02
03
f1
03
00
fd
08
f8
09
fd
00
2f
ee
fb
0d
b6
01
29
11
0a
01
dd
22
1f
02
19
39
18
20
f6
d4
c9
01
e6
f6
cc
d4
0e
c2
81
eb
54
15
06
fa
0d
fb
23
e5
19
0d
ef
f2
24
e0
24
be
f8
20
f1
e2
c1
f8
37
f0
e1
d7
12
cd
f3
ff
f3
2a
b4
fa
05
32
df
d4
16
2c
e8
29
e4
1c
d4
fa
0c
fa
e3
14
e6
f0
1c
ea
f4
1a
d0
9e
e1
10
13
f8
37
e0
ec
00
ea
bb
29
ea
09
dc
17
2b
e4
f6
20
eb
16
fa
d8
ad
92
ff
ec
25
35
0d
ef
9c
13
fb
f9
58
2c
b9
f9
f0
c5
ec
20
09
3d
c3
0d
fd
15
ed
e6
f5
dc
f1
d3
17
f5
c5
ed
31
dc
c0
45
05
c2
d0
0c
e2
e9
fe
e1
4b
dc
ec
1f
f6
26
e6
03
ea
97
27
14
f3
dd
39
29
40
0f
f4
a8
e1
fb
c7
ad
06
fa
21
2e
d8
d4
d0
2e
fe
fd
32
19
08
f1
21
0e
d1
da
0f
34
26
e5
da
3f
f6
07
c9
14
f5
fc
36
ea
f9
37
e6
09
03
d7
d0
d6
0d
ff
1f
ef
f0
f8
eb
ee
d9
e1
c3
41
24
b1
de
df
16
36
1a
fe
18
d4
0a
e7
12
c6
3f
ec
95
f6
05
df
b7
2b
13
19
f4
be
ea
33
23
17
c7
f2
26
dc
d4
07
49
f4
a9
fd
25
ef
22
0b
bc
1f
e5
d3
0c
93
00
22
dd
9e
f1
f5
d6
26
1a
df
cb
48
d5
f6
26
ab
3e
cd
b9
51
27
2f
e6
ce
e7
07
f0
0d
ec
31
14
12
01
b4
9f
b6
da
09
db
ef
16
f0
ff
02
e2
c0
ee
d0
02
c6
15
1a
d4
f3
f8
c4
1d
01
f6
cb
df
2c
c0
14
eb
01
1c
c8
ed
00
f7
56
de
09
16
df
13
eb
10
25
00
d8
ba
09
1c
0f
3f
18
bf
49
26
f9
d9
fa
31
d2
55
16
9d
0a
42
81
c4
df
20
0c
31
f9
02
f9
f9
46
05
e6
94
f4
17
fc
0e
b8
d2
e5
04
f5
e1
fe
0b
c6
f2
ee
02
2c
27
e4
fb
1c
06
31
49
b9
f5
d6
26
f8
2b
16
b2
a3
df
ad
2f
f0
cb
d6
e4
e7
18
23
33
d3
06
27
01
8f
d9
25
cc
fb
47
e3
fb
31
d0
55
10
95
d2
e7
3b
1b
cd
0d
38
ef
ce
92
e0
f7
dd
8c
27
1c
02
0b
2c
33
94
61
e9
27
f3
0d
e8
d1
86
dc
ff
2f
0d
50
db
34
22
f4
19
35
12
e0
ba
94
2d
f6
e3
e2
06
c7
cc
1d
10
25
15
1d
ee
50
f2
ff
22
25
26
2d
29
96
2a
0a
ca
e9
fb
fb
0d
bd
12
cd
09
fb
08
00
1f
fb
e3
bb
45
c5
ec
0a
ee
fa
bf
ca
c3
03
fb
cf
f8
d9
cd
e4
e8
d6
e4
17
27
a7
2d
11
e8
18
30
1d
01
df
33
fa
f0
01
f6
e8
c8
ea
ee
aa
df
19
e4
11
d6
f7
da
dc
dd
a3
18
c7
ec
b4
cc
ba
2b
0f
f6
b7
dd
05
09
e4
13
10
cc
e8
28
b7
c6
e8
1b
09
d4
cc
de
df
39
9f
f8
18
c6
f7
ed
fd
04
f8
dc
09
10
e9
f7
e9
0f
f9
13
08
04
e8
1c
38
39
16
c0
13
79
d5
ed
57
d5
ed
23
28
eb
27
f2
f0
f8
e6
ca
33
ae
b3
7f
1e
0b
ff
ed
b9
fc
01
c6
f7
3f
13
15
ec
b7
d7
ed
e1
f5
13
fd
ea
3a
0e
ff
f9
25
e0
1a
28
a4
3d
bd
fb
06
23
29
b0
09
16
f0
f6
0b
27
32
d5
21
20
f2
18
dd
e9
19
37
e2
ca
fd
e3
d1
f3
58
ff
08
46
eb
13
27
00
08
04
1f
23
f0
cf
d9
ca
29
ca
12
d6
c8
13
19
49
f8
1c
ad
14
e4
2c
f6
f2
ec
e3
f7
01
e8
f7
0f
10
32
e5
2a
00
ff
36
0a
23
01
1b
0b
f6
ef
e8
f5
d0
a6
bf
0b
0a
db
81
c3
3e
05
ef
e5
25
24
38
d1
e3
0f
00
0b
ad
37
00
f8
e4
07
ea
eb
04
bc
28
27
26
14
06
f1
32
e3
87
26
b9
d4
dd
0f
f8
1d
0e
0d
d6
cf
f2
bb
e4
dc
ec
58
fe
e0
f2
f1
e0
45
df
f6
d7
c4
e1
20
f2
e8
d6
db
d0
2c
ea
00
2d
b5
f7
e0
d0
1d
fa
10
e5
0b
cf
0d
07
b9
ab
e9
13
f3
c8
e3
eb
a4
35
ee
1c
b3
f5
ef
02
fc
dd
d9
3c
c5
18
08
07
d9
8b
12
08
c3
f1
ee
f9
22
02
fc
11
f4
00
0b
fb
f6
0d
29
5a
ef
e7
fc
f2
f0
0e
b7
dd
1b
ed
e7
f3
b8
2b
c9
12
ad
01
f3
25
d5
0d
4b
06
da
fe
d5
d1
f4
2a
e7
43
04
6e
11
0c
fb
e9
e7
06
d9
e9
07
d5
2d
1e
43
40
f8
10
16
b5
14
cd
dc
09
e6
d4
06
e4
d0
17
da
05
27
dd
26
21
14
fe
e0
4a
47
2b
0d
e2
07
39
d8
cd
20
ff
f6
f3
1d
b5
03
38
bf
ef
a5
c6
e9
d9
15
ca
f0
cf
d7
a1
50
e7
fe
e9
04
3d
aa
bb
d1
f0
0c
01
de
3c
f7
d4
d9
0b
0a
12
0e
eb
c6
07
ea
45
f6
e1
da
01
fc
c4
eb
d2
e5
e5
0b
cb
3d
f1
fa
fc
01
04
18
05
30
dd
14
18
31
d4
1b
f4
08
d5
16
f3
d1
fb
8b
05
d7
04
f6
04
ed
d0
0a
01
f4
ff
f3
df
fb
f1
12
e7
18
c9
1a
23
d7
e5
92
ee
2e
ee
da
1a
dc
08
f0
09
cf
ff
e9
2e
18
ea
f1
d8
e9
fe
1e
3a
da
24
f2
e2
d3
ef
30
ea
ed
30
df
17
00
b4
13
ec
25
08
e8
ea
af
ea
37
15
1d
b1
18
38
d6
23
0b
81
1f
08
f4
df
f5
d2
12
ef
4c
fe
ec
f3
f5
d5
21
df
c4
d7
0d
ef
16
04
14
ee
ff
db
35
0f
07
1b
b9
f2
e4
f1
fa
f7
cc
e7
0b
dd
11
9d
fd
f1
e9
ff
ff
f2
f2
eb
fc
c7
b3
1e
00
f0
c8
e2
ee
1c
0a
e5
db
b8
15
15
fa
36
fe
f8
56
4f
27
13
d1
d7
04
cc
1a
11
f0
07
2e
f6
82
0c
ca
de
f0
3b
f2
cd
e1
0e
27
0d
07
e9
dc
0a
f4
ad
0a
09
2c
d9
f3
fb
e8
17
e2
16
dc
df
c6
1d
f5
2d
d8
fd
c0
de
16
fd
e3
1c
00
d6
ce
e0
08
d0
ee
f9
02
d8
22
34
f6
ed
06
e7
e2
df
d8
f4
0e
06
1b
24
26
17
f8
c0
f9
0b
00
41
ff
c9
f1
f3
8c
f0
c7
00
e1
e8
e5
de
21
11
72
11
25
20
fd
fd
e7
f1
10
e6
f2
cf
ff
21
14
28
cb
0c
b3
18
13
0c
fe
fa
f2
ea
12
c6
27
0c
17
fd
0e
fd
06
f9
ee
fd
e2
4c
d4
18
f6
db
bb
25
28
f8
29
33
04
1e
d5
cf
11
db
2c
ae
0b
1c
0b
2c
33
df
fb
e8
0d
fc
f8
30
d7
43
26
10
2c
fe
53
f3
04
13
df
e3
ee
fd
e4
0e
00
2c
19
00
ec
02
cf
f6
3b
bf
19
1e
12
c7
2a
13
b0
da
e2
1a
f5
38
00
c9
43
fe
fe
f9
0f
59
10
d6
f7
3a
43
00
41
e5
10
06
ee
03
02
02
f0
02
fc
ff
c8
d4
d5
34
00
02
17
22
c7
ef
21
ff
2a
e0
ef
08
f8
ec
d6
2e
35
ee
be
d1
33
f4
e6
2b
dd
f3
f0
e3
e8
f9
cf
e0
b7
f8
f2
c3
23
1a
c5
2c
20
f0
81
11
bc
cc
c1
fc
09
00
e8
02
d3
e3
26
da
1f
ea
f1
f6
fa
cc
f7
e7
35
ef
e5
fa
cf
0e
f8
