memory_initialization_radix=16;
memory_initialization_vector=
02,
15,
05,
0c,
0d,
08,
fb,
f9,
fa,
03,
fe,
f1,
f5,
04,
ff,
01,
0b,
ff,
03,
14,
08,
ef,
19,
0a,
0c,
e6,
f7,
01,
08,
01,
03,
06,
fc,
fd,
02,
02,
0f,
19,
21,
fd,
bc,
dd,
02,
13,
0e,
fb,
fc,
0c,
02,
06,
08,
fb,
fe,
07,
06,
fc,
00,
00,
01,
fc,
01,
ff,
fe,
05,
01,
06,
04,
01,
01,
f7,
f8,
fb,
fc,
09,
04,
01,
07,
01,
03,
07,
02,
f9,
fe,
fc,
00,
ff,
ff,
02,
02,
ff,
06,
0e,
07,
fe,
ff,
ff,
fd,
08,
03,
19,
57,
37,
03,
1c,
05,
01,
0e,
05,
f9,
0b,
00,
02,
f2,
fe,
fd,
fe,
fb,
05,
f7,
fc,
f1,
ff,
fa,
fd,
fe,
f9,
fd,
03,
fa,
f8,
06,
f4,
fe,
f9,
f5,
fb,
13,
13,
0e,
08,
13,
02,
fc,
00,
fe,
00,
fa,
fa,
ff,
fb,
ff,
fe,
f7,
01,
03,
00,
fd,
0f,
f4,
f4,
07,
f7,
fa,
fa,
00,
fc,
0c,
01,
fc,
09,
00,
ef,
8a,
89,
0a,
23,
20,
ff,
01,
02,
fd,
ff,
02,
0d,
f1,
00,
fc,
f5,
ff,
02,
06,
fb,
02,
04,
09,
00,
fa,
f9,
fe,
fa,
f9,
04,
06,
03,
fc,
13,
0a,
fb,
05,
03,
0c,
fa,
f5,
03,
f9,
f6,
04,
ff,
fb,
fe,
0a,
0a,
01,
01,
00,
f9,
04,
00,
fd,
08,
f2,
03,
01,
fd,
08,
07,
08,
ff,
ff,
0a,
0b,
fb,
ff,
fe,
ff,
02,
04,
fd,
fe,
01,
06,
fd,
f3,
0f,
01,
ff,
0d,
ff,
09,
ff,
fd,
06,
ee,
fb,
00,
ff,
05,
02,
fe,
fd,
02,
fc,
fd,
03,
08,
03,
00,
02,
02,
fb,
fd,
fe,
ff,
fd,
fd,
03,
01,
01,
01,
f9,
fe,
03,
f6,
01,
fe,
f1,
fb,
ff,
f2,
f6,
fe,
fd,
fe,
fa,
fe,
fe,
fd,
06,
f9,
0c,
05,
03,
04,
fd,
f7,
f9,
fc,
ff,
fe,
09,
05,
fb,
f8,
03,
fa,
fa,
ff,
ff,
00,
04,
03,
f7,
f9,
04,
f0,
04,
0a,
f0,
0b,
0a,
00,
00,
01,
fe,
00,
01,
fb,
fa,
fd,
00,
f8,
fe,
f5,
05,
03,
05,
08,
ff,
f9,
fb,
f3,
08,
f3,
eb,
0e,
02,
fd,
0f,
fd,
ff,
04,
0c,
07,
01,
12,
fd,
fd,
07,
ff,
05,
04,
01,
fd,
fe,
ff,
fb,
fd,
06,
f7,
01,
fd,
fe,
fd,
fe,
ff,
fc,
04,
fc,
03,
fc,
f8,
f7,
01,
05,
08,
f8,
04,
fc,
01,
02,
01,
f8,
ff,
ff,
ed,
07,
06,
ec,
fc,
11,
f3,
06,
06,
fd,
fc,
08,
fc,
02,
0a,
f8,
03,
00,
01,
fd,
fc,
f8,
fd,
f6,
fc,
fb,
fc,
07,
02,
08,
0a,
f4,
0b,
02,
ec,
fb,
08,
04,
f8,
f1,
a4,
b2,
f4,
01,
02,
01,
05,
04,
ff,
07,
fd,
02,
04,
06,
eb,
f4,
05,
0b,
16,
f0,
00,
02,
06,
01,
f8,
f5,
fc,
f7,
fb,
04,
fb,
fb,
07,
05,
f5,
ff,
04,
02,
00,
08,
01,
fc,
01,
f7,
01,
fc,
fe,
01,
f9,
fa,
fa,
0a,
03,
f9,
0b,
fc,
ff,
05,
05,
09,
ff,
05,
01,
05,
f7,
03,
02,
ff,
fd,
07,
f6,
f9,
fb,
ef,
fe,
fe,
ea,
fd,
02,
f5,
f4,
11,
ef,
02,
01,
f9,
00,
fd,
fc,
04,
04,
fa,
fa,
0a,
f7,
f8,
ff,
f6,
fc,
06,
06,
fa,
05,
ff,
13,
f8,
03,
f7,
f4,
0e,
fa,
01,
02,
fe,
ff,
02,
f9,
07,
01,
00,
f1,
fd,
fa,
03,
02,
03,
00,
f7,
07,
fb,
fd,
fa,
07,
fb,
f2,
03,
f4,
fb,
05,
ff,
03,
f9,
fb,
00,
fe,
ff,
ff,
fb,
06,
02,
08,
fc,
05,
fd,
00,
0a,
00,
fc,
00,
fe,
fa,
03,
fc,
07,
04,
00,
fc,
1d,
04,
f4,
f6,
fb,
02,
04,
05,
02,
06,
08,
fd,
06,
f9,
f7,
03,
ff,
fc,
f9,
fe,
fe,
f7,
01,
00,
f2,
0b,
ff,
fe,
fa,
fd,
05,
fe,
fb,
02,
f8,
fb,
fd,
fb,
ee,
f9,
0a,
e7,
00,
07,
ed,
00,
ff,
02,
fe,
09,
04,
fd,
09,
05,
01,
01,
04,
06,
fe,
00,
04,
06,
fe,
f8,
07,
00,
f4,
08,
0b,
fa,
f7,
00,
ff,
f6,
f9,
fd,
02,
f3,
fc,
0b,
fe,
14,
b5,
cf,
e7,
32,
23,
17,
e7,
fb,
04,
fc,
fc,
08,
ed,
04,
f8,
0a,
ff,
0f,
10,
f2,
f6,
04,
f3,
fa,
09,
f5,
f8,
f6,
ef,
ff,
f5,
f8,
05,
f5,
f9,
0b,
f8,
02,
fc,
04,
04,
fe,
fd,
07,
fe,
0c,
08,
03,
0f,
09,
fe,
07,
01,
01,
31,
1c,
fd,
e7,
fc,
05,
0e,
08,
fe,
1c,
08,
fa,
1f,
0d,
fe,
0a,
ff,
f3,
1c,
13,
08,
f5,
09,
00,
ec,
00,
fb,
fd,
0a,
f7,
06,
fa,
fd,
06,
fa,
fc,
fe,
fc,
ff,
00,
f9,
05,
06,
fd,
fc,
fa,
fd,
f4,
fe,
f8,
fd,
f9,
01,
f9,
f7,
f8,
05,
f1,
fc,
00,
fd,
fc,
05,
f0,
03,
02,
f9,
02,
05,
fe,
fb,
02,
22,
1d,
07,
0a,
00,
03,
f3,
fa,
fb,
08,
07,
04,
06,
05,
ff,
00,
ff,
01,
f8,
09,
00,
f3,
fd,
ff,
f4,
09,
f2,
08,
f8,
ee,
d0,
d8,
0e,
0c,
12,
fc,
f7,
fd,
0b,
02,
0a,
07,
f4,
fc,
fe,
0e,
f7,
fd,
07,
f6,
fb,
02,
fb,
f3,
fd,
06,
09,
17,
05,
05,
fa,
f6,
ff,
ff,
fb,
02,
14,
0c,
fe,
02,
06,
f0,
eb,
f5,
f8,
17,
08,
f8,
05,
fd,
fa,
0a,
02,
f8,
08,
fc,
08,
ff,
07,
05,
03,
03,
00,
f8,
f9,
00,
f9,
f5,
03,
f8,
fa,
07,
f4,
0a,
f8,
02,
02,
05,
fb,
fc,
07,
fb,
05,
04,
01,
fe,
f8,
01,
fa,
06,
05,
fa,
00,
03,
f6,
f8,
c1,
d2,
ff,
24,
15,
12,
09,
19,
06,
7f,
5a,
ff,
c3,
d4,
fb,
12,
05,
00,
0b,
00,
f7,
04,
f6,
03,
fe,
0a,
07,
0a,
ff,
fb,
fe,
05,
fd,
fa,
fe,
03,
06,
02,
00,
1d,
07,
04,
03,
01,
03,
fc,
06,
f9,
00,
00,
ff,
04,
ff,
fa,
f6,
fa,
02,
fd,
04,
04,
01,
08,
fc,
fa,
da,
0c,
25,
1a,
f8,
e8,
00,
fd,
f3,
ff,
ff,
fa,
0b,
fa,
fe,
01,
06,
12,
03,
f7,
de,
fc,
04,
f6,
fe,
05,
ed,
f4,
02,
fc,
08,
08,
04,
fe,
ed,
f8,
f0,
f5,
f8,
f2,
f6,
f2,
ec,
fd,
fd,
04,
04,
fd,
00,
06,
f9,
fe,
15,
f1,
fd,
0a,
fc,
08,
0d,
02,
04,
06,
f5,
00,
02,
fd,
ff,
08,
02,
04,
04,
ff,
02,
fa,
f3,
f6,
f8,
f3,
f6,
04,
03,
06,
fe,
04,
01,
f8,
00,
fc,
02,
02,
07,
01,
0a,
0b,
fd,
f8,
f9,
06,
05,
f7,
0e,
07,
fc,
0e,
04,
01,
04,
fb,
02,
fe,
00,
08,
fc,
fd,
07,
05,
fc,
06,
0b,
09,
0d,
06,
01,
05,
f3,
f8,
ec,
ff,
00,
00,
00,
ff,
ff,
0d,
02,
08,
18,
0e,
07,
12,
12,
0a,
06,
e9,
ea,
ed,
01,
fe,
de,
ef,
ff,
0f,
d7,
ee,
0d,
e9,
03,
05,
ff,
00,
f8,
f2,
07,
cb,
01,
13,
e8,
f0,
02,
f1,
db,
f6,
e8,
34,
28,
04,
f9,
fc,
03,
f4,
f1,
10,
be,
d7,
16,
e2,
f5,
ec,
fc,
01,
ed,
f2,
f8,
f8,
f0,
f5,
f4,
fd,
fb,
01,
04,
f7,
0d,
07,
01,
21,
fe,
ff,
0c,
11,
01,
f1,
03,
04,
03,
06,
0a,
1f,
da,
eb,
10,
f1,
f5,
fa,
f5,
07,
f8,
0c,
1a,
1d,
fe,
19,
0d,
f8,
f1,
f9,
e5,
e7,
f0,
f7,
f6,
f1,
f2,
00,
d7,
f0,
09,
ec,
e3,
f6,
07,
1d,
1f,
0c,
f5,
09,
0f,
0d,
11,
03,
ea,
f9,
e8,
17,
1c,
ec,
01,
14,
eb,
eb,
fb,
ca,
e1,
fe,
eb,
f7,
fd,
fa,
00,
fa,
fd,
00,
ff,
00,
fc,
f9,
f8,
15,
02,
f0,
32,
26,
ef,
14,
0c,
04,
ef,
06,
08,
dd,
ff,
f5,
e6,
eb,
15,
f7,
f6,
f4,
d0,
00,
0e,
f6,
f7,
03,
15,
f7,
0a,
47,
1e,
fa,
15,
02,
fd,
09,
fe,
ed,
ee,
f0,
05,
f9,
f2,
0a,
19,
12,
04,
bd,
da,
ff,
fe,
08,
f1,
fd,
03,
f0,
00,
03,
fc,
fe,
fa,
0c,
fb,
f0,
1f,
0a,
d7,
fe,
f7,
e8,
fc,
e9,
09,
ff,
d3,
24,
ff,
e4,
06,
12,
02,
fa,
18,
f8,
e5,
0c,
09,
fd,
e4,
02,
07,
00,
1b,
14,
f5,
e8,
01,
00,
03,
fc,
fa,
ea,
d6,
0e,
fc,
01,
f3,
f2,
ea,
f7,
0d,
05,
f2,
f6,
fd,
0d,
12,
05,
1b,
d3,
f1,
10,
20,
21,
e6,
f6,
f6,
cf,
f8,
fd,
e5,
f7,
f8,
07,
01,
02,
f4,
ed,
1a,
05,
f4,
05,
fa,
11,
02,
fd,
29,
f6,
09,
fb,
f1,
05,
ee,
fe,
ed,
f2,
12,
02,
f2,
0d,
0f,
12,
17,
a0,
0b,
17,
f7,
00,
19,
00,
13,
18,
f1,
eb,
fa,
04,
fc,
0a,
10,
0a,
e9,
06,
01,
f2,
03,
ff,
fd,
f7,
19,
14,
fe,
e2,
10,
fe,
f0,
0c,
e5,
f9,
f0,
d5,
e8,
11,
e6,
fb,
f2,
14,
ff,
09,
0c,
f1,
f6,
fb,
eb,
e7,
cd,
ea,
f4,
b3,
e5,
05,
e7,
f9,
0d,
f2,
fa,
00,
f2,
f9,
f7,
f3,
05,
0a,
0a,
13,
1d,
0a,
00,
03,
f5,
ed,
f7,
fa,
ff,
ec,
e9,
08,
fe,
06,
01,
f5,
ef,
e2,
f8,
0a,
f2,
ea,
f3,
f8,
dc,
2c,
09,
f5,
05,
fe,
fe,
04,
18,
02,
e9,
f3,
03,
fa,
02,
fb,
0a,
0c,
fa,
2c,
1e,
fa,
11,
ee,
ed,
0b,
ea,
e4,
e7,
07,
05,
c6,
1c,
0b,
e3,
0c,
fa,
1c,
f3,
fb,
f8,
ff,
0e,
fe,
0b,
ea,
fe,
0b,
12,
26,
0f,
01,
1a,
f7,
e8,
09,
09,
fb,
ea,
e6,
fd,
ed,
03,
1f,
e6,
ef,
fe,
f3,
1a,
1f,
00,
09,
15,
ff,
12,
07,
cc,
eb,
fa,
f7,
fb,
07,
0c,
ef,
fd,
11,
11,
1a,
da,
f4,
f4,
f5,
f2,
15,
f9,
df,
fe,
fb,
f8,
09,
ed,
ee,
f7,
0e,
21,
dc,
f8,
f7,
f8,
f7,
eb,
f6,
23,
06,
fd,
1a,
06,
ef,
15,
ed,
fe,
04,
bd,
28,
0c,
db,
05,
10,
fb,
11,
0c,
1b,
0d,
fc,
03,
0d,
09,
fa,
f7,
11,
05,
11,
25,
09,
0b,
f3,
da,
f7,
0c,
e7,
f8,
0d,
0f,
fa,
07,
05,
06,
fc,
14,
06,
f9,
0f,
1e,
f4,
ec,
e1,
e5,
f6,
17,
fe,
ff,
fc,
01,
fb,
f3,
eb,
ec,
fa,
0b,
03,
f1,
fc,
10,
13,
fc,
16,
f5,
03,
07,
fe,
ff,
03,
fe,
04,
fe,
04,
0c,
f4,
05,
ef,
f8,
fe,
f0,
f4,
f1,
fb,
08,
08,
ed,
f8,
fd,
ed,
f4,
00,
f2,
ed,
fe,
18,
f6,
f5,
2e,
08,
e4,
ff,
02,
fa,
fb,
01,
ff,
2e,
09,
ff,
0b,
05,
03,
04,
11,
0f,
0e,
1b,
12,
10,
17,
12,
fa,
f0,
f9,
01,
08,
03,
00,
0b,
fe,
17,
0a,
03,
10,
00,
08,
01,
fd,
f4,
dc,
f5,
ef,
bf,
f5,
12,
e2,
f0,
00,
00,
f6,
ec,
fd,
f3,
f0,
05,
0a,
05,
26,
10,
ff,
11,
f6,
f4,
0b,
06,
fe,
04,
0f,
18,
fe,
00,
12,
04,
13,
00,
f8,
17,
09,
09,
fb,
17,
05,
15,
ff,
fa,
04,
01,
ed,
fa,
fa,
00,
07,
0a,
ef,
f8,
05,
fc,
de,
f6,
f7,
06,
0a,
15,
08,
f9,
0c,
e4,
f8,
0a,
fa,
f5,
11,
f3,
0a,
fb,
e3,
07,
0b,
f7,
02,
fd,
f3,
f5,
d9,
0c,
f6,
fd,
e2,
ed,
0e,
ee,
f7,
f2,
f4,
e8,
fb,
00,
04,
02,
e8,
f4,
c5,
fd,
e7,
e1,
f5,
ed,
03,
12,
02,
f5,
e7,
f5,
01,
f0,
e8,
e4,
f7,
eb,
f9,
fe,
f9,
0d,
f6,
f2,
fe,
16,
11,
03,
02,
0e,
f2,
e4,
e3,
f4,
f9,
12,
ce,
da,
17,
e7,
df,
f3,
0c,
e4,
f0,
1f,
03,
01,
0d,
09,
ef,
f1,
11,
02,
f4,
17,
ff,
16,
0d,
f8,
04,
08,
01,
dc,
fc,
04,
f7,
fe,
fa,
f0,
f2,
f1,
2d,
20,
f8,
1a,
1f,
09,
0a,
e8,
f5,
1e,
ef,
f6,
fa,
f7,
03,
fc,
f7,
e7,
f5,
ee,
f9,
fd,
f8,
ef,
15,
10,
07,
1a,
11,
f6,
04,
15,
01,
ea,
ff,
f9,
1c,
24,
01,
f6,
0e,
06,
0b,
0a,
18,
e9,
c7,
fd,
f0,
e5,
f6,
26,
08,
fd,
10,
d4,
e7,
fc,
05,
00,
07,
f9,
fa,
f9,
ff,
fe,
00,
fd,
fa,
11,
18,
0f,
05,
01,
04,
0b,
0c,
03,
f4,
fc,
fb,
e7,
f1,
07,
ef,
e7,
f4,
fb,
fc,
0b,
04,
e8,
08,
07,
ec,
f3,
fa,
0a,
ea,
d6,
13,
01,
03,
05,
0a,
00,
ec,
ec,
2b,
05,
fd,
12,
f8,
e8,
20,
f5,
01,
0e,
f4,
f4,
03,
fd,
fd,
13,
0b,
06,
08,
2b,
f5,
00,
fd,
f1,
f1,
05,
0f,
fe,
03,
fe,
03,
0c,
06,
0b,
db,
ef,
e2,
d9,
f1,
fe,
f7,
f5,
14,
05,
fe,
e4,
e3,
f2,
e9,
f4,
01,
00,
0b,
05,
06,
f8,
e2,
05,
fd,
ed,
02,
e4,
d6,
fe,
ff,
01,
f3,
06,
03,
09,
29,
07,
03,
12,
f9,
13,
1e,
f4,
ec,
0b,
07,
1d,
7f,
13,
17,
0b,
12,
15,
0c,
02,
22,
dc,
f4,
02,
ef,
ed,
07,
06,
ed,
04,
05,
db,
11,
1b,
fc,
0c,
02,
08,
07,
ed,
0d,
02,
f9,
ff,
0f,
0a,
f9,
fd,
fb,
fa,
06,
08,
fe,
0b,
0f,
06,
fd,
f5,
04,
16,
08,
06,
03,
03,
f6,
02,
01,
ef,
01,
02,
f3,
fa,
fc,
f9,
10,
f3,
03,
07,
f9,
ff,
04,
ea,
dc,
18,
12,
21,
09,
f6,
1f,
49,
ee,
ff,
5d,
ba,
d0,
28,
ea,
07,
04,
01,
fb,
fe,
0e,
f5,
09,
03,
11,
02,
00,
f7,
09,
ec,
d3,
03,
fe,
ee,
f7,
09,
15,
f6,
0f,
1d,
fe,
02,
0a,
fd,
f7,
03,
fb,
fa,
fa,
fb,
ea,
fe,
fc,
f6,
01,
fc,
05,
ff,
fe,
fa,
fb,
13,
f8,
01,
03,
05,
06,
f8,
f4,
02,
fc,
0e,
fc,
00,
0a,
01,
f5,
fe,
f7,
ec,
ff,
01,
09,
0d,
0d,
14,
05,
f6,
fe,
f7,
fb,
0a,
ff,
00,
0e,
fb,
ff,
fd,
fe,
01,
00,
03,
02,
f2,
fd,
fc,
07,
fa,
f8,
04,
fa,
fc,
0b,
fa,
f5,
fa,
09,
01,
f9,
0e,
13,
f4,
06,
06,
05,
fd,
02,
07,
07,
f8,
03,
09,
08,
06,
00,
ff,
03,
ff,
ff,
fd,
fd,
01,
f8,
f9,
fb,
f7,
f8,
fe,
f7,
00,
08,
fd,
eb,
fb,
ff,
e8,
f9,
f8,
e3,
fe,
07,
ff,
07,
04,
07,
09,
06,
fc,
fe,
ff,
02,
fb,
09,
08,
02,
f5,
fd,
f8,
fa,
0c,
fc,
0d,
17,
05,
00,
fa,
f4,
01,
03,
00,
04,
02,
f8,
fa,
03,
f7,
08,
fd,
fd,
0d,
07,
ff,
0b,
01,
f6,
02,
f8,
0b,
f7,
f8,
04,
fa,
06,
05,
00,
f9,
01,
fc,
06,
00,
f7,
09,
fd,
fe,
00,
00,
00,
ff,
01,
fd,
f4,
05,
06,
25,
fe,
07,
06,
06,
08,
f2,
fb,
fe,
ff,
fa,
f4,
06,
fc,
fa,
15,
05,
04,
f9,
f5,
08,
01,
f8,
01,
fb,
f8,
02,
fe,
fd,
fc,
05,
fd,
f8,
f7,
fc,
f4,
1b,
eb,
03,
7f,
e7,
f5,
06,
03,
f4,
06,
03,
ee,
08,
ff,
e5,
0c,
ff,
04,
f4,
fc,
f6,
f6,
f8,
07,
f5,
f9,
21,
29,
e8,
24,
04,
ea,
08,
fe,
08,
fe,
fe,
fe,
02,
00,
fd,
07,
fd,
fe,
0b,
fb,
03,
06,
fd,
fa,
00,
06,
fc,
fa,
01,
05,
03,
ff,
04,
0d,
fd,
03,
11,
02,
fe,
10,
fd,
f9,
fb,
ec,
f8,
05,
f4,
f6,
f3,
fa,
0b,
0c,
f6,
fc,
05,
07,
ff,
fe,
fa,
fd,
0a,
04,
fb,
eb,
3c,
0f,
ed,
3a,
14,
f4,
47,
18,
04,
f8,
01,
03,
fc,
00,
f5,
ec,
f9,
fe,
0a,
01,
03,
08,
04,
fa,
09,
08,
f4,
01,
03,
04,
06,
fc,
ff,
02,
02,
03,
04,
00,
08,
fe,
03,
0b,
01,
00,
03,
e9,
fb,
01,
eb,
fc,
ff,
f5,
fe,
fb,
f3,
00,
05,
ee,
f8,
01,
fe,
f6,
02,
fe,
fd,
09,
01,
02,
ff,
00,
00,
03,
f7,
fe,
06,
00,
01,
ff,
fb,
ff,
19,
f2,
fd,
1a,
ef,
f4,
03,
f2,
10,
12,
2b,
05,
ea,
36,
fd,
ff,
29,
fd,
01,
f9,
fa,
03,
f8,
f9,
00,
fb,
fe,
03,
07,
02,
ff,
fe,
fb,
0e,
04,
01,
f8,
06,
ff,
fc,
06,
0a,
f9,
f9,
fb,
04,
fd,
07,
0c,
04,
0f,
08,
f7,
03,
05,
fd,
f6,
00,
ff,
fe,
05,
fa,
f5,
01,
fe,
00,
fd,
fa,
02,
05,
04,
fe,
01,
f3,
02,
fc,
09,
09,
05,
00,
0b,
03,
00,
06,
fd,
03,
01,
fb,
f7,
00,
fd,
dd,
fd,
ce,
d7,
f8,
1a,
d9,
fc,
f9,
f8,
ff,
07,
fb,
f7,
02,
fa,
03,
fb,
d5,
eb,
31,
bc,
01,
16,
c9,
fe,
02,
ba,
0a,
05,
93,
00,
04,
0d,
03,
03,
fc,
f6,
03,
0c,
fc,
fc,
04,
01,
02,
f9,
fd,
05,
f7,
f9,
fa,
f5,
fa,
fb,
07,
01,
09,
ff,
05,
f8,
e0,
03,
01,
19,
fb,
04,
05,
07,
f7,
f5,
ef,
09,
f9,
05,
01,
f7,
f7,
f9,
08,
f5,
f8,
01,
fe,
02,
0c,
fc,
08,
09,
ff,
01,
fb,
ff,
09,
02,
fe,
ff,
f8,
ff,
f1,
02,
fd,
01,
ff,
05,
f5,
f1,
f8,
00,
e8,
f9,
53,
b8,
f0,
e8,
00,
08,
fb,
01,
fc,
0d,
1b,
0f,
f5,
ec,
fa,
fc,
f7,
08,
fd,
fe,
02,
09,
05,
07,
f9,
fb,
00,
f8,
01,
08,
01,
fe,
01,
ff,
f7,
fd,
00,
eb,
01,
0c,
03,
fb,
04,
0a,
03,
fb,
03,
fa,
f2,
f9,
05,
fc,
f9,
ff,
04,
ff,
fc,
0c,
04,
01,
fd,
fb,
f8,
08,
05,
05,
02,
f8,
fb,
fe,
04,
02,
05,
05,
00,
ff,
02,
fe,
f8,
f5,
fe,
f7,
f7,
01,
03,
ff,
02,
ff,
fa,
00,
00,
01,
00,
f8,
fc,
fe,
fb,
fd,
05,
f9,
08,
0b,
fe,
fd,
fc,
06,
f7,
00,
fa,
00,
f9,
ff,
fd,
fd,
f8,
09,
fe,
08,
02,
04,
f9,
05,
05,
00,
03,
f1,
f6,
08,
f0,
01,
02,
f1,
00,
02,
05,
f8,
06,
03,
f5,
0a,
03,
c2,
04,
fd,
c2,
2c,
f9,
cc,
1b,
09,
00,
fc,
fd,
0b,
fa,
01,
01,
fa,
00,
fd,
fb,
05,
06,
0a,
fd,
fe,
0c,
fe,
fb,
06,
00,
fd,
01,
f6,
0d,
04,
ff,
08,
f2,
03,
05,
fb,
ff,
fb,
f3,
fa,
17,
f8,
ff,
00,
e6,
01,
03,
f3,
0e,
02,
f5,
fd,
f7,
05,
02,
fd,
00,
02,
fd,
06,
03,
f5,
03,
01,
02,
11,
0b,
f6,
f3,
03,
02,
ee,
ff,
f9,
ef,
fc,
fc,
fb,
08,
05,
fa,
fc,
01,
fa,
ff,
f1,
0f,
08,
00,
04,
fa,
0c,
f8,
0d,
06,
01,
09,
07,
fb,
05,
07,
06,
06,
12,
16,
04,
00,
34,
14,
0e,
1e,
06,
07,
05,
00,
00,
ff,
f9,
05,
fb,
0a,
05,
fa,
ff,
05,
02,
fd,
f7,
f3,
f9,
f9,
06,
f4,
fb,
0b,
01,
f3,
00,
f6,
f5,
07,
f3,
cd,
f0,
0a,
eb,
0a,
f6,
03,
ff,
0f,
f7,
03,
0d,
f4,
f9,
ff,
01,
00,
01,
02,
00,
f8,
04,
f7,
01,
ef,
f6,
04,
f7,
01,
f8,
00,
0c,
00,
fb,
fc,
fe,
f9,
00,
fb,
f0,
ed,
f5,
00,
f6,
fd,
f4,
f3,
f7,
00,
04,
02,
f9,
03,
08,
08,
05,
00,
04,
f8,
fe,
ff,
0b,
05,
0b,
1d,
ff,
f9,
07,
03,
04,
01,
fd,
ff,
07,
03,
04,
01,
fd,
fc,
f5,
ff,
f8,
03,
01,
fa,
ff,
fc,
04,
04,
02,
00,
01,
07,
ff,
09,
0d,
03,
fe,
f6,
fa,
03,
f2,
02,
02,
ec,
df,
05,
ec,
f9,
12,
fd,
0a,
06,
03,
18,
e9,
fe,
06,
0e,
ff,
e5,
06,
f2,
fd,
02,
f9,
05,
05,
fe,
03,
03,
04,
fb,
ff,
ff,
0a,
f6,
fc,
07,
01,
04,
f6,
01,
03,
f5,
f2,
01,
fc,
fd,
fd,
f8,
03,
fc,
fa,
05,
08,
ed,
ee,
fd,
fe,
fd,
fc,
f9,
05,
01,
00,
00,
fd,
01,
f9,
fa,
02,
f6,
f6,
0b,
07,
fa,
00,
01,
00,
02,
04,
00,
fb,
02,
fa,
ef,
f5,
02,
f3,
fc,
07,
ff,
03,
f8,
f8,
f6,
ff,
f9,
09,
06,
08,
f3,
f9,
02,
01,
01,
00,
f9,
fd,
02,
ff,
00,
fd,
03,
ff,
05,
06,
03,
fd,
fc,
fa,
03,
fa,
01,
fb,
0f,
06,
04,
0f,
fd,
0c,
ef,
03,
dc,
e1,
f7,
11,
09,
05,
09,
06,
ff,
fa,
0c,
08,
05,
ff,
02,
09,
f9,
01,
02,
fc,
ff,
fb,
03,
09,
08,
f9,
fa,
09,
fa,
f9,
05,
fe,
01,
fc,
fa,
0b,
fe,
09,
fd,
f9,
fa,
f9,
fc,
0e,
ea,
2d,
a7,
f5,
df,
ea,
ed,
f6,
f6,
09,
f8,
f4,
0b,
04,
ef,
15,
fc,
01,
f5,
12,
15,
03,
f9,
fd,
fc,
fb,
04,
f3,
03,
f9,
07,
f0,
fd,
f8,
ff,
fd,
04,
ef,
f5,
fe,
f6,
01,
05,
f8,
0a,
02,
ff,
10,
fc,
06,
0d,
fa,
fa,
0a,
ee,
fa,
09,
ed,
f9,
04,
e6,
03,
f1,
f4,
0e,
f0,
eb,
0b,
f2,
f5,
f8,
f7,
06,
f9,
f9,
f6,
f4,
08,
fc,
07,
06,
f4,
f5,
0b,
02,
fb,
f3,
16,
f5,
f3,
fb,
f4,
0d,
00,
04,
09,
02,
f4,
06,
02,
f2,
f5,
0b,
f6,
09,
05,
08,
00,
f9,
01,
fb,
07,
fc,
f6,
f6,
f4,
ff,
fd,
05,
df,
f7,
09,
f5,
f1,
04,
01,
00,
fc,
08,
06,
ec,
f8,
07,
07,
09,
f8,
0b,
0c,
f5,
0a,
07,
f3,
f5,
0a,
0a,
0f,
17,
0c,
08,
fc,
0d,
f8,
fa,
0c,
ff,
f7,
f9,
fa,
ff,
16,
f5,
f9,
0f,
f0,
17,
ff,
01,
ff,
06,
fd,
0b,
fa,
fd,
e2,
f0,
fd,
01,
05,
05,
ff,
07,
08,
06,
f9,
00,
ec,
06,
01,
ff,
07,
fe,
0a,
f5,
08,
e6,
02,
fa,
04,
f5,
f7,
09,
f2,
f7,
fc,
f5,
fd,
0a,
28,
cb,
fd,
27,
05,
11,
2b,
f5,
fe,
02,
fc,
01,
04,
fd,
ff,
05,
fa,
04,
f8,
f9,
fc,
f5,
09,
07,
fa,
06,
06,
20,
f5,
46,
12,
f6,
0e,
1f,
fc,
fe,
09,
01,
02,
05,
03,
04,
07,
fe,
f3,
fd,
0f,
02,
f6,
02,
03,
f8,
01,
f1,
f9,
00,
fc,
fc,
fd,
07,
fa,
08,
f5,
01,
00,
04,
06,
ff,
fd,
06,
fa,
01,
f5,
fc,
07,
fb,
f4,
02,
f3,
fe,
ec,
0b,
09,
e6,
f2,
f8,
0a,
02,
10,
19,
1e,
e3,
1c,
ed,
fd,
1b,
12,
fc,
e1,
08,
0a,
09,
fe,
fe,
e7,
ff,
fb,
0b,
fb,
02,
13,
02,
f7,
09,
06,
04,
f5,
f3,
08,
0d,
f2,
01,
f3,
0a,
f7,
f0,
fd,
fe,
00,
fc,
f9,
f5,
ff,
e0,
d7,
05,
e3,
a5,
07,
d9,
c9,
16,
f3,
01,
0f,
00,
e9,
ff,
fd,
ff,
ff,
fd,
ff,
0d,
e6,
ec,
1d,
f0,
ed,
19,
ff,
03,
ff,
ff,
fb,
f8,
fc,
04,
f8,
fc,
06,
f2,
fe,
07,
fc,
00,
00,
ff,
fb,
11,
07,
f5,
0c,
0d,
f8,
ed,
08,
05,
02,
ff,
fc,
ee,
fc,
f5,
f3,
ff,
ec,
de,
f0,
fd,
d5,
e5,
f5,
e3,
e4,
10,
95,
d8,
07,
a1,
f8,
09,
81,
d8,
f4,
0f,
00,
0c,
fa,
f8,
f6,
f5,
f8,
03,
ef,
fe,
12,
02,
ed,
04,
0a,
09,
fc,
0b,
f5,
07,
f9,
06,
07,
f4,
fe,
f9,
02,
07,
00,
03,
f5,
fa,
07,
02,
01,
03,
0a,
f7,
cb,
16,
fd,
e3,
16,
ff,
04,
05,
fe,
f4,
f1,
fc,
08,
fe,
07,
1a,
ef,
00,
ff,
04,
02,
0c,
fc,
f2,
fa,
0a,
fc,
07,
ff,
05,
0f,
f1,
fc,
02,
f4,
f9,
ff,
10,
fb,
03,
01,
f6,
15,
0f,
02,
ff,
15,
fd,
10,
ff,
ff,
01,
f6,
fa,
0b,
f3,
fb,
03,
09,
fb,
f1,
01,
fd,
ed,
fe,
fa,
04,
07,
08,
04,
04,
fc,
0e,
f4,
13,
ef,
ff,
04,
f1,
f7,
08,
ff,
f8,
f9,
f0,
fe,
f5,
1b,
f8,
fe,
06,
0d,
f5,
d6,
0b,
fd,
fe,
13,
0a,
04,
09,
01,
f6,
f8,
fb,
b3,
1d,
f4,
be,
08,
ec,
b7,
1c,
fc,
f2,
ff,
08,
ec,
10,
01,
f8,
05,
02,
06,
fb,
03,
fe,
14,
03,
f9,
fc,
11,
04,
00,
07,
13,
07,
fe,
02,
ec,
fe,
fe,
f1,
00,
04,
e8,
0d,
0b,
f1,
03,
f6,
f4,
f6,
ed,
f1,
fd,
00,
f4,
f8,
fa,
fd,
05,
f4,
d7,
02,
22,
f6,
0c,
03,
f4,
12,
06,
fc,
04,
0d,
f7,
f6,
f5,
00,
fc,
f4,
f6,
fd,
ff,
fa,
f5,
ef,
07,
fb,
e7,
20,
03,
f5,
19,
fa,
f5,
f7,
02,
fb,
f3,
08,
01,
f3,
07,
fe,
fc,
f9,
f9,
f9,
01,
0a,
f5,
27,
b1,
f7,
23,
ce,
f4,
13,
00,
fb,
07,
f3,
fb,
07,
f0,
ee,
f9,
eb,
f7,
fa,
f1,
0a,
fc,
20,
06,
fd,
dd,
fd,
ff,
05,
dc,
fc,
0e,
dd,
07,
e8,
da,
06,
08,
fa,
f3,
01,
fd,
05,
f7,
fb,
fb,
08,
1a,
fd,
f3,
0b,
08,
0b,
15,
f9,
0c,
fb,
fd,
01,
ff,
f7,
07,
02,
ed,
f7,
fa,
f4,
06,
f5,
f1,
06,
f6,
07,
f3,
fe,
05,
00,
01,
ff,
0a,
07,
fc,
fc,
fe,
03,
05,
06,
05,
0e,
00,
f6,
fa,
03,
08,
fc,
07,
fc,
ff,
0d,
fb,
e7,
0b,
00,
e2,
1f,
fd,
05,
1a,
06,
02,
06,
f4,
eb,
09,
01,
ff,
0d,
0b,
ee,
0f,
11,
04,
0a,
13,
0c,
ee,
02,
fb,
ff,
04,
f6,
03,
02,
0d,
07,
fd,
0d,
f5,
f4,
10,
fa,
f8,
06,
09,
09,
0b,
d0,
00,
f1,
00,
ff,
00,
1e,
fa,
f3,
fe,
02,
f7,
01,
09,
fc,
f9,
f8,
ff,
fd,
f3,
0e,
fc,
f8,
f5,
f9,
04,
03,
f8,
02,
e4,
0f,
f8,
01,
05,
f0,
f9,
f9,
06,
fa,
fe,
00,
03,
f1,
f6,
00,
11,
fd,
14,
00,
ee,
f5,
1d,
f1,
11,
fd,
f1,
08,
fe,
f2,
03,
04,
03,
ff,
0b,
05,
06,
f9,
fc,
08,
f9,
f1,
ec,
12,
f2,
f9,
12,
e6,
f1,
0b,
08,
ff,
0b,
01,
03,
04,
03,
00,
13,
f5,
f8,
05,
fe,
08,
16,
01,
0b,
12,
13,
19,
06,
1a,
2b,
03,
14,
08,
07,
05,
06,
f3,
00,
fe,
f1,
05,
04,
fb,
08,
fe,
0b,
09,
1c,
0a,
01,
f0,
14,
06,
fb,
f7,
f9,
03,
f2,
ff,
f0,
03,
f2,
0d,
f9,
07,
ed,
19,
ff,
0a,
fc,
04,
fc,
ff,
09,
fb,
fa,
fd,
ed,
00,
fd,
00,
09,
f7,
df,
f4,
05,
f6,
ee,
0a,
fb,
f5,
01,
f6,
ff,
05,
04,
09,
05,
fc,
09,
fa,
fe,
f6,
02,
f5,
fc,
06,
ff,
04,
09,
04,
f6,
05,
13,
e9,
02,
f2,
01,
08,
00,
03,
08,
06,
f1,
01,
0c,
4b,
0b,
13,
4d,
08,
f9,
5b,
01,
fb,
10,
01,
07,
01,
fc,
13,
16,
fb,
ff,
fe,
0b,
ff,
de,
fc,
09,
fb,
f0,
de,
f7,
f4,
de,
e9,
eb,
e8,
ef,
04,
0a,
f1,
fc,
09,
de,
ff,
01,
ee,
02,
f1,
fb,
fc,
16,
fd,
fe,
fc,
00,
0d,
0b,
fe,
00,
01,
fe,
fa,
fa,
fe,
fc,
f8,
ea,
fe,
f7,
ec,
ff,
f7,
ef,
12,
03,
f9,
34,
90,
0a,
2f,
c8,
f6,
07,
f9,
05,
05,
f9,
f5,
fe,
1f,
f7,
fd,
08,
07,
fb,
06,
fe,
f8,
f9,
ff,
04,
4a,
05,
10,
3d,
d1,
0b,
5b,
e6,
07,
0b,
06,
0e,
02,
fe,
09,
11,
02,
f8,
0b,
fb,
f5,
fa,
f0,
ff,
0b,
ef,
0c,
02,
0d,
08,
0c,
27,
f2,
f2,
0d,
ff,
db,
f0,
10,
c2,
cc,
0c,
be,
e2,
dd,
d0,
2c,
fb,
e5,
1b,
f7,
ed,
e6,
0d,
ed,
05,
05,
e3,
ef,
fb,
04,
f8,
00,
e6,
e1,
3b,
3f,
de,
f4,
f8,
0b,
fd,
06,
0e,
05,
41,
18,
f1,
10,
f5,
eb,
ef,
eb,
e3,
f4,
fd,
ea,
f4,
01,
f7,
0d,
ec,
f4,
14,
f6,
f1,
02,
ef,
f2,
e6,
2d,
ed,
f0,
2f,
00,
f6,
13,
16,
fd,
f2,
d6,
d2,
20,
f4,
00,
01,
07,
ff,
e2,
3b,
24,
e3,
22,
11,
00,
e1,
fa,
22,
e2,
df,
07,
04,
fe,
e6,
ff,
fd,
fc,
fe,
ff,
ec,
f5,
e9,
ec,
10,
25,
29,
fa,
fa,
3c,
ef,
08,
32,
fb,
f0,
03,
26,
36,
de,
13,
f2,
d9,
12,
fc,
f2,
ff,
de,
ca,
fd,
f0,
ff,
fc,
01,
ff,
0d,
15,
00,
05,
00,
0c,
08,
02,
0b,
f9,
c3,
df,
0f,
ea,
05,
12,
09,
06,
f9,
f9,
10,
ed,
e9,
04,
ea,
f7,
20,
fb,
d1,
01,
01,
f1,
08,
fe,
f8,
01,
d9,
ac,
e7,
f5,
f4,
f6,
03,
04,
15,
ff,
f0,
07,
08,
0a,
f8,
17,
0a,
04,
d6,
c2,
17,
02,
f9,
04,
06,
0a,
f1,
02,
fd,
e5,
0b,
02,
f6,
fc,
ec,
dd,
ec,
cf,
fa,
f5,
e6,
d4,
06,
f6,
f3,
0e,
e4,
f6,
ef,
f1,
04,
04,
01,
06,
f5,
ef,
f5,
0c,
fc,
01,
f3,
cc,
ef,
e9,
a1,
f9,
f8,
e4,
ee,
ea,
07,
08,
f2,
f7,
07,
09,
f8,
0a,
fe,
f0,
e9,
08,
06,
f5,
fe,
ef,
fa,
0f,
0d,
ee,
e0,
e2,
25,
0f,
30,
03,
f1,
f6,
da,
e8,
f4,
d4,
00,
fa,
e4,
f3,
f9,
0a,
14,
f9,
f3,
00,
ff,
11,
02,
24,
15,
04,
08,
ff,
e7,
d5,
1a,
fb,
f5,
f1,
05,
20,
da,
fb,
07,
f8,
00,
0b,
00,
e7,
ed,
ee,
fb,
29,
02,
11,
0e,
0f,
fe,
f4,
e9,
1a,
0c,
05,
fc,
f5,
fe,
d1,
e1,
ec,
d9,
e1,
ee,
05,
12,
06,
0d,
f1,
ea,
19,
fd,
fe,
eb,
f0,
f5,
04,
d8,
15,
03,
03,
f9,
ee,
00,
09,
e8,
fc,
1d,
d7,
e0,
f0,
e2,
e0,
d5,
d9,
d4,
c2,
13,
f4,
d6,
0c,
06,
f3,
06,
f4,
ed,
0c,
f8,
e9,
12,
13,
02,
12,
fa,
ed,
ef,
e8,
f1,
f6,
f8,
e1,
f5,
f4,
e7,
f9,
11,
1c,
f4,
0c,
12,
07,
01,
10,
fc,
fe,
0f,
ff,
f8,
01,
f7,
d9,
d4,
ff,
ff,
fc,
f4,
fc,
e8,
f7,
d8,
e9,
01,
09,
ea,
fe,
03,
2a,
f3,
d2,
1c,
f6,
f5,
0d,
05,
26,
e3,
0a,
10,
ca,
fc,
03,
e1,
0e,
ef,
00,
0a,
05,
e1,
ea,
e8,
ff,
19,
0a,
f7,
00,
f4,
1c,
f8,
fa,
1a,
f7,
f7,
f4,
e1,
c5,
0f,
e8,
f4,
07,
fe,
f2,
df,
2d,
18,
e4,
12,
fe,
ed,
f1,
f7,
f6,
11,
f9,
00,
ed,
14,
03,
df,
db,
fb,
15,
11,
10,
03,
d7,
d2,
0b,
f3,
e7,
0f,
11,
f1,
fc,
02,
08,
02,
ef,
fc,
07,
0d,
1c,
f0,
ef,
11,
ee,
e4,
05,
11,
0c,
33,
fa,
01,
14,
05,
14,
f8,
24,
05,
00,
f9,
f8,
05,
08,
04,
10,
17,
18,
1e,
0f,
0a,
ff,
fb,
f5,
0e,
14,
13,
fd,
f9,
ed,
38,
03,
fd,
09,
00,
f7,
1a,
0c,
18,
18,
19,
e6,
f9,
2b,
fa,
e8,
0b,
e5,
f6,
f2,
df,
fc,
22,
ac,
ae,
ff,
ca,
05,
f5,
13,
33,
f3,
d8,
0d,
f8,
0a,
04,
16,
07,
1a,
09,
1a,
0e,
0d,
08,
03,
f6,
08,
19,
12,
03,
e4,
0e,
0d,
ec,
f3,
01,
f5,
e5,
e6,
ea,
0f,
06,
05,
e4,
df,
fe,
d9,
e8,
4a,
f7,
f8,
23,
ee,
03,
13,
fd,
2f,
18,
f4,
04,
08,
01,
ef,
f1,
fd,
ea,
05,
fc,
ed,
0e,
10,
1d,
14,
1a,
28,
11,
00,
12,
1d,
f9,
fc,
18,
ed,
eb,
f9,
f2,
f7,
fb,
f4,
0c,
19,
0d,
fd,
0b,
f7,
fd,
05,
fb,
03,
dc,
0c,
f1,
b5,
fd,
f0,
e2,
f4,
f4,
da,
df,
dd,
da,
f4,
f3,
fa,
01,
0c,
31,
f1,
e9,
1f,
00,
01,
20,
06,
ff,
0e,
0c,
e3,
fc,
04,
08,
0a,
f2,
f5,
f9,
15,
00,
c4,
e0,
e1,
f1,
e8,
ee,
f2,
0a,
06,
f0,
f3,
ef,
01,
05,
fa,
e9,
c9,
dc,
f4,
e8,
fc,
ee,
fb,
f1,
eb,
00,
f7,
fb,
02,
f0,
f6,
fc,
ef,
0d,
11,
cd,
ea,
0c,
da,
f8,
02,
fd,
00,
0d,
f3,
d8,
e2,
eb,
ec,
c8,
e3,
0e,
cc,
e1,
f0,
04,
0e,
05,
ee,
ea,
f3,
f7,
e2,
ca,
ef,
f5,
04,
f9,
fd,
10,
f0,
e3,
02,
fb,
eb,
03,
f1,
05,
ea,
e2,
fe,
02,
e4,
f5,
17,
0a,
fe,
ff,
01,
e5,
0c,
d5,
df,
02,
11,
05,
ec,
0b,
f3,
d4,
f9,
eb,
eb,
ff,
f9,
12,
03,
e8,
f1,
ff,
fe,
0d,
f3,
f8,
f1,
f1,
01,
f0,
0f,
18,
26,
f2,
0f,
fd,
02,
09,
e1,
f9,
fe,
fd,
14,
d7,
e1,
35,
dd,
0a,
12,
dd,
f5,
03,
dd,
0d,
e0,
f9,
1f,
01,
0a,
f7,
ec,
f6,
02,
f3,
fb,
f3,
f6,
03,
0d,
23,
0d,
1b,
ef,
f9,
10,
fa,
fe,
0a,
ed,
ec,
fa,
01,
0d,
20,
f3,
03,
01,
18,
06,
1a,
d2,
de,
f0,
f4,
fb,
eb,
e8,
fd,
2f,
d5,
cc,
22,
0b,
0f,
f5,
fb,
f7,
0b,
fd,
f2,
02,
03,
0d,
0a,
19,
1b,
16,
01,
0a,
f9,
08,
17,
11,
24,
f9,
e0,
2a,
e4,
99,
24,
e6,
e4,
15,
f8,
07,
0e,
e5,
f2,
0c,
f9,
03,
da,
ec,
ff,
11,
f2,
b4,
04,
f8,
f3,
f6,
ee,
13,
f9,
e6,
39,
f6,
d9,
14,
f5,
fc,
29,
dc,
d9,
11,
e1,
ef,
00,
f5,
0e,
38,
db,
2b,
40,
dc,
1f,
01,
1a,
0a,
fe,
01,
e0,
fd,
03,
ee,
fd,
da,
e0,
0a,
fd,
f9,
e7,
18,
0b,
fa,
fc,
01,
fd,
12,
05,
07,
ec,
07,
0d,
08,
07,
fc,
e8,
f2,
f3,
f3,
ff,
00,
e7,
11,
0b,
da,
10,
00,
fd,
f9,
e8,
ee,
15,
f2,
1c,
30,
11,
08,
0f,
17,
fd,
13,
e6,
30,
7f,
fd,
17,
22,
1a,
18,
0c,
e9,
f6,
db,
16,
10,
e5,
13,
cf,
fa,
0c,
b3,
f1,
08,
de,
06,
0c,
06,
fc,
02,
22,
f7,
f7,
15,
fb,
f2,
ed,
f8,
18,
0b,
11,
05,
ec,
01,
0a,
0d,
0c,
14,
01,
fc,
08,
fd,
11,
1c,
f4,
ff,
06,
ea,
f8,
02,
f5,
ff,
04,
f1,
f6,
01,
05,
fd,
02,
0c,
1f,
14,
e1,
ef,
f9,
1e,
30,
22,
24,
df,
17,
09,
eb,
42,
f2,
a9,
4f,
00,
ec,
12,
06,
0a,
09,
01,
1a,
e9,
06,
05,
15,
fe,
ef,
13,
de,
e0,
0a,
fb,
fd,
08,
27,
17,
f6,
22,
15,
f4,
0c,
03,
f6,
01,
fe,
f0,
f7,
10,
f4,
ee,
05,
13,
e6,
10,
e7,
b2,
42,
be,
da,
1f,
d4,
fb,
04,
06,
04,
0d,
0c,
ff,
07,
ff,
ff,
f7,
f9,
f8,
07,
f7,
04,
0f,
fb,
03,
fc,
00,
08,
08,
09,
fb,
00,
f8,
fb,
fa,
07,
0a,
03,
12,
fd,
fd,
0a,
00,
f8,
fa,
fc,
03,
02,
f8,
f5,
fd,
fa,
f8,
fe,
05,
03,
fe,
fd,
f8,
f5,
0b,
13,
fa,
1c,
10,
ec,
1a,
0c,
ef,
f9,
06,
05,
fb,
06,
03,
0c,
0f,
13,
06,
03,
0d,
fb,
03,
fc,
00,
fa,
f8,
05,
01,
0b,
fc,
f2,
fc,
fc,
fd,
05,
0e,
fc,
e9,
12,
f8,
fb,
04,
e8,
fd,
f4,
f0,
fc,
01,
0a,
fb,
f3,
02,
f7,
fa,
f9,
fe,
0d,
0b,
f9,
09,
0c,
01,
f9,
f7,
fc,
ed,
0e,
09,
01,
0a,
10,
05,
0c,
07,
01,
04,
09,
fe,
f9,
08,
00,
fc,
07,
04,
fd,
f7,
fe,
00,
09,
07,
0d,
04,
05,
05,
f8,
0a,
1d,
fe,
03,
f5,
00,
07,
0b,
0e,
fc,
fa,
07,
fb,
f2,
0f,
f1,
f4,
0f,
f8,
f1,
05,
f9,
fe,
fc,
09,
0c,
f7,
00,
f5,
04,
03,
00,
11,
f2,
e9,
ff,
0a,
04,
0a,
0b,
f8,
f9,
01,
00,
fe,
02,
f7,
fb,
e5,
17,
05,
00,
36,
08,
f0,
1e,
23,
f7,
01,
ff,
0a,
07,
01,
f9,
03,
f1,
f2,
fd,
09,
f1,
10,
03,
fb,
0f,
03,
fc,
df,
fa,
fa,
ba,
fd,
ef,
e3,
f6,
02,
00,
06,
fa,
ff,
fc,
fe,
06,
03,
f1,
f4,
fd,
02,
03,
00,
fc,
f9,
0a,
02,
0a,
00,
ff,
00,
f5,
08,
14,
fd,
00,
02,
fd,
09,
07,
ff,
06,
01,
f8,
f7,
f2,
fa,
f9,
fb,
fd,
f5,
f8,
fd,
04,
fe,
f3,
0b,
0b,
0c,
f4,
03,
04,
f7,
fc,
43,
fb,
ed,
7f,
00,
f2,
4e,
07,
0a,
fd,
fe,
05,
fc,
01,
01,
05,
f9,
f7,
03,
f6,
f9,
fc,
f8,
f1,
f8,
08,
02,
fe,
02,
fd,
ff,
09,
fa,
f5,
04,
fc,
00,
f3,
03,
f3,
05,
04,
0f,
07,
0b,
e5,
23,
4d,
8b,
16,
17,
be,
00,
0f,
05,
00,
01,
e7,
fe,
03,
fb,
00,
09,
ff,
f1,
f1,
0f,
01,
0a,
0b,
03,
fb,
fd,
02,
05,
00,
ff,
f0,
f2,
01,
fc,
00,
f9,
fe,
f8,
fd,
01,
00,
fd,
ee,
00,
01,
fd,
f3,
11,
00,
15,
01,
01,
01,
07,
fc,
ff,
04,
f6,
01,
09,
f7,
02,
1d,
0f,
20,
fd,
f5,
08,
07,
10,
35,
19,
f0,
35,
04,
11,
21,
f5,
f4,
0f,
fe,
fb,
f5,
07,
0c,
ff,
01,
0c,
01,
f8,
09,
0c,
f7,
f9,
f8,
03,
07,
00,
f5,
f8,
01,
06,
0e,
03,
fb,
01,
04,
04,
01,
00,
03,
03,
fc,
f8,
fb,
f5,
01,
1e,
0b,
fa,
fa,
f2,
fe,
fe,
f6,
03,
03,
03,
03,
fc,
03,
03,
01,
0d,
ee,
f9,
00,
fb,
f4,
0b,
09,
f5,
f6,
fd,
12,
04,
f5,
10,
06,
f4,
02,
fb,
00,
fe,
fa,
ff,
ff,
f2,
fe,
fa,
05,
fc,
fe,
ff,
00,
fa,
00,
fa,
fa,
07,
f6,
09,
09,
fa,
fc,
fc,
07,
05,
fe,
f5,
03,
08,
06,
05,
10,
f7,
02,
00,
fb,
00,
07,
01,
fe,
07,
fd,
08,
fa,
02,
01,
fc,
fa,
11,
ff,
fb,
f3,
fe,
13,
0d,
11,
13,
16,
23,
0b,
06,
0b,
07,
ff,
02,
ff,
f2,
fb,
22,
d6,
05,
e2,
cc,
f2,
13,
d3,
f9,
f6,
fd,
00,
00,
1a,
01,
f6,
03,
fe,
04,
ff,
08,
fa,
04,
f7,
01,
03,
f7,
02,
08,
fd,
fb,
fc,
f5,
02,
fa,
07,
01,
07,
03,
ee,
fc,
05,
02,
fe,
fe,
fb,
03,
eb,
f5,
1a,
28,
04,
04,
11,
f7,
08,
13,
f8,
e7,
10,
06,
fa,
1b,
f7,
fb,
08,
04,
08,
0b,
01,
02,
04,
00,
01,
fd,
fd,
04,
fd,
03,
fe,
0c,
f9,
f2,
fc,
01,
e9,
e3,
0b,
f9,
ef,
03,
06,
00,
f6,
09,
fc,
f6,
04,
fb,
0d,
02,
05,
01,
ef,
f6,
07,
ff,
00,
ef,
00,
f7,
e6,
20,
14,
07,
12,
e9,
f2,
fe,
f0,
f4,
fe,
f0,
f4,
fa,
eb,
08,
fb,
fe,
fe,
06,
fe,
0a,
06,
01,
fc,
09,
ff,
fd,
0b,
fd,
16,
06,
f6,
ff,
ed,
06,
fb,
f7,
f9,
fd,
fd,
01,
fa,
f4,
f8,
07,
0a,
05,
fb,
e2,
f1,
04,
fc,
fc,
17,
0f,
fb,
0f,
05,
fc,
f4,
fb,
fc,
f5,
03,
09,
f7,
06,
0a,
f9,
f0,
01,
fd,
15,
1b,
f6,
0f,
11,
ff,
fd,
fa,
fb,
fc,
05,
fc,
fc,
05,
fa,
f0,
f4,
fc,
fd,
05,
07,
04,
04,
02,
09,
fe,
05,
ff,
eb,
f8,
03,
ed,
f9,
04,
02,
03,
04,
f7,
fd,
08,
0e,
06,
04,
15,
f9,
ef,
ef,
f5,
10,
f7,
05,
fe,
f0,
08,
fb,
ef,
02,
f6,
fb,
f3,
f8,
04,
df,
e8,
fe,
fa,
ef,
ed,
0c,
18,
13,
ff,
f3,
fc,
ff,
ed,
05,
ff,
fd,
fa,
02,
0d,
03,
fa,
fb,
ff,
08,
07,
fc,
05,
1b,
09,
f7,
00,
0c,
fa,
06,
04,
fa,
05,
fb,
02,
0a,
07,
04,
fe,
f6,
fb,
ff,
f5,
fd,
00,
fd,
04,
fb,
00,
fa,
0a,
02,
05,
f9,
ed,
00,
f6,
02,
14,
07,
ff,
fc,
e9,
f6,
08,
ff,
fe,
06,
08,
00,
f6,
02,
07,
02,
0a,
f6,
04,
f7,
e8,
0c,
03,
0b,
f7,
fb,
f5,
f7,
f7,
e3,
00,
f8,
f1,
ff,
fa,
03,
fb,
f7,
00,
f9,
f3,
02,
fe,
f5,
fb,
f4,
b6,
c3,
f0,
d5,
c8,
f8,
fc,
ff,
f6,
fd,
07,
ff,
fd,
07,
fe,
05,
fe,
05,
04,
0f,
ff,
f3,
04,
02,
0a,
07,
f8,
fc,
02,
09,
0c,
03,
0d,
05,
0e,
04,
08,
fc,
f1,
f9,
f7,
03,
0e,
fd,
04,
0a,
02,
06,
0e,
07,
03,
fd,
f6,
03,
01,
fa,
06,
0a,
03,
f8,
f8,
f7,
0f,
fd,
02,
f7,
03,
09,
f5,
fc,
05,
fd,
f8,
fe,
0f,
08,
ff,
07,
fd,
0a,
fc,
fe,
0c,
fe,
fc,
06,
fa,
13,
fd,
08,
0f,
14,
06,
f0,
fc,
fe,
f3,
ea,
f7,
04,
ca,
ff,
07,
e7,
f6,
00,
f8,
fc,
06,
fa,
09,
02,
fb,
06,
0c,
02,
ee,
ed,
f0,
fe,
00,
ff,
ea,
e9,
e3,
ee,
ee,
ed,
ec,
f0,
ed,
02,
f5,
03,
f8,
fa,
08,
fd,
f7,
04,
f4,
05,
fb,
ea,
06,
f2,
f6,
fe,
03,
02,
fd,
f5,
fb,
f9,
f8,
f9,
fa,
04,
f4,
fd,
01,
ed,
f5,
fb,
ef,
f3,
f6,
f9,
0f,
01,
e9,
1b,
2e,
08,
0d,
0d,
fd,
01,
f2,
08,
0f,
11,
f0,
f2,
05,
fe,
03,
1b,
e5,
d8,
0f,
f6,
db,
18,
04,
0f,
e8,
16,
d2,
dd,
10,
f7,
e1,
02,
04,
ff,
ee,
f8,
ff,
fd,
fe,
0b,
07,
01,
fb,
fe,
ff,
f6,
ff,
ff,
02,
04,
ec,
e4,
fe,
fe,
07,
f9,
fe,
10,
f8,
01,
06,
09,
fb,
10,
05,
01,
fe,
e3,
12,
fe,
f0,
1b,
00,
00,
24,
1a,
00,
0b,
fe,
f0,
08,
02,
f5,
04,
f0,
e9,
fc,
01,
f3,
06,
08,
0c,
fc,
f8,
f7,
f5,
02,
fb,
fb,
06,
04,
f9,
f6,
0d,
00,
f8,
04,
09,
06,
f5,
f9,
f2,
06,
0c,
01,
04,
0b,
02,
12,
1d,
0a,
05,
08,
0b,
14,
21,
19,
fd,
f5,
f1,
f4,
17,
01,
e7,
e9,
f0,
0f,
1d,
0d,
f5,
03,
00,
fc,
02,
fa,
0e,
07,
0b,
f8,
09,
ff,
f3,
07,
fa,
f2,
03,
f8,
0b,
0c,
05,
06,
fc,
eb,
0b,
08,
04,
1b,
11,
11,
0f,
fa,
00,
17,
12,
15,
0a,
04,
02,
cc,
ce,
e4,
ff,
2c,
fc,
f7,
07,
05,
fe,
0e,
0e,
fa,
ee,
e6,
fb,
f8,
09,
f5,
00,
0e,
fb,
f6,
ff,
f1,
fd,
f1,
06,
11,
0e,
fe,
09,
f0,
fe,
12,
f6,
f8,
14,
f4,
f9,
0b,
05,
f9,
1a,
ff,
fb,
0d,
0d,
fe,
0b,
08,
10,
fd,
fc,
03,
04,
09,
ea,
f5,
ff,
1f,
0e,
06,
31,
15,
0b,
1c,
f7,
da,
f9,
0d,
06,
e8,
0d,
f0,
e8,
f6,
eb,
ff,
00,
f7,
03,
07,
03,
02,
09,
02,
ff,
08,
10,
07,
19,
20,
02,
09,
f9,
f9,
ec,
e7,
12,
da,
e1,
23,
df,
03,
e5,
03,
0a,
e9,
f5,
05,
ea,
0d,
fe,
01,
08,
0c,
e9,
f3,
03,
f9,
fc,
fe,
24,
f8,
08,
24,
fe,
02,
14,
03,
e8,
0e,
ff,
0a,
01,
14,
0d,
ea,
f1,
f8,
f8,
f8,
ed,
18,
17,
04,
12,
04,
06,
01,
ed,
f5,
03,
fb,
01,
04,
01,
f4,
01,
fe,
f9,
fc,
f4,
e6,
fd,
06,
f5,
0d,
06,
09,
11,
1e,
1c,
04,
00,
0b,
01,
10,
fc,
f9,
09,
fb,
03,
08,
f8,
f6,
e0,
05,
f9,
e4,
f2,
ec,
ed,
ef,
f7,
06,
fb,
fb,
08,
00,
f3,
f7,
e9,
0b,
ef,
08,
09,
fb,
f7,
f7,
0b,
00,
f7,
e9,
04,
4a,
7f,
43,
fe,
f9,
26,
f9,
04,
08,
00,
08,
03,
f6,
05,
05,
03,
06,
07,
0b,
06,
09,
fa,
f7,
02,
f2,
00,
08,
ef,
de,
04,
0b,
19,
f7,
04,
f8,
fe,
02,
fa,
ff,
0b,
0d,
0b,
fb,
fd,
f9,
0c,
0d,
06,
fe,
03,
ff,
16,
00,
01,
19,
00,
01,
f2,
e0,
0c,
16,
f3,
10,
f9,
e8,
0a,
0a,
de,
06,
f6,
fe,
0d,
07,
07,
11,
0b,
01,
14,
01,
01,
03,
11,
fd,
f8,
fc,
fd,
ee,
fa,
fd,
16,
d6,
cc,
d8,
0b,
29,
30,
f8,
e5,
03,
ef,
01,
02,
fa,
ff,
02,
f5,
04,
fe,
f1,
01,
00,
ff,
03,
02,
e7,
1e,
06,
cd,
94,
c0,
06,
49,
16,
0d,
04,
0c,
16,
08,
0b,
f9,
ff,
00,
07,
f2,
00,
0b,
ff,
06,
05,
05,
07,
4d,
fe,
f5,
3d,
eb,
f1,
36,
fc,
e4,
13,
09,
0b,
07,
08,
0d,
f4,
16,
f8,
fe,
2f,
13,
09,
3e,
1c,
01,
43,
12,
fd,
07,
f1,
ff,
fa,
ef,
04,
12,
de,
f1,
fd,
06,
09,
ff,
fc,
df,
d8,
de,
02,
06,
05,
13,
f8,
fb,
13,
0c,
11,
08,
0c,
f6,
0b,
ff,
06,
c2,
c1,
e2,
f5,
08,
0a,
f1,
0b,
18,
e9,
f6,
02,
12,
fa,
fc,
06,
0a,
0d,
12,
fb,
f8,
03,
fd,
fa,
09,
fa,
f3,
f4,
04,
03,
05,
f4,
01,
07,
ee,
00,
08,
05,
f5,
ef,
10,
fe,
f3,
11,
f4,
f9,
15,
02,
cc,
fe,
0d,
d7,
01,
09,
cb,
0f,
07,
03,
1a,
12,
12,
25,
0c,
ce,
a5,
df,
02,
ff,
0a,
f9,
08,
0e,
f9,
ff,
00,
f3,
09,
23,
f0,
10,
15,
e1,
f2,
13,
04,
09,
00,
ed,
17,
01,
f5,
37,
0d,
f8,
0f,
10,
f6,
06,
13,
f6,
fd,
02,
fb,
01,
05,
ea,
fa,
ff,
f4,
01,
04,
14,
fb,
f1,
0a,
f7,
e8,
0c,
04,
f5,
01,
00,
05,
01,
10,
09,
ed,
fd,
ff,
04,
fa,
f7,
0e,
0a,
0b,
0a,
0e,
02,
07,
02,
0d,
02,
f5,
fc,
fe,
01,
fe,
07,
e8,
ee,
f9,
e7,
e3,
0d,
f4,
e5,
fd,
02,
fc,
07,
fa,
f1,
0a,
19,
02,
05,
1d,
03,
0b,
09,
08,
1b,
fa,
02,
ef,
f9,
fd,
ea,
f6,
f7,
01,
13,
0c,
ed,
19,
00,
e9,
16,
0c,
d3,
dc,
e3,
20,
e6,
0c,
41,
de,
0e,
29,
d2,
f9,
02,
03,
01,
03,
12,
03,
f0,
0c,
f3,
fa,
03,
f8,
f8,
03,
f8,
12,
f3,
fc,
ff,
01,
0a,
07,
00,
0c,
fe,
f9,
fc,
09,
f8,
01,
00,
ff,
00,
06,
01,
02,
20,
f8,
02,
3f,
13,
03,
2d,
1b,
1d,
fa,
ee,
05,
eb,
e4,
ff,
38,
5b,
35,
fe,
fb,
f8,
0d,
05,
0b,
14,
11,
1e,
0f,
07,
07,
11,
f5,
f8,
1e,
06,
ff,
f4,
f9,
00,
f4,
e5,
ec,
f7,
05,
fe,
f9,
02,
0b,
0c,
ec,
f5,
18,
01,
0f,
fd,
f6,
ff,
eb,
f4,
fe,
fa,
fd,
04,
eb,
eb,
fc,
e5,
dc,
e3,
fa,
fb,
fa,
03,
05,
0e,
09,
fb,
0a,
0e,
fe,
0f,
00,
fc,
f8,
06,
09,
05,
06,
07,
fb,
f2,
03,
ea,
e2,
f2,
e8,
2c,
7d,
46,
d1,
03,
00,
ad,
08,
ee,
b1,
f1,
f1,
0b,
11,
0e,
f9,
1c,
0a,
0b,
01,
04,
11,
01,
02,
f8,
ff,
eb,
de,
ee,
e4,
03,
f9,
f7,
f5,
01,
f7,
19,
1a,
09,
11,
0a,
0d,
08,
0d,
07,
05,
f9,
fb,
f9,
fd,
f9,
06,
f9,
e6,
f3,
f8,
05,
09,
fd,
08,
fb,
01,
00,
f0,
0a,
05,
f9,
02,
fd,
f4,
f5,
ed,
f4,
ee,
ed,
f4,
ff,
fd,
fd,
fc,
f7,
fa,
06,
fa,
fa,
0a,
ff,
fa,
18,
01,
f7,
08,
06,
ff,
0d,
03,
08,
f0,
08,
01,
ef,
ff,
15,
f2,
fd,
14,
23,
14,
fe,
1c,
f1,
15,
ed,
0b,
13,
ee,
0e,
0f,
15,
10,
00,
0c,
f9,
06,
10,
01,
f0,
e6,
0f,
0c,
fb,
05,
01,
03,
03,
f1,
fc,
fb,
09,
07,
08,
fb,
fc,
07,
06,
f3,
fc,
fa,
f2,
fa,
00,
0b,
fe,
f8,
01,
fb,
02,
fe,
06,
01,
07,
01,
fc,
0a,
ed,
06,
fb,
0c,
ee,
02,
fb,
f6,
1b,
fe,
ef,
e6,
ed,
e0,
d3,
e0,
ed,
e6,
e8,
f3,
02,
02,
f5,
04,
02,
05,
02,
fa,
01,
07,
0f,
f8,
0e,
12,
ef,
e8,
ed,
fd,
05,
fd,
19,
0c,
0c,
0d,
fc,
04,
f5,
f2,
f7,
f8,
f6,
fb,
fd,
fd,
06,
fb,
04,
08,
ff,
02,
05,
f0,
0a,
0d,
10,
04,
06,
f6,
28,
17,
f4,
1c,
0c,
f3,
fe,
06,
d9,
ea,
f5,
fc,
f7,
fe,
05,
03,
ef,
04,
f7,
03,
ff,
fe,
f8,
0a,
08,
07,
f3,
10,
0a,
f3,
ee,
f7,
0f,
fe,
f7,
0b,
09,
01,
fd,
04,
fa,
01,
05,
f2,
00,
09,
fe,
03,
fb,
08,
02,
f7,
e8,
fe,
e8,
b7,
ff,
f5,
d7,
02,
ff,
f4,
f9,
00,
f7,
fc,
ff,
fb,
fd,
02,
00,
d5,
17,
1b,
0a,
0c,
08,
fd,
f6,
fb,
08,
f9,
00,
04,
fe,
f5,
08,
08,
0c,
10,
01,
0e,
01,
ff,
0b,
fa,
fd,
fc,
f8,
02,
07,
fe,
02,
04,
f3,
fd,
00,
fd,
fc,
fd,
fb,
02,
09,
14,
07,
ef,
12,
0a,
f0,
1a,
0b,
05,
fd,
f9,
05,
f9,
01,
08,
02,
00,
fd,
14,
fa,
fc,
0d,
f6,
fb,
fd,
f7,
ff,
fb,
0f,
0f,
02,
09,
03,
07,
04,
f9,
fc,
01,
04,
fe,
00,
00,
05,
03,
02,
e7,
f8,
f8,
e7,
f7,
fc,
ff,
05,
00,
ff,
fa,
ef,
14,
01,
00,
06,
03,
03,
0c,
fc,
fe,
fe,
f9,
fd,
0a,
05,
07,
fc,
00,
02,
f7,
fa,
04,
ff,
fd,
03,
01,
05,
f6,
02,
0c,
ee,
02,
01,
e8,
05,
0a,
07,
05,
09,
01,
fc,
02,
ff,
01,
ff,
0a,
f9,
fe,
01,
f3,
09,
07,
00,
f4,
fe,
f0,
df,
e8,
e8,
f2,
08,
fc,
f3,
fb,
fd,
f4,
00,
ff,
02,
f4,
0c,
0e,
fc,
e7,
f8,
fd,
fd,
03,
0b,
08,
01,
02,
ff,
ff,
fa,
05,
ff,
f8,
0b,
11,
ea,
fd,
fc,
cf,
09,
0d,
e3,
00,
0a,
f8,
e9,
02,
02,
fe,
fe,
f9,
f8,
02,
0f,
03,
0d,
22,
fb,
06,
0e,
ef,
e9,
f0,
f3,
ee,
ee,
f0,
f3,
f5,
f9,
fe,
fc,
03,
fd,
00,
07,
12,
0b,
f9,
fa,
fe,
fb,
01,
02,
f8,
fc,
02,
04,
06,
01,
fc,
fd,
fb,
19,
09,
0b,
f7,
fb,
f6,
03,
08,
07,
fd,
00,
fd,
01,
03,
0a,
f9,
fd,
fe,
ff,
04,
09,
03,
03,
07,
f7,
ef,
02,
00,
06,
06,
0c,
08,
fc,
01,
f6,
d0,
09,
01,
e7,
09,
00,
f9,
f9,
0a,
f9,
05,
00,
00,
03,
05,
02,
01,
fc,
f5,
03,
02,
04,
fd,
00,
0a,
f8,
f5,
07,
fd,
f7,
f9,
00,
fe,
02,
00,
fd,
fc,
0f,
fe,
fc,
f2,
01,
fe,
01,
0b,
21,
00,
06,
11,
f7,
04,
0d,
fd,
08,
0e,
04,
04,
02,
f3,
0c,
07,
e4,
08,
01,
0f,
05,
ff,
01,
ff,
fe,
f7,
fa,
01,
00,
f8,
ff,
01,
fb,
00,
00,
f6,
f3,
03,
fd,
fd,
fa,
03,
fe,
07,
08,
ff,
04,
01,
0d,
04,
fd,
f9,
09,
ff,
fc,
03,
f4,
07,
0e,
08,
03,
1d,
01,
0e,
09,
fe,
05,
05,
fc,
e9,
13,
f6,
de,
11,
f2,
dc,
03,
01,
01,
f6,
f4,
fa,
02,
07,
01,
08,
06,
0f,
df,
f2,
00,
fe,
01,
fa,
09,
fa,
02,
f9,
00,
01,
02,
fe,
fc,
fe,
ff,
ff,
03,
fe,
03,
02,
06,
08,
f5,
0b,
0e,
00,
01,
09,
05,
f3,
ee,
04,
fd,
f0,
17,
01,
fd,
0c,
f9,
00,
00,
02,
01,
ed,
02,
fe,
fc,
00,
03,
02,
f8,
f8,
13,
14,
fc,
f6,
f8,
01,
f4,
03,
fa,
e5,
ff,
04,
f9,
00,
fc,
fd,
f8,
fb,
05,
f9,
f5,
fe,
f9,
f4,
ff,
fc,
08,
fe,
0e,
00,
00,
0d,
fa,
00,
05,
f7,
e3,
fa,
fd,
f9,
01,
f6,
01,
08,
ee,
17,
0b,
03,
0c,
03,
09,
ff,
05,
10,
f9,
06,
0a,
0a,
11,
0d,
06,
08,
f4,
07,
07,
fc,
0f,
11,
0d,
00,
fa,
00,
12,
fd,
fa,
02,
f1,
f5,
02,
ef,
e2,
03,
d5,
c3,
f9,
ed,
de,
02,
00,
00,
07,
ff,
ff,
03,
fc,
ff,
0c,
0c,
09,
f9,
0e,
0a,
ff,
fe,
04,
07,
05,
f3,
fc,
fb,
0b,
01,
f6,
04,
fd,
fa,
02,
f4,
f7,
05,
01,
fa,
06,
05,
f5,
2d,
f3,
f3,
7f,
03,
f7,
4c,
03,
04,
0d,
00,
f7,
fe,
07,
fd,
04,
fd,
ff,
03,
00,
08,
06,
f5,
01,
05,
03,
04,
05,
06,
02,
04,
08,
00,
03,
f9,
fa,
fe,
0a,
f8,
f9,
11,
00,
fd,
05,
ff,
04,
03,
f8,
fd,
fc,
fb,
00,
0f,
09,
03,
05,
fe,
f8,
03,
02,
fc,
f2,
f8,
fb,
fa,
03,
f7,
08,
0a,
08,
f7,
f4,
fc,
f7,
f1,
02,
ff,
ff,
0d,
f7,
fc,
02,
fc,
fb,
05,
07,
08,
08,
05,
fd,
04,
0d,
db,
e7,
05,
f6,
01,
e9,
ed,
00,
f9,
e8,
ed,
f4,
e6,
ec,
f2,
05,
fe,
fb,
0b,
0b,
f9,
00,
f0,
0a,
08,
07,
fa,
01,
05,
ff,
fe,
03,
fc,
f7,
fb,
f8,
ec,
f3,
f4,
ef,
f5,
f8,
fd,
0a,
ff,
fd,
09,
02,
01,
fb,
f0,
fe,
fe,
02,
09,
07,
09,
05,
f8,
04,
fc,
07,
f2,
ee,
09,
06,
05,
02,
01,
f8,
f8,
fc,
03,
f8,
ea,
ef,
f3,
fb,
08,
f9,
fc,
01,
f3,
02,
fb,
01,
fc,
ff,
02,
f1,
fa,
f7,
f3,
f9,
f6,
fe,
f7,
fc,
f8,
f8,
f9,
fa,
ff,
00,
fa,
fc,
f5,
00,
fa,
e7,
02,
05,
f0,
fb,
08,
02,
06,
09,
f4,
fe,
fe,
fd,
f8,
fc,
02,
fa,
03,
05,
06,
07,
08,
08,
01,
0a,
0a,
00,
0f,
ff,
fb,
07,
04,
f8,
fb,
03,
02,
07,
03,
08,
00,
01,
04,
0c,
ee,
f7,
ff,
02,
0b,
0a,
01,
f7,
08,
00,
f4,
04,
fd,
ff,
0a,
fa,
fe,
06,
19,
08,
fd,
00,
fe,
f3,
f6,
06,
f7,
e8,
00,
f3,
fa,
0a,
01,
ff,
06,
fc,
f8,
f5,
ff,
fa,
ff,
fd,
f5,
f1,
01,
f5,
eb,
ef,
fa,
f8,
fe,
fd,
01,
04,
fb,
01,
fb,
fd,
fe,
ff,
f7,
f0,
07,
fa,
e3,
f0,
f1,
f2,
fd,
02,
02,
0a,
fd,
f8,
05,
ff,
ff,
03,
fa,
f9,
f4,
06,
fe,
e9,
f4,
f4,
f4,
01,
04,
0b,
f3,
00,
14,
01,
02,
08,
03,
03,
02,
f8,
09,
ff,
01,
05,
ff,
fe,
02,
0a,
fe,
0e,
0d,
08,
04,
02,
0f,
fe,
fb,
fe,
01,
13,
08,
fc,
08,
13,
fe,
fc,
0c,
01,
03,
f0,
fd,
fe,
f7,
ff,
0a,
00,
fd,
02,
07,
fb,
04,
05,
07,
0d,
fd,
03,
0a,
fd,
02,
09,
fe,
05,
fa,
fc,
04,
04,
05,
ff,
f1,
f8,
07,
f6,
0f,
13,
07,
f2,
02,
fa,
04,
fb,
fc,
08,
f9,
08,
f9,
fd,
fb,
12,
05,
00,
f8,
f0,
05,
ff,
fe,
0b,
d5,
01,
fe,
d4,
01,
fb,
e3,
f3,
e8,
0c,
fd,
06,
fb,
fd,
01,
ff,
05,
04,
f8,
ff,
fe,
f5,
09,
ff,
01,
03,
02,
f1,
fe,
03,
f8,
02,
02,
05,
0c,
03,
f6,
fe,
02,
f2,
fb,
fe,
f6,
fa,
fb,
fb,
f1,
fc,
01,
ec,
fd,
f9,
f4,
04,
06,
08,
07,
f9,
00,
ff,
f8,
fd,
fe,
f1,
02,
08,
de,
f3,
0a,
ec,
fd,
02,
05,
02,
f9,
fe,
08,
05,
01,
03,
ff,
ff,
ff,
04,
f5,
fb,
03,
03,
fb,
08,
0c,
02,
00,
09,
06,
00,
01,
f6,
fc,
f6,
e7,
0c,
fe,
fa,
03,
f8,
0c,
ef,
ef,
d9,
24,
1c,
d9,
1a,
06,
95,
15,
f3,
ef,
fc,
09,
02,
f5,
11,
12,
10,
00,
fc,
00,
09,
04,
ff,
07,
f5,
08,
ff,
fa,
f6,
0c,
fa,
fe,
f8,
f8,
ff,
f0,
f0,
00,
f9,
09,
f7,
f6,
0e,
f8,
f7,
06,
02,
fd,
11,
01,
fb,
02,
f2,
fa,
0b,
ff,
f9,
07,
05,
fb,
03,
fb,
fe,
e8,
f7,
0a,
e9,
fa,
fd,
ed,
f5,
01,
00,
fb,
ff,
e5,
09,
03,
12,
00,
05,
04,
fa,
fd,
f8,
fc,
fc,
f8,
07,
fe,
22,
ec,
00,
14,
f9,
f8,
02,
1d,
fe,
ff,
04,
03,
05,
17,
f8,
09,
0e,
1c,
0b,
0b,
10,
02,
09,
09,
f7,
fd,
fd,
ff,
02,
03,
08,
08,
05,
fa,
10,
fc,
fe,
fe,
06,
11,
fb,
f8,
f3,
f8,
06,
09,
01,
05,
0d,
03,
fc,
fe,
f1,
00,
0b,
01,
0b,
0a,
01,
f8,
18,
fc,
07,
24,
ee,
fb,
00,
03,
0b,
0d,
02,
ed,
11,
10,
0a,
14,
00,
f9,
f8,
02,
f6,
0c,
0a,
ff,
e7,
ef,
07,
09,
01,
fd,
04,
00,
0b,
06,
ff,
01,
03,
ff,
fd,
1d,
07,
01,
12,
00,
ff,
02,
03,
f5,
f9,
fd,
fc,
01,
f9,
fd,
f1,
f7,
fa,
d7,
ed,
fa,
87,
ee,
f3,
fc,
01,
ff,
f8,
06,
03,
f7,
0a,
03,
01,
06,
fb,
02,
f1,
f9,
ee,
e4,
02,
01,
f7,
15,
fd,
11,
01,
f8,
03,
09,
ef,
0c,
f9,
ff,
03,
fd,
02,
01,
00,
02,
02,
01,
fa,
00,
03,
0d,
fc,
fc,
0c,
fa,
06,
04,
00,
fa,
f5,
06,
fb,
fc,
14,
06,
02,
ff,
08,
f3,
08,
f5,
f0,
06,
f6,
00,
03,
f7,
fc,
00,
03,
f5,
f7,
f0,
dc,
fa,
0a,
13,
13,
07,
ef,
fa,
0d,
2b,
af,
fc,
4a,
81,
10,
35,
9b,
f8,
fa,
f6,
fc,
06,
fa,
fd,
ef,
f9,
ff,
01,
fb,
02,
0d,
0e,
f9,
f9,
ff,
ff,
f9,
f4,
01,
06,
f1,
01,
02,
04,
02,
0b,
00,
ff,
fd,
04,
08,
0c,
fb,
0d,
d6,
f5,
19,
90,
ea,
05,
be,
e4,
fc,
ec,
09,
01,
f1,
04,
02,
07,
fb,
09,
09,
f1,
fb,
fe,
fd,
ee,
f7,
fc,
fb,
f6,
01,
05,
f7,
09,
fb,
f4,
02,
f8,
f3,
f2,
00,
02,
fb,
02,
0d,
01,
06,
1a,
18,
05,
07,
fd,
0a,
03,
e2,
06,
07,
08,
fa,
07,
fb,
fc,
ff,
fa,
f5,
d6,
da,
f2,
d7,
d8,
f7,
fd,
ff,
09,
ea,
24,
ec,
c5,
2b,
f3,
f1,
2f,
fb,
08,
02,
fc,
fc,
f5,
f9,
ff,
00,
0a,
fb,
f9,
11,
18,
fb,
fe,
fa,
fb,
0c,
05,
e3,
ee,
0d,
28,
13,
09,
f5,
fe,
f6,
03,
02,
00,
f7,
f7,
0d,
f9,
fa,
ec,
0f,
f4,
e8,
12,
fa,
ef,
0d,
fe,
02,
03,
fd,
fe,
fa,
fe,
fe,
02,
07,
11,
01,
fc,
03,
f4,
02,
0d,
f8,
fd,
f8,
fb,
fa,
05,
0a,
0e,
00,
03,
01,
f9,
11,
05,
f6,
06,
04,
09,
05,
03,
04,
fe,
fe,
f3,
f6,
04,
fa,
fc,
02,
04,
f9,
fc,
07,
03,
ee,
fa,
ee,
ff,
00,
0a,
fd,
06,
03,
04,
0d,
07,
fb,
fa,
11,
05,
fe,
e3,
04,
10,
f9,
09,
0c,
01,
0f,
06,
02,
07,
0f,
10,
f6,
0b,
16,
f7,
01,
f8,
f4,
e8,
dd,
fd,
01,
0d,
f9,
0a,
fe,
05,
fc,
f9,
ec,
52,
1c,
f1,
74,
13,
15,
1c,
16,
fd,
ee,
f5,
fd,
0c,
ea,
ff,
02,
fc,
fd,
fa,
f2,
04,
02,
05,
fd,
01,
fa,
0b,
f7,
07,
00,
05,
f6,
fd,
fd,
fb,
f8,
ef,
fa,
fe,
10,
f6,
01,
06,
fe,
00,
e9,
f6,
dc,
c3,
eb,
f0,
e4,
f4,
fe,
fd,
0d,
07,
02,
29,
08,
0c,
1e,
fe,
09,
ef,
0c,
09,
f1,
03,
0a,
f6,
fc,
f8,
fd,
f7,
fd,
f7,
f8,
07,
00,
fc,
fc,
04,
f6,
0c,
0d,
00,
0c,
13,
fb,
fc,
02,
fd,
03,
01,
08,
0b,
06,
02,
f7,
04,
09,
fd,
14,
00,
02,
16,
11,
a0,
fd,
01,
f3,
13,
f9,
05,
0c,
ee,
e8,
e9,
f3,
ea,
f5,
f7,
dc,
f8,
fd,
ea,
11,
06,
18,
05,
05,
f9,
07,
04,
f7,
fc,
02,
04,
07,
00,
09,
04,
f9,
0d,
fc,
f3,
0f,
05,
fa,
04,
fe,
00,
08,
14,
07,
10,
0a,
fe,
04,
11,
01,
09,
01,
02,
fd,
02,
fa,
0f,
02,
f9,
ed,
fa,
01,
08,
11,
fa,
fe,
02,
fc,
fc,
04,
0d,
09,
04,
fc,
fc,
ff,
19,
01,
fa,
07,
06,
ff,
02,
fd,
fc,
f7,
04,
02,
06,
03,
12,
f3,
ff,
0b,
ff,
03,
0e,
ed,
eb,
2d,
03,
f6,
12,
05,
08,
09,
01,
05,
f8,
f2,
0f,
fb,
f8,
01,
f3,
0b,
05,
fe,
26,
f6,
11,
0f,
ff,
fd,
09,
fa,
17,
06,
08,
1c,
f7,
0e,
0b,
f5,
04,
fb,
f6,
f1,
1e,
0a,
05,
05,
fd,
fb,
ff,
fa,
ff,
03,
fa,
fd,
f1,
fb,
04,
fe,
05,
06,
f9,
fb,
05,
fa,
f8,
0c,
e9,
ff,
17,
ff,
08,
f5,
e5,
f5,
f3,
0a,
09,
0a,
f4,
f3,
f3,
ef,
fc,
02,
f2,
fc,
ff,
f6,
f1,
fb,
fb,
0a,
10,
0c,
fe,
f3,
fd,
f6,
08,
14,
f4,
08,
06,
f4,
03,
01,
0a,
08,
fc,
10,
13,
09,
08,
02,
fa,
f6,
01,
0b,
f1,
f1,
06,
fc,
0e,
02,
05,
03,
11,
02,
fb,
04,
01,
fa,
02,
ff,
05,
07,
0c,
08,
1a,
03,
f8,
0f,
0f,
e6,
f2,
0a,
fa,
00,
07,
ee,
e9,
00,
03,
f3,
01,
0e,
fd,
fb,
fe,
ff,
0d,
f3,
08,
00,
16,
14,
ff,
02,
06,
f5,
02,
e8,
ef,
0a,
e7,
f8,
fe,
ff,
01,
0a,
f1,
ee,
f4,
26,
0d,
0e,
f3,
fe,
05,
f1,
01,
05,
f7,
f4,
01,
fc,
f2,
fb,
15,
05,
fd,
ef,
fc,
00,
00,
01,
f3,
ef,
f6,
fb,
12,
04,
09,
17,
00,
03,
09,
f7,
fb,
0d,
fc,
fd,
11,
fc,
f6,
fc,
01,
08,
fd,
fe,
fa,
fc,
fa,
0e,
06,
0a,
ed,
f9,
06,
00,
f1,
ff,
10,
20,
05,
1c,
34,
02,
09,
0f,
07,
fc,
00,
0b,
07,
00,
02,
ef,
0d,
f9,
00,
07,
04,
1e,
08,
fb,
fe,
f6,
00,
e3,
e8,
03,
e4,
e7,
f9,
ec,
ea,
08,
05,
f4,
02,
0c,
f6,
03,
fc,
01,
fc,
f3,
ff,
0a,
f8,
fa,
04,
f3,
eb,
07,
fe,
ff,
01,
fb,
f6,
f9,
f5,
01,
fd,
fa,
f1,
fe,
f7,
f2,
fc,
f7,
f3,
0f,
e1,
05,
f6,
fa,
f7,
f8,
d2,
05,
01,
f8,
f4,
0e,
18,
16,
f7,
f8,
f8,
f6,
f1,
f7,
f2,
f1,
f1,
f5,
01,
f8,
f9,
df,
db,
fd,
d6,
14,
f5,
d4,
e2,
01,
0a,
08,
07,
0d,
fa,
0b,
04,
00,
f5,
fc,
08,
fa,
f6,
ff,
02,
08,
0f,
0b,
09,
05,
fe,
f7,
f8,
02,
f8,
06,
fe,
e9,
08,
ff,
d3,
31,
f1,
eb,
18,
f9,
0e,
f6,
ff,
f1,
fa,
ff,
f9,
08,
fc,
ff,
ff,
f9,
1d,
e7,
04,
f7,
f9,
f4,
0a,
0c,
eb,
ec,
f9,
00,
01,
ef,
02,
f4,
f2,
fb,
fe,
00,
0b,
02,
f3,
01,
fe,
fc,
06,
0c,
fa,
09,
05,
f8,
11,
07,
f2,
07,
f9,
ec,
07,
fd,
f1,
0f,
e5,
f1,
0f,
c4,
ec,
0a,
e3,
ea,
07,
ff,
f6,
ff,
04,
04,
f7,
08,
fe,
03,
10,
07,
fc,
fb,
fb,
0e,
01,
0e,
08,
08,
fd,
ff,
0f,
01,
08,
14,
02,
fb,
01,
02,
01,
fe,
12,
f6,
12,
05,
0a,
fe,
ff,
0e,
d8,
03,
10,
fa,
03,
f7,
09,
02,
f6,
f1,
12,
f3,
03,
10,
f3,
ee,
f8,
ef,
10,
d6,
f9,
f4,
e5,
02,
ff,
f3,
02,
05,
f2,
03,
09,
f3,
ff,
fc,
fc,
0a,
e6,
0a,
02,
f4,
09,
ff,
fb,
f3,
ff,
09,
04,
f5,
01,
01,
05,
00,
06,
04,
0b,
05,
00,
fe,
fd,
fd,
0d,
08,
15,
fb,
f2,
fe,
02,
f8,
04,
00,
00,
f6,
fe,
08,
01,
fa,
09,
f4,
01,
f4,
00,
18,
01,
fe,
eb,
03,
f9,
f4,
00,
00,
0e,
01,
fe,
fd,
f8,
06,
e6,
1a,
07,
99,
1f,
fc,
ea,
1f,
ed,
02,
01,
e0,
03,
f5,
f1,
fd,
fa,
10,
14,
02,
18,
10,
00,
03,
14,
06,
00,
f4,
c7,
eb,
dc,
81,
f8,
dd,
d0,
08,
ff,
f4,
fe,
02,
f9,
03,
07,
fd,
03,
0a,
f9,
01,
02,
f9,
f8,
fd,
fe,
fa,
f4,
0f,
06,
06,
0f,
f7,
f0,
f3,
0b,
03,
02,
01,
03,
0c,
02,
f8,
fb,
04,
0e,
09,
01,
0e,
0f,
08,
0e,
05,
f7,
f7,
f4,
00,
fe,
02,
f8,
fe,
03,
f7,
00,
d9,
ef,
f0,
d2,
ec,
fe,
dc,
05,
ff,
ff,
fe,
0f,
f0,
fb,
fc,
ff,
fb,
02,
fa,
03,
09,
08,
03,
06,
09,
01,
ef,
fb,
ff,
fc,
04,
fc,
fa,
00,
fb,
f8,
f8,
07,
f6,
03,
f3,
00,
fd,
fb,
e6,
f8,
16,
be,
e0,
02,
e5,
fc,
07,
fe,
06,
0a,
ff,
fe,
06,
fc,
fa,
04,
fb,
08,
01,
0e,
f5,
05,
08,
04,
00,
fd,
fa,
ff,
0d,
ff,
fd,
0c,
0c,
f9,
04,
02,
f1,
07,
fc,
fa,
07,
06,
0e,
0a,
05,
ff,
eb,
17,
f9,
e9,
fb,
06,
05,
10,
08,
f0,
f3,
07,
fa,
fd,
ff,
f5,
df,
13,
dc,
c0,
08,
f6,
e3,
fd,
f6,
07,
ee,
de,
fd,
f8,
e3,
06,
ff,
fe,
ff,
04,
fa,
07,
f9,
f1,
0c,
fc,
f6,
01,
07,
14,
f5,
00,
03,
fb,
ff,
f6,
0e,
01,
ef,
05,
f5,
f9,
08,
ff,
0a,
ff,
05,
fd,
08,
02,
fa,
02,
11,
01,
31,
1e,
a6,
2d,
1c,
e2,
26,
01,
ed,
01,
f7,
df,
ff,
01,
fe,
f3,
09,
16,
f3,
15,
07,
de,
09,
18,
f1,
02,
fd,
08,
f1,
11,
f0,
fe,
03,
00,
fc,
07,
f0,
fd,
fb,
fc,
01,
fe,
fb,
f5,
f1,
fc,
f5,
e4,
f4,
00,
f9,
ff,
fd,
f8,
ee,
02,
06,
f5,
05,
fe,
f7,
f3,
02,
e5,
f3,
1d,
d8,
f2,
0a,
e7,
03,
1a,
00,
04,
05,
eb,
03,
f6,
f9,
0d,
21,
ef,
04,
cc,
f4,
03,
fe,
ea,
10,
00,
14,
16,
e4,
fb,
0c,
de,
00,
f9,
f9,
04,
f0,
f3,
fc,
04,
f8,
f4,
05,
04,
f7,
f0,
19,
fa,
03,
f3,
07,
ef,
f9,
f1,
fc,
f7,
1f,
f9,
fb,
ff,
fe,
09,
f1,
07,
05,
0b,
fa,
0f,
08,
08,
00,
fd,
01,
15,
f4,
02,
fb,
0f,
fb,
ea,
ee,
fd,
14,
f6,
02,
01,
f9,
06,
06,
09,
fb,
e7,
fb,
f8,
05,
0f,
f9,
f9,
0c,
f8,
10,
09,
f3,
fa,
02,
f3,
05,
09,
fe,
08,
09,
0a,
09,
00,
06,
fa,
ff,
00,
fc,
03,
04,
00,
f6,
f3,
0b,
e3,
f0,
0c,
1c,
ef,
0b,
05,
00,
f5,
fc,
f5,
05,
f7,
ff,
08,
ff,
0a,
00,
f8,
04,
01,
01,
fe,
05,
fd,
fa,
f6,
28,
02,
f1,
18,
09,
f9,
f0,
04,
08,
1d,
04,
12,
22,
fe,
07,
12,
fb,
08,
ff,
04,
06,
fa,
00,
fe,
fc,
02,
00,
f3,
fa,
0e,
e6,
08,
ff,
03,
05,
13,
ef,
ef,
1a,
e5,
fe,
10,
f2,
04,
04,
05,
00,
fc,
12,
03,
0b,
12,
fe,
00,
fa,
03,
f2,
05,
08,
02,
0b,
fc,
ee,
f5,
fd,
fb,
ef,
fe,
fe,
f4,
04,
0d,
04,
fd,
15,
f0,
fc,
02,
f5,
02,
f0,
08,
ff,
fd,
01,
01,
04,
02,
fb,
07,
21,
03,
0e,
14,
f8,
10,
fd,
00,
fb,
15,
02,
f3,
2d,
03,
13,
16,
f5,
0b,
04,
f3,
fe,
01,
06,
00,
03,
ff,
fa,
fa,
fe,
0a,
f2,
08,
00,
fe,
04,
09,
05,
02,
01,
12,
04,
16,
0a,
f5,
09,
f3,
ff,
0d,
ea,
f9,
09,
fa,
ff,
e6,
ff,
08,
ed,
fe,
06,
fa,
f6,
fe,
01,
f8,
fb,
03,
f9,
fe,
fd,
ea,
01,
dd,
04,
e5,
eb,
00,
fe,
fd,
05,
fb,
f7,
04,
fc,
f0,
04,
05,
f0,
02,
f9,
01,
fd,
03,
f7,
04,
05,
08,
01,
f2,
09,
ee,
f5,
06,
00,
f7,
fd,
07,
fa,
f8,
04,
e7,
f6,
fd,
fc,
0c,
01,
05,
f7,
05,
fe,
ef,
08,
08,
ff,
f9,
02,
e0,
f9,
04,
bb,
19,
fd,
df,
fe,
05,
13,
15,
0f,
1d,
ff,
18,
f4,
00,
00,
09,
02,
fe,
00,
0d,
ff,
00,
02,
0e,
01,
01,
17,
1b,
e5,
09,
02,
fc,
ff,
01,
fb,
fe,
06,
05,
07,
07,
01,
04,
f2,
10,
f0,
fa,
07,
fd,
f6,
05,
f8,
01,
fe,
f8,
fc,
fc,
06,
0a,
fe,
fc,
fa,
03,
f9,
05,
08,
02,
f8,
10,
ff,
03,
06,
04,
fa,
0a,
ff,
e3,
07,
00,
e6,
fe,
e6,
d9,
f1,
f6,
ee,
f7,
0e,
e7,
ff,
f3,
dc,
1f,
05,
fe,
16,
ff,
08,
0a,
c9,
f1,
15,
e3,
ec,
0a,
07,
ff,
f8,
04,
07,
ef,
f9,
fe,
f4,
fd,
f8,
eb,
0c,
f3,
0b,
08,
fb,
fe,
04,
0a,
11,
fe,
13,
06,
05,
0e,
01,
08,
f7,
18,
02,
07,
0a,
02,
18,
0b,
02,
0e,
04,
fb,
17,
07,
f8,
fc,
fe,
01,
f6,
ed,
09,
f3,
f5,
ff,
f5,
e8,
f8,
00,
fd,
f9,
15,
ef,
fe,
ff,
f4,
f1,
ef,
08,
f5,
e4,
07,
f6,
e9,
0d,
02,
09,
ff,
01,
fe,
fe,
06,
04,
03,
02,
f9,
f2,
03,
fa,
f3,
04,
f9,
f7,
ed,
0b,
00,
ea,
fa,
f7,
ed,
f8,
0a,
05,
00,
0e,
f4,
f1,
f0,
f4,
0c,
01,
03,
08,
fc,
10,
1e,
b9,
fc,
03,
ff,
06,
ff,
13,
01,
db,
22,
07,
f3,
13,
f9,
02,
0f,
fe,
17,
0b,
01,
0e,
02,
f5,
f9,
f8,
f9,
fa,
fa,
fd,
0d,
fc,
ff,
dd,
fa,
02,
1d,
ff,
f8,
fa,
f7,
22,
fd,
dc,
f8,
f9,
04,
dd,
03,
6a,
dd,
d4,
e1,
30,
3f,
1f,
06,
15,
f1,
fe,
ed,
06,
fe,
ff,
02,
05,
0b,
01,
d9,
c4,
e5,
cd,
c5,
e6,
ef,
f6,
ea,
0a,
16,
02,
05,
04,
05,
fa,
fb,
f7,
0c,
0a,
ff,
0c,
02,
05,
03,
f6,
fb,
11,
03,
f2,
fe,
03,
f8,
00,
f7,
f7,
fc,
16,
02,
03,
1a,
06,
0c,
1f,
1a,
e7,
e7,
ec,
e7,
0e,
03,
0b,
3a,
14,
f5,
e6,
ef,
e7,
f2,
f8,
fa,
f8,
00,
25,
5e,
1f,
02,
0c,
fb,
fd,
e5,
fc,
f9,
f1,
02,
f4,
fb,
f4,
08,
0d,
fc,
00,
ec,
ec,
f8,
e0,
e7,
0b,
f5,
f3,
04,
f7,
07,
ee,
df,
ff,
f7,
f2,
01,
e3,
da,
ed,
fc,
0e,
1b,
f7,
08,
21,
07,
05,
1a,
0d,
f8,
15,
08,
f0,
01,
03,
0c,
fa,
03,
11,
00,
f6,
ff,
02,
13,
0d,
04,
e8,
ea,
f6,
1a,
18,
ff,
fb,
e0,
fc,
07,
13,
11,
e8,
e6,
f4,
02,
f8,
f5,
f0,
f1,
f2,
03,
fa,
ff,
fa,
04,
0c,
f8,
04,
0f,
0b,
fa,
fb,
18,
1d,
11,
fc,
1b,
22,
00,
df,
15,
fe,
fa,
fe,
f4,
fb,
fe,
f9,
f8,
f2,
05,
e2,
1f,
f1,
f3,
12,
f5,
19,
e6,
1b,
e8,
fb,
00,
f2,
eb,
e0,
14,
20,
fc,
ee,
06,
f4,
0a,
09,
e2,
f6,
09,
fc,
de,
13,
f6,
f5,
0a,
ea,
2e,
f7,
f9,
15,
02,
ff,
04,
f7,
09,
eb,
e9,
02,
f0,
eb,
fa,
ed,
f2,
0b,
fc,
fb,
f0,
ea,
ef,
17,
38,
0e,
e7,
e9,
ef,
fc,
fd,
ff,
f9,
f8,
f3,
04,
fa,
ef,
f0,
ef,
05,
fd,
f3,
04,
fb,
fd,
0b,
03,
0e,
06,
db,
bd,
d8,
fd,
10,
01,
fc,
0f,
ec,
fa,
04,
e6,
f9,
f6,
05,
00,
1a,
07,
fc,
1a,
0e,
fa,
d8,
f4,
f1,
e8,
ea,
fb,
02,
f5,
05,
fe,
fc,
f6,
0f,
05,
04,
fd,
04,
f7,
f4,
0d,
10,
00,
06,
05,
11,
04,
0a,
1c,
fe,
17,
f4,
f7,
0f,
fa,
03,
fe,
17,
17,
fb,
07,
08,
00,
06,
fe,
10,
09,
ee,
f0,
fe,
f6,
0e,
f3,
f9,
fc,
de,
f0,
02,
0c,
08,
08,
fe,
13,
08,
f2,
03,
06,
00,
eb,
0c,
07,
fe,
17,
0a,
0f,
fc,
f6,
fc,
20,
0e,
0d,
e3,
f1,
fd,
07,
f9,
ff,
08,
f4,
03,
fb,
10,
03,
fb,
10,
10,
01,
0d,
fb,
eb,
fe,
e6,
eb,
03,
fb,
02,
f7,
07,
f9,
fe,
1e,
19,
04,
f8,
fb,
fd,
f3,
f7,
05,
fd,
07,
f1,
13,
da,
b1,
ef,
11,
02,
14,
e4,
bd,
f6,
f3,
03,
f3,
f6,
ff,
f0,
fd,
03,
f4,
fd,
ff,
ed,
f5,
02,
f0,
02,
f0,
f0,
05,
f7,
ed,
06,
fe,
ed,
f9,
f7,
fb,
f1,
eb,
f9,
ff,
fb,
f6,
00,
12,
0d,
03,
17,
03,
f2,
fa,
02,
f7,
f9,
f7,
fa,
f6,
f3,
f3,
f0,
fa,
e9,
f8,
0b,
fe,
eb,
fc,
04,
06,
f0,
f6,
0f,
08,
e7,
f4,
f7,
21,
d7,
f5,
fe,
14,
f8,
fa,
f6,
fd,
01,
d7,
f8,
f6,
f4,
f8,
00,
ff,
07,
0e,
0d,
11,
13,
15,
07,
09,
24,
f8,
d2,
5e,
01,
ff,
e4,
e5,
ff,
f8,
e3,
fd,
f6,
f9,
07,
00,
f5,
00,
f1,
fe,
fe,
f8,
0e,
e4,
f2,
fd,
04,
10,
fb,
05,
0e,
fe,
f6,
08,
f5,
f2,
f2,
fa,
21,
cc,
1d,
10,
14,
10,
fd,
05,
0a,
f5,
fc,
07,
f5,
f5,
05,
e3,
ec,
01,
ff,
06,
02,
04,
0f,
fe,
02,
f0,
eb,
fd,
dc,
ee,
03,
12,
f9,
04,
12,
f9,
08,
ee,
eb,
0c,
08,
11,
f5,
01,
0d,
fa,
10,
f8,
13,
04,
0d,
13,
f9,
fd,
02,
fe,
f4,
09,
02,
e9,
1d,
1c,
05,
07,
f9,
fd,
06,
10,
12,
07,
03,
0b,
03,
f5,
ff,
07,
ff,
f4,
0b,
15,
01,
fa,
07,
09,
f8,
e9,
f8,
ff,
fe,
04,
0e,
0b,
fa,
03,
fc,
f8,
f1,
06,
03,
ec,
f7,
f2,
ea,
e8,
24,
ee,
06,
05,
f1,
00,
ce,
07,
02,
f9,
ee,
f6,
00,
06,
0a,
fe,
e4,
c2,
e3,
0e,
3c,
08,
f9,
06,
06,
00,
f2,
09,
fa,
ef,
04,
0d,
0c,
19,
01,
0a,
05,
fe,
01,
fd,
03,
0c,
f7,
e8,
e8,
fd,
0d,
f4,
08,
f7,
d8,
f8,
12,
03,
00,
f3,
0a,
0a,
fb,
fb,
11,
f3,
ee,
16,
f1,
ec,
03,
04,
0c,
fe,
f6,
04,
fa,
fa,
e9,
05,
00,
ff,
05,
13,
36,
1d,
de,
e6,
fe,
fa,
f7,
02,
db,
bc,
f6,
e0,
d1,
04,
00,
04,
11,
ff,
f6,
fd,
f8,
04,
f2,
f3,
10,
ff,
fd,
ef,
ef,
0a,
0b,
00,
fd,
2c,
08,
f8,
f7,
f5,
01,
08,
ff,
0d,
24,
fb,
f1,
e0,
dc,
f8,
fb,
ef,
0f,
16,
0b,
18,
09,
15,
f3,
df,
02,
f3,
fa,
f7,
14,
ff,
05,
dd,
b8,
e1,
e4,
dc,
df,
fb,
ff,
00,
fc,
fc,
04,
f7,
e3,
fb,
05,
fb,
fd,
f1,
07,
0b,
11,
0c,
09,
e3,
a7,
d6,
bb,
81,
c3,
02,
1e,
07,
06,
fc,
f5,
ff,
f9,
fb,
fe,
f5,
fd,
03,
17,
fe,
0d,
04,
00,
f4,
ec,
ec,
fe,
fa,
fb,
01,
f1,
fb,
fa,
ea,
f2,
04,
15,
0a,
f9,
0b,
02,
fd,
01,
fb,
10,
14,
fc,
f0,
de,
f0,
f4,
f5,
0e,
00,
ec,
f6,
03,
b7,
df,
03,
df,
f6,
f3,
01,
08,
f9,
f8,
04,
fa,
ed,
09,
fe,
ff,
fc,
0a,
0e,
f6,
f7,
19,
e4,
07,
f8,
03,
0c,
06,
03,
14,
fd,
01,
13,
06,
0a,
02,
03,
0f,
fc,
08,
06,
ee,
e5,
e4,
f4,
e7,
e7,
de,
da,
da,
0c,
ed,
f2,
02,
ee,
fd,
14,
1c,
01,
21,
07,
0d,
02,
fc,
fb,
f4,
ff,
01,
03,
0d,
1f,
f9,
fd,
00,
f9,
ee,
00,
13,
06,
0f,
f9,
08,
10,
fe,
f5,
03,
ed,
f5,
0b,
f0,
f4,
f5,
ef,
08,
f5,
0a,
fa,
02,
fe,
f9,
01,
ff,
f8,
02,
fc,
ee,
f1,
11,
f7,
fc,
0a,
f2,
ea,
f5,
05,
e7,
ff,
0d,
e7,
ff,
f1,
11,
fe,
f3,
13,
f4,
e6,
12,
fe,
13,
0d,
04,
fc,
f3,
0d,
f9,
02,
0e,
fe,
08,
06,
0a,
01,
e5,
d9,
ed,
e6,
c4,
eb,
fa,
f0,
05,
05,
f8,
16,
f7,
ed,
0a,
0a,
fa,
07,
07,
26,
10,
fe,
fd,
f0,
0a,
f9,
03,
0c,
fc,
02,
ff,
fa,
07,
04,
00,
0b,
fe,
fa,
05,
fc,
f6,
fe,
f5,
49,
cd,
13,
ff,
00,
1f,
95,
3d,
1d,
3e,
2d,
f1,
ca,
d5,
0f,
0f,
eb,
fe,
f9,
f7,
17,
1b,
ea,
16,
0e,
e2,
fd,
e4,
18,
0d,
da,
0e,
fd,
09,
e4,
fb,
15,
ff,
fa,
07,
00,
f8,
00,
13,
ff,
0a,
0a,
08,
02,
fc,
12,
05,
f3,
f5,
fd,
02,
f9,
f5,
09,
08,
07,
00,
fb,
fe,
f9,
fe,
e5,
02,
e9,
01,
ff,
f9,
f5,
fc,
c6,
81,
e3,
ea,
e3,
e4,
02,
0d,
03,
08,
d8,
f7,
1b,
01,
ec,
0f,
11,
10,
be,
b4,
cd,
20,
2a,
0b,
f9,
fb,
fc,
0b,
0e,
18,
07,
f2,
02,
fd,
03,
f8,
f9,
fc,
00,
09,
11,
05,
05,
0a,
fe,
f5,
01,
fd,
f2,
f9,
00,
ff,
fa,
01,
fb,
ea,
f9,
ec,
fe,
ee,
09,
10,
09,
0c,
0c,
01,
ec,
e6,
f5,
fa,
0e,
07,
04,
fe,
fa,
05,
f7,
fa,
f7,
f6,
fa,
f0,
e7,
ea,
04,
02,
fd,
f6,
08,
f4,
ed,
ec,
f0,
10,
07,
0f,
07,
f8,
fd,
fe,
06,
0a,
1a,
06,
11,
fb,
f4,
f4,
0b,
09,
10,
14,
25,
08,
f0,
ff,
f4,
f0,
fb,
fd,
e5,
0d,
d9,
f6,
f9,
fa,
fb,
fa,
02,
0f,
11,
10,
ff,
fc,
fa,
fd,
ee,
f6,
13,
f0,
06,
02,
07,
08,
f6,
f9,
fa,
08,
fb,
1c,
04,
03,
07,
26,
23,
14,
bb,
a5,
cd,
fe,
fc,
ff,
03,
08,
f4,
fa,
19,
03,
00,
fc,
fe,
07,
09,
16,
f4,
ed,
fa,
fa,
09,
01,
f1,
00,
fa,
e4,
c0,
ee,
ff,
09,
ff,
00,
fe,
fc,
01,
04,
ff,
fc,
0c,
0b,
fd,
06,
fc,
0f,
eb,
eb,
fe,
07,
09,
06,
f9,
01,
01,
fc,
eb,
f6,
f5,
f6,
03,
f3,
02,
0f,
f4,
eb,
04,
09,
06,
e8,
0e,
fe,
ff,
fd,
06,
02,
07,
fd,
04,
0e,
0f,
f3,
0d,
10,
01,
05,
ff,
f8,
fb,
fc,
0a,
05,
ff,
0a,
0b,
0a,
01,
00,
01,
f3,
e3,
05,
11,
0b,
03,
fa,
f9,
fe,
0c,
fa,
09,
09,
fd,
02,
ff,
f8,
06,
02,
fb,
05,
05,
ff,
fc,
f3,
f1,
fa,
03,
f5,
f3,
fc,
f0,
00,
03,
f9,
ea,
01,
eb,
18,
f9,
12,
04,
fc,
0a,
fd,
03,
f0,
06,
04,
ff,
00,
fd,
f1,
fc,
fe,
fa,
ff,
08,
fe,
00,
17,
10,
02,
04,
08,
f2,
08,
fc,
fd,
0d,
11,
14,
02,
f6,
06,
0d,
fa,
05,
09,
05,
09,
f9,
07,
f1,
fa,
f6,
ee,
06,
0c,
09,
fb,
fc,
f9,
02,
ee,
fc,
f6,
06,
ff,
db,
f0,
e9,
04,
07,
fd,
02,
0f,
05,
00,
0f,
f6,
fe,
09,
00,
fc,
f8,
f8,
07,
f4,
01,
f7,
f7,
f4,
f7,
fa,
f1,
ef,
e8,
00,
07,
03,
08,
f9,
f9,
fd,
00,
e6,
01,
f6,
f5,
f4,
09,
e5,
08,
24,
f0,
eb,
00,
fa,
02,
f6,
07,
fd,
0d,
f2,
0c,
04,
03,
0d,
17,
0a,
18,
f7,
fc,
02,
f7,
09,
ff,
fc,
0a,
f8,
01,
1d,
fc,
f2,
02,
f0,
f6,
fd,
14,
43,
58,
46,
04,
04,
ff,
ff,
01,
0b,
04,
f8,
ff,
ff,
ff,
f8,
f2,
f7,
03,
01,
f2,
14,
fa,
f6,
fb,
01,
fb,
08,
11,
fb,
07,
0d,
02,
07,
ff,
ee,
f0,
06,
f7,
0d,
0d,
ff,
11,
f0,
d4,
f9,
00,
05,
0a,
fa,
fc,
0c,
fc,
04,
03,
09,
f2,
fe,
08,
0b,
f2,
00,
fd,
02,
f2,
f4,
07,
f4,
f9,
f2,
06,
fe,
02,
1e,
16,
25,
f6,
02,
03,
09,
08,
fc,
08,
e2,
06,
f9,
ff,
f9,
ef,
e8,
fd,
f9,
10,
15,
03,
ec,
f3,
fe,
02,
f4,
03,
c9,
00,
fc,
f7,
08,
fd,
04,
0e,
13,
ea,
f6,
02,
ff,
06,
00,
f2,
06,
ff,
06,
ef,
09,
fb,
fe,
0c,
f0,
01,
e3,
0a,
02,
f5,
f8,
ee,
02,
16,
06,
0c,
fb,
0a,
ff,
fe,
ff,
f6,
f9,
f4,
14,
ea,
04,
04,
05,
fa,
ed,
f2,
ff,
f4,
12,
00,
fb,
1e,
ff,
fb,
fc,
fe,
0d,
17,
09,
f8,
02,
f7,
f6,
09,
09,
01,
f7,
e8,
fd,
ff,
03,
fc,
e6,
f8,
fc,
16,
01,
02,
f9,
04,
ea,
f2,
0b,
10,
07,
0b,
ff,
fc,
fe,
07,
01,
06,
0e,
fa,
0b,
fa,
fb,
0b,
06,
05,
0c,
f4,
f9,
13,
f8,
f9,
fd,
0d,
0d,
04,
f9,
f6,
f3,
fd,
fa,
f8,
f6,
00,
f8,
0b,
02,
03,
09,
0c,
f6,
06,
e1,
ee,
12,
16,
0b,
01,
03,
fd,
03,
0f,
04,
f9,
f6,
fd,
02,
fc,
ff,
41,
48,
3c,
e5,
ed,
f9,
01,
01,
fb,
ff,
ef,
f2,
f2,
e9,
01,
f6,
f9,
f3,
fe,
01,
03,
05,
04,
04,
ee,
f8,
f0,
07,
fc,
ff,
fa,
f9,
fd,
08,
fd,
ff,
fc,
fe,
fd,
f2,
f5,
f6,
f0,
fe,
fd,
f8,
f9,
fe,
f9,
fb,
02,
fb,
0b,
f9,
1d,
09,
13,
08,
06,
0a,
02,
f9,
fe,
ef,
d6,
01,
0a,
01,
05,
0b,
0f,
fb,
dd,
d5,
e3,
e6,
1e,
d1,
07,
ff,
03,
fc,
16,
fd,
05,
f8,
0a,
fc,
f1,
06,
ed,
f6,
f6,
f7,
06,
05,
f4,
fe,
ff,
01,
0e,
1a,
0c,
fd,
ea,
ff,
f6,
03,
f2,
db,
e9,
00,
ea,
01,
fc,
04,
0a,
0f,
02,
fe,
08,
f3,
04,
f1,
f4,
f3,
f5,
e5,
01,
19,
19,
1f,
08,
0e,
0b,
f8,
f8,
fe,
ff,
ed,
f9,
10,
0d,
05,
17,
13,
fe,
f1,
fd,
e8,
05,
04,
06,
13,
12,
0f,
16,
f6,
16,
f3,
ec,
f3,
f2,
ef,
f0,
05,
12,
05,
0a,
03,
01,
02,
0c,
01,
03,
0a,
f8,
ec,
f4,
fb,
2e,
27,
0c,
f0,
fc,
fa,
00,
ef,
02,
03,
01,
0b,
09,
e3,
ff,
fb,
ee,
f4,
f9,
fb,
0c,
f3,
cc,
f2,
f2,
fa,
f3,
13,
0a,
fe,
fb,
06,
09,
0a,
03,
07,
f9,
f7,
fd,
06,
f0,
11,
0e,
f9,
02,
f2,
d0,
ec,
fa,
ee,
00,
f9,
03,
ff,
00,
f8,
fd,
0c,
06,
08,
ef,
02,
f1,
01,
00,
f5,
fb,
02,
f4,
03,
03,
00,
02,
ef,
ff,
f2,
f2,
ed,
fe,
01,
ff,
f6,
f0,
06,
df,
ee,
f6,
f3,
fa,
00,
05,
0a,
13,
ee,
02,
ee,
fe,
01,
ff,
02,
07,
0b,
1e,
0e,
0a,
f0,
e8,
f4,
f9,
dd,
07,
f7,
ec,
19,
f9,
ee,
03,
08,
0a,
09,
e9,
f7,
02,
f0,
f1,
f0,
00,
02,
07,
03,
02,
0c,
00,
ff,
f8,
ef,
13,
0a,
d7,
e4,
f5,
fc,
05,
ff,
01,
03,
fe,
01,
07,
f5,
02,
fe,
04,
01,
ff,
ff,
1a,
3a,
07,
f7,
04,
0c,
08,
12,
fa,
fe,
02,
fb,
e9,
eb,
ec,
ef,
ef,
e9,
f1,
e9,
e8,
ff,
f0,
03,
fd,
eb,
fd,
f8,
14,
f1,
fd,
f1,
f0,
12,
09,
09,
fa,
f4,
fe,
01,
ec,
f7,
fe,
eb,
00,
0c,
f1,
0a,
ff,
fe,
fe,
03,
02,
03,
01,
01,
01,
0c,
05,
04,
1b,
ff,
06,
04,
05,
f1,
08,
ef,
11,
fe,
ff,
05,
0e,
22,
f3,
0d,
fc,
0c,
01,
dc,
04,
f9,
09,
03,
01,
05,
fe,
f6,
00,
e7,
0b,
da,
25,
03,
05,
00,
e6,
dd,
f1,
eb,
e7,
f3,
f7,
f9,
f7,
01,
fb,
ff,
0d,
f8,
0b,
08,
08,
06,
f4,
11,
e1,
ec,
f9,
eb,
f9,
01,
f7,
09,
10,
02,
fb,
0b,
f7,
18,
24,
11,
f3,
eb,
fa,
1f,
35,
1b,
f3,
0c,
04,
fc,
fe,
11,
fd,
fe,
fb,
c6,
81,
b9,
fe,
01,
06,
e8,
ea,
ec,
fb,
1a,
12,
00,
04,
fc,
fd,
06,
fe,
06,
0d,
06,
ff,
f8,
fc,
ff,
02,
00,
f4,
ec,
f7,
ef,
f5,
ec,
ef,
f1,
f0,
fc,
0c,
fb,
f5,
fb,
ed,
fb,
00,
00,
f7,
ec,
f9,
fa,
f0,
fa,
15,
13,
05,
ff,
01,
ff,
f0,
fc,
04,
f7,
f2,
ee,
e0,
0c,
e4,
09,
f8,
0b,
e1,
94,
df,
00,
fd,
ff,
fa,
00,
f0,
fa,
f7,
f1,
ff,
e0,
fd,
fa,
f7,
f5,
ff,
f2,
fa,
05,
14,
fa,
fd,
dc,
f2,
fa,
f3,
fa,
fe,
01,
09,
f7,
e1,
f8,
08,
27,
12,
0b,
ff,
04,
0f,
fe,
0d,
02,
fc,
01,
0c,
0f,
0a,
fe,
0d,
03,
09,
12,
09,
06,
fe,
f1,
06,
19,
0f,
08,
15,
08,
13,
2b,
20,
eb,
cb,
e1,
14,
36,
1c,
03,
e2,
f5,
07,
eb,
f7,
01,
f9,
09,
0a,
10,
04,
f7,
ef,
f6,
ff,
0f,
05,
08,
1a,
fc,
04,
11,
11,
12,
0e,
0d,
04,
0f,
04,
06,
f7,
01,
01,
01,
03,
08,
05,
fa,
01,
0a,
0a,
fa,
08,
f6,
08,
0a,
f4,
f2,
f2,
05,
04,
ff,
fc,
fe,
01,
12,
f8,
00,
0a,
04,
05,
05,
ee,
f8,
fb,
ff,
08,
05,
f8,
15,
01,
ff,
05,
f8,
10,
04,
fd,
f2,
e9,
ee,
fc,
f9,
fc,
f8,
02,
f9,
09,
00,
0f,
f7,
f5,
ee,
02,
1d,
04,
ed,
d7,
e9,
fc,
08,
00,
05,
fd,
0a,
09,
0d,
0f,
05,
0b,
04,
fd,
00,
fe,
ff,
07,
09,
f9,
fd,
ff,
ec,
c7,
f0,
05,
0d,
0f,
02,
03,
f6,
01,
f5,
e8,
f7,
fd,
fe,
00,
0a,
ff,
ec,
f5,
fd,
00,
05,
03,
05,
fa,
fd,
f8,
f9,
fc,
00,
f6,
02,
ed,
11,
14,
0f,
04,
fc,
12,
0b,
04,
06,
f6,
08,
fe,
ee,
fd,
08,
09,
04,
0a,
0f,
02,
05,
f8,
f6,
08,
08,
06,
0a,
ef,
03,
ed,
e6,
eb,
03,
ff,
fa,
fb,
f0,
ec,
0d,
0f,
16,
f4,
ea,
03,
fe,
05,
04,
fe,
0c,
08,
05,
f7,
00,
07,
fd,
00,
00,
07,
fe,
0c,
0d,
08,
ef,
e1,
02,
0e,
1a,
08,
f5,
1c,
fb,
f6,
08,
05,
ff,
f4,
fc,
f1,
fb,
05,
fc,
25,
fd,
ee,
e0,
01,
04,
01,
05,
09,
06,
0a,
f8,
02,
fc,
04,
0e,
11,
f1,
fc,
fc,
f4,
ee,
f3,
09,
0b,
02,
14,
16,
0a,
fe,
81,
02,
0e,
fd,
0c,
08,
de,
10,
0d,
15,
0d,
0c,
07,
06,
04,
06,
ff,
00,
f0,
f3,
f7,
ff,
f9,
10,
06,
05,
01,
ed,
fa,
00,
fd,
02,
ff,
e6,
f5,
fd,
f1,
f9,
f7,
ff,
00,
07,
01,
f2,
0c,
05,
00,
fc,
00,
fe,
0a,
09,
fb,
09,
0b,
0b,
fa,
bf,
08,
02,
f9,
05,
ef,
f9,
ff,
06,
09,
00,
fd,
0c,
05,
15,
f6,
f8,
fe,
0a,
0a,
f4,
fb,
f8,
fb,
0a,
ef,
f9,
03,
08,
04,
f6,
fb,
f9,
fd,
03,
04,
19,
fe,
08,
18,
f7,
1b,
02,
01,
04,
fb,
f4,
fc,
db,
f5,
f5,
f3,
eb,
01,
ee,
02,
f7,
fb,
f2,
f7,
e9,
fc,
f9,
f9,
06,
f8,
02,
18,
f5,
fd,
e9,
0b,
19,
00,
03,
fd,
f7,
ff,
f7,
ff,
fa,
01,
ff,
08,
25,
fc,
fb,
02,
16,
ff,
fa,
02,
f7,
00,
06,
ff,
07,
07,
f8,
f8,
fa,
f7,
ff,
f9,
0e,
f1,
12,
f5,
c8,
f4,
0b,
03,
05,
fd,
f3,
fd,
fd,
04,
f5,
07,
fe,
ff,
0a,
fd,
04,
0c,
09,
f5,
0f,
01,
00,
fb,
01,
f0,
ea,
ff,
fd,
fb,
08,
f9,
f9,
0f,
01,
f8,
fa,
fc,
f9,
fb,
f4,
04,
fe,
f8,
f6,
ff,
ef,
f2,
f8,
ef,
e5,
ea,
f8,
06,
f9,
0e,
fe,
ff,
fe,
f2,
ee,
f8,
0d,
04,
14,
04,
ee,
ff,
ee,
fd,
f7,
0e,
f6,
ff,
e7,
04,
06,
fd,
f8,
09,
05,
f6,
02,
05,
11,
09,
08,
e6,
f6,
fe,
04,
09,
11,
0e,
15,
04,
e8,
00,
f4,
21,
f9,
07,
ff,
f2,
05,
f3,
ef,
f0,
06,
0c,
03,
fe,
f7,
ff,
05,
f9,
fc,
f8,
f8,
fd,
f1,
f7,
f3,
f1,
f9,
fb,
f1,
01,
f9,
f2,
fd,
fc,
0b,
0e,
00,
0e,
f5,
ff,
1a,
05,
e2,
d9,
d2,
ed,
03,
f5,
e1,
dd,
ea,
0b,
12,
10,
e6,
e4,
f0,
f9,
2b,
03,
eb,
9e,
0e,
ec,
b7,
f1,
09,
e0,
0f,
09,
9b,
12,
fb,
f3,
fe,
f8,
0c,
f8,
fa,
12,
f4,
00,
ee,
03,
fc,
ed,
00,
00,
f4,
02,
fb,
0e,
ff,
05,
08,
02,
f8,
da,
f7,
ff,
e8,
fd,
f8,
f1,
ed,
02,
15,
09,
fc,
f9,
fa,
fd,
f6,
f8,
fc,
f1,
fb,
ef,
e5,
ef,
06,
dc,
fd,
e3,
ad,
ed,
f5,
e5,
fb,
fe,
ec,
f2,
0a,
02,
04,
04,
05,
03,
f1,
f9,
0c,
12,
1c,
15,
f3,
10,
ff,
00,
02,
00,
06,
d3,
05,
ed,
ff,
ea,
12,
fe,
03,
05,
ee,
05,
01,
ee,
fd,
fc,
11,
01,
07,
ed,
03,
f5,
ff,
fe,
00,
0b,
00,
01,
fa,
fb,
ff,
ff,
05,
05,
23,
07,
09,
f8,
16,
07,
f1,
05,
0f,
51,
f9,
ef,
ce,
f3,
e5,
c0,
ef,
0d,
1e,
16,
04,
e3,
09,
ed,
d8,
f6,
fb,
f2,
f3,
f3,
ef,
ef,
05,
fb,
ff,
00,
0a,
0e,
10,
06,
08,
01,
08,
02,
fe,
f1,
fd,
02,
fb,
0a,
07,
fe,
07,
0a,
1c,
0f,
f8,
fb,
f0,
04,
05,
06,
f7,
f4,
fa,
0d,
d1,
ff,
e7,
d2,
dc,
09,
11,
05,
f2,
e5,
f0,
f7,
09,
05,
03,
01,
05,
13,
ff,
f8,
05,
01,
01,
fb,
e4,
f1,
f7,
cb,
f7,
fb,
fb,
f7,
04,
2a,
ed,
fe,
d2,
f8,
f9,
c7,
05,
f5,
02,
01,
f0,
ea,
fc,
10,
10,
01,
00,
f8,
fa,
fe,
0b,
02,
0a,
0e,
07,
07,
20,
fb,
ee,
da,
09,
01,
08,
02,
fc,
fd,
02,
f8,
f7,
f0,
fd,
f5,
f9,
fd,
e0,
20,
03,
cb,
f0,
f8,
09,
f9,
05,
11,
04,
0e,
e7,
fb,
0d,
10,
06,
f8,
eb,
fe,
f5,
e4,
ee,
e9,
de,
e3,
04,
f9,
fc,
02,
ec,
04,
f3,
f7,
f8,
09,
1e,
09,
0d,
f1,
fc,
1c,
09,
1a,
15,
fd,
03,
07,
fd,
04,
f9,
f9,
f0,
fc,
fb,
fc,
f9,
fa,
fc,
f5,
f9,
f7,
0f,
06,
03,
f8,
f9,
05,
06,
14,
01,
f9,
ff,
00,
14,
f0,
1e,
fd,
df,
fb,
fb,
09,
fe,
f9,
d2,
f9,
07,
f7,
08,
09,
fd,
01,
07,
06,
f3,
0c,
07,
fc,
fc,
01,
04,
ff,
05,
05,
f7,
0f,
05,
fc,
ed,
f8,
01,
06,
ff,
05,
fd,
03,
f7,
ed,
f8,
07,
f5,
ff,
08,
0a,
fa,
eb,
06,
02,
f0,
1c,
2d,
f4,
12,
16,
fe,
04,
22,
11,
06,
0c,
fc,
05,
f8,
01,
fe,
00,
ef,
f2,
f2,
fb,
fa,
00,
f8,
fd,
fd,
ff,
fd,
0b,
07,
08,
17,
fe,
f9,
f6,
f9,
01,
e9,
fd,
fc,
f8,
fe,
01,
00,
ff,
05,
00,
fd,
ff,
fb,
ee,
f0,
12,
f7,
f4,
08,
f7,
f8,
04,
07,
0d,
12,
0b,
0e,
13,
06,
02,
02,
02,
f0,
04,
01,
fd,
fb,
0c,
0e,
09,
03,
07,
0e,
f6,
f2,
fc,
0c,
0c,
06,
0a,
16,
ff,
ea,
f2,
dc,
05,
0b,
0a,
05,
ef,
f8,
04,
fe,
fc,
04,
fb,
04,
05,
00,
0a,
07,
00,
04,
08,
01,
04,
f8,
e6,
fa,
06,
1c,
08,
09,
0e,
02,
02,
0b,
07,
f9,
0b,
0c,
f4,
f7,
ff,
04,
05,
07,
00,
00,
09,
fb,
f6,
03,
fc,
fe,
ff,
fa,
0c,
f3,
ff,
12,
09,
04,
02,
04,
01,
0d,
fe,
00,
08,
06,
fb,
04,
f7,
fb,
03,
fc,
0b,
0c,
03,
f6,
fe,
fe,
fa,
07,
17,
f0,
04,
0c,
f7,
fd,
0a,
f4,
f9,
f8,
ea,
f2,
f6,
ff,
0a,
f9,
fc,
02,
f7,
0a,
0c,
eb,
fd,
f7,
fb,
fe,
00,
03,
00,
fe,
0b,
05,
05,
da,
f8,
32,
81,
ff,
14,
ca,
0c,
02,
0a,
f8,
04,
07,
fa,
03,
11,
f5,
f6,
09,
fe,
07,
ff,
ff,
01,
fd,
fd,
e8,
ec,
ea,
cd,
f5,
01,
f1,
f7,
ff,
04,
f9,
f7,
fc,
f6,
03,
f9,
fc,
03,
01,
02,
fd,
04,
04,
fd,
fe,
ff,
04,
07,
ff,
f7,
f9,
02,
06,
09,
0b,
ff,
00,
fe,
01,
fd,
ff,
fd,
03,
08,
f8,
f6,
07,
f4,
fa,
f7,
fd,
02,
f8,
fe,
f1,
fb,
0a,
10,
08,
02,
f8,
fe,
0d,
13,
f1,
20,
1e,
e2,
12,
12,
ee,
fe,
00,
fe,
fb,
07,
06,
f2,
f8,
05,
fc,
f9,
f9,
f5,
fd,
00,
f7,
fa,
f5,
fc,
f8,
f9,
02,
00,
0c,
0e,
03,
f8,
fe,
03,
f9,
0a,
12,
03,
0b,
02,
0b,
0d,
09,
2c,
0f,
0f,
44,
0d,
07,
31,
f8,
fe,
07,
03,
fd,
12,
02,
05,
08,
0d,
03,
09,
07,
fc,
0e,
04,
02,
ff,
fe,
fa,
0b,
fe,
f9,
02,
f6,
f1,
00,
fc,
f8,
01,
fe,
ff,
06,
07,
02,
01,
06,
15,
0d,
f3,
fb,
e7,
0d,
10,
f8,
01,
06,
02,
03,
13,
0a,
ff,
01,
04,
fd,
fb,
f6,
07,
fa,
02,
05,
ff,
0e,
ff,
e0,
12,
13,
df,
05,
fa,
f2,
0f,
fb,
04,
ff,
fe,
fc,
fd,
f5,
ef,
fc,
08,
0a,
06,
03,
fc,
02,
02,
fb,
0c,
fa,
fa,
f6,
06,
0f,
fb,
04,
07,
fc,
fe,
09,
12,
f8,
03,
f7,
fc,
02,
ef,
f6,
03,
ee,
fb,
0a,
02,
f6,
fa,
00,
fe,
02,
ff,
07,
06,
06,
f8,
02,
08,
ef,
f6,
f5,
e8,
ed,
02,
f2,
ee,
f0,
01,
08,
03,
ff,
02,
0d,
f3,
ff,
04,
fc,
fa,
f3,
fb,
fc,
ee,
f6,
ee,
ee,
fe,
fd,
fc,
06,
03,
05,
f8,
f3,
fd,
00,
05,
f8,
00,
02,
fe,
02,
ea,
f8,
05,
01,
01,
02,
08,
f3,
03,
fd,
02,
fd,
fe,
03,
04,
0d,
fe,
06,
f2,
f5,
fb,
01,
f5,
05,
10,
11,
01,
16,
04,
02,
f6,
09,
08,
fc,
f8,
0d,
12,
e3,
f8,
02,
f5,
fd,
03,
06,
f2,
02,
08,
0e,
08,
1a,
05,
19,
2e,
12,
13,
11,
06,
09,
ec,
07,
1b,
e8,
01,
0c,
f7,
00,
01,
fd,
01,
fc,
fc,
02,
04,
ff,
fd,
fd,
01,
06,
fb,
0d,
f5,
ef,
f6,
07,
01,
05,
03,
fc,
06,
fd,
f7,
fd,
f7,
f8,
fa,
fd,
fc,
dd,
fd,
f5,
e8,
02,
0e,
12,
09,
fb,
03,
09,
ff,
09,
fa,
0c,
06,
05,
0d,
f7,
fc,
fa,
f4,
06,
f9,
f6,
02,
04,
f5,
08,
08,
06,
07,
ff,
f5,
01,
04,
e9,
f9,
04,
f4,
fd,
fd,
01,
f6,
ff,
02,
f9,
00,
ff,
02,
f8,
02,
fd,
fa,
fd,
fa,
fe,
0b,
0b,
02,
28,
f5,
f1,
12,
02,
05,
04,
fb,
fb,
f9,
fe,
0a,
08,
fd,
fa,
03,
01,
04,
03,
e2,
e4,
f0,
08,
18,
06,
f3,
fb,
0d,
fc,
ec,
25,
00,
07,
09,
02,
01,
11,
01,
0a,
0f,
0a,
0e,
0f,
fb,
01,
02,
11,
28,
0c,
f9,
f2,
05,
01,
fe,
08,
f7,
04,
0a,
fb,
fe,
fb,
00,
02,
01,
08,
13,
0e,
09,
0d,
07,
06,
04,
fc,
ed,
f4,
e4,
f5,
01,
fc,
0d,
00,
e1,
fc,
09,
00,
fd,
00,
fd,
fa,
05,
08,
02,
fe,
04,
fe,
fd,
fa,
02,
00,
ff,
ef,
f8,
00,
f9,
fe,
14,
03,
fb,
ff,
01,
fc,
f1,
09,
15,
0c,
09,
fa,
f1,
05,
01,
08,
f9,
fa,
08,
fe,
fd,
f5,
fb,
01,
f9,
06,
ff,
08,
fb,
ef,
13,
ff,
f4,
0b,
fe,
f5,
07,
0e,
08,
fd,
fb,
f5,
fe,
08,
f2,
f0,
fd,
f8,
fe,
05,
03,
04,
01,
fc,
01,
02,
07,
ff,
0a,
17,
0a,
01,
05,
f6,
fa,
eb,
e9,
01,
00,
0e,
07,
fb,
03,
06,
05,
00,
f7,
ff,
fa,
fa,
f7,
fa,
fb,
01,
f1,
00,
0a,
f4,
03,
02,
f3,
10,
ff,
fc,
26,
12,
08,
13,
01,
fa,
09,
fe,
00,
0f,
1b,
fd,
01,
f6,
fb,
06,
fe,
ff,
fb,
fe,
f4,
09,
04,
fd,
ff,
11,
fe,
fb,
02,
f3,
03,
09,
f5,
02,
06,
ff,
fd,
ff,
fc,
fa,
ee,
fc,
03,
e6,
e7,
04,
d7,
1a,
fc,
dd,
ea,
fd,
ff,
f9,
fc,
01,
02,
ff,
02,
05,
02,
00,
fc,
07,
08,
09,
fd,
fb,
f8,
01,
fc,
fa,
f4,
09,
f5,
fd,
0c,
04,
fd,
04,
ff,
00,
0d,
05,
00,
fc,
ee,
fc,
0b,
fc,
00,
06,
ff,
fe,
01,
03,
f7,
fa,
04,
07,
11,
fb,
f7,
01,
0b,
04,
06,
ff,
0c,
0e,
fb,
05,
f2,
fa,
fa,
f6,
fe,
09,
07,
f7,
06,
0a,
01,
02,
f2,
07,
00,
f9,
0f,
02,
f2,
0b,
02,
0b,
13,
06,
fc,
fb,
03,
f9,
09,
f2,
10,
37,
fb,
10,
26,
f4,
10,
23,
09,
01,
f5,
0c,
03,
fc,
08,
01,
f7,
02,
fb,
fd,
ef,
03,
00,
f8,
ff,
02,
f0,
f0,
f2,
f5,
f1,
ef,
f5,
f2,
f2,
ff,
fc,
fd,
03,
07,
05,
05,
05,
fd,
00,
ea,
00,
fb,
f4,
04,
fc,
f6,
f7,
fd,
ff,
f9,
f4,
fa,
f7,
fc,
fc,
f9,
fb,
00,
fe,
f4,
f7,
f4,
f9,
fa,
f9,
05,
f9,
20,
11,
e5,
4c,
0b,
dc,
30,
ff,
03,
f4,
13,
1c,
0c,
f4,
f3,
10,
0b,
03,
fc,
00,
e8,
f7,
10,
0a,
05,
fd,
d6,
d0,
06,
ef,
ae,
ff,
e1,
d3,
04,
01,
0a,
fc,
fb,
fd,
04,
f9,
00,
fe,
fd,
03,
fc,
fb,
fe,
fc,
f6,
06,
fb,
06,
fc,
f9,
fe,
04,
f9,
f7,
01,
1b,
f6,
ff,
26,
ed,
16,
19,
ed,
08,
03,
f1,
0e,
0b,
03,
10,
08,
01,
02,
fd,
f2,
f6,
f4,
d7,
03,
0a,
fd,
fd,
fa,
09,
01,
05,
12,
03,
fe,
03,
04,
fe,
0e,
03,
09,
0a,
0b,
01,
fe,
00,
fb,
f8,
04,
fe,
f6,
05,
fe,
fe,
00,
fd,
f7,
00,
f6,
fa,
f5,
fc,
f8,
fc,
ec,
07,
11,
e8,
09,
14,
fc,
0f,
08,
05,
02,
fb,
fe,
02,
11,
00,
fa,
05,
0f,
f6,
fe,
00,
fb,
fc,
f8,
06,
f9,
fc,
f7,
fc,
03,
f5,
f1,
06,
ea,
f5,
f4,
f7,
f9,
f7,
f2,
fe,
06,
f8,
02,
07,
ff,
fc,
05,
fb,
fc,
07,
04,
02,
00,
08,
fd,
fa,
07,
06,
ff,
06,
fe,
08,
ef,
f0,
07,
e9,
fa,
fe,
f0,
fb,
01,
fd,
03,
ff,
fa,
fe,
fc,
fe,
00,
fa,
fd,
03,
f8,
fd,
08,
f7,
00,
09,
00,
ef,
06,
06,
fa,
ff,
02,
f1,
0b,
05,
fa,
fa,
03,
fa,
f7,
02,
ff,
06,
fc,
02,
12,
f5,
f0,
20,
0d,
07,
14,
ff,
03,
07,
08,
02,
01,
00,
03,
03,
07,
02,
06,
0b,
e8,
fb,
ff,
fc,
f3,
04,
05,
01,
07,
fb,
00,
04,
fd,
05,
db,
fb,
f9,
cb,
f5,
0e,
dd,
00,
00,
04,
00,
f6,
0d,
f1,
f9,
03,
04,
04,
f5,
08,
f6,
f0,
0a,
04,
04,
02,
fd,
f8,
cc,
06,
06,
81,
ff,
fb,
c8,
07,
fe,
ff,
09,
ff,
fe,
fc,
f8,
f9,
fb,
fc,
f4,
ff,
fd,
f8,
00,
01,
00,
02,
0d,
05,
fa,
01,
f3,
08,
ff,
06,
0a,
04,
05,
fe,
05,
ff,
fe,
08,
0a,
fc,
06,
fd,
02,
05,
00,
fc,
ff,
f7,
00,
fa,
10,
0d,
06,
ea,
fa,
01,
ea,
f9,
fa,
07,
fc,
fe,
1e,
03,
fb,
0d,
00,
f9,
ff,
11,
e1,
f3,
10,
f8,
00,
01,
07,
f9,
fd,
ff,
f1,
f9,
fe,
fc,
02,
ff,
05,
01,
f6,
fd,
06,
fa,
09,
fe,
ff,
02,
01,
06,
08,
ff,
fc,
01,
ff,
e8,
09,
f7,
e4,
ff,
f7,
ed,
03,
f7,
07,
fa,
05,
0c,
01,
05,
03,
f2,
fd,
fc,
f9,
01,
f2,
fb,
fd,
f9,
f4,
fe,
fe,
05,
f8,
03,
07,
fa,
0c,
09,
fe,
06,
08,
01,
03,
00,
ff,
fe,
fd,
05,
04,
f8,
f5,
fa,
f6,
fb,
06,
f5,
05,
f6,
fe,
02,
f5,
fc,
04,
f8,
ff,
08,
f6,
f5,
00,
dc,
dc,
f6,
fb,
f5,
f8,
ed,
01,
fd,
e9,
19,
e2,
fe,
01,
ef,
07,
f9,
07,
08,
f6,
06,
04,
fa,
ff,
02,
05,
00,
fd,
e8,
fc,
00,
0a,
02,
07,
ff,
fe,
fe,
fa,
fe,
01,
00,
02,
04,
ff,
05,
0c,
fb,
0b,
09,
fc,
01,
fe,
fe,
ff,
f0,
f1,
1a,
fb,
fa,
07,
fc,
ff,
01,
fb,
f8,
00,
03,
ff,
fe,
06,
02,
fd,
f6,
ef,
09,
fe,
f5,
f5,
00,
00,
fe,
fc,
f4,
01,
09,
fa,
01,
05,
ed,
00,
0c,
e8,
00,
0a,
fc,
07,
08,
06,
04,
0f,
05,
fe,
08,
f4,
fd,
04,
f9,
ff,
08,
01,
04,
06,
ff,
02,
0d,
10,
00,
0d,
fa,
0b,
04,
01,
ff,
07,
fa,
07,
f8,
f4,
15,
f7,
fe,
07,
0d,
f1,
fb,
05,
f1,
e4,
fb,
fc,
fb,
12,
f9,
f1,
07,
e8,
fe,
fc,
f2,
08,
f6,
f3,
09,
fb,
fa,
17,
f8,
01,
11,
09,
db,
06,
24,
b0,
1d,
14,
e6,
0d,
fa,
f8,
01,
08,
ea,
0a,
0e,
f4,
03,
fa,
03,
07,
f6,
fe,
ff,
fc,
03,
03,
04,
04,
04,
00,
fa,
f7,
01,
f9,
fc,
fb,
f7,
fe,
01,
f8,
04,
08,
ff,
01,
f3,
ef,
ee,
e4,
e0,
e4,
f0,
f9,
ee,
fd,
08,
02,
f7,
12,
f8,
fd,
06,
fc,
fa,
01,
01,
01,
08,
09,
fd,
00,
0a,
fc,
00,
f6,
03,
fa,
f5,
fe,
fb,
fd,
02,
f2,
fb,
00,
dd,
f2,
0e,
e3,
f6,
04,
fb,
f8,
0a,
fb,
f8,
06,
f7,
f6,
ff,
ff,
fb,
ff,
fc,
f3,
02,
fd,
f5,
00,
f2,
f5,
0e,
00,
ef,
0f,
ff,
f0,
08,
fa,
fe,
16,
f1,
ff,
13,
fc,
04,
05,
f4,
05,
fe,
f4,
f9,
fe,
09,
11,
fe,
13,
02,
f4,
2c,
f3,
f1,
18,
f9,
f8,
ff,
f6,
01,
07,
f6,
01,
f7,
fd,
01,
fe,
f0,
00,
f3,
fe,
05,
f8,
f3,
01,
ff,
0b,
02,
09,
09,
08,
05,
07,
05,
f4,
06,
05,
f2,
01,
05,
f7,
03,
01,
02,
fd,
05,
f7,
fe,
13,
f7,
fb,
ff,
03,
fe,
07,
06,
fa,
01,
01,
02,
0a,
f0,
f7,
07,
f6,
fd,
08,
03,
fc,
f6,
12,
0d,
fe,
16,
04,
05,
f1,
f4,
0b,
fc,
fb,
0b,
fe,
ff,
02,
fb,
fd,
fc,
0d,
ff,
03,
fa,
03,
fe,
ef,
fe,
f8,
05,
f9,
f8,
fd,
f1,
fc,
f4,
f4,
02,
e9,
f9,
fa,
de,
fb,
0e,
e9,
ff,
02,
f9,
ee,
ee,
fc,
e9,
fe,
04,
f6,
03,
00,
fc,
ff,
fb,
fc,
fe,
ff,
fd,
07,
08,
fc,
11,
06,
05,
0b,
01,
f9,
fb,
05,
08,
fb,
05,
08,
f8,
fe,
01,
03,
ff,
03,
01,
fe,
f9,
01,
fb,
00,
09,
fb,
0b,
09,
f7,
0a,
0a,
00,
06,
00,
03,
08,
05,
fd,
0a,
fc,
f1,
00,
fd,
09,
04,
f7,
fe,
05,
f3,
f8,
07,
f1,
09,
ff,
f4,
05,
fe,
f5,
06,
06,
fc,
f3,
f5,
ff,
f7,
fd,
f9,
0a,
fb,
09,
0a,
02,
03,
00,
f5,
00,
00,
fe,
f8,
20,
fb,
f6,
1d,
ea,
03,
16,
fb,
07,
fc,
fb,
08,
fe,
01,
ff,
ff,
00,
03,
08,
00,
0f,
0d,
04,
01,
02,
03,
06,
ff,
08,
02,
00,
0e,
03,
ff,
0a,
fb,
02,
fe,
fa,
ff,
08,
fb,
05,
fa,
0a,
fc,
fb,
fe,
08,
fd,
00,
05,
fd,
ff,
0e,
0d,
03,
0a,
00,
02,
04,
fd,
fd,
00,
03,
0d,
fa,
fc,
ff,
fe,
00,
f1,
fb,
03,
15,
04,
fa,
fe,
06,
05,
fc,
08,
fc,
f7,
ff,
f9,
fb,
05,
05,
f6,
0d,
fb,
fe,
06,
f3,
fd,
04,
ff,
fc,
01,
ee,
f9,
04,
ea,
fb,
fd,
f1,
fd,
02,
06,
fd,
07,
14,
f0,
fc,
05,
fd,
0d,
0c,
14,
f3,
06,
0b,
01,
0d,
f6,
01,
f5,
fa,
06,
f4,
05,
0d,
05,
00,
f6,
fb,
03,
f2,
f5,
01,
03,
fb,
fd,
09,
f9,
16,
fe,
fb,
00,
0e,
f8,
f8,
01,
f6,
fc,
fa,
f6,
fb,
f7,
02,
fd,
02,
00,
f9,
00,
fd,
ff,
03,
ff,
01,
ea,
fe,
08,
da,
04,
02,
e7,
f6,
09,
06,
f7,
02,
07,
04,
09,
f5,
fa,
fc,
f5,
19,
f8,
a3,
12,
08,
05,
04,
fa,
07,
05,
ec,
1f,
f3,
f9,
11,
04,
fe,
03,
fa,
fb,
fd,
f6,
fe,
07,
04,
03,
09,
03,
03,
00,
fb,
02,
02,
fb,
e4,
ce,
e7,
e4,
fb,
f4,
f8,
fd,
f4,
ff,
04,
03,
01,
04,
02,
f8,
fd,
f5,
fd,
f0,
f1,
f9,
f0,
fe,
02,
f5,
0f,
fa,
06,
07,
06,
04,
0a,
04,
11,
ff,
04,
02,
06,
fd,
08,
fa,
f6,
01,
ef,
f7,
00,
05,
f9,
06,
0c,
f5,
f7,
14,
04,
03,
0b,
fd,
05,
00,
f3,
ef,
f7,
f7,
02,
0a,
f7,
f6,
fa,
05,
06,
10,
02,
fc,
01,
06,
fc,
06,
04,
ff,
12,
e7,
de,
f0,
e6,
c7,
da,
dc,
fe,
f4,
01,
0d,
03,
04,
12,
07,
0f,
0c,
0c,
03,
19,
ff,
05,
17,
f8,
03,
ff,
02,
fa,
fc,
05,
f9,
f9,
01,
fe,
09,
01,
f7,
f1,
f4,
ff,
e9,
f7,
13,
f7,
01,
e5,
ef,
ee,
0f,
17,
0a,
21,
3f,
20,
08,
f6,
07,
0c,
16,
0c,
09,
f7,
fd,
ff,
fc,
ff,
f9,
fe,
05,
fc,
f3,
00,
ff,
0c,
09,
1a,
18,
f2,
04,
11,
f7,
00,
08,
fb,
01,
15,
05,
03,
02,
08,
f6,
08,
f7,
f2,
04,
f6,
fd,
ff,
ff,
f8,
fe,
fb,
f7,
03,
00,
fd,
fc,
14,
fe,
f8,
fc,
fa,
f6,
f4,
f7,
ef,
fe,
fa,
1b,
00,
ed,
15,
f6,
00,
28,
f6,
01,
00,
04,
fe,
01,
00,
ff,
fe,
02,
00,
00,
0a,
ff,
04,
00,
04,
fa,
00,
00,
06,
04,
fd,
08,
f7,
07,
07,
fc,
f5,
08,
fe,
e2,
02,
0b,
ef,
0a,
02,
f7,
02,
f6,
fa,
0e,
00,
12,
fe,
f9,
11,
f4,
00,
fc,
02,
ff,
fe,
0b,
11,
ee,
f7,
f4,
f2,
02,
ee,
ff,
02,
02,
fd,
09,
04,
f9,
16,
fa,
fd,
fd,
09,
fd,
0a,
fc,
f6,
08,
f0,
02,
0b,
fa,
fd,
f9,
06,
f7,
f7,
fe,
f6,
f2,
f7,
00,
01,
f8,
03,
f5,
07,
fa,
fd,
00,
01,
fa,
fa,
f9,
f7,
ff,
04,
01,
f0,
fc,
fc,
f1,
09,
03,
03,
0d,
f8,
00,
f8,
00,
fd,
f9,
fd,
fa,
ff,
fe,
08,
04,
14,
08,
ff,
fd,
13,
f6,
ee,
0b,
d9,
ca,
db,
1d,
0c,
02,
ca,
8e,
e8,
00,
f8,
01,
fe,
0f,
f2,
fd,
07,
03,
f7,
f2,
fa,
08,
04,
ff,
04,
fd,
12,
01,
20,
02,
f8,
fc,
01,
e4,
01,
e5,
01,
01,
04,
fa,
ff,
ff,
fd,
fc,
ff,
fb,
05,
01,
fb,
08,
06,
f3,
fd,
fb,
00,
02,
fd,
03,
17,
18,
0f,
10,
13,
02,
f9,
04,
ff,
f4,
fc,
02,
00,
fa,
f6,
01,
07,
f8,
04,
07,
f5,
08,
01,
fd,
01,
00,
fb,
09,
ff,
f8,
fe,
ee,
0c,
30,
0f,
27,
5a,
2c,
c4,
d3,
cb,
ff,
e8,
0a,
02,
fa,
02,
ff,
f6,
00,
06,
fe,
fd,
f8,
02,
fb,
ff,
fe,
f8,
0b,
16,
06,
cd,
dd,
cc,
17,
4f,
0d,
ff,
01,
fe,
02,
00,
0c,
fe,
02,
f0,
fe,
0a,
01,
f9,
0f,
f8,
02,
fc,
f3,
06,
16,
fe,
fe,
06,
fc,
06,
fd,
03,
00,
fd,
f7,
01,
fd,
f8,
0f,
1a,
0e,
f4,
00,
07,
fa,
f7,
0b,
0a,
12,
01,
fc,
fa,
f8,
fb,
f1,
f9,
08,
05,
fb,
0d,
03,
01,
07,
05,
15,
18,
18,
15,
ff,
00,
f9,
0a,
f5,
07,
fb,
05,
0c,
01,
f7,
ff,
0e,
03,
f8,
f1,
f7,
ec,
fe,
fb,
07,
03,
1d,
f9,
fa,
fa,
01,
03,
02,
0c,
0e,
0c,
fb,
f9,
1b,
f0,
0c,
fa,
fd,
09,
05,
fd,
f5,
f0,
f1,
0e,
f5,
fc,
f4,
f8,
f1,
fd,
0f,
03,
0b,
00,
03,
06,
ec,
08,
f5,
eb,
0b,
fb,
02,
ff,
02,
01,
05,
f3,
f4,
f8,
03,
fe,
08,
e7,
f4,
ea,
9c,
81,
c7,
fe,
07,
06,
ff,
04,
fe,
02,
02,
04,
08,
fb,
ff,
0f,
f7,
ea,
fa,
f8,
04,
02,
e8,
08,
0f,
ea,
0d,
0b,
05,
fe,
03,
09,
ff,
fb,
0d,
09,
02,
fd,
f0,
f9,
fd,
f5,
f7,
06,
f3,
f5,
fb,
fa,
0c,
05,
fc,
0b,
fe,
03,
13,
08,
fb,
fa,
ee,
fc,
f6,
f5,
f6,
fa,
01,
fe,
ff,
02,
ff,
f8,
06,
fd,
05,
0e,
02,
ff,
09,
f8,
05,
05,
06,
10,
03,
fa,
00,
f9,
fc,
05,
09,
fd,
03,
f2,
f6,
05,
ff,
00,
02,
0b,
07,
f5,
08,
0c,
fe,
fe,
f3,
00,
1c,
02,
0c,
09,
03,
fd,
fc,
ff,
05,
05,
f5,
fa,
0c,
00,
05,
ef,
12,
07,
f7,
11,
d2,
dd,
e2,
03,
ff,
00,
05,
f9,
03,
ff,
03,
02,
fd,
0d,
f2,
05,
1d,
fe,
f7,
0a,
ff,
ee,
fd,
01,
ec,
fe,
f4,
f7,
f6,
f6,
f7,
14,
07,
e8,
ef,
ea,
01,
ed,
03,
ff,
ed,
05,
eb,
e9,
f2,
fd,
f5,
06,
06,
ea,
04,
0e,
e3,
0e,
06,
d9,
03,
f0,
d7,
fb,
03,
1c,
fb,
52,
76,
0b,
ee,
ed,
03,
ff,
fd,
04,
ff,
1a,
08,
f6,
fc,
f2,
f5,
06,
f3,
06,
08,
03,
01,
04,
08,
f3,
e8,
06,
0d,
ef,
fc,
f9,
0e,
fa,
03,
e4,
09,
fc,
cd,
0d,
fa,
f7,
fd,
fb,
07,
f8,
06,
08,
00,
00,
14,
0f,
f3,
07,
fb,
03,
22,
0d,
01,
02,
04,
01,
f4,
01,
f9,
01,
00,
01,
f9,
fe,
01,
fa,
02,
00,
fe,
03,
32,
39,
08,
e7,
d2,
0a,
ef,
94,
e8,
0e,
fb,
fc,
06,
fd,
fa,
05,
fd,
03,
fd,
03,
fb,
06,
0c,
06,
fb,
ee,
fe,
07,
0b,
06,
f7,
f9,
f9,
e8,
e0,
f4,
ff,
05,
05,
fc,
fb,
f9,
0c,
14,
06,
f7,
fd,
fb,
f6,
04,
00,
ea,
f5,
06,
f3,
08,
f7,
fe,
09,
ff,
fb,
15,
0d,
00,
05,
05,
fb,
ff,
ff,
f7,
f9,
fb,
fc,
0b,
03,
01,
ff,
fa,
f3,
f6,
f4,
ff,
02,
00,
04,
f8,
06,
f6,
f2,
fb,
02,
06,
06,
04,
0a,
ff,
fa,
ff,
fc,
07,
10,
fc,
02,
ff,
f2,
eb,
ef,
f9,
f1,
e8,
ff,
06,
f6,
f7,
03,
0a,
00,
0d,
0b,
f2,
12,
00,
f9,
f5,
f7,
02,
fb,
0f,
04,
f3,
15,
fe,
09,
20,
ec,
fe,
ee,
00,
fe,
fa,
05,
02,
0b,
0b,
f9,
fa,
ff,
02,
f9,
07,
fa,
ed,
f4,
05,
fa,
0b,
07,
ff,
fe,
0c,
f9,
03,
f2,
fa,
04,
0f,
fb,
12,
fe,
f0,
fb,
fd,
01,
05,
fd,
04,
ff,
0d,
06,
f7,
e2,
c8,
dc,
e6,
d0,
e2,
e7,
d1,
eb,
06,
0d,
0a,
f8,
13,
04,
03,
0e,
fc,
f0,
fe,
ff,
e4,
fd,
ff,
ed,
ed,
0a,
fb,
ff,
f6,
f9,
01,
02,
f5,
ef,
fd,
f1,
ea,
ed,
f2,
ea,
f2,
f3,
f0,
f6,
fa,
fb,
03,
02,
07,
03,
10,
17,
00,
1c,
2a,
1b,
00,
ec,
fc,
f3,
db,
f9,
00,
07,
03,
eb,
e9,
fe,
03,
fd,
ff,
09,
0a,
fe,
0c,
0c,
02,
f6,
ff,
fd,
06,
fd,
0a,
fd,
06,
ff,
06,
01,
12,
fc,
f9,
fc,
f7,
fd,
fa,
fd,
f9,
00,
ee,
ff,
0a,
fa,
f9,
04,
0b,
f3,
08,
16,
f6,
ea,
25,
cf,
bf,
0c,
f5,
ea,
f9,
f3,
f8,
03,
ff,
01,
13,
08,
01,
ec,
dc,
09,
f1,
d5,
08,
0c,
0d,
f5,
e9,
ef,
e2,
05,
16,
10,
f9,
ff,
04,
f3,
1f,
10,
fb,
0c,
14,
f5,
06,
1d,
fa,
05,
0a,
f6,
02,
09,
fb,
03,
07,
f1,
0b,
f9,
f7,
09,
ef,
f2,
06,
fc,
09,
14,
0c,
15,
16,
19,
20,
08,
03,
05,
f3,
f8,
0b,
fd,
07,
05,
f8,
02,
12,
f7,
e3,
09,
06,
ec,
fc,
08,
02,
f1,
fc,
fc,
01,
f7,
01,
fb,
f9,
ef,
01,
08,
04,
0c,
08,
0a,
16,
06,
fa,
e6,
f4,
fd,
f5,
08,
ff,
01,
0e,
0d,
00,
f7,
fe,
03,
07,
0f,
0e,
f8,
f6,
0d,
ee,
ef,
f2,
ef,
e7,
01,
f0,
f5,
06,
fc,
04,
00,
fb,
fc,
04,
fa,
ff,
f2,
06,
f2,
e6,
e7,
f0,
fe,
f6,
f1,
07,
05,
08,
ff,
01,
05,
fd,
03,
fd,
06,
00,
07,
00,
f4,
00,
fe,
fb,
0b,
f9,
ff,
f4,
e3,
fa,
07,
ea,
05,
14,
03,
01,
11,
04,
f8,
09,
fa,
01,
07,
0d,
fc,
05,
fd,
df,
f7,
09,
fd,
00,
09,
01,
ff,
08,
fb,
f5,
0c,
07,
0a,
2c,
be,
01,
20,
bf,
4d,
2c,
e3,
fb,
01,
ee,
1f,
1b,
ee,
05,
fa,
fc,
11,
f9,
0d,
ff,
f7,
0f,
0a,
0f,
05,
00,
ea,
dc,
d6,
e7,
d9,
c3,
f1,
de,
d9,
f6,
01,
04,
0c,
03,
ff,
f2,
03,
0e,
fd,
01,
00,
fa,
01,
f5,
01,
fb,
fb,
fe,
03,
ee,
09,
09,
fa,
1f,
1b,
0c,
f7,
0b,
ff,
f3,
fc,
f3,
fe,
02,
f9,
ff,
fe,
fd,
06,
f7,
f1,
fe,
f1,
fb,
03,
08,
fe,
0c,
e8,
01,
07,
f7,
fc,
0e,
10,
20,
fb,
28,
1d,
fe,
1b,
16,
ec,
0a,
fa,
d6,
01,
05,
fd,
11,
f8,
04,
fe,
fb,
00,
f5,
f4,
0a,
00,
00,
fc,
ea,
09,
fe,
ee,
fe,
f4,
fb,
ee,
0c,
07,
08,
10,
0b,
07,
0c,
fe,
f6,
f1,
0f,
e1,
15,
03,
cd,
f9,
fd,
e0,
07,
02,
00,
02,
05,
fb,
fc,
fa,
f3,
f3,
e6,
f9,
e3,
e5,
01,
16,
f9,
f8,
05,
06,
03,
01,
01,
01,
07,
ff,
03,
06,
f6,
f9,
01,
f9,
04,
fa,
f7,
ff,
04,
f6,
0a,
05,
f4,
f0,
04,
f0,
f6,
02,
fd,
fc,
10,
05,
03,
09,
fa,
f8,
ef,
f0,
e6,
e2,
f1,
ee,
f3,
f4,
e8,
04,
e9,
ff,
f6,
f1,
46,
fd,
f7,
24,
ff,
fa,
03,
0c,
f8,
07,
ff,
f0,
ea,
fe,
e7,
f3,
ff,
ee,
05,
05,
0d,
03,
fd,
f6,
ed,
ff,
f6,
f3,
08,
00,
fb,
ff,
fb,
fb,
06,
f8,
02,
0b,
01,
0b,
fc,
fb,
12,
12,
13,
13,
eb,
f5,
12,
fb,
f9,
ed,
09,
0a,
fd,
05,
0e,
02,
e3,
ff,
12,
cd,
f1,
18,
e1,
00,
fd,
0e,
16,
f6,
06,
fd,
02,
0a,
06,
0a,
f7,
f7,
fa,
ee,
e3,
fc,
fd,
08,
fb,
05,
f4,
e0,
06,
07,
0a,
f8,
fc,
08,
00,
f5,
03,
f9,
f8,
02,
fb,
0a,
03,
0e,
f6,
05,
0c,
dd,
11,
05,
03,
07,
06,
04,
fc,
03,
0b,
19,
ff,
0c,
fe,
f9,
fd,
fa,
fd,
04,
ec,
06,
0e,
16,
0f,
f8,
f4,
09,
f8,
10,
08,
03,
0e,
fc,
ff,
f9,
0c,
0c,
ec,
ff,
f0,
e6,
fd,
fe,
c3,
14,
ee,
81,
05,
04,
e3,
13,
fc,
0f,
13,
ec,
06,
fe,
f9,
fd,
f5,
11,
0b,
e8,
ee,
12,
f9,
f9,
02,
02,
f4,
0b,
03,
f6,
14,
f0,
f6,
f5,
f2,
09,
04,
f7,
fe,
fd,
03,
ff,
03,
fb,
dc,
1e,
e7,
f6,
4d,
f7,
05,
21,
04,
ff,
00,
0d,
fe,
fc,
07,
09,
18,
02,
f8,
0a,
fa,
00,
10,
f5,
f7,
fc,
09,
05,
03,
06,
fd,
fe,
02,
ff,
0c,
f7,
df,
01,
fa,
d9,
f2,
00,
f4,
f7,
11,
0a,
01,
0b,
f0,
e4,
fd,
f7,
f5,
04,
01,
f2,
04,
07,
f5,
fe,
fb,
f5,
0c,
e4,
fe,
13,
ec,
ff,
07,
00,
10,
08,
f4,
06,
04,
f4,
0c,
01,
fc,
0f,
09,
05,
0b,
fc,
f4,
e9,
ed,
fe,
04,
0a,
05,
03,
07,
11,
ea,
f7,
ff,
00,
f4,
00,
0d,
ff,
ee,
f1,
0e,
f4,
04,
f6,
fe,
05,
ff,
07,
0e,
fc,
04,
f7,
f8,
0c,
06,
07,
fc,
ff,
0c,
fc,
f1,
0d,
ef,
02,
11,
f6,
04,
f6,
ed,
f9,
02,
f2,
0e,
fc,
e5,
fe,
06,
f7,
f0,
03,
f6,
fa,
02,
fa,
f9,
00,
0f,
01,
0d,
e3,
f5,
0f,
f8,
f9,
09,
00,
00,
ee,
09,
ff,
fe,
ea,
f4,
f7,
e2,
fd,
fb,
f7,
f8,
fd,
f7,
07,
07,
f6,
f8,
fe,
f9,
0b,
0f,
e4,
03,
f9,
ea,
fd,
00,
fd,
f9,
00,
f1,
eb,
f5,
f4,
f2,
06,
ef,
02,
00,
ea,
f1,
06,
f5,
00,
04,
f6,
05,
fb,
f6,
ef,
fc,
00,
fa,
fe,
fb,
fa,
ed,
f9,
fc,
fb,
00,
03,
06,
02,
f8,
2c,
1e,
e9,
0b,
00,
eb,
14,
00,
05,
e1,
f3,
e7,
06,
ff,
04,
09,
fb,
f8,
04,
f4,
eb,
fa,
fc,
fe,
12,
f9,
02,
07,
03,
04,
01,
fb,
01,
13,
02,
08,
16,
04,
13,
06,
f3,
10,
e9,
fc,
05,
e4,
f2,
14,
fe,
06,
14,
f1,
f0,
fa,
f0,
eb,
00,
0a,
0d,
0d,
fa,
f7,
f4,
f8,
f6,
e8,
05,
0d,
00,
f7,
fc,
04,
f4,
f3,
ff,
03,
fd,
03,
ea,
0c,
e3,
e7,
07,
d4,
f2,
fb,
f8,
ff,
f8,
08,
fa,
f8,
fe,
07,
fc,
fb,
13,
04,
14,
11,
06,
f7,
fb,
fc,
fb,
f4,
f9,
ff,
18,
08,
08,
ee,
ed,
f6,
0a,
f2,
f6,
f5,
f5,
ef,
05,
0d,
00,
fe,
f8,
02,
f6,
09,
1b,
fe,
05,
03,
05,
02,
02,
0a,
11,
0b,
0d,
00,
ff,
0c,
02,
e1,
17,
f3,
e7,
02,
f4,
02,
f1,
ef,
fa,
28,
f2,
ec,
f6,
ec,
fb,
fc,
f6,
fb,
f2,
ed,
f7,
f8,
ee,
f7,
12,
09,
0d,
f8,
f2,
0f,
fc,
02,
04,
02,
04,
fe,
0a,
07,
12,
f9,
f8,
17,
0e,
fe,
f8,
07,
0c,
14,
ed,
f5,
12,
01,
ff,
03,
0d,
f3,
fa,
0d,
f5,
01,
cd,
e7,
02,
cd,
df,
f5,
ed,
ee,
f7,
0f,
f4,
0b,
0a,
fc,
08,
fe,
fe,
04,
12,
f4,
05,
14,
f8,
fa,
01,
00,
0c,
f3,
fd,
f8,
fb,
fa,
ed,
fa,
f9,
f4,
f1,
f7,
fb,
ec,
f1,
f3,
eb,
f2,
f2,
f4,
00,
06,
f5,
07,
16,
fb,
1c,
15,
01,
07,
07,
fa,
ec,
0d,
0e,
ee,
f9,
06,
d7,
28,
f0,
c6,
24,
01,
eb,
12,
ff,
ee,
ea,
f4,
fa,
ee,
fa,
fc,
e7,
0a,
ff,
07,
f2,
eb,
fd,
01,
f9,
04,
0d,
0a,
f4,
0e,
06,
f4,
09,
fd,
f5,
f6,
f5,
f9,
00,
02,
fe,
01,
04,
01,
04,
fd,
01,
fc,
ff,
08,
06,
03,
05,
fc,
fc,
fe,
fb,
f3,
fb,
06,
fe,
01,
01,
fb,
09,
f4,
f7,
08,
f3,
f9,
00,
00,
f7,
00,
f8,
f9,
fb,
ff,
00,
ff,
00,
fc,
f9,
ff,
02,
fd,
08,
05,
02,
ff,
00,
ff,
ff,
fe,
ff,
ff,
fe,
01,
fd,
f7,
fc,
fb,
f8,
fd,
03,
fb,
08,
0d,
0a,
05,
09,
0b,
07,
04,
fb,
02,
02,
f7,
04,
07,
f7,
13,
df,
b9,
e2,
06,
0d,
06,
ff,
06,
02,
ff,
04,
fc,
04,
02,
01,
03,
ff,
ff,
ff,
fb,
fb,
0a,
06,
08,
04,
fb,
06,
01,
fe,
02,
f4,
ed,
f4,
fc,
f4,
f6,
05,
f3,
fb,
f5,
fd,
f6,
f7,
f9,
f9,
e7,
d8,
ec,
11,
01,
0f,
0b,
0a,
08,
05,
01,
fc,
04,
05,
03,
fe,
01,
01,
fa,
fc,
ff,
09,
06,
05,
04,
06,
fe,
06,
09,
00,
fc,
06,
01,
02,
0f,
ff,
fd,
02,
fc,
00,
05,
04,
ff,
06,
ff,
03,
0b,
04,
f6,
f4,
fd,
fd,
fa,
fd,
00,
f8,
fe,
fe,
ff,
fb,
07,
fb,
06,
0c,
03,
09,
03,
00,
01,
00,
0a,
01,
01,
1b,
09,
02,
03,
01,
04,
05,
03,
05,
06,
03,
00,
fd,
00,
fe,
03,
04,
02,
02,
03,
03,
03,
fc,
00,
f8,
fc,
fc,
02,
fd,
f8,
fd,
fa,
fd,
04,
06,
fb,
fd,
01,
fa,
07,
ff,
05,
f9,
09,
03,
02,
03,
05,
01,
01,
07,
fe,
00,
00,
01,
ff,
fd,
fe,
fd,
fe,
00,
fe,
04,
0a,
05,
06,
05,
09,
01,
02,
06,
02,
f0,
00,
fc,
03,
fb,
00,
05,
ff,
fe,
fe,
fd,
02,
05,
01,
01,
02,
02,
ff,
fd,
01,
fa,
fc,
fe,
f6,
ee,
f6,
e7,
df,
ef,
04,
01,
00,
03,
ff,
fb,
02,
07,
ff,
fd,
05,
f8,
ff,
01,
ff,
00,
fe,
f7,
08,
0b,
0a,
04,
07,
07,
fb,
fb,
fd,
fc,
04,
00,
fe,
fc,
08,
0a,
fd,
04,
fa,
04,
ff,
ee,
e7,
ee,
e3,
dd,
e9,
02,
01,
ff,
02,
0a,
ff,
00,
03,
02,
ff,
fe,
00,
02,
0b,
02,
fd,
f6,
f6,
08,
0c,
0f,
02,
0e,
0b,
08,
00,
0d,
02,
fd,
01,
fe,
fb,
fe,
00,
02,
01,
01,
04,
02,
fc,
fc,
fb,
fb,
fb,
f9,
05,
09,
02,
06,
11,
05,
09,
0f,
08,
04,
fe,
07,
ff,
00,
fe,
01,
00,
00,
fa,
fe,
08,
04,
08,
05,
02,
ff,
08,
ff,
0a,
ff,
ff,
05,
03,
02,
02,
07,
f2,
01,
fb,
eb,
e7,
f0,
e5,
ed,
f5,
fa,
e9,
fa,
f8,
e7,
00,
0c,
04,
0d,
fd,
ff,
02,
ff,
02,
06,
05,
03,
04,
05,
03,
02,
05,
07,
02,
28,
7f,
2a,
05,
07,
02,
04,
0d,
00,
05,
05,
03,
ff,
00,
ff,
fc,
fb,
fc,
02,
fc,
03,
fc,
07,
fc,
06,
fe,
fc,
0a,
03,
fd,
01,
fc,
fa,
ff,
f8,
fb,
fd,
ea,
00,
00,
fa,
04,
fd,
fe,
02,
00,
fb,
fe,
fc,
fc,
fb,
03,
00,
01,
09,
00,
01,
f8,
fb,
f7,
fd,
fc,
fb,
07,
f3,
0c,
06,
02,
02,
04,
f7,
07,
fd,
07,
ff,
00,
02,
01,
ff,
ff,
fd,
04,
fe,
fc,
ff,
f9,
fc,
05,
04,
02,
06,
ff,
00,
04,
fd,
09,
f9,
fc,
02,
f7,
fc,
06,
02,
07,
ff,
ff,
08,
fd,
09,
01,
01,
0c,
01,
08,
07,
f5,
00,
04,
04,
04,
fe,
ff,
02,
08,
05,
fd,
f7,
fb,
f5,
06,
03,
00,
fd,
02,
00,
f8,
ff,
fb,
fd,
f8,
fc,
fe,
f6,
f8,
fd,
f1,
fd,
ff,
fc,
00,
01,
00,
01,
05,
06,
04,
07,
ff,
fe,
04,
09,
06,
fb,
02,
07,
02,
fd,
fd,
01,
fc,
fc,
08,
09,
01,
fc,
02,
01,
03,
14,
00,
fb,
02,
f4,
fc,
ff,
01,
fd,
03,
01,
f9,
fd,
fc,
fe,
03,
06,
0c,
04,
fa,
08,
fe,
f3,
04,
fe,
01,
02,
fd,
01,
04,
04,
08,
01,
fe,
03,
02,
00,
00,
ff,
fc,
fd,
fa,
04,
06,
00,
03,
fe,
07,
03,
f9,
00,
ff,
fd,
00,
00,
fb,
f8,
f9,
f8,
09,
00,
07,
02,
02,
0c,
ff,
00,
05,
04,
f6,
03,
06,
f2,
f9,
00,
04,
01,
fe,
fd,
fd,
fb,
01,
03,
f8,
fd,
02,
fa,
ef,
fa,
fd,
f8,
01,
0e,
10,
06,
01,
fd,
fb,
04,
01,
04,
fc,
fe,
02,
03,
04,
00,
05,
01,
00,
ff,
fb,
fc,
f7,
f6,
f9,
00,
fb,
01,
fd,
f9,
01,
03,
0b,
03,
f9,
fd,
fd,
04,
04,
00,
01,
f7,
00,
f1,
e7,
fb,
fe,
fe,
01,
fb,
01,
00,
03,
01,
fe,
0a,
fa,
ff,
fb,
f2,
fe,
fb,
eb,
fa,
ff,
f0,
f7,
02,
f8,
01,
01,
f5,
03,
f2,
f1,
fc,
fe,
ff,
00,
fb,
f8,
fb,
f9,
f9,
fc,
fc,
fd,
fe,
fd,
f3,
00,
05,
02,
07,
ff,
00,
00,
fd,
01,
fa,
f9,
e9,
fc,
fc,
f7,
fe,
fe,
fe,
00,
03,
05,
06,
01,
10,
07,
fa,
05,
06,
f1,
f3,
f8,
04,
03,
fe,
00,
01,
ff,
01,
05,
00,
03,
01,
03,
fd,
fb,
00,
fd,
ff,
01,
fa,
03,
fd,
f6,
15,
f7,
03,
01,
04,
01,
00,
fc,
08,
ff,
fc,
08,
03,
ff,
f8,
fb,
f7,
01,
08,
01,
fe,
fd,
f7,
06,
12,
07,
ff,
fb,
04,
fa,
fc,
07,
01,
0e,
ff,
01,
06,
fe,
05,
04,
00,
f7,
01,
fb,
fb,
01,
fc,
fd,
02,
fe,
00,
0f,
03,
02,
06,
01,
f6,
01,
02,
fa,
fb,
ff,
fa,
fc,
ff,
f8,
f7,
fb,
fb,
04,
f9,
02,
fe,
03,
06,
07,
01,
01,
f8,
00,
ff,
f5,
ff,
f8,
f9,
fc,
01,
08,
02,
fe,
03,
fc,
ff,
fe,
01,
04,
f8,
00,
00,
ff,
03,
03,
07,
05,
f9,
ee,
fb,
fb,
f1,
fe,
0f,
03,
0a,
01,
00,
f7,
05,
0c,
fb,
00,
06,
04,
02,
fe,
05,
fe,
fd,
00,
0a,
02,
f4,
fb,
f2,
f7,
ff,
f5,
fb,
04,
01,
06,
00,
fb,
02,
00,
fd,
ff,
ff,
fd,
fc,
ff,
0a,
00,
fe,
04,
fd,
fa,
fe,
01,
f8,
ef,
fd,
fd,
fd,
02,
ef,
ee,
f2,
03,
f9,
f9,
03,
fa,
02,
04,
03,
05,
e6,
d6,
e7,
f4,
f0,
f3,
fb,
fb,
f9,
09,
07,
04,
f7,
f9,
ff,
ff,
05,
04,
03,
f5,
01,
01,
05,
08,
ff,
08,
07,
05,
0b,
05,
fe,
05,
01,
f7,
f9,
f8,
f9,
f6,
f8,
fc,
fa,
fa,
f9,
fa,
f8,
01,
08,
fd,
fc,
06,
04,
fa,
00,
fd,
07,
05,
0e,
fc,
de,
fb,
fe,
d4,
fa,
fc,
fb,
f9,
02,
f6,
f7,
04,
03,
fe,
fb,
01,
fe,
02,
02,
04,
fc,
fc,
03,
05,
fa,
05,
ff,
fc,
04,
fe,
00,
04,
ff,
fc,
02,
fd,
ff,
00,
fd,
00,
fd,
f1,
25,
e7,
eb,
34,
f8,
f8,
da,
e5,
0d,
15,
17,
fe,
f6,
06,
fb,
01,
01,
10,
fd,
ef,
f6,
f3,
f7,
04,
0b,
f9,
ff,
15,
f8,
fc,
19,
00,
fb,
07,
f2,
02,
e3,
fd,
00,
c7,
f1,
13,
08,
0a,
00,
11,
0b,
f7,
08,
f9,
14,
09,
02,
05,
19,
0e,
09,
04,
04,
08,
fb,
02,
f3,
f0,
eb,
fb,
03,
ff,
f4,
f9,
fc,
02,
d6,
f0,
05,
ce,
00,
f5,
d5,
f3,
00,
00,
01,
00,
08,
06,
08,
07,
08,
f3,
14,
0b,
f9,
f9,
f5,
0d,
08,
06,
f5,
02,
f3,
32,
85,
0c,
1a,
22,
26,
12,
21,
0e,
f2,
f9,
fa,
fc,
f5,
01,
e6,
e4,
e5,
10,
e7,
02,
03,
ee,
08,
f7,
f2,
f7,
f7,
09,
fe,
03,
0c,
fe,
e0,
03,
e7,
f1,
0b,
f4,
fa,
06,
ea,
f5,
00,
fa,
f8,
1a,
0d,
ee,
01,
f9,
01,
0f,
fe,
fd,
eb,
ea,
f3,
fa,
01,
11,
2d,
00,
ec,
fa,
fc,
f6,
fd,
02,
fd,
81,
e2,
e4,
4a,
09,
18,
f5,
19,
ff,
06,
f1,
14,
fa,
e4,
09,
10,
f7,
01,
ef,
fe,
01,
0f,
02,
03,
f2,
14,
01,
f7,
04,
13,
1a,
0b,
0c,
12,
0f,
fe,
05,
02,
fb,
04,
f4,
f2,
f6,
f6,
17,
fc,
f6,
fc,
e3,
09,
0c,
eb,
f0,
02,
13,
ea,
f7,
07,
ea,
f9,
fe,
ec,
32,
1e,
fa,
30,
2f,
04,
16,
0a,
f7,
f3,
03,
f0,
01,
fe,
f7,
02,
16,
06,
0f,
f5,
e8,
15,
ec,
fd,
fd,
08,
01,
04,
f8,
0a,
09,
fd,
08,
06,
00,
0c,
fb,
f9,
fb,
08,
fc,
07,
fa,
06,
06,
00,
f9,
fb,
00,
09,
f8,
04,
08,
ff,
fa,
02,
f1,
03,
05,
fe,
06,
0c,
05,
fa,
f5,
07,
01,
08,
10,
fe,
f5,
fe,
0f,
0a,
05,
f2,
02,
01,
f2,
04,
01,
f2,
f8,
09,
e8,
0d,
18,
fd,
fd,
0f,
07,
0d,
01,
fb,
f6,
fa,
02,
03,
04,
02,
06,
05,
0f,
f6,
ff,
04,
f3,
fd,
ff,
01,
fa,
f7,
00,
fe,
fd,
fb,
fc,
ff,
ff,
00,
02,
f9,
f0,
fe,
f6,
ff,
fd,
e3,
05,
fa,
f3,
08,
fb,
f8,
06,
fc,
dc,
fd,
fd,
08,
08,
f4,
0a,
03,
ff,
f5,
08,
fa,
f4,
f4,
ee,
01,
f5,
f9,
e4,
e7,
fe,
f4,
f8,
0d,
0b,
04,
25,
2a,
0e,
19,
1d,
18,
15,
ec,
13,
f6,
10,
0e,
07,
0a,
f9,
ef,
ff,
04,
fe,
db,
ea,
ff,
f3,
c4,
00,
04,
e2,
06,
16,
04,
0a,
02,
02,
0d,
05,
fa,
11,
fa,
f9,
08,
fd,
f7,
fc,
f4,
f8,
f1,
02,
f6,
f9,
0e,
fc,
09,
fd,
03,
a9,
79,
e7,
17,
d4,
fb,
03,
09,
ff,
05,
fe,
01,
02,
f9,
fe,
fd,
fe,
f9,
fb,
f2,
47,
2b,
cf,
e9,
21,
d2,
f4,
f1,
13,
01,
f6,
07,
f5,
f9,
fe,
f1,
ff,
13,
f5,
ff,
fc,
04,
f8,
08,
04,
f7,
17,
03,
f9,
fd,
f9,
fd,
04,
ff,
fe,
ff,
fd,
f7,
0e,
f5,
04,
f9,
fd,
f8,
f3,
f3,
f5,
f9,
fb,
f7,
0d,
05,
19,
e8,
0f,
13,
08,
03,
0b,
09,
ff,
02,
f1,
e3,
f8,
0f,
e8,
00,
05,
00,
02,
e2,
f0,
03,
f5,
fc,
ff,
06,
fa,
ee,
10,
fe,
02,
f5,
f7,
0a,
18,
0e,
31,
f1,
f2,
22,
03,
ef,
1b,
e9,
ee,
04,
05,
f5,
de,
10,
fc,
ff,
05,
fe,
0a,
fc,
03,
fa,
ef,
f2,
fe,
04,
ff,
f4,
ff,
08,
01,
03,
08,
f4,
f5,
09,
01,
14,
04,
09,
fe,
01,
f9,
04,
06,
01,
07,
10,
03,
05,
fd,
07,
ff,
fe,
07,
03,
03,
04,
13,
0a,
03,
fc,
04,
fd,
f6,
e5,
08,
fb,
01,
02,
ff,
fe,
fa,
14,
1e,
fb,
0b,
1d,
f9,
f0,
fc,
f4,
eb,
f2,
e5,
16,
25,
f8,
05,
0a,
00,
f7,
ee,
fb,
f6,
f9,
fd,
07,
fc,
fb,
14,
11,
fa,
0f,
2e,
f8,
09,
20,
f9,
f3,
fd,
02,
f8,
06,
04,
02,
0b,
fd,
f9,
fd,
09,
fe,
01,
ff,
ff,
ff,
ef,
ff,
1c,
f7,
f7,
1b,
05,
fd,
02,
fd,
e7,
fb,
f1,
f4,
fd,
f8,
01,
03,
f0,
3f,
f3,
02,
45,
09,
04,
22,
05,
00,
f4,
0d,
ff,
03,
10,
ff,
00,
00,
fc,
17,
00,
ec,
23,
28,
01,
0c,
0b,
ec,
22,
1a,
06,
fa,
06,
07,
14,
0b,
0d,
fb,
01,
07,
e8,
05,
fc,
ed,
00,
fe,
1a,
e6,
00,
0d,
ff,
01,
03,
fe,
1b,
b1,
07,
f5,
06,
ee,
e8,
ff,
e9,
11,
c4,
21,
13,
d6,
18,
08,
00,
10,
ed,
fb,
d2,
f5,
d7,
fc,
01,
f5,
f5,
0e,
ec,
02,
02,
00,
0b,
08,
0b,
03,
f9,
f9,
fb,
f1,
f4,
ee,
ff,
06,
02,
f2,
f3,
06,
fd,
03,
fe,
fd,
fe,
f5,
0a,
09,
1a,
04,
d5,
fb,
fe,
fc,
ff,
f9,
05,
1d,
fb,
17,
f2,
fa,
28,
f6,
17,
d3,
02,
ea,
bf,
e4,
fc,
e6,
01,
02,
01,
05,
03,
ef,
05,
fc,
fc,
fc,
c3,
c9,
fe,
09,
eb,
f3,
fd,
e2,
01,
35,
11,
2f,
bf,
e9,
bc,
ea,
16,
ed,
fb,
ee,
f3,
05,
f4,
05,
fe,
f4,
fa,
f8,
00,
fc,
ff,
07,
02,
f7,
07,
fb,
15,
0f,
00,
e2,
e9,
0d,
ee,
fa,
f9,
15,
f3,
0c,
fa,
06,
fa,
fe,
05,
fa,
25,
bd,
04,
f0,
ad,
ff,
f9,
db,
fb,
26,
06,
24,
eb,
11,
fb,
f9,
11,
03,
f8,
ec,
f0,
f5,
f8,
f7,
0a,
14,
07,
fd,
f9,
04,
f7,
ff,
e6,
e8,
09,
02,
fe,
02,
01,
ee,
00,
06,
fd,
0a,
0b,
ea,
2b,
ff,
fe,
fa,
f3,
01,
fa,
05,
e8,
e6,
db,
1b,
d6,
f1,
13,
b8,
e2,
3e,
9d,
1f,
29,
16,
15,
ec,
06,
e8,
f8,
fb,
f7,
0c,
ee,
09,
03,
f1,
06,
f2,
ee,
f7,
ee,
01,
fe,
f2,
f3,
f1,
45,
c7,
24,
10,
be,
1c,
04,
e4,
0d,
e6,
e6,
24,
ce,
e4,
2b,
e9,
e7,
14,
f5,
f3,
f6,
f9,
00,
06,
f4,
0c,
08,
d1,
0e,
47,
f9,
15,
ce,
04,
10,
15,
f1,
fa,
01,
03,
0c,
0c,
0a,
ff,
05,
ed,
f3,
f7,
f3,
05,
f0,
05,
0a,
13,
05,
03,
01,
02,
03,
ff,
05,
02,
04,
02,
e1,
fd,
02,
f3,
0c,
f5,
f3,
ee,
fc,
03,
04,
f9,
02,
f8,
00,
0d,
05,
15,
df,
00,
ff,
e6,
f4,
0d,
e9,
f4,
0d,
fc,
0b,
09,
e7,
fc,
07,
f0,
fb,
f4,
f8,
f8,
f6,
f2,
fb,
fd,
fd,
fe,
ea,
f5,
f9,
f2,
f9,
eb,
f9,
e4,
06,
00,
0e,
08,
05,
07,
f4,
fe,
06,
f8,
07,
1b,
02,
0e,
1e,
0f,
18,
10,
11,
0b,
17,
09,
08,
fc,
0d,
0e,
03,
03,
0a,
f9,
0d,
00,
ef,
06,
fe,
f8,
0a,
fb,
fb,
f8,
ff,
06,
0d,
f9,
0c,
04,
f6,
e8,
ee,
f5,
fc,
f5,
06,
00,
11,
01,
05,
07,
fe,
10,
09,
ff,
fc,
fe,
f7,
fc,
fc,
fc,
ed,
02,
ff,
0a,
08,
fc,
f6,
09,
05,
01,
0b,
f7,
f8,
f6,
05,
fd,
06,
0e,
06,
07,
05,
01,
00,
ff,
02,
fd,
ff,
fc,
0b,
07,
fe,
fc,
04,
03,
03,
03,
00,
06,
09,
00,
08,
01,
fa,
ff,
f8,
f6,
fa,
fc,
f6,
f9,
fe,
05,
06,
04,
0e,
0b,
fe,
f9,
ff,
f7,
f0,
f7,
03,
2b,
12,
ed,
d1,
e0,
fe,
11,
02,
07,
11,
08,
08,
09,
07,
08,
0b,
fe,
05,
04,
01,
08,
04,
02,
0c,
09,
0a,
fc,
ee,
fa,
07,
f8,
fd,
fe,
03,
02,
03,
00,
f6,
0b,
03,
fb,
fc,
ff,
f9,
df,
c7,
e2,
cf,
a5,
cb,
03,
f9,
0b,
07,
19,
14,
03,
00,
02,
06,
fd,
06,
05,
f9,
04,
04,
f6,
fc,
fd,
04,
00,
01,
09,
08,
04,
fe,
08,
ff,
03,
05,
03,
0b,
04,
fc,
06,
00,
fb,
08,
fd,
ff,
07,
02,
04,
0b,
02,
fb,
f4,
00,
fb,
f3,
04,
02,
f4,
09,
fe,
fb,
fe,
f7,
0a,
fe,
fc,
f6,
05,
f6,
0d,
03,
f4,
25,
f7,
0a,
23,
08,
02,
fa,
ff,
01,
fd,
ff,
06,
fd,
ff,
ff,
fe,
0a,
f9,
01,
06,
f2,
ff,
08,
fd,
01,
00,
04,
00,
f2,
06,
02,
01,
05,
fc,
00,
02,
f5,
ff,
f7,
ec,
fd,
fe,
04,
04,
07,
f7,
fb,
fb,
fe,
05,
f4,
18,
ee,
02,
0a,
f9,
fe,
04,
fa,
00,
00,
ff,
fe,
02,
03,
04,
0c,
00,
fd,
08,
01,
08,
19,
07,
05,
fc,
02,
fd,
04,
fa,
ff,
06,
fd,
f8,
f4,
fc,
02,
00,
fe,
fa,
f7,
fb,
00,
04,
01,
04,
04,
12,
09,
ea,
17,
ff,
fd,
f9,
0f,
f4,
fa,
06,
fe,
fb,
00,
09,
03,
ff,
ff,
ff,
07,
f8,
04,
10,
fa,
18,
05,
07,
fe,
01,
05,
f9,
02,
03,
00,
fa,
fb,
0f,
01,
f9,
07,
01,
fa,
02,
f2,
d9,
fe,
f6,
f6,
f4,
07,
d6,
e9,
f9,
04,
fc,
00,
09,
00,
fe,
07,
ff,
06,
06,
ff,
fa,
08,
f9,
fd,
10,
fe,
fe,
0d,
04,
fd,
fd,
04,
fd,
04,
0e,
01,
ff,
fc,
00,
ff,
f9,
03,
ff,
02,
01,
05,
fa,
00,
ff,
f8,
01,
fe,
ff,
f7,
18,
f7,
0b,
17,
ff,
fc,
15,
1a,
f5,
07,
fa,
f7,
0c,
f7,
f6,
0e,
07,
fb,
fa,
0b,
fc,
06,
0c,
03,
01,
04,
f3,
04,
f9,
fb,
f7,
04,
fd,
fb,
07,
07,
09,
08,
e7,
df,
d6,
08,
41,
15,
fc,
ea,
06,
fb,
e5,
02,
02,
fb,
02,
fb,
00,
ff,
f7,
f9,
01,
fe,
04,
02,
02,
1f,
17,
01,
42,
fc,
dc,
b5,
d9,
ff,
06,
00,
fe,
0a,
fd,
02,
0c,
00,
01,
fd,
fc,
f8,
f5,
f0,
0f,
00,
05,
fd,
08,
fd,
00,
f9,
01,
f2,
06,
ff,
02,
09,
fc,
03,
e7,
fb,
f0,
d8,
fa,
fb,
0c,
ed,
ff,
12,
ec,
fa,
0a,
ea,
0b,
f5,
fa,
06,
09,
07,
02,
05,
03,
f9,
f9,
00,
02,
04,
05,
0e,
ff,
10,
00,
07,
f5,
fd,
fd,
fd,
02,
0a,
fe,
0b,
07,
00,
07,
0d,
fc,
f1,
f5,
02,
fe,
fb,
04,
04,
fb,
04,
fb,
fc,
fb,
09,
f8,
ff,
00,
07,
01,
f4,
06,
ea,
07,
fa,
07,
fa,
f9,
fc,
fc,
03,
06,
08,
01,
fa,
01,
00,
fd,
fe,
0d,
00,
fd,
fd,
00,
ff,
07,
fe,
02,
05,
03,
01,
f6,
0d,
fc,
f6,
09,
09,
ea,
07,
01,
09,
06,
fa,
e0,
f3,
02,
18,
08,
ff,
fa,
ff,
fe,
ff,
ff,
07,
09,
09,
08,
f7,
09,
f2,
fa,
0b,
09,
fb,
f4,
06,
ed,
02,
02,
f2,
03,
08,
0d,
fc,
fd,
00,
00,
09,
0b,
fd,
fd,
f4,
00,
fd,
f9,
01,
fc,
fe,
fc,
f9,
fa,
f8,
04,
06,
fb,
08,
fa,
ec,
01,
03,
ee,
01,
f8,
ff,
03,
01,
01,
00,
0a,
00,
01,
01,
fb,
08,
0b,
fb,
fe,
09,
04,
00,
01,
02,
06,
f8,
01,
07,
fb,
07,
07,
fc,
f9,
03,
f9,
f8,
f2,
f9,
f4,
fc,
fc,
05,
ff,
f8,
00,
00,
03,
06,
05,
08,
05,
0d,
fc,
00,
02,
f6,
0f,
fc,
fd,
ff,
fb,
04,
ff,
fb,
03,
fa,
f8,
fa,
01,
ff,
03,
f9,
0d,
df,
e0,
03,
fa,
0a,
00,
03,
03,
02,
e4,
0d,
08,
06,
06,
07,
03,
0c,
00,
fd,
ff,
f8,
fb,
f4,
f9,
f6,
ff,
06,
fc,
01,
fd,
fe,
09,
02,
f4,
f8,
04,
02,
ff,
fa,
f3,
fe,
f9,
f4,
f5,
ff,
f6,
fd,
05,
fa,
ff,
15,
fd,
0b,
05,
1a,
0f,
fa,
0f,
f8,
e5,
e0,
e7,
33,
67,
24,
fa,
fa,
f6,
fa,
15,
0a,
04,
29,
11,
07,
ff,
03,
05,
00,
01,
01,
ed,
f9,
00,
f7,
0a,
0b,
ec,
f9,
06,
ee,
05,
02,
f4,
01,
f5,
ed,
f2,
f7,
e5,
f9,
01,
f4,
00,
fe,
fb,
ff,
03,
fa,
09,
fa,
09,
09,
fb,
02,
0f,
03,
ea,
f9,
00,
05,
01,
00,
00,
02,
fd,
00,
01,
fc,
fa,
01,
06,
08,
05,
fe,
09,
01,
04,
04,
fe,
1f,
37,
11,
b5,
81,
dc,
fc,
05,
f9,
08,
00,
fa,
08,
f8,
03,
05,
06,
04,
fa,
12,
fc,
fa,
02,
f4,
07,
0d,
ff,
f4,
f4,
f9,
ff,
fd,
0b,
f8,
fd,
f9,
fa,
09,
fb,
f5,
fd,
f6,
fc,
ff,
fc,
fb,
fe,
fb,
fa,
fa,
fb,
00,
fd,
f9,
f6,
20,
0c,
01,
f2,
f9,
ff,
03,
08,
00,
fa,
ff,
fd,
fb,
fc,
03,
fe,
01,
01,
0e,
00,
00,
ff,
fa,
fe,
00,
ff,
01,
fc,
fc,
fb,
fc,
01,
05,
09,
02,
01,
02,
05,
00,
04,
01,
05,
0f,
03,
f6,
08,
fe,
02,
02,
fe,
fe,
e7,
ff,
fa,
f8,
12,
0c,
fb,
fa,
08,
03,
fd,
03,
08,
ff,
00,
f6,
fd,
ff,
03,
00,
0d,
11,
e8,
07,
17,
f1,
ff,
fa,
fd,
04,
01,
fc,
ff,
00,
fe,
ff,
01,
ff,
01,
f8,
f8,
02,
fc,
f9,
fe,
0a,
03,
fe,
02,
00,
05,
00,
f3,
ff,
e8,
04,
fd,
e7,
01,
ff,
f6,
05,
00,
f0,
03,
ff,
f4,
f8,
fb,
04,
06,
f0,
e5,
ef,
e9,
e3,
ed,
f5,
ed,
f5,
01,
04,
02,
01,
01,
01,
04,
00,
07,
0b,
f8,
06,
f7,
00,
06,
f7,
0a,
fd,
01,
00,
04,
03,
08,
05,
fe,
06,
03,
f8,
f2,
f9,
fb,
f6,
fa,
fc,
f8,
fd,
ff,
04,
00,
f9,
02,
fe,
ff,
01,
ff,
17,
01,
14,
00,
e3,
0b,
00,
12,
ff,
fd,
06,
f9,
fc,
f4,
ee,
00,
0f,
f4,
fb,
0a,
f8,
f6,
fe,
00,
f5,
fa,
0a,
09,
f9,
0a,
00,
fa,
09,
06,
fc,
04,
fc,
f8,
fd,
fd,
f9,
01,
04,
00,
ff,
dc,
d5,
d5,
f1,
df,
fa,
0c,
e0,
00,
f0,
02,
01,
fc,
03,
fd,
05,
15,
0b,
fd,
f7,
f8,
00,
ef,
ff,
11,
00,
04,
f5,
14,
f8,
f2,
08,
fb,
fe,
04,
f8,
f5,
fb,
fa,
03,
07,
02,
02,
08,
06,
f6,
08,
1d,
ed,
f2,
ff,
03,
fa,
f7,
02,
09,
04,
fc,
13,
fb,
fd,
00,
fb,
f2,
ef,
f4,
03,
fa,
fd,
05,
f9,
f8,
f6,
fb,
02,
f9,
f5,
08,
02,
ed,
0c,
f0,
31,
00,
fd,
be,
e0,
04,
02,
1c,
fc,
06,
fb,
07,
fd,
0b,
1f,
05,
1a,
03,
f7,
f9,
f1,
fa,
f6,
00,
f5,
fe,
f1,
f5,
fb,
f6,
e3,
ee,
fb,
0e,
07,
10,
07,
14,
03,
ed,
f3,
0a,
06,
07,
20,
3c,
23,
d7,
c2,
c9,
ef,
53,
04,
fb,
f4,
f1,
0e,
26,
17,
f8,
ea,
e0,
f8,
fd,
fa,
fc,
f8,
f5,
ff,
ef,
f9,
12,
0f,
01,
16,
15,
00,
ff,
ea,
e9,
05,
fe,
0e,
e7,
de,
fe,
f8,
ea,
f7,
f8,
09,
fb,
f9,
07,
01,
09,
00,
0e,
fc,
fe,
09,
fb,
fb,
0d,
ed,
ea,
01,
f9,
fe,
fc,
07,
09,
1b,
f8,
0b,
07,
f8,
01,
f5,
f8,
d7,
ed,
00,
e0,
fc,
f5,
f3,
f3,
fd,
08,
03,
fe,
f7,
f2,
02,
08,
00,
f7,
fe,
02,
0c,
fd,
0f,
05,
f8,
08,
07,
f7,
fc,
fa,
08,
fa,
f4,
f9,
f6,
e9,
06,
10,
f4,
03,
0b,
fc,
10,
01,
f7,
ee,
f1,
0d,
00,
0c,
f7,
fc,
07,
00,
08,
09,
0b,
ff,
f9,
fe,
f8,
04,
fa,
0a,
01,
06,
f5,
0c,
f3,
12,
fd,
16,
2c,
18,
16,
3a,
1b,
fe,
08,
fc,
f2,
04,
f5,
f4,
ff,
f9,
f3,
ed,
f9,
f9,
08,
f9,
f4,
f7,
f1,
13,
f3,
13,
f0,
00,
e9,
0d,
1c,
fe,
01,
05,
f5,
fb,
0c,
fc,
f0,
ff,
05,
f3,
ff,
fa,
f9,
09,
07,
01,
06,
08,
f1,
f0,
fa,
fc,
0d,
08,
fa,
fc,
f4,
05,
06,
04,
ef,
08,
01,
fe,
09,
f7,
f1,
09,
f6,
ea,
f4,
c9,
2e,
5e,
41,
fe,
04,
09,
ff,
06,
06,
04,
e7,
04,
00,
01,
08,
02,
09,
03,
0f,
0b,
13,
f5,
f9,
fc,
fb,
01,
14,
0a,
35,
19,
00,
02,
06,
fd,
08,
02,
01,
06,
04,
f6,
06,
02,
f5,
f9,
08,
04,
05,
ff,
14,
12,
01,
05,
da,
0c,
f8,
d4,
07,
01,
06,
fa,
02,
01,
ff,
fd,
06,
02,
fb,
08,
06,
00,
0e,
f7,
01,
17,
03,
08,
fe,
fb,
07,
ff,
04,
01,
ef,
ed,
f9,
ca,
de,
3b,
78,
57,
fc,
f2,
01,
fe,
fe,
f3,
ea,
1c,
f8,
f3,
02,
f7,
02,
08,
01,
0a,
fd,
ff,
05,
fe,
fb,
fb,
ee,
e3,
e2,
be,
f3,
f7,
08,
fe,
05,
f5,
0e,
06,
f9,
00,
fa,
ee,
00,
fb,
ff,
00,
fd,
0e,
fe,
f6,
f9,
f6,
f5,
08,
0d,
fa,
ea,
02,
f4,
03,
f7,
12,
3a,
09,
f2,
34,
14,
e9,
f4,
ee,
fb,
f5,
05,
f9,
01,
0b,
03,
f2,
02,
02,
f5,
f8,
11,
fa,
f2,
07,
fe,
06,
fd,
f2,
fb,
0b,
0d,
1b,
06,
f4,
f9,
fb,
10,
f5,
01,
0d,
ff,
06,
02,
fe,
02,
0b,
f8,
10,
f0,
e9,
07,
48,
00,
fb,
24,
05,
ff,
17,
16,
0f,
ea,
07,
06,
0b,
fd,
11,
11,
f9,
11,
fd,
ea,
08,
01,
fb,
17,
0d,
f9,
02,
f8,
f7,
05,
f5,
f9,
08,
11,
fb,
fc,
07,
fb,
fa,
02,
08,
f5,
e9,
f9,
08,
fb,
f0,
f5,
0f,
0d,
f5,
0f,
07,
ef,
05,
f7,
09,
e7,
f8,
13,
5c,
17,
eb,
96,
d9,
06,
fa,
09,
06,
10,
0d,
f9,
f4,
f8,
f0,
03,
08,
0c,
01,
f9,
f6,
fc,
f1,
f2,
f3,
ee,
f3,
e6,
f6,
12,
0b,
0f,
f3,
fb,
02,
f2,
f8,
ff,
fe,
0b,
13,
fa,
f9,
fe,
f6,
fe,
fa,
f6,
fa,
f7,
11,
0a,
f9,
11,
12,
03,
00,
fa,
08,
f9,
ed,
f5,
05,
0e,
0e,
0c,
f2,
02,
01,
04,
03,
10,
0c,
0d,
02,
fd,
f8,
f6,
fd,
f9,
00,
f8,
fb,
ff,
f1,
00,
05,
04,
f5,
e1,
e5,
ed,
1b,
12,
03,
07,
0b,
03,
01,
00,
fb,
03,
03,
01,
f4,
15,
03,
fe,
10,
12,
01,
08,
fa,
04,
f8,
ed,
fc,
fe,
f6,
21,
0e,
05,
eb,
e8,
ef,
f1,
c9,
dc,
18,
7f,
44,
f8,
04,
fc,
16,
f9,
03,
ef,
05,
fe,
02,
03,
fe,
fe,
14,
08,
f1,
ff,
f6,
f8,
fc,
fc,
f1,
02,
fd,
03,
f6,
0c,
ff,
ec,
fc,
fe,
0c,
fd,
06,
f4,
fe,
03,
05,
fc,
fc,
01,
f4,
12,
fa,
03,
0a,
15,
0e,
18,
1f,
07,
0e,
e1,
fd,
04,
c1,
06,
04,
02,
00,
d5,
ba,
dc,
f0,
e2,
f4,
07,
1b,
09,
06,
ec,
f5,
f5,
0d,
06,
e4,
f0,
ed,
f4,
18,
ff,
0a,
fa,
f8,
05,
f2,
03,
09,
02,
08,
02,
f9,
f9,
ff,
e8,
00,
0c,
0a,
06,
fe,
07,
06,
f0,
11,
fe,
ea,
f7,
f0,
02,
f7,
19,
00,
e5,
f4,
e9,
fc,
f5,
04,
00,
00,
02,
00,
07,
09,
02,
0a,
fe,
f4,
00,
06,
00,
05,
f9,
fd,
ef,
06,
54,
0d,
ed,
b5,
0b,
fd,
0f,
f2,
15,
0a,
02,
13,
09,
fc,
f9,
f3,
fb,
08,
18,
0d,
f1,
0f,
fb,
fc,
09,
02,
f2,
e4,
f1,
f0,
e7,
f9,
f2,
f7,
f8,
ec,
f7,
f4,
08,
fa,
09,
09,
20,
11,
f5,
07,
03,
f5,
05,
fb,
01,
fe,
09,
f3,
06,
f3,
09,
d6,
f3,
ff,
2b,
1c,
08,
0f,
06,
ff,
fa,
f6,
fa,
f8,
f4,
00,
f4,
f7,
08,
fc,
fb,
14,
2f,
1d,
f7,
fa,
f7,
08,
fe,
0b,
08,
02,
15,
fc,
ff,
f3,
f8,
02,
f1,
02,
fc,
f8,
fd,
00,
0a,
04,
02,
13,
f6,
03,
0e,
01,
f6,
04,
03,
1b,
ec,
e3,
0a,
ff,
12,
09,
07,
02,
eb,
07,
fa,
02,
09,
fc,
0b,
01,
fc,
13,
03,
e9,
04,
0c,
f9,
fe,
00,
f3,
0d,
f1,
00,
08,
fd,
00,
04,
07,
fa,
f7,
03,
fa,
f3,
f5,
00,
00,
06,
05,
07,
fe,
0c,
f1,
f7,
fb,
f1,
01,
f1,
1e,
07,
e7,
f2,
dd,
0b,
f7,
ff,
07,
1f,
fe,
f7,
fa,
ee,
f8,
f3,
e5,
f7,
e5,
e6,
f5,
e3,
e9,
f6,
03,
f9,
fb,
09,
01,
05,
04,
fe,
ef,
e4,
02,
f1,
08,
13,
06,
d6,
da,
08,
fc,
05,
ff,
f5,
00,
07,
f8,
f2,
fa,
f9,
fb,
f8,
f2,
f7,
fd,
ff,
00,
05,
f1,
15,
03,
0f,
0e,
e7,
01,
e4,
fe,
0c,
f9,
05,
3a,
00,
0a,
fd,
03,
08,
16,
ff,
ec,
e9,
ec,
14,
fa,
09,
0e,
0a,
f8,
05,
17,
00,
f9,
fb,
fc,
ff,
02,
03,
00,
09,
06,
03,
fd,
05,
f7,
f9,
fd,
02,
09,
ff,
ef,
ed,
f3,
01,
f5,
0b,
03,
f5,
13,
fd,
04,
0d,
e8,
13,
11,
f2,
5e,
fd,
f5,
41,
f9,
fa,
02,
11,
12,
1b,
02,
00,
fb,
f9,
07,
09,
fe,
fa,
f7,
f6,
01,
02,
ff,
ff,
01,
f7,
09,
f8,
0d,
01,
06,
0c,
06,
02,
fe,
fd,
0e,
13,
00,
0a,
13,
04,
ff,
07,
fd,
02,
00,
00,
fe,
03,
f6,
02,
01,
f7,
f9,
05,
fd,
f8,
09,
04,
08,
f7,
0b,
01,
f4,
0e,
05,
f2,
00,
06,
03,
0c,
06,
0d,
fe,
0c,
0b,
f9,
05,
04,
fb,
f8,
06,
02,
ff,
07,
05,
17,
0d,
00,
01,
03,
f5,
fa,
f1,
05,
f3,
ff,
0c,
f7,
0b,
01,
ea,
09,
0a,
05,
07,
04,
ff,
fc,
00,
fd,
ff,
01,
03,
ff,
16,
24,
10,
fc,
f6,
f9,
fe,
14,
ff,
f7,
0e,
fa,
09,
11,
0c,
00,
06,
01,
00,
05,
fe,
01,
fd,
fc,
f9,
05,
fd,
05,
0c,
f6,
f5,
08,
0b,
06,
fd,
fb,
02,
07,
03,
03,
0c,
f8,
02,
0b,
05,
fc,
fc,
07,
fb,
0c,
09,
eb,
f1,
06,
f0,
fc,
f1,
ef,
ff,
04,
f0,
ef,
fc,
f4,
fe,
06,
f8,
07,
10,
fa,
04,
fe,
00,
03,
07,
07,
06,
e9,
f7,
f4,
06,
ff,
0a,
0e,
03,
00,
06,
f3,
ce,
12,
0e,
bf,
18,
ed,
ef,
10,
01,
fa,
0a,
05,
02,
10,
f5,
ff,
08,
f0,
fc,
01,
ef,
f7,
e9,
f6,
00,
fb,
05,
e9,
f2,
f9,
c6,
01,
ee,
f5,
ef,
fe,
fd,
f7,
f4,
fc,
f2,
06,
fb,
fc,
04,
fb,
0b,
00,
fe,
07,
08,
fd,
09,
fb,
01,
f7,
04,
fe,
02,
01,
04,
0c,
f6,
fa,
fe,
04,
fc,
f1,
0a,
ff,
04,
ff,
f9,
05,
f8,
fd,
0b,
04,
fb,
00,
01,
f8,
f0,
f4,
02,
ff,
fd,
f9,
03,
07,
1f,
fd,
0a,
1d,
19,
ff,
1a,
f7,
f4,
01,
ff,
fa,
ff,
06,
ea,
f7,
01,
00,
ff,
05,
f4,
f9,
fd,
fb,
f0,
f9,
02,
fc,
09,
05,
0c,
0f,
01,
fd,
f1,
07,
13,
00,
00,
f9,
f1,
f8,
f7,
fb,
07,
f3,
e1,
1f,
e8,
b6,
fe,
f4,
cf,
fa,
f3,
f7,
11,
11,
13,
fe,
f9,
05,
00,
f6,
f4,
04,
f1,
f6,
0a,
06,
08,
04,
fd,
06,
fe,
fc,
07,
fd,
f4,
04,
ff,
f5,
10,
01,
f5,
06,
05,
00,
02,
02,
02,
19,
f9,
f5,
f8,
09,
06,
f4,
02,
08,
06,
f8,
fe,
fb,
fb,
fc,
03,
01,
0a,
f1,
0d,
11,
09,
09,
0f,
2b,
00,
ef,
cb,
04,
d4,
d7,
fd,
e4,
c6,
ff,
e5,
ff,
06,
f6,
fd,
07,
13,
14,
0c,
11,
08,
ff,
00,
03,
01,
f9,
fa,
fb,
fd,
fd,
f8,
fa,
e7,
00,
05,
f8,
f2,
f5,
f1,
08,
13,
06,
00,
06,
ff,
f6,
f4,
fb,
02,
14,
00,
f6,
fd,
f9,
09,
0f,
0d,
fe,
0d,
07,
fa,
f2,
08,
fd,
06,
06,
ee,
eb,
fa,
f6,
fe,
eb,
0c,
0b,
05,
f8,
12,
0a,
01,
00,
06,
f7,
fa,
fd,
02,
06,
eb,
03,
04,
fc,
fc,
f5,
ff,
f6,
fc,
01,
04,
f0,
05,
0c,
fe,
08,
fa,
fb,
0b,
02,
f5,
02,
03,
06,
ff,
00,
16,
0b,
05,
fe,
01,
00,
ff,
09,
04,
f0,
e1,
01,
1f,
06,
fe,
09,
f8,
03,
0f,
07,
fa,
f8,
04,
05,
f5,
1d,
11,
02,
fa,
0e,
11,
ec,
f7,
fc,
fd,
ef,
06,
11,
f5,
f9,
fd,
0b,
25,
12,
fa,
4d,
05,
1a,
20,
08,
03,
00,
f3,
00,
21,
ea,
fa,
f7,
f7,
02,
07,
0b,
fe,
0c,
fa,
02,
07,
03,
10,
0b,
0d,
f3,
eb,
e7,
07,
eb,
05,
07,
02,
0f,
00,
0b,
0c,
00,
f7,
00,
f5,
04,
00,
e5,
ec,
f5,
fd,
f9,
0a,
fe,
ff,
13,
04,
f2,
31,
02,
f4,
12,
fd,
03,
fb,
00,
06,
f9,
04,
01,
00,
05,
f5,
f8,
ff,
02,
02,
07,
00,
0c,
07,
03,
ff,
0a,
0e,
f1,
fd,
0c,
fd,
05,
04,
fd,
f9,
0a,
f9,
03,
09,
f3,
ff,
f3,
07,
fe,
01,
05,
01,
fd,
08,
0e,
6b,
c6,
f8,
1b,
f7,
f2,
e7,
09,
ea,
f2,
e5,
f1,
fc,
f6,
f4,
fe,
ed,
04,
fd,
ff,
ee,
f1,
ec,
07,
09,
15,
f8,
f5,
0b,
f5,
08,
19,
14,
16,
ff,
0d,
07,
f5,
01,
0f,
f5,
09,
19,
00,
fc,
f6,
02,
04,
f3,
f9,
00,
f2,
0b,
ff,
f4,
fc,
00,
00,
fb,
07,
fa,
01,
fc,
fe,
f9,
01,
09,
0a,
06,
07,
03,
fc,
02,
03,
e6,
f6,
fd,
08,
0c,
0a,
1a,
08,
01,
f4,
fc,
fb,
f7,
f5,
03,
fb,
ef,
04,
04,
ea,
03,
fe,
04,
fb,
06,
04,
19,
09,
02,
03,
e5,
db,
ec,
