e4
f4
06
d2
e1
aa
41
fb
03
de
2c
38
fb
ff
42
ce
17
f6
ff
ab
27
ee
fa
f3
03
e5
29
13
05
14
e5
1b
be
4c
fe
e3
ea
ec
ec
d7
fa
01
fd
0b
05
0c
ed
f9
e9
00
f3
db
0f
cf
18
10
0a
00
4a
e8
ec
f2
09
ed
d3
0b
23
16
fd
17
05
cb
06
18
e8
ee
0c
e2
eb
d9
07
08
10
c7
f6
f5
3a
10
fb
da
7f
01
f1
ee
01
ea
a6
25
35
11
bf
49
03
dc
e0
e5
13
35
d8
e8
de
ee
14
d7
e8
02
f5
36
35
db
17
f7
e1
45
41
05
f4
d5
ec
e2
f6
e9
d9
d8
00
05
00
ea
10
ec
05
ef
04
3b
f5
ed
f7
02
25
00
0d
f3
01
e9
eb
0c
d8
e8
e5
e9
0a
24
dd
03
f9
e7
07
11
ea
da
35
01
11
e3
ee
ea
bc
ec
e8
18
ea
07
f2
e7
0a
ed
0f
f8
01
0d
f7
ef
05
21
1c
2c
b0
0d
11
ef
2b
18
27
08
09
13
0e
0e
02
fc
05
ef
03
fa
06
e7
09
e5
70
eb
00
fb
f6
f1
ec
e2
fc
c8
08
10
fe
fd
1d
01
04
13
f4
0e
f3
fc
00
df
f7
f0
e8
39
11
07
0c
12
f8
4f
10
fb
28
f8
f7
e5
fd
f0
f2
f3
f8
03
f1
0b
01
f6
0b
fc
08
21
f3
fd
ff
07
10
fc
07
fa
fe
ea
f8
02
f2
f8
f6
f5
03
12
f9
fd
0b
f4
06
09
01
f8
0c
f2
02
f6
05
01
02
00
fe
0d
f1
0d
15
f8
06
fd
0a
07
0f
fe
f4
fb
fd
15
0a
1c
ea
0a
01
f6
09
08
00
fe
02
0a
05
10
f5
fd
04
fc
04
fb
fd
f5
11
04
2f
ff
fc
f6
f7
f8
f6
f6
00
e8
0c
fe
02
f3
13
09
fb
fe
0a
f1
f7
01
f3
fb
f5
ff
fe
0b
08
03
05
05
f7
0d
f6
04
18
10
03
f9
01
f0
f6
fa
fa
02
f5
0d
05
e5
05
08
0b
28
f9
fd
06
ff
08
ff
05
03
03
f5
f6
04
0d
fb
fb
f9
02
03
fc
f9
04
fc
04
01
fe
fc
19
ff
03
03
04
ff
06
f7
07
03
f7
fc
0b
ff
f8
f4
01
18
02
f9
f5
04
f6
0d
02
10
fe
0a
09
f9
08
08
fe
f7
02
10
0e
06
fb
01
11
f4
00
fa
fa
fc
08
12
26
04
00
f8
ff
05
f9
f8
f7
fe
09
fe
0a
fb
fc
01
f4
05
02
03
fc
f7
fc
f3
02
04
00
03
f9
01
01
05
03
fd
ff
05
16
08
ea
f2
48
2d
3d
e9
58
fe
05
c8
ff
e9
1b
1d
c8
f7
ff
00
f0
3a
1e
f7
7f
22
a9
be
2c
aa
0a
ec
d0
c0
ea
b5
0e
40
c7
f9
17
da
4e
53
fc
22
fc
12
28
22
e0
fc
af
c4
ce
1e
18
4d
f6
ec
59
77
2c
22
25
13
d6
06
df
d1
03
03
ea
fd
ce
6c
1b
11
c5
b8
3d
da
dc
26
03
cc
fd
ee
e1
14
00
b5
df
f9
e1
15
de
f6
26
01
f2
d1
d2
e7
df
ac
f2
20
02
31
de
1d
ff
09
fd
fc
c8
38
d4
e3
16
62
d8
f2
fa
f1
51
e0
23
10
c1
fc
12
0b
2a
09
23
06
05
e3
dd
e9
03
22
ff
f1
0d
1e
04
02
27
09
52
ff
f3
f6
33
f3
e9
b3
fe
d1
1f
fb
12
1c
ff
10
25
11
0b
1f
22
06
e5
0a
f5
05
43
d3
e0
30
12
11
df
25
f7
f1
14
f1
f1
13
2e
d1
f0
11
0b
24
0c
27
fd
f8
0a
05
f0
fc
1b
ef
0f
f4
24
f5
09
00
02
11
0b
1b
04
ec
0e
c7
ee
33
0c
26
05
2c
e5
fa
29
25
e0
18
0f
ea
0c
0a
13
de
f3
f1
f5
14
08
00
d0
fe
0b
0e
12
05
17
02
10
27
0a
18
e1
01
00
15
f9
f1
fd
08
ff
f3
f7
02
06
10
04
03
00
0d
09
ee
02
f9
09
0b
02
f4
00
07
04
f3
ee
f3
12
fc
0a
fa
07
12
10
16
00
e3
12
06
fd
03
e0
ea
13
f5
f7
1b
fb
09
f0
27
02
f6
04
fd
03
fe
08
ea
00
0f
0a
1f
fb
fe
0d
f0
02
02
04
10
0c
ff
1d
fd
11
ef
17
11
f9
0b
03
0f
f8
0c
f6
db
fa
05
0d
0b
08
17
f4
1b
25
13
f8
07
00
f2
17
fd
0a
f0
02
11
03
0d
f1
ed
ef
fe
f3
f2
07
fc
f5
e9
fb
f8
f2
00
f5
fe
f1
fa
fe
f1
f5
20
00
f6
fc
19
f3
0f
f7
f0
f3
07
fa
fb
ea
03
f8
08
fc
f5
06
0e
03
fd
e7
12
fd
fa
08
01
07
05
12
17
0f
ef
0c
fc
f0
f2
eb
01
0a
fc
fe
13
fa
0e
fc
17
02
01
02
03
02
fd
f9
00
09
01
09
18
f7
ef
01
f5
0a
f2
fe
ff
fe
0d
08
04
0d
fc
14
17
02
0c
fa
04
ec
23
f7
f9
07
02
09
13
ff
04
ef
0a
1b
0b
fc
02
02
ef
03
10
16
fe
fc
0a
f3
08
f2
f9
04
13
fe
fa
fe
eb
f4
fa
00
fe
f4
f4
e1
92
e3
21
ec
e2
f0
4d
b7
7e
07
54
40
00
f9
88
11
2b
20
d9
e1
08
e8
f4
d7
e1
c6
15
d5
02
bb
24
d2
0a
d0
30
3c
1c
24
c9
0f
ff
e3
eb
91
a1
d6
f9
ef
2a
81
b7
c7
05
e0
c9
02
e5
e9
54
f1
fd
b6
3b
15
e0
20
c3
2a
e4
18
36
ce
bf
d5
fe
39
fd
32
eb
08
f9
dd
26
23
c7
22
42
de
24
2c
fd
0d
12
42
09
fc
04
2e
06
e9
2a
f1
f8
ca
e8
fa
fa
68
03
06
31
f8
c7
ca
f3
43
f8
22
d9
1f
04
1c
00
e5
f0
01
c7
ec
e1
c2
f5
f2
dd
f9
08
ef
09
07
0d
2c
03
1e
b6
d9
27
09
0e
0f
f2
ff
f8
e7
dd
1d
0b
2c
09
d3
0b
13
ef
e5
09
13
f9
29
fb
01
11
05
ff
cf
ee
f3
06
4c
28
dc
f8
e3
f4
df
ec
f0
d7
07
1c
e9
01
ef
f7
13
d9
e4
d5
1d
e9
26
32
f9
06
d2
f8
3d
ef
ff
15
f3
23
fa
0b
f3
fa
19
1c
e1
18
17
f1
02
3a
28
1d
09
fd
0b
f0
fa
00
24
14
ec
e1
07
04
3f
ef
eb
27
ef
d5
fb
c1
23
da
ee
f5
fe
0f
db
29
fd
10
02
e4
f5
eb
d6
0a
03
ff
0e
fb
08
00
0b
09
08
16
0d
db
f4
14
f7
f7
e7
08
f9
0b
fb
f3
11
f9
2e
05
eb
fc
07
f6
f2
f2
12
fa
16
e9
02
ee
f7
f3
ee
03
fd
0a
16
12
f7
02
01
ff
ed
f9
ee
f6
00
22
fd
e7
f9
fc
0b
f5
f1
e5
21
fb
16
19
fb
08
e7
f1
12
f2
f9
10
f0
12
f8
13
f6
e7
0c
09
fa
05
17
fa
04
1d
11
14
e2
02
09
02
f0
08
08
13
e3
f5
00
13
16
f1
f8
1e
fb
08
04
ed
00
ef
0a
fb
fb
fb
ed
1b
07
08
16
ff
f2
fa
f7
16
01
f5
ff
02
02
08
09
06
f8
08
09
d2
fc
07
f7
fe
ee
fc
f4
01
fc
f6
07
04
1f
05
fa
fe
0c
f2
fa
ed
19
ff
ee
f6
df
f6
04
f3
eb
12
0a
08
0c
15
f6
fd
f6
fb
01
fe
f6
06
02
24
fe
f2
0f
ed
03
f9
ef
f2
11
fc
04
29
ff
fd
ee
01
19
f8
f7
0d
fa
0f
00
0a
f9
ed
0d
fc
f3
00
fd
f5
02
10
03
09
e8
04
04
01
f3
f8
06
18
ec
f3
fd
1f
09
03
04
17
08
0b
f9
f8
fd
fa
03
fd
e8
ef
f3
09
0c
05
03
00
1a
09
09
f3
05
fe
20
e9
1a
f5
20
10
ef
0f
27
f1
1d
fa
f5
ff
02
f3
de
03
0c
0b
2a
14
f1
f8
0d
08
11
0c
f9
f6
01
03
15
d8
f9
f6
0e
f6
ed
08
ed
d7
f4
fd
19
f3
f9
02
f1
0e
e1
ea
f6
06
14
09
27
15
03
0c
ef
f7
fb
f8
ee
f7
f7
16
f8
ee
e2
d2
03
e0
02
ec
10
14
ef
1e
09
03
12
dd
03
13
fe
16
06
1b
1d
fe
fb
0d
0a
e7
dc
ea
c8
28
1f
0d
05
e7
06
08
07
1b
1c
fc
fe
f0
0d
dc
f0
0f
fd
ed
1d
08
f8
18
07
16
09
fc
fe
00
08
ec
06
f4
0e
f7
ef
08
19
f4
06
08
f8
eb
1b
01
f8
f3
0d
0e
0c
06
08
7f
06
19
16
05
02
fa
01
00
02
f5
0c
f8
14
05
0d
04
f3
0a
ee
13
07
f7
06
09
fd
fb
f6
fa
0e
08
0c
f9
00
17
fb
10
f8
fc
fb
07
02
26
0a
06
f3
f8
0b
ed
09
f6
06
0c
03
0c
f4
fd
fc
04
06
f0
07
01
03
13
ec
09
25
f7
e9
fe
ae
f6
fc
f4
13
07
1c
07
f7
fc
f8
01
03
0b
09
11
0d
01
ed
04
07
ff
01
fc
1e
00
00
10
02
ff
0c
02
fc
04
01
f1
00
fa
05
fb
03
0b
0a
ed
ff
05
f8
ef
12
09
fe
0c
06
fb
fc
07
07
36
09
09
0d
fe
05
fa
fc
03
02
05
03
06
0d
ff
08
01
ed
0b
f9
0b
f6
f8
04
fc
ff
fb
05
fe
fe
08
04
fa
ff
fd
03
fc
f9
f1
0e
03
fd
13
08
09
e7
ff
fd
fe
08
f8
ff
08
f3
03
fe
f8
01
0c
1a
f3
04
ff
04
0b
f7
00
14
02
f1
fc
c1
00
03
00
0f
fc
0b
f9
f8
fa
fb
f8
fd
02
03
0d
02
03
f2
fd
01
ee
01
fb
fd
f8
10
0c
fe
04
08
ff
fb
f8
09
f8
fe
f8
03
ee
05
09
09
ef
0a
00
06
ed
07
f6
05
f0
06
f8
03
10
fe
16
0d
fe
16
f8
0c
fa
fb
06
01
fc
fc
03
06
fa
fd
08
f3
f9
f5
02
03
f5
05
fb
00
fa
08
fc
fa
09
00
fa
02
05
ff
fb
02
fc
06
03
03
08
07
11
ea
f8
08
ff
08
f5
00
01
f2
03
03
f7
fe
14
1b
fa
fc
f9
08
03
03
fb
0a
0a
fa
01
f5
04
07
07
02
fc
0a
f5
f4
f9
12
fc
f5
07
09
0b
01
06
f4
fb
fd
03
07
07
00
ff
0a
0a
d0
3d
0b
0e
fa
0f
d4
06
3c
18
ff
14
19
e1
16
62
c5
af
09
04
1e
26
0c
f6
e1
1f
61
fa
16
11
d3
f1
b4
0a
1d
b6
d8
fd
1a
e4
dd
db
12
19
e2
2c
0e
1e
f2
e1
ba
01
0e
1e
20
21
30
e5
e7
57
df
b3
31
27
dd
1f
bb
02
f6
d8
fe
19
ee
5a
0b
06
06
e1
0b
13
fb
ec
f3
18
eb
ea
27
24
2f
db
ee
10
1b
f2
0e
bc
e6
ec
d0
18
f6
e1
eb
d2
d8
0d
7f
45
06
ce
fd
d3
13
1e
aa
72
10
d5
c9
dc
ea
1c
dd
1f
10
2a
1e
bc
e4
f9
ec
0a
ee
ff
d8
15
0e
fa
dd
fe
f5
fc
dd
25
0e
ed
07
ef
fa
01
fc
04
1c
01
0b
0a
0a
11
03
f0
28
ff
1d
ec
05
17
1b
1d
d4
f3
03
f6
e0
06
db
f8
e3
cf
d9
14
f3
13
f7
0b
1c
ec
e4
29
ea
f5
24
fa
12
3f
f0
01
e7
e0
e0
ff
ff
2c
15
0f
fd
00
03
03
0b
10
f5
ff
fa
da
01
36
fa
0a
0b
13
05
28
fa
cb
f8
03
f9
f4
0d
12
fe
e8
f0
12
2a
07
da
14
0c
ec
26
f8
f3
3e
fd
1e
e2
f7
05
f9
f8
0e
ef
21
0b
0b
0b
fa
f2
0b
f4
ff
f6
06
fe
01
eb
fd
e8
06
fa
07
19
fa
fc
f9
04
f9
02
f4
01
02
02
0f
00
22
f9
f1
13
06
0a
f0
ff
07
04
0c
f4
ff
12
f5
f3
03
fa
f6
07
e9
00
f6
fb
08
f8
0a
16
03
ff
09
f4
fe
09
f4
11
12
ff
04
06
f1
fc
05
ef
16
03
02
03
0c
0d
0f
09
02
07
f9
fa
ec
05
10
f5
11
07
0d
f7
05
0b
e9
fc
fe
04
df
09
07
02
f9
f4
06
1c
12
ff
08
00
f2
17
f9
04
14
f3
0d
f6
fe
09
f3
08
fd
f5
10
fd
08
05
fd
f2
02
f7
08
f8
0a
f5
03
f6
f9
f6
fd
ef
f7
18
fb
f3
05
fc
05
07
15
fe
09
f8
0a
00
ff
fd
fc
15
fb
f7
00
01
fc
04
06
f5
12
18
fd
ff
fc
fb
f5
fd
ed
09
fa
f4
fa
fa
fb
fd
f9
02
fc
00
fe
fd
f2
12
f6
0e
0b
ff
ff
08
f4
f5
1a
ff
f2
06
11
10
03
f0
01
0c
ef
03
ef
f7
12
e9
12
0e
09
f8
f6
10
eb
f6
fa
08
e3
ff
07
0e
01
f9
01
ff
08
f3
fb
f3
f7
18
fc
02
fa
ed
07
f7
00
0e
06
17
00
fb
f9
e7
02
f4
8f
ed
0b
b4
1b
32
1b
bb
36
11
10
f9
fb
29
0f
de
ea
eb
f9
20
fc
4e
e4
1b
da
e3
e0
06
e8
37
d5
13
74
f3
03
ef
28
f0
13
75
73
f3
dd
15
0c
0c
e2
f1
cd
a3
06
18
e0
52
29
00
52
0e
db
f8
b0
87
4d
f3
08
fc
d4
b6
a4
3c
3f
d9
cd
0f
f2
55
1f
0f
f8
e2
f4
00
e6
02
14
eb
c0
04
db
aa
21
f5
c1
45
0c
e5
d1
13
eb
da
cf
0f
f3
1a
5d
c6
fe
25
44
0e
c0
99
14
ba
d3
6e
30
c2
06
5d
07
41
cd
96
b1
44
9f
1d
09
24
ea
ef
05
22
09
f5
fa
ee
ee
1a
f1
fd
20
05
f2
da
19
f2
02
f1
09
1c
e9
ea
fa
49
06
02
07
ea
30
14
06
11
ec
ee
23
21
f7
06
ec
ee
05
f1
22
0d
ea
c9
04
e4
31
21
19
18
2a
19
00
e6
21
28
f9
22
e4
de
16
18
14
ef
0e
02
fd
d3
fd
04
e8
d8
e3
1a
04
e6
23
d9
fd
12
07
d4
eb
ea
2a
e1
ee
10
04
fc
fa
ec
7f
f5
dc
fc
2c
e3
1d
16
e7
29
c4
f2
df
29
09
cc
0d
25
10
e0
04
ff
00
1e
e4
d8
1a
40
fa
0b
0a
16
f1
fc
f3
0a
07
02
f9
ee
f9
12
ec
ed
15
00
fb
f6
07
d6
02
05
0f
08
f3
de
f7
0d
fa
f0
fd
ea
19
f6
07
fa
ce
0d
0d
ff
f8
f8
f2
e4
08
06
f2
fb
04
e5
04
f7
0d
e0
f9
0d
08
02
13
0c
19
16
e9
13
0c
ff
fa
20
f9
f5
07
07
04
ba
04
0f
e7
dc
04
0f
e7
e5
10
f3
03
05
fa
d9
f9
00
f6
f8
00
20
02
fe
fd
fa
4b
db
0b
fd
0c
f4
f1
01
dd
12
fb
f2
fe
11
e9
f0
e6
27
10
f4
e3
f5
ce
17
00
12
0a
24
fe
04
f4
16
fc
f7
fe
1a
01
f8
03
00
fc
07
f1
f9
1c
fa
fa
0c
0b
e4
fc
06
d7
0a
04
08
f9
11
ef
fe
f3
fb
1e
07
0d
08
ef
29
10
fa
f6
fc
e8
ea
f9
0e
ec
06
07
e8
04
09
09
f0
0d
11
f6
fb
11
19
0b
1f
f2
1f
09
fe
fc
0c
01
fd
09
f9
10
cc
0d
0a
fb
e0
fb
09
fd
ec
0f
fa
f1
13
08
04
09
f6
f8
f6
08
15
06
05
00
f7
18
ee
04
13
06
02
f9
fa
f2
fb
02
07
03
1a
ef
f2
e3
15
12
f2
fd
00
e8
1a
f4
07
09
23
f1
e5
36
16
12
f4
bf
4e
fc
c9
07
ed
19
e7
27
04
e7
6e
41
17
0e
f3
12
42
09
22
04
0a
d7
ba
00
39
24
2f
11
1e
45
ef
dd
06
30
13
cd
cf
d5
12
e0
ff
81
e2
16
ed
f2
bb
f7
fc
08
f6
d5
d1
21
15
f8
eb
eb
d9
fa
2f
48
06
f9
04
c1
a2
ed
0a
f9
e3
13
0c
32
01
3a
fd
ce
de
f4
f2
f2
cd
f0
ee
c7
fb
4e
1c
fe
ed
c6
15
0a
ef
1f
eb
f7
ed
fb
20
1e
c9
ef
e2
17
1a
10
db
2d
17
27
eb
1a
ec
02
f2
d4
e4
c2
ea
56
0a
05
02
fd
f3
f7
f7
08
f4
21
f3
fa
fc
ff
ec
1b
07
fe
f9
e6
10
09
0c
f9
ef
0a
06
f4
f3
2d
00
05
e7
0e
11
04
00
f7
12
0f
09
f3
f8
f4
fc
0f
0f
0e
24
f3
0a
fd
ed
00
fb
0d
00
0c
f9
0a
ff
f4
00
f8
fd
f2
15
f9
fc
0b
ed
f2
f2
ff
fc
06
03
11
0b
00
fe
13
04
fa
fa
ff
09
14
0d
0f
f2
ec
f0
04
0a
06
07
08
11
fc
eb
f8
eb
ed
14
01
fa
21
fe
fe
01
e3
05
08
f1
17
1c
fc
f6
02
0c
f8
f7
e3
f2
07
24
f2
fe
03
ff
f9
fe
ff
01
00
ff
12
02
01
f8
04
f7
0c
09
fc
07
f4
ff
02
05
ef
03
01
01
05
fa
14
06
fb
f5
f9
11
04
fe
02
0b
02
fe
01
02
fd
fd
fc
02
14
10
fd
14
f6
fd
02
04
ff
f9
06
fb
0b
07
fd
03
fc
0c
fa
04
f6
fe
01
f5
00
f8
fe
eb
07
05
07
09
00
09
06
00
ff
07
ff
fa
07
02
ff
00
fa
03
05
02
01
07
04
06
0a
ef
02
fc
fe
0b
00
01
12
05
00
02
fc
00
fb
02
0d
0a
f9
fb
ff
03
fc
f9
ec
fd
07
14
ff
00
06
0b
fe
01
00
00
fe
fb
08
fd
fe
03
01
fe
00
03
f7
0f
ff
fe
fd
fc
07
05
0a
fc
fe
04
0b
ff
00
fa
f4
13
f8
08
07
01
fb
05
03
06
ff
00
02
0b
13
03
0a
03
f3
fc
03
05
fe
06
0b
fc
05
08
00
03
fb
07
f8
0c
fe
05
fa
fb
04
01
f9
f6
fd
04
02
00
f8
fe
03
06
02
03
05
fb
fd
03
0b
04
fe
00
fb
04
04
09
02
06
09
f7
fd
00
00
03
ff
04
0a
04
f3
05
f0
0d
05
03
0d
fe
02
00
01
06
fd
ff
f6
00
0b
17
fc
e2
ec
d3
fe
49
e4
fd
10
d5
f4
fe
f0
b5
dd
09
2f
2e
c6
fc
c9
10
03
db
f9
09
0d
0f
10
21
e8
07
26
fc
e6
05
18
f8
4f
04
14
0a
fb
e1
e9
0b
e8
fc
c8
01
7f
04
e7
ec
28
dd
02
ef
05
2e
fa
ef
e8
ee
10
0e
06
fd
ce
f0
32
e3
04
0d
14
1a
ef
e9
27
1a
0a
1a
e0
05
2c
01
f8
2f
bb
06
ce
dc
12
04
0d
e9
e8
1c
e6
fb
07
fa
47
01
21
03
0b
4b
be
f1
dd
fd
e4
d2
af
fd
0c
fd
d3
d2
1a
15
f8
db
1a
03
e2
08
ba
13
fa
de
f1
0d
fb
11
ef
16
f8
08
d9
ea
fa
17
17
1a
0a
e9
d0
0d
fc
f9
05
0d
09
16
09
05
06
12
14
f4
07
07
fb
1c
19
24
14
fc
fa
e7
f4
18
f6
fa
12
34
2d
fb
10
e3
19
f3
fa
01
ec
00
fb
01
0d
0d
fc
2f
e9
e6
c7
fe
1b
e6
ff
04
06
e7
f5
e8
01
07
f8
0e
16
ef
21
09
15
24
f0
06
01
d5
f8
09
07
04
e0
1e
f5
1b
03
05
05
e0
0b
18
1b
2f
e9
f5
f4
0c
f3
08
17
ff
f6
f5
e8
03
f2
03
0e
e2
1f
f2
da
05
f3
11
00
fe
f5
06
01
fe
fa
12
fb
ff
da
f3
fe
0d
1a
0b
0e
fa
ef
ff
01
f2
02
0d
f6
07
05
06
0c
0a
f3
06
02
fa
f5
10
14
24
04
05
fc
f2
01
06
f7
04
02
0b
11
00
0d
ef
fd
05
f3
ff
f9
08
00
04
0a
f6
fd
24
f3
f1
eb
00
02
f7
01
f9
ff
f0
02
f5
f8
f8
05
03
01
02
0e
00
06
00
f6
0a
01
ec
f5
00
06
07
07
0b
f2
08
00
09
fd
f4
fe
1c
06
0f
fb
f7
08
0a
fe
16
0f
04
ff
fc
fb
05
01
fe
0a
f8
08
f0
f4
f9
ff
15
fd
02
f8
05
04
02
09
08
01
02
eb
f9
ff
01
1f
06
08
fd
02
f9
f8
fb
fd
0c
f4
06
02
01
04
07
f1
01
fa
ef
04
02
14
16
08
fb
08
fb
09
fc
f0
fd
02
f3
11
0f
04
fb
fa
03
f5
ff
fc
01
fb
09
fd
f4
08
0a
fd
01
f8
fb
fb
05
fa
fa
03
03
02
ef
f5
fe
0a
f8
fe
0d
0c
05
0c
fd
ff
03
ff
fa
f7
00
fd
fd
0e
f9
f6
09
f7
0d
05
fb
fd
10
01
0c
01
fb
12
02
fa
04
02
09
ff
08
fd
03
ff
f9
f8
01
02
f6
f0
f8
04
f8
ef
dc
07
11
1b
e1
18
07
0f
09
2d
f3
06
2d
ea
3a
db
ad
d9
41
c3
22
fc
24
0d
ff
22
04
04
14
1b
0c
1b
0d
f9
eb
f6
d5
09
2c
f1
05
2a
09
fc
e9
0b
c6
ce
14
cf
d2
f5
e8
f1
5c
f5
fa
06
cf
07
f3
e1
f5
13
e9
10
ff
ec
f3
00
f6
cf
ec
08
e5
11
e6
e4
22
fb
ff
19
fa
32
f9
1f
fe
da
2a
1b
09
15
0d
1d
08
bc
a2
f2
23
e9
e9
14
ea
02
03
33
01
10
0f
0c
f8
26
0f
18
1a
fd
40
13
03
16
f8
14
d9
09
1a
ef
01
fe
f2
20
1e
11
fa
0d
fe
16
00
24
ff
10
08
de
09
ed
d3
fc
7f
03
f7
07
f2
02
f7
0a
e5
af
13
07
f6
01
f9
e7
f4
e7
f9
0d
13
fa
de
28
f2
fc
eb
0d
15
1c
ea
da
e4
03
f2
f7
3e
f2
fb
03
ec
f9
00
d3
e8
02
ec
09
08
f4
e2
fe
fe
f3
d5
03
fb
fd
fc
f9
24
f3
0b
19
e3
28
fe
f0
fe
f0
fb
fe
20
11
15
06
fa
e0
b1
e4
de
11
06
1f
fe
01
e6
f7
f0
f6
05
05
ef
1d
1c
10
0b
f6
14
02
fc
f9
f5
fb
e5
01
41
e0
fa
06
01
05
0a
03
01
0d
0e
02
f9
01
fc
05
ff
e9
04
01
e3
fd
2a
ff
08
09
f4
ff
fe
f5
01
f0
02
08
02
08
04
ff
f7
fe
01
0b
f9
00
ec
07
00
04
04
04
1b
14
f8
f8
fd
0e
f6
00
20
e2
07
01
0b
02
03
e0
f5
fb
f2
0b
14
08
f3
fe
02
fb
f5
fe
02
ef
fe
f4
0f
02
0b
04
fc
1b
03
f7
03
fb
fc
fe
0a
0c
07
01
0d
fa
d7
f1
dc
06
04
0f
f8
03
f7
f5
03
f4
f9
fe
fa
f5
16
09
f0
fe
0a
05
fc
01
fb
f6
f5
02
2d
f1
04
03
fa
fe
03
01
11
16
0a
ed
fe
f4
f7
02
01
f2
ff
f9
ea
02
02
fa
fe
ef
f4
fe
02
f8
0b
04
fa
07
06
0d
fc
ff
f0
fc
0b
01
f6
02
f4
fa
fb
ff
0c
04
02
04
fc
f3
04
0c
fb
f9
0a
fa
f9
fd
08
fc
01
fb
08
fe
fc
09
0e
05
fc
ff
fb
f8
05
03
02
f4
05
f8
0b
0e
04
f1
f5
15
04
fe
0d
f7
ff
05
08
13
03
0d
f7
f7
f3
01
fa
fc
fb
0b
f5
0d
02
f3
01
06
07
ff
00
f7
00
03
f2
04
0f
08
e4
f3
f4
f8
f8
ff
fc
01
2a
f9
f4
dd
21
08
2e
ea
03
f8
bc
1e
15
10
4a
03
e4
9c
16
04
fc
b9
e7
03
0b
cf
15
ff
17
2a
e9
1e
f7
e9
03
e0
e9
c5
0c
2f
0d
10
10
e8
30
15
33
c7
f5
f8
03
1d
34
d4
1b
21
15
f0
cb
11
e5
1b
02
fa
27
0e
e3
15
f7
df
1d
e2
ed
d5
ed
bc
e6
f6
10
e7
03
07
ed
21
1b
fd
23
12
e1
fe
31
dd
ff
04
ee
f1
0e
f5
e6
f6
13
eb
ee
f6
d7
e5
27
f4
ed
42
ef
29
39
16
e3
f2
19
02
f8
3f
1e
02
21
05
db
e4
e7
17
15
fe
f9
ef
34
17
0f
ed
f3
fe
d8
e3
17
25
17
fd
e5
ce
f1
14
08
ec
e8
08
0c
df
c1
f8
04
59
ce
17
e6
f5
ec
09
07
e0
0d
22
09
14
04
06
f2
22
22
ae
f5
01
dd
fd
15
d8
16
1e
0c
f4
f2
17
d4
2b
e5
e1
fd
df
f1
03
e7
ed
ef
92
07
db
ee
02
e6
f0
ff
e7
09
dc
dd
07
ff
22
e0
05
fd
04
2d
c6
0a
fa
db
fb
2e
d8
db
e3
c4
11
15
d4
1d
fe
08
ed
f5
13
02
f8
7f
15
f5
11
0b
22
f2
ef
09
03
13
f5
e2
e5
0e
f1
ff
ff
fc
fb
1f
02
fd
fe
ef
fa
e5
e7
15
ff
04
ea
f6
ee
fc
02
fd
13
f2
05
0b
f6
e4
02
fe
2e
e9
19
00
fa
f4
20
fc
f7
f4
22
09
1d
ff
0a
fc
22
0a
e5
15
fc
fc
0b
0e
e7
04
10
11
fa
fc
09
ec
25
ed
f1
fb
ef
04
09
f4
05
fb
cd
fc
ef
d4
09
fc
fc
02
f5
02
f1
fe
05
07
04
e6
f8
0a
0a
16
de
02
fc
e3
ff
20
e2
ef
01
dd
16
0c
fa
29
04
13
ec
f0
06
fe
eb
62
05
f9
0c
09
15
eb
f3
fe
07
12
02
ea
e7
1b
05
fb
fe
0b
f7
11
06
ff
09
f5
fb
f7
e7
1b
04
05
f9
05
02
0b
f6
fd
f8
f6
ef
0b
f8
f0
0a
f7
03
ef
0d
00
f6
fa
23
01
fa
f9
07
fc
0b
ff
05
09
11
06
07
12
fe
02
10
06
f7
ff
07
10
fb
f6
09
0d
15
ed
fe
fd
f9
f2
f3
fc
fd
fb
f1
04
f2
e3
03
ff
03
08
ff
01
02
0a
ff
05
ff
fb
eb
05
05
12
f7
00
fe
ec
00
0d
f0
0b
07
0e
0e
09
18
f8
07
14
fe
f0
fe
0b
f3
1c
07
f8
09
fa
23
f6
fc
fc
0a
14
fa
f7
00
0b
01
e2
30
c2
57
33
d5
ae
14
1c
42
56
38
b5
9e
4d
ee
33
c5
d5
d3
fc
12
06
0c
e4
3a
08
37
cd
0e
be
f7
5d
ec
ee
39
0a
f6
0a
35
e1
ce
dd
42
03
02
21
fb
04
e4
f9
f6
73
33
33
d7
f6
d1
ce
36
2d
ce
da
bc
1a
da
e8
f7
23
2c
0d
12
61
d0
d0
ea
f8
17
f2
40
10
73
e8
fe
d1
67
ee
1a
b4
f0
20
d4
f2
db
9b
b8
7f
f8
31
05
ed
00
aa
d1
d0
00
fb
d6
2e
50
fc
88
f1
11
2d
b0
a4
d1
be
1c
e6
48
d3
c2
45
e8
0e
11
01
fc
f7
0c
fb
fc
ee
09
1c
21
ff
01
f2
1f
e9
ed
25
17
e3
f3
2a
04
fd
ff
c5
0f
08
ee
0c
46
f0
1a
12
1d
00
1a
eb
22
04
06
ee
00
04
2d
0b
fb
f8
cd
6a
1b
f8
03
2c
27
fa
d0
0e
1b
1e
28
0d
eb
f4
cd
12
08
07
d6
2f
0a
2b
fa
19
f6
b7
0b
00
0e
e4
0c
0e
23
e8
02
fd
2b
ff
11
f4
f2
17
e0
05
fc
d8
dc
27
14
40
01
cb
fe
0d
ea
22
e0
ef
0e
32
47
f6
d0
ee
fa
19
ec
e3
0d
d3
0a
12
16
e6
e1
ff
04
12
fe
0b
f6
f0
f6
e2
07
14
f9
19
10
ee
f3
06
0f
f5
f2
0e
05
fa
e9
fa
f9
01
f2
f0
ef
02
02
fb
18
fe
0a
03
0a
f3
1f
fc
08
fc
f4
f8
11
f7
f1
11
15
0c
e3
f7
f8
f6
f5
07
04
f0
01
12
2b
02
05
06
f4
07
fa
01
f6
03
07
10
f5
15
f9
08
f9
df
00
f6
0e
fa
01
0b
08
00
0f
0b
14
ed
02
ff
f6
f2
fa
08
10
f5
ee
05
f4
18
0d
e5
f9
11
fe
24
ec
07
22
08
12
fb
fc
fe
f6
07
f9
09
0e
dd
f9
02
f5
03
03
e9
15
1a
f7
12
fc
07
e3
df
fa
03
eb
13
02
08
fc
11
10
f8
04
ff
03
0f
f3
f4
09
fb
00
fa
fb
fa
f8
0b
fd
fc
fc
fc
02
f2
04
f4
02
fc
f3
0c
02
f4
ea
09
12
02
f2
f6
fd
ef
f3
05
00
02
12
13
17
fc
04
01
00
0c
0c
f5
05
0c
04
02
08
11
10
f2
03
e9
fa
01
f9
e0
f7
09
05
0a
09
ff
05
ee
f6
11
fd
03
f2
f4
19
ff
fc
05
eb
0f
17
fd
f6
01
fd
1a
03
15
15
fe
05
0a
01
01
09
00
f0
fe
17
04
01
f2
fb
08
ff
f5
18
16
f5
19
19
32
42
03
af
3b
db
09
b3
27
0c
01
1e
7f
0c
1c
2f
06
cf
fd
d2
15
09
27
f9
e9
f7
e6
19
16
35
4e
27
e8
12
a8
17
e6
ef
09
39
ef
a1
d3
07
c9
07
ef
06
0e
14
f2
b9
18
f7
f9
ee
3e
e8
fc
01
15
d1
a4
0b
56
11
f7
04
19
13
18
a9
d2
0e
29
2b
75
f8
05
f6
fa
0f
f3
d2
bc
01
d6
41
1e
c5
e7
8e
e2
00
e4
20
f7
18
19
ad
23
17
ee
bf
bf
28
c7
0b
f3
b1
e7
12
4b
c9
f4
3f
37
61
0b
07
13
6f
20
d9
f1
13
f5
f4
27
29
ef
f4
06
1b
11
da
04
ed
db
ee
12
00
0f
02
16
e8
0b
08
11
f2
e2
0e
0d
f9
d6
1b
fa
0f
03
0f
ea
cf
f6
f7
ea
ec
1d
07
ed
dd
f8
e6
f9
fd
0f
0b
01
05
f4
f6
1c
1b
f8
d2
05
fa
1f
0e
01
10
d8
06
35
fd
f5
12
11
16
0a
e0
06
f7
fe
f2
4c
fa
19
21
0a
0c
f6
e8
db
ec
04
14
fa
e2
00
d8
da
e5
fe
34
bd
f4
30
e8
19
08
f2
0b
e6
09
d7
d2
04
06
ee
f7
26
d2
12
44
0b
08
e2
fc
03
14
ef
e8
15
03
07
f5
0b
04
fe
ff
0f
07
0a
f2
ee
f1
ef
03
ff
f7
f0
fb
05
fe
09
00
07
fc
f3
f8
ff
fb
f1
14
f9
06
02
0a
ed
e8
03
f7
03
03
2a
03
ef
ef
fe
e4
ec
f8
0f
04
0d
fa
01
03
fa
10
fe
e1
f7
03
10
02
00
03
00
04
13
ef
0a
07
06
04
08
f6
00
f3
ec
02
18
fe
0c
05
08
fc
07
ff
06
f2
fe
f3
f8
ea
09
f3
f5
f2
0f
05
e6
f6
11
f5
fc
fe
f0
01
fb
01
eb
e2
f9
03
08
00
0d
ef
03
1f
03
f6
fb
02
05
fd
02
eb
fd
12
05
00
f7
f7
01
02
0b
07
03
fb
f7
df
f7
0a
fa
f3
01
f9
13
fc
03
07
02
13
fd
03
0f
fd
f8
00
0d
08
f4
0f
f6
f5
08
fe
10
0a
1c
f9
fb
09
fa
f0
f5
00
0a
07
00
0a
0b
f8
ed
02
fa
f4
11
06
0c
03
05
14
06
09
17
f8
02
1c
0f
03
08
fc
fb
05
fb
08
14
02
0d
09
03
0b
0e
01
fd
fc
f2
fb
06
f4
fc
f3
03
01
03
0f
05
0a
03
f4
f7
f4
03
f9
fd
fe
06
da
fb
01
01
ff
0e
fb
10
1a
01
fa
1a
07
ff
00
01
f4
fe
08
ed
14
1f
f5
f7
23
12
ec
1a
01
ee
e0
09
e3
c1
f8
e2
0a
0e
16
f8
c0
06
01
04
e5
2f
10
d5
df
25
1a
cc
df
c5
33
f3
f8
0a
e7
14
9c
e0
46
bf
33
ff
d5
e1
4a
04
fe
2b
fc
e2
1e
0c
fa
13
f2
07
24
e2
bf
b6
7f
01
26
1b
1b
e4
61
1f
21
12
13
3b
e7
fe
6b
1d
f6
e3
f8
fe
01
08
f1
f4
ef
f6
e9
00
f9
dd
23
d3
0a
e6
2b
2d
de
f7
1b
e4
07
37
db
02
0d
f2
ca
00
04
6a
f0
21
33
18
e0
0b
fb
4f
20
fd
e2
12
4d
dd
1d
20
f6
ed
1f
ee
f6
04
08
06
0a
f7
ec
09
e5
09
e2
f7
02
0a
fb
04
ff
17
f9
f8
10
02
2f
ef
09
06
fd
df
f9
fb
ff
06
03
f5
0f
e1
f2
09
e2
08
f5
bb
09
04
ff
fe
05
dc
df
01
0d
fc
02
f8
17
28
ff
2b
36
0c
f4
06
ee
01
24
07
0f
11
fa
07
fe
fc
1f
21
f8
00
fb
0c
dc
01
f0
04
f6
10
fe
06
fd
13
e5
12
f6
05
29
f1
fe
e7
fb
da
0e
16
42
fa
0f
0c
f6
0f
17
2a
ff
f8
08
f5
e8
15
f1
14
e0
09
f9
fe
fe
f5
14
0b
0b
00
06
e7
f7
f1
10
0a
07
f7
02
fa
f2
06
fb
f3
f4
19
06
03
04
15
fd
06
06
e8
25
ee
ff
12
04
eb
f6
00
05
0a
09
f5
19
f2
00
0a
f2
00
07
d8
01
06
07
fd
ff
01
f1
13
1d
f7
03
04
00
1d
03
2e
11
08
03
f9
f6
ff
09
01
0b
17
0c
fc
fb
fa
fc
19
08
0a
f4
ff
fb
fc
fb
06
f3
f8
f6
fd
eb
0e
fb
13
ff
e4
f1
f4
f9
f8
fb
ef
14
f2
31
f6
05
00
f5
08
0a
f8
f3
f6
02
f9
03
00
01
11
ee
1d
eb
00
fb
fd
04
0b
15
0b
00
fb
06
f0
07
fd
fd
ee
05
ed
fc
00
0a
f6
ff
14
05
f6
03
06
06
04
00
e5
17
f2
f7
09
01
e7
f5
f7
02
05
01
f2
19
f9
f8
08
e9
fd
fc
07
05
f9
05
f9
01
10
f9
f6
1b
05
0d
09
03
16
0b
17
16
0a
06
fb
f7
01
f9
f7
07
1b
02
f3
f0
00
f7
0c
06
01
ff
fc
f9
04
07
0b
08
f3
02
07
e1
1b
f5
06
f4
ed
ec
04
fd
fd
f7
f9
06
05
19
f0
fc
fa
fe
04
fd
f0
ed
fc
f8
f5
ff
06
ff
ff
f0
14
f0
fe
ec
c7
f0
18
0b
0d
e1
e2
00
d2
f7
da
02
0b
d7
ff
b9
0a
23
1c
db
1b
ff
24
06
1a
0d
0c
f9
14
fc
f7
c2
fb
e8
09
e0
7f
00
fc
18
11
d0
23
fe
fe
12
25
f7
e6
e7
12
10
e7
33
e6
49
00
fd
07
04
e5
ef
0b
f6
e1
f6
00
13
21
fb
ec
03
0c
ed
c3
fb
02
31
de
f0
ee
17
f0
fd
fc
f5
00
27
08
fe
fc
f7
01
02
01
fe
05
fe
3f
df
1c
00
fc
0e
f3
f7
dd
fc
cf
04
12
ff
0d
2f
19
15
02
12
11
e9
1a
06
0c
04
ef
35
09
f8
f1
fc
10
18
fd
06
f4
00
0a
04
09
09
fe
f2
ff
13
f8
02
10
f0
04
f8
13
05
06
0b
f0
f3
01
04
01
ed
f6
09
0d
f8
3b
08
eb
0f
0f
f0
09
05
01
01
f6
f9
db
05
f7
fe
fc
0e
00
fb
f4
dd
13
0a
ef
fe
08
0d
f5
0b
f6
16
02
fc
04
f7
0f
12
0a
0c
08
13
0e
e9
f2
fc
00
eb
07
fc
f3
ea
01
0c
00
ef
fc
10
fb
03
f7
0e
12
ec
1b
02
05
fa
18
0b
09
00
ff
08
08
f1
fc
04
01
17
f9
0e
fa
14
09
f5
fe
02
f3
f5
fc
06
00
00
fa
0a
01
03
f9
01
07
fc
fe
0c
fd
f5
fe
0f
fc
06
0c
02
02
04
fe
08
02
04
fe
f7
0a
fe
04
fc
fe
fe
fc
fa
0e
04
fd
01
02
f8
fa
ff
03
fe
00
fd
f9
06
fb
06
ff
07
fa
f5
f0
f3
02
02
01
fd
05
06
f9
f9
f4
06
fc
01
ff
02
05
03
0f
07
f7
02
03
f6
fa
08
fd
f9
01
fe
f5
ed
03
0a
07
ff
fd
05
00
fe
fe
07
09
02
09
03
09
f6
05
02
07
02
07
fd
fd
fc
fa
fd
fe
03
00
06
fb
09
01
fc
fd
01
fd
07
fe
00
07
03
fa
04
08
06
fe
07
05
ff
fe
ff
01
ff
ff
10
fd
03
06
07
fb
04
f7
fa
00
04
01
ff
06
f8
fa
01
f7
fe
fa
06
06
ff
fd
01
f5
00
f2
00
07
02
fc
f5
00
02
ff
03
fd
08
f6
fc
f6
fd
03
06
0a
fe
fd
03
fe
ff
fa
03
02
fe
05
02
fc
04
08
04
f7
02
0a
fb
02
03
ff
ff
fb
06
fa
ed
02
fc
0b
0b
00
fa
0d
00
fe
01
09
03
f9
ff
ff
fd
fe
ff
00
06
00
f6
fa
02
03
02
fa
fd
f5
02
07
0e
fd
08
fe
04
04
00
fc
f8
15
40
f1
12
fc
14
cd
ed
13
0a
4e
5c
f2
dc
0e
3b
35
d0
13
de
36
00
0f
12
3c
c0
5f
3e
a9
20
ee
e1
fc
ea
17
55
fd
19
d3
e8
cf
d0
d3
18
c0
54
b6
c7
13
d8
e0
64
13
53
10
19
11
e5
0d
7f
c2
09
df
f2
92
13
d6
05
e1
fd
ef
bd
0f
19
07
f8
ce
94
14
01
cc
23
14
2c
21
12
3f
f5
db
05
a5
d0
0a
9f
04
d0
43
22
06
60
dc
47
e7
b2
d3
43
e0
f9
15
30
f6
e7
e0
0e
08
0b
aa
a4
f6
1f
1a
03
08
d5
18
02
c1
ff
ff
00
fe
21
0e
0b
d5
04
f0
01
30
21
ff
fe
2f
0c
04
cd
17
df
f1
16
dc
f2
09
03
2d
25
c2
ae
fa
12
e7
17
e6
23
01
ff
32
ff
f5
d2
d6
fa
d4
09
37
36
20
f6
0e
28
0b
23
00
11
e3
d7
fd
0e
f3
fa
dc
f4
e9
0f
e8
11
dc
34
f0
16
f0
12
37
03
f8
0c
09
f9
d2
11
ee
15
0e
06
2e
11
e7
e2
f3
19
f9
f4
12
12
12
e8
f1
42
35
fb
d2
e2
db
07
ea
eb
18
04
08
e3
02
07
1b
fd
db
11
f3
10
05
0f
1c
0c
e6
e0
f5
17
05
fa
06
01
fe
fa
f7
fe
fa
09
10
0c
01
fa
02
19
f8
03
0d
fc
04
fd
ed
fc
f8
06
02
09
fb
ed
ee
1a
ed
0d
eb
05
f2
ff
17
0d
0c
f5
f9
fe
fa
05
1d
16
17
f5
01
0e
fd
0f
01
09
ea
f1
1b
fa
fe
f5
f4
ec
18
03
f3
02
f5
0a
f3
09
fb
00
13
00
fa
04
05
f6
fd
f9
04
09
fb
11
0a
06
f9
11
fa
1a
fc
f2
0e
fa
0e
f2
f6
f4
12
00
f6
fe
02
12
f6
fb
0f
f8
f0
00
fd
07
f9
d8
0f
0d
0c
02
16
f6
08
ff
eb
f5
05
08
10
05
01
00
fa
f1
fb
fd
f4
f3
05
0c
08
02
f1
fc
e1
01
02
0c
f9
14
0a
fa
fe
03
03
0a
05
08
f2
10
f4
15
f7
f9
ef
f2
17
11
0c
01
fd
02
fa
fc
11
fd
04
eb
08
07
06
1e
03
0f
02
fc
14
04
fb
f9
03
f2
17
11
f0
14
09
06
f8
01
01
00
fa
0a
04
02
f7
00
fd
09
08
f4
ff
0a
f0
01
f0
22
00
19
ef
06
1d
fd
08
f1
fb
ee
f3
03
05
ff
02
18
ff
f4
11
ef
ed
f8
0a
08
fa
da
0a
12
0d
fd
0b
00
f7
fb
fd
f8
02
02
2c
eb
0f
1d
ef
fa
20
06
ca
1c
07
0f
e9
16
05
fe
f9
d5
0d
1d
10
03
e6
05
f9
c6
fd
10
f8
eb
7f
32
09
0d
e9
22
12
30
ea
09
d8
02
ef
3c
09
fc
00
fb
fe
eb
f6
15
e8
19
df
e7
f8
32
18
0c
02
ca
36
2f
5b
ee
fe
fc
d1
f0
28
00
e9
d6
fa
06
06
f7
df
00
fe
ff
f8
d1
04
1a
3a
01
0d
f4
fb
34
ee
e0
d6
eb
d1
fc
fb
41
00
fb
cd
0c
df
32
f3
e1
f7
2c
f5
05
f2
28
10
f3
08
0f
15
05
0a
0a
0b
ae
d3
f2
e9
0c
16
f8
01
f7
05
18
fc
03
1b
f1
eb
e8
0c
00
2f
03
e4
1c
1e
0b
ea
fc
f7
fa
f9
15
0a
13
30
0e
41
1b
f4
0b
01
0d
0f
0e
0a
08
13
09
fb
0b
f4
0e
08
e2
e7
f7
02
fd
f7
16
01
3e
ee
06
09
ed
0c
f3
02
06
01
0e
f5
0c
fa
02
09
db
f2
f5
f9
02
fd
fe
0c
fe
10
ff
fb
f4
0d
1d
22
07
16
f3
03
06
f5
1a
dc
1d
fb
f8
0d
44
06
f4
fc
d4
f1
15
f0
f8
09
0e
fd
f0
23
fe
07
f8
02
fd
f1
1a
06
14
02
00
f9
e4
e8
f1
03
0d
ff
fc
f4
16
fb
fa
11
fd
f6
ed
00
02
0d
ff
f6
0f
08
fd
eb
02
08
00
f1
01
fe
ff
10
22
1e
06
f8
10
f6
fc
00
fc
05
03
18
0c
fa
09
fa
04
0a
f0
ee
02
f9
ff
ef
fe
07
0b
fb
f9
18
f9
fe
04
04
07
f3
01
f6
fc
f8
fd
0a
ef
f4
00
fc
fe
f6
f4
09
01
0a
fc
02
02
0c
fb
01
07
02
f0
01
f6
03
0c
f2
0c
fc
f9
03
20
fd
f8
03
e7
ff
00
01
ff
0b
fd
05
06
16
06
f4
05
fb
fe
f1
08
02
06
fb
ff
00
f2
ea
f6
fa
06
f5
fd
f8
0b
ff
fa
17
09
fd
fa
04
09
02
08
ff
07
04
fc
f7
f9
0d
04
fa
00
fb
00
00
14
05
01
f5
0a
f6
f5
01
07
12
07
0d
0c
f6
08
01
0e
0e
01
00
07
03
06
f9
05
ff
0c
f6
f4
05
f3
08
03
08
fd
f6
00
f7
04
fd
0a
00
fe
fe
04
01
07
fe
07
04
00
09
fd
fe
ff
04
02
f5
06
04
f2
ff
f9
fd
07
f4
0a
00
fc
07
1a
07
00
ff
ff
f4
01
00
06
0a
03
fe
f4
07
02
f6
0b
f9
01
f2
04
fb
f8
f4
fe
05
f4
f0
fb
ea
d3
21
be
f5
f7
4e
fd
13
e4
18
fe
bb
61
27
06
e9
e1
ff
13
5d
e6
16
f7
2d
07
55
db
d8
07
fa
34
d0
07
0e
bd
0f
57
13
c9
40
54
e1
19
1e
93
bd
d5
c8
9a
dc
ba
e1
ea
ee
d0
46
fe
7f
68
2c
ee
2f
14
de
21
26
dd
33
eb
d8
17
da
bc
20
ec
f1
10
df
c2
4b
2c
59
e1
0b
d4
3a
bc
cb
f9
e9
c2
fa
0e
19
1c
9f
0f
11
f5
2a
3a
c1
ee
09
fd
7c
58
be
26
12
49
48
fc
0e
db
10
bc
42
e8
2e
02
b7
d4
e3
92
d7
f0
fa
ea
e1
f0
e9
e3
03
d4
fc
fd
20
14
0c
fd
06
e3
dd
e0
f1
f6
ee
0c
ff
09
1e
09
26
07
e8
f3
0a
3f
fe
1a
d8
b7
dc
0a
0d
eb
29
13
de
1f
46
e1
2c
47
ad
c2
ec
e4
f2
db
00
e8
07
ff
14
2e
e8
07
f2
51
e1
09
08
07
28
e0
e6
33
f2
e8
1f
06
02
f9
f9
0a
23
17
03
29
0d
0b
ff
c7
00
e1
15
24
0f
dd
33
20
12
02
fc
f0
d7
20
23
fb
25
06
2f
42
ee
fc
0d
18
fc
33
03
1a
fa
06
25
22
00
01
fb
18
10
e2
f2
23
06
04
dc
f3
f9
06
04
ed
e7
05
0d
0d
f4
eb
ff
db
e7
f8
f3
01
14
0d
05
f5
04
0b
f8
fc
f8
f1
fb
10
f7
10
e8
df
f2
f4
ee
fd
0a
0e
f6
22
30
0d
1e
29
e9
ef
fb
f9
01
f2
0d
eb
0a
f7
fe
06
f7
02
f5
0d
f7
0b
10
07
1b
e6
ec
2b
fc
01
12
06
05
f3
13
02
0d
16
0c
18
00
03
04
dc
fe
f5
07
04
fc
00
29
0e
08
08
05
03
f4
25
08
fd
09
ff
03
1f
fe
1f
06
25
f3
0a
01
00
f7
01
1c
24
f5
0a
08
fd
04
0e
fb
12
02
15
e3
f3
eb
ff
11
f7
f8
fd
08
11
e5
de
0c
df
ec
08
ff
f9
10
05
14
08
f0
0e
00
e6
fd
07
ee
f8
ea
0b
ee
fb
ea
fe
de
09
15
0b
0f
1d
14
ee
12
1f
03
f6
f8
f0
00
f3
05
02
09
f0
08
02
06
fd
f6
07
02
f9
07
f9
01
fc
02
00
f9
06
06
04
f7
f1
12
07
f1
0c
0d
17
07
fc
08
ff
07
f6
0a
06
f6
00
10
f8
1f
19
04
14
ee
09
02
fd
0a
f1
ff
10
09
06
f5
1c
f8
0f
07
05
f3
11
09
20
19
21
05
f7
01
0d
fe
17
cd
3d
26
0b
04
db
d5
0a
e0
11
41
de
ce
f2
7b
ef
0e
28
0f
33
1e
eb
f8
17
16
34
04
c8
05
1a
af
81
57
e9
1d
03
24
34
3b
2f
e1
14
b5
00
02
9f
0c
08
03
f1
d8
2d
f5
0a
f4
e4
f6
d0
d0
12
1a
27
07
24
2b
d6
55
f0
fb
1a
fe
ca
ff
e9
10
e3
d3
28
10
ea
2f
d5
e3
0e
e9
f3
2e
34
e7
b6
01
0c
fa
3d
09
2b
fd
f5
c6
2a
08
34
e0
c5
e2
28
1f
37
fd
10
0f
fd
44
fd
d5
e0
ca
cf
f3
41
ee
06
c8
03
da
20
3d
c5
f1
0f
30
ec
f1
07
ec
fb
f8
e7
3f
37
e6
0e
17
ee
d0
15
fe
2a
1e
1a
ec
fb
21
27
fa
ed
f5
e9
ea
0e
0b
0c
07
0a
25
04
38
10
14
f8
e3
ef
22
0e
f5
0c
1b
05
09
11
13
26
15
ea
ec
0c
ef
0c
0f
09
05
fb
f0
ea
1a
f1
f5
fe
05
dd
04
f2
1d
ee
04
03
03
ee
17
15
f6
f5
f6
02
fe
32
06
0b
f3
13
f4
11
18
15
e1
08
be
20
e6
0b
fc
f5
0a
0b
02
26
0a
0e
fc
00
11
07
04
fc
f6
f7
2a
10
0a
22
f1
2b
05
fd
06
0b
f6
fb
0e
03
f9
fd
f4
f5
fa
f9
11
23
0e
f9
06
ec
03
01
ff
1b
f8
03
f5
14
06
0e
03
01
ed
f7
02
f8
fc
07
fd
00
03
f8
1e
08
fe
0b
fa
f2
10
0e
04
fe
04
0c
02
01
10
01
01
01
16
08
02
f9
12
fc
f4
f4
f3
ef
fd
fb
0a
f7
05
ed
05
f7
ff
02
03
07
0b
f9
0a
0a
fb
fe
01
0a
09
16
0a
0a
05
05
fd
07
0e
02
ee
03
ec
10
f9
09
05
0f
f6
0f
ff
fa
f9
18
08
fc
0f
f1
f3
05
00
ee
0e
fa
fc
f8
fd
05
04
fc
ec
0a
09
fd
0c
f8
fc
03
09
f8
ff
11
01
17
14
fc
08
ff
06
01
05
0d
f3
04
fc
f8
05
05
fc
01
f6
f9
0c
02
f3
0a
01
07
05
01
0a
02
03
03
00
f5
05
04
f9
f8
04
0e
ff
f7
10
06
f3
02
13
00
0e
fe
05
06
f6
fe
f8
00
ea
f5
0e
01
09
f5
0c
04
ee
fa
fd
05
fe
01
ff
0c
f7
09
fb
08
03
ff
07
09
f2
06
01
fc
01
03
f7
05
00
02
fb
09
ff
1a
01
08
fc
ea
ee
fd
08
fc
fe
00
fa
00
fa
f7
ff
06
09
ff
00
fb
01
00
fb
fe
4e
ea
f6
46
0b
1d
0d
20
13
c3
d8
ee
d4
f0
ff
1f
26
fc
f8
db
20
94
d8
0e
43
de
12
08
32
04
f4
d8
1d
e5
5c
f7
1c
0f
15
f2
20
d8
de
08
19
d5
00
c1
f7
26
d8
16
fb
ef
09
50
ea
fa
fc
fc
09
ae
ea
e3
dc
ec
d6
05
0b
f1
4f
f7
e2
17
f3
1a
44
17
20
d8
15
a7
e2
01
e1
1e
e4
f8
07
d5
e4
f0
e4
08
d6
d9
bd
10
04
14
6b
05
cc
f1
26
f7
0f
ec
f9
eb
1f
f3
01
3c
ec
f7
60
44
c6
f9
20
e1
06
f7
fc
f8
25
dc
0a
0c
f8
2b
eb
1c
d9
e0
39
e8
d8
f3
0c
12
01
1b
17
e1
e4
08
be
e4
e4
11
f7
25
17
0d
24
c4
0a
cb
f0
12
21
e0
29
fd
0a
f9
e2
00
c9
0e
2e
ee
da
eb
01
dd
e0
f6
e4
27
eb
36
f7
0d
f0
20
26
dc
ca
c7
c6
dc
ef
0c
f4
f7
0c
2e
e8
ee
81
f2
16
fc
fc
dd
ed
c9
f9
22
03
ea
fb
fb
e2
02
e5
a6
fa
15
a4
d7
08
ef
38
e9
44
0d
06
aa
0a
f7
f4
f7
05
ef
02
f4
ef
ff
ef
fb
48
e0
eb
ca
d5
be
b5
f1
18
15
34
ad
11
02
fd
24
fb
10
f7
fb
22
01
f1
16
01
02
f7
04
e3
f7
da
19
c7
0d
fe
fe
f3
24
24
09
1f
be
04
d9
00
03
08
03
14
12
f8
fa
f1
18
ee
01
19
fa
fb
e9
f9
f0
e7
0e
f3
1f
e7
29
f3
e5
fd
15
1e
f2
f1
ee
e9
07
f8
00
ef
10
07
02
e8
07
9d
f6
0d
09
f3
e7
f4
e3
fa
26
fe
f5
fb
01
f5
09
08
db
fa
13
e1
eb
14
05
15
df
41
00
14
ce
fa
00
e1
ef
fa
00
11
fd
ff
f6
f6
f1
27
f8
e8
f2
f5
e5
f3
f5
10
0e
1e
db
01
fa
ff
1d
0c
04
fd
08
1b
07
fd
09
fe
f9
f2
02
e8
ff
12
07
df
06
fd
eb
fc
13
08
f9
0f
f7
01
f2
f8
0b
05
fa
fd
07
fd
f8
fb
15
e4
02
0f
eb
fa
ef
fb
f6
f2
00
fe
14
fc
17
1e
04
f9
0b
03
05
11
fd
fe
03
fd
14
fa
06
0e
11
fa
10
d9
fd
17
09
f8
de
f5
ff
ee
17
04
f8
09
04
01
06
fe
f2
0f
f8
e6
f2
10
fc
04
e8
18
f6
03
ea
04
f2
ef
02
fa
f2
0c
03
14
f2
08
fc
0c
05
f2
0b
fc
00
01
07
0e
0a
13
e7
f5
0b
05
00
fa
02
01
f2
fc
f8
06
0f
04
0a
f0
f7
00
01
9b
00
f2
e3
11
16
10
0c
0a
08
fa
17
f3
09
0c
fc
f5
0b
06
d9
06
05
14
f2
fa
00
e9
e5
06
08
03
08
06
0d
f5
0d
fa
ff
22
04
0d
0d
f5
01
f2
fe
00
ea
f4
0b
fe
07
15
03
f8
0c
19
f7
00
10
03
fe
fe
fc
00
fb
1e
06
fb
f3
06
01
00
01
c2
ef
04
fa
fa
10
fc
fe
0a
ff
08
1e
0e
0b
00
0a
08
0d
17
fa
0d
f3
0c
0e
08
ef
05
00
fd
0f
04
fb
00
ef
f1
12
03
fe
07
fd
06
03
fc
08
fb
fb
08
13
fa
ff
fc
04
fd
03
81
fd
03
f6
fc
07
ff
02
07
f6
fc
f8
f8
02
06
fd
07
00
0b
09
ff
fc
ff
02
06
fe
ff
00
fd
00
fb
01
fa
05
02
08
fe
fd
7c
fc
05
ff
06
fd
01
01
fb
f9
04
f2
f3
02
01
0a
00
fe
06
f8
ff
fd
02
00
01
ff
02
0a
fd
06
01
f6
0a
fd
00
01
0a
fd
02
00
f7
fa
04
f8
fb
03
ff
03
f5
04
06
01
fb
0a
fc
06
02
03
ff
00
00
f5
02
f5
11
01
fa
ff
03
03
f8
05
00
ff
02
03
05
06
fd
08
fc
02
ff
09
fe
fd
02
03
02
ff
b7
fb
05
09
f8
fb
f8
fc
ff
fc
00
03
fe
05
03
05
ff
fc
06
01
ff
02
f8
03
08
00
06
ff
f9
ff
0c
fe
fa
fd
ff
03
00
fe
6f
fd
fe
fb
04
00
00
fd
fa
fa
00
fc
f8
05
f9
05
fd
fd
02
03
fa
01
00
00
02
fe
03
fd
f3
ff
ff
ff
05
fe
fe
fa
fe
06
03
00
fc
fb
01
fe
f9
01
01
fd
fa
03
00
f8
01
fe
02
03
00
03
ff
fc
04
fc
05
fd
03
f8
fe
05
fa
01
03
00
00
04
fe
03
09
fb
03
06
fb
0a
01
07
03
01
03
09
00
02
9a
fc
03
07
fc
fc
fe
fc
fd
ff
02
02
fe
00
01
04
03
ff
fe
0b
08
03
ef
06
0d
fe
04
fd
01
fe
05
fc
04
01
ff
fd
04
fd
35
ff
00
fd
02
fd
03
00
fe
fd
01
01
00
03
f4
02
ff
04
02
ed
fb
00
00
01
fb
07
05
00
f7
01
00
ff
fe
f9
fe
ff
fa
ff
06
02
ff
01
01
01
01
00
fe
00
ff
00
01
01
03
0e
fe
00
00
ff
ff
f8
fe
fa
01
03
e4
ff
fd
06
fd
fd
01
fc
e6
3b
f9
d2
24
c6
e8
f6
08
2e
08
39
0f
07
13
0f
43
c2
c6
1d
eb
2b
fa
e8
08
1b
09
12
e4
f6
f3
47
7e
07
f4
cd
4d
ca
d7
c9
09
08
cf
3b
02
29
29
aa
ff
e2
54
5d
0e
f7
b6
37
fd
f1
13
01
fd
e9
b0
12
d7
13
03
fa
f5
e0
1c
14
ed
d9
c5
9c
da
ee
e1
c4
f5
26
34
ff
f2
5d
a8
2d
e5
d8
23
1e
11
a0
ec
18
ff
0c
0b
c4
0e
ec
fa
f1
d0
07
cf
a9
e3
7f
f9
2f
8b
31
05
05
37
43
3b
cc
08
04
f2
e8
b8
ce
28
d5
0c
1c
f6
ed
01
01
46
f2
ea
0a
f2
1d
06
fd
06
d2
fd
ef
e0
00
0d
1b
e9
e7
08
f6
f0
27
1d
17
e1
07
0e
eb
02
ee
f7
0e
ef
eb
ed
0e
f6
fa
03
fd
00
26
1a
0c
0c
08
0a
f9
2a
f3
fc
09
08
fa
2c
f1
1e
0b
da
fa
17
c9
53
18
23
17
df
e5
15
ce
12
11
05
03
fb
ed
03
07
e4
02
06
02
47
23
14
0b
ff
dc
3e
21
e7
f6
f5
4c
19
08
ef
1c
e1
fa
f4
13
fe
1b
f2
df
30
04
0e
0f
fa
04
0c
f4
ea
08
53
0f
a8
f8
42
13
0f
07
f6
06
00
fd
16
03
f9
fb
fa
0a
f6
f5
00
f2
f4
05
fd
f9
12
0b
ec
0d
ff
f8
01
24
1d
fe
fa
08
0d
fb
e6
ff
f2
03
0f
08
ec
0b
0a
fb
fe
04
08
07
f0
08
05
08
f9
00
23
07
13
e8
fb
e7
f8
f3
19
10
f7
05
f7
d8
23
02
04
06
f6
09
f9
02
19
fd
0a
0f
fb
fe
05
fa
f4
ff
30
02
02
0a
fe
08
f4
fd
1d
fa
f5
f1
f4
41
fa
08
01
09
e5
f4
f9
00
02
fe
f8
f5
17
fe
02
08
fc
ef
0b
12
0a
f7
27
f0
f9
0b
18
0d
07
f9
fd
07
11
11
0e
02
0c
08
ff
f6
01
fb
07
0f
01
09
07
f2
f7
03
f4
f3
02
fd
0a
16
1b
fe
07
03
05
0a
f1
0a
f0
fb
33
10
f4
02
03
f3
01
19
fe
05
e0
fa
06
01
0a
f8
25
03
0e
ed
fc
f9
fa
f9
10
ff
1b
f3
fb
ec
ed
05
fa
0d
ff
11
f8
f4
14
fe
07
09
f6
06
00
fc
f7
f4
29
ef
f1
0a
08
0c
ef
ff
00
f3
f8
0d
00
09
f3
03
f9
08
03
fe
f1
fa
06
e7
00
ed
0c
fc
fe
0b
e8
07
03
0e
1b
f9
13
f3
0e
0e
fc
17
34
3e
c7
32
26
25
f3
fb
fb
11
43
01
22
50
c1
da
0f
fc
19
bb
3a
c3
a5
f3
24
d4
10
dd
d0
20
24
ff
37
a0
14
08
e5
02
b4
bb
f4
af
4d
1e
c8
39
da
d7
19
25
38
01
19
1b
2d
08
01
10
0a
aa
b3
32
35
3f
2d
1f
09
c8
ff
cf
06
35
09
e0
cb
d7
fc
66
7f
ea
d5
e1
90
a1
f6
11
d7
d5
cd
ba
dd
34
e2
26
b0
9c
c2
3a
17
03
00
c9
cb
cd
1f
c6
c5
e5
a8
37
e9
de
e9
20
33
dd
13
d5
db
3a
f6
fc
56
2e
fc
ed
d3
36
f7
06
e6
fa
f6
fc
2c
b8
fb
16
12
fe
2e
26
ba
ee
eb
c0
f1
b6
21
ee
e2
14
00
04
2c
ea
e4
00
fa
13
e4
d3
f7
cc
fe
0c
f8
e5
f8
09
d3
14
00
13
bc
01
ef
19
fc
07
24
0e
c8
1a
03
16
07
fa
da
fc
31
3f
be
f9
12
b0
f7
c0
00
39
f3
e9
dc
06
11
23
4a
0b
f0
1b
9a
f4
f6
f0
f6
ed
fb
ea
15
fc
07
e4
f9
9f
e4
34
01
e2
c8
f5
d3
de
11
06
f3
f3
b6
c1
fe
ee
14
27
1f
12
2f
cc
f4
46
e6
d8
07
03
f0
ff
14
19
f1
0e
f5
f8
fd
f8
1a
e7
02
17
01
15
03
16
e9
ec
07
d3
fd
e6
ef
11
e3
09
02
15
0a
f0
f2
ef
00
f8
dc
f6
e1
f3
00
fa
10
f4
ef
ff
e8
27
0d
12
e7
04
f2
0f
05
0c
09
0d
e1
18
19
f9
15
e8
05
07
27
26
dc
01
10
de
02
de
02
0b
f1
f1
eb
04
04
21
1b
ff
00
fa
e2
0d
01
03
f2
e7
fb
0a
13
ee
01
ef
17
c6
fd
1a
f6
db
e5
04
eb
e9
fd
03
0b
18
ec
e4
fc
09
22
1b
01
08
12
06
01
40
06
fe
1b
1e
00
1b
f4
0a
f6
11
09
f6
fd
f0
22
f9
07
2e
02
00
ec
15
dc
eb
04
e3
05
fe
f7
04
ec
f4
fc
13
00
fa
e6
08
fa
03
e6
00
e8
00
0a
ed
00
ff
e2
ed
05
27
0f
06
ec
e3
0c
fe
f2
0b
f0
08
eb
1c
09
df
02
fd
0f
18
00
11
e2
fe
07
00
05
ec
0f
fa
02
fd
fd
fe
10
02
1b
fd
01
f8
07
09
fb
04
f7
f6
fb
05
f8
ec
f4
ee
0e
d4
f2
22
f6
e5
f8
0d
fc
ea
fc
fa
0b
15
fb
e6
f9
fe
0d
fc
f2
0d
1d
16
f8
1f
21
13
0f
32
f7
00
0b
09
36
dd
c2
09
3a
f2
f2
5f
aa
19
fd
24
d4
0c
c3
b4
42
e3
ff
b1
08
dd
ec
01
f3
7f
1b
41
37
f5
48
21
d3
1f
11
de
f3
bc
e8
55
fc
b3
0e
17
03
16
17
ff
e0
22
f4
0e
4a
02
93
ef
ed
f1
09
f2
c7
ee
0f
eb
d3
eb
08
10
ff
fd
09
04
dc
13
13
e0
16
00
b5
27
eb
37
cb
06
fb
41
0c
26
2a
c7
15
2d
fb
35
14
f2
ff
e3
dd
13
f9
0b
08
25
de
bb
72
5c
04
df
ed
15
f9
fe
cf
0f
f3
22
3e
30
e7
f1
e9
0b
f7
26
15
13
07
e5
e2
ff
1d
0d
ff
0e
e0
0e
e3
00
dd
02
e6
01
fd
04
05
0c
17
ff
e6
fe
e9
25
0a
1d
25
fb
30
09
0b
f5
0d
e7
f8
04
02
16
de
db
05
1e
f6
ee
1f
ff
cd
f9
c9
05
14
f4
ea
f6
08
d5
ef
0e
dc
0a
ef
0a
fa
d9
ff
02
e1
04
09
1b
09
f7
34
02
05
fd
d6
06
07
16
fa
12
f4
10
14
05
f0
fb
ff
0e
f7
02
ce
e7
11
2a
0c
e9
2e
f9
06
09
f4
f3
29
19
03
f0
f7
0d
fa
de
10
fc
fb
fe
05
0e
ff
03
f1
3e
da
e8
0c
28
03
f2
05
07
0e
13
0c
0b
02
09
09
11
f4
0e
fc
07
ff
04
f7
f2
0b
09
f4
fd
05
07
fd
09
16
eb
17
00
f4
03
00
f3
0b
0b
f9
0a
f6
ff
0b
11
07
f7
0f
00
01
0a
f4
f6
0f
fb
07
fc
09
e9
fd
01
f1
09
04
02
fa
0c
17
fd
f1
08
f0
02
04
07
25
01
f9
03
08
fb
0a
fb
01
08
f9
ff
00
f1
f9
f9
0e
06
fd
fd
df
f3
0c
15
09
fb
1a
f5
f7
f8
00
f3
0b
f5
10
f4
fe
0f
e6
f3
14
f1
00
fd
f5
03
fe
0f
fa
18
03
ef
10
21
fa
f5
09
fb
09
09
0b
fe
03
f8
0e
08
fa
05
03
fe
fc
08
fd
f9
fe
06
fd
0a
05
08
02
ff
05
f8
09
09
f3
0b
f9
fa
08
04
fe
f9
0b
fb
02
04
05
02
07
f4
fe
03
ff
f4
0a
fa
0c
fb
fc
ed
05
fb
f9
09
fd
fa
fe
16
0a
02
09
0c
fd
00
0c
ff
16
00
f3
ff
00
f5
06
fb
14
fc
04
f0
f6
f9
f2
01
04
f7
03
01
f1
04
13
0d
09
0e
ea
fa
ff
fe
f8
ff
07
f3
0e
f9
fc
1a
04
f3
03
f6
fe
f8
f0
05
06
06
ef
0c
00
e8
03
06
dd
ed
f8
07
f4
35
e2
52
d2
f3
23
15
fa
da
60
dc
16
22
22
12
11
08
b9
1a
fe
63
d6
0c
cd
07
0a
f9
be
c9
e6
fd
54
dc
f9
08
b5
ec
fa
b1
da
dd
d2
17
da
e3
f6
31
9c
ef
e3
36
ec
e1
e8
06
e0
d5
8e
12
9f
f3
75
17
d7
cb
dc
10
46
b7
fd
06
02
1e
01
da
2e
bb
22
c8
2b
2f
cc
12
ed
f6
fa
54
1a
ca
36
43
13
0b
f2
e0
fa
07
af
2d
f9
17
f1
f4
ed
1b
f4
f9
fc
1c
35
1b
c3
d7
98
05
23
f5
31
7f
0d
20
d3
16
f8
fd
03
e7
f8
3b
1d
0c
ed
fb
fa
00
d3
dc
1a
e3
0b
18
0f
18
e4
08
f0
07
00
15
2c
de
ee
dd
0e
1b
f2
f6
fc
ef
24
24
df
1e
02
f5
01
10
df
0d
22
e0
c5
e0
e9
e7
03
ea
f0
f9
f6
23
10
ff
eb
dd
09
17
b3
f6
1a
fd
f2
fe
0d
f3
27
ec
4a
02
0b
08
ed
fe
f8
df
0e
e3
13
fd
55
fb
ff
26
df
fb
f4
e8
f0
1e
03
15
ff
15
f0
20
fa
ff
bd
1d
ef
0e
b7
1b
f5
e8
3b
25
fa
ee
ef
ff
f4
e2
19
12
ee
2a
bb
1d
ef
f1
fc
08
02
05
f1
0c
15
03
fe
f0
fc
13
f3
f8
08
ef
fc
04
0c
fd
f1
03
0e
04
ff
ff
0c
f2
03
f0
03
17
ef
f8
05
ee
04
1c
12
08
fb
f7
fe
0d
f3
07
13
fa
f8
ef
f6
f8
ff
ff
fb
05
f2
24
0d
f7
00
f0
0a
06
f0
0c
fe
04
0a
0a
00
12
15
f4
45
0b
04
04
e5
ff
ff
f3
01
f0
fe
fb
32
fd
f0
08
f4
f6
fe
fc
f0
01
01
06
fb
25
0f
11
fd
e5
f6
f6
ec
11
ff
f8
06
fd
13
0b
f1
f1
10
05
03
ee
10
25
f5
05
e1
f9
d5
f8
f9
fd
0e
01
06
fc
13
ed
0f
f7
fa
2c
02
f6
fc
fb
ef
05
fd
02
fc
f2
ff
03
01
fd
fc
e7
05
0c
fe
11
06
0d
f8
fc
f8
11
12
fd
ff
fb
f5
05
f0
02
12
fe
12
f9
0a
fc
02
05
03
17
e8
25
0f
f4
f2
07
f6
01
0e
14
f7
f2
02
0f
00
02
ff
0a
17
09
fa
f7
fa
07
f5
f6
fa
ff
03
f5
20
ed
ef
e9
fb
fd
0b
f2
de
f6
03
0b
f4
0d
0c
00
fb
e9
f9
ec
00
01
04
10
0c
00
fa
fd
fa
f4
05
02
10
f7
eb
0a
e2
f4
f7
00
e5
f2
1f
4a
ba
f8
c3
ff
f2
02
bb
22
fa
ef
31
e9
bd
ea
05
d6
c3
bd
d5
04
43
f5
d7
0b
20
1c
d8
fc
b9
fd
10
2f
23
ff
03
93
13
f7
ed
ec
e0
dd
ee
fe
09
ff
11
12
fc
64
32
2b
13
05
0c
14
ba
4e
de
2a
de
13
f6
3c
09
cf
19
ec
54
12
ea
16
d2
fe
f4
50
c6
04
dd
b1
e3
11
fc
f0
cd
1b
2d
34
14
f7
e1
18
17
47
f8
44
0e
cf
09
25
03
56
ef
dc
bb
2e
19
df
0d
03
cf
4c
2a
45
39
fc
c9
f9
d8
21
ed
29
2c
41
f7
d8
eb
03
03
12
fa
08
1b
f2
08
0e
14
e7
16
fb
29
05
f2
f7
ec
ee
0b
f7
fb
03
f8
f7
03
10
f3
7f
e4
e5
eb
13
28
f7
ed
f6
0b
05
ee
05
0e
01
08
ed
f7
05
0a
d9
e2
f9
07
f6
12
ff
16
f4
e9
07
09
01
e6
18
f9
03
12
e3
f5
eb
0d
08
07
14
de
07
09
16
00
01
f8
02
0b
e1
ea
e2
fd
02
12
08
f0
f9
f1
23
f2
fc
03
08
14
f5
c8
f6
01
0c
0d
f8
ff
08
f5
14
02
ed
08
05
04
15
21
f6
00
08
02
1b
ec
f6
14
06
0e
f6
f8
ec
01
0a
0c
01
02
f1
0c
f6
0a
ff
0a
09
13
f7
fa
f1
f4
f6
0b
02
01
f7
f3
05
ff
f8
f8
25
eb
f7
fb
fa
14
06
f9
01
0c
f4
f2
0a
10
00
07
f9
fd
09
f9
e9
fe
f6
06
f0
02
f9
f1
fc
f8
01
fc
fe
fd
0d
06
03
02
eb
f7
ee
09
05
07
0d
e8
0a
07
08
fb
09
ef
08
fd
00
00
fd
f7
fc
04
fc
f1
fa
00
0d
ee
07
f1
ff
fc
04
eb
fd
0a
04
11
13
00
fe
eb
0c
04
f5
05
08
f3
0d
09
fe
03
00
ed
fc
fb
05
f4
fa
13
00
00
f5
08
01
fb
02
05
f1
09
fe
fb
00
14
f8
0c
fc
f9
f8
f3
f7
fe
fa
05
0e
03
fa
f7
fa
03
16
f2
fa
fe
f8
15
03
fd
10
fa
f3
f6
0b
fc
01
0a
03
04
00
ea
01
04
f4
03
f1
f8
00
f1
fa
fc
fc
01
fb
00
0e
fd
06
f6
f8
01
f9
fa
f6
fd
0d
f7
00
07
02
ff
0e
ed
ff
03
09
03
f6
f7
f3
05
fa
f4
fb
fc
02
fe
ff
02
fb
f1
0c
f2
06
fe
12
05
0a
0d
fa
f1
07
0f
fe
0d
04
03
13
00
03
02
fc
ed
01
03
01
ed
fd
05
f8
f0
1a
48
22
f4
e3
d2
19
eb
7f
27
f4
2d
c7
f2
28
10
f7
fc
c2
f8
0b
0c
08
0a
01
15
b6
26
fe
de
d2
0e
6d
e5
e4
0b
1a
f3
fe
e5
ff
22
e7
cd
47
fd
22
16
e6
09
fa
33
0c
c9
56
13
07
2e
da
14
08
d6
09
06
0a
3e
c9
fd
e4
00
13
30
0b
c1
1e
24
b8
d8
0d
de
23
16
27
f9
35
1d
3e
20
d1
1d
f7
ec
ea
34
3f
33
ff
0e
f4
ec
fd
f0
f4
f5
f4
2c
0e
22
cf
f2
21
0c
e4
03
f0
de
ff
ea
0b
d0
16
ed
c7
1a
f7
24
e3
fa
08
16
fe
0a
f5
05
0b
ed
27
fb
f8
05
ed
18
1a
0a
fd
f9
f4
f0
ee
f5
04
fc
ff
14
e8
07
ae
fa
eb
05
15
e7
05
ef
f9
ec
ff
03
02
0d
f1
02
0a
e6
07
03
f4
23
db
f8
f9
f5
13
0c
f1
14
0e
13
0b
ed
05
f6
11
ff
e7
fe
ea
00
20
f5
01
07
0a
06
09
ee
f5
e7
f8
19
0f
ff
29
0a
00
00
e6
f5
13
02
f1
0c
1a
04
fd
02
00
4a
11
05
0e
f7
f5
0e
f2
ec
12
16
f5
ed
07
fe
f8
f5
fa
e8
f9
04
2d
01
e2
fb
fb
e1
f0
fb
05
fd
f5
fe
fc
fa
05
ff
10
00
ff
fe
f3
fe
03
08
09
ef
fa
ef
ef
fb
f1
09
fb
07
ff
fc
f9
03
03
01
09
f8
07
f6
ff
fd
f6
08
fa
05
f5
01
01
f5
00
f0
f3
12
f8
fb
08
fa
00
fb
f8
09
08
07
08
00
07
0b
01
01
fd
ef
f8
f9
0b
03
03
0d
fe
fb
05
fc
ef
fe
fd
09
f9
ff
0e
07
01
fa
00
f9
0a
01
fd
00
10
f7
f6
fd
0a
3d
05
fb
03
ec
00
01
fc
04
0b
07
05
00
02
fd
f1
07
f4
03
fc
03
0e
00
fa
f0
fd
ff
f5
f9
03
f6
05
ff
05
f9
07
03
02
04
02
f8
f4
f7
05
00
05
f5
fa
fb
fe
02
12
03
00
ff
f7
f5
04
00
06
00
00
fe
09
f6
03
fa
fd
0a
fc
05
fd
fa
f8
f5
01
fb
f5
ff
ff
fa
f8
ef
fa
01
06
03
0c
ff
fe
04
0e
08
05
ff
03
f9
f4
03
fa
06
01
0a
f6
fd
0c
05
f6
ff
03
fb
fb
02
04
05
06
ed
02
fc
07
09
fa
04
0b
f5
fc
f7
03
14
08
fd
fd
04
03
03
08
02
0c
ff
0e
00
f9
fc
f5
10
f4
01
fb
f4
01
fa
00
f6
f6
ff
fd
13
0f
07
05
f9
f8
e2
fd
04
ba
01
08
f2
13
f9
0e
f6
1e
fa
05
0d
ef
ce
01
fb
d5
ee
1f
f1
10
00
0f
b0
f5
f5
12
01
02
dc
ef
ee
e4
0d
18
26
fa
0f
ec
e9
f7
eb
20
0f
03
fd
14
eb
d5
ef
24
fb
1c
16
42
fe
0b
f5
fd
00
15
00
e0
fe
09
24
d7
1e
05
db
1b
09
0c
eb
fe
03
e3
ee
27
20
fc
fb
08
fe
f1
ee
00
f2
07
13
17
f9
38
02
17
03
fd
05
27
06
fc
fe
06
28
36
f8
19
1a
02
2c
e4
39
f2
ff
1f
03
f4
f5
f3
0a
01
fb
50
0b
f2
f3
0e
26
f6
0a
07
e6
1a
fe
ee
1b
1a
f3
ea
0a
f0
e2
02
18
e0
f1
23
f3
f3
d9
31
f9
ff
11
10
0a
ef
7f
fa
de
e3
eb
01
0d
03
1a
f6
f0
f8
f3
1f
0a
14
0b
e1
fa
e3
e8
06
f5
11
0b
0d
2b
04
e6
ea
fd
24
ed
f5
e9
06
3b
f2
07
eb
0a
f7
13
fe
f1
ea
f2
fd
3e
fc
f8
f6
fc
e9
fd
f2
23
f3
08
01
f4
2e
0a
0f
ec
f9
dc
05
f7
fc
00
f0
04
17
32
0c
02
f8
1d
0a
1b
fb
fc
db
fb
f5
0d
08
f3
f8
06
fc
ed
38
09
fe
0d
0e
04
f6
0a
05
f2
f6
0a
ff
fc
07
01
02
12
01
ef
01
12
f3
0c
16
fb
f3
ff
03
07
f3
0b
0c
09
06
69
ff
e0
f6
00
fc
01
fd
fc
f6
0f
ff
02
fe
04
ff
19
01
02
03
f5
06
f9
f6
08
f2
3d
f8
ef
f2
f8
11
ec
f3
f0
f9
fe
fd
fa
f3
0f
ee
00
f6
fc
f9
fa
06
3c
04
0b
05
fc
f8
f2
fb
1b
fa
04
0c
fc
fa
ea
f6
fa
03
e2
ff
f4
02
f0
08
f1
02
0b
07
fd
07
04
02
f8
08
05
f6
02
04
fa
03
ff
02
08
fe
fa
32
03
fe
12
08
fa
fe
fb
fd
04
f9
fe
01
f4
07
f9
fa
00
02
07
fb
14
ed
01
09
0b
03
0b
f0
fc
f1
04
0b
fd
11
44
fd
e8
fc
02
06
fb
fe
f6
fd
0f
ff
0e
fa
09
02
25
fc
f1
0c
fd
fa
09
f3
00
f3
3e
0b
fc
f4
06
f7
fd
f1
fe
0b
e8
fb
fa
fd
12
ff
fd
f1
f9
fe
f6
ff
30
fe
08
0f
05
06
f3
fe
08
f7
08
0c
06
e1
e1
fa
00
04
fb
fe
03
08
01
f2
fe
fa
f8
fc
04
13
f0
ff
fa
02
01
fa
f4
0a
0a
0f
fa
fb
ea
06
28
1d
e7
fc
0e
ee
fe
28
eb
c8
13
f7
01
fb
29
f0
27
05
0e
c9
fe
15
e0
01
0b
02
f5
17
db
fc
b1
38
ed
ef
0b
28
09
b3
fd
e8
0e
0d
09
02
fa
d4
f6
db
dc
f7
e9
02
f1
24
da
24
7f
36
f7
02
10
3b
e4
10
3c
14
f2
fd
1d
ef
fb
f8
c3
dc
fb
17
03
1e
20
02
d4
11
ff
f0
07
df
fd
f9
26
0a
eb
e3
c0
f0
f7
30
f8
e1
20
f0
ec
15
f9
07
1b
1c
e4
17
f7
29
ef
17
f4
15
06
19
b3
18
fe
18
e9
0f
3b
25
fc
28
e5
09
06
f2
f7
e4
0c
fb
15
26
09
06
0b
f2
16
1e
fb
fb
0b
fb
c9
01
16
fe
09
16
02
ec
ef
03
f5
f5
fa
0a
06
ec
03
1a
fe
0b
fb
17
11
0c
f3
26
38
0b
d0
f5
05
f0
f5
17
12
17
e8
39
2f
09
fc
12
ec
ee
02
f6
f7
12
d6
ee
11
e5
f6
05
00
f6
ec
06
00
17
f8
0e
e0
fc
f8
ca
04
00
09
06
07
e7
fe
e8
e8
f5
14
12
fb
ef
e1
26
07
14
43
fe
06
05
33
03
02
fb
f2
f0
18
e9
04
0b
e5
1b
f2
f1
e7
1d
41
05
ed
21
06
01
fa
fe
02
ed
fa
07
08
11
fe
09
08
04
01
fb
06
02
0d
00
e0
03
02
11
09
00
09
fb
f4
ed
f4
fb
fd
ff
08
f9
00
06
f9
13
07
fd
07
08
fb
04
07
02
e9
ec
fe
fe
05
0b
02
fb
ed
16
11
03
fa
12
fb
f4
04
f7
f3
01
ea
f9
f7
fd
f3
08
09
fe
f6
f4
fa
fe
f3
04
fe
f7
07
ed
02
0e
fd
03
02
f7
01
f4
0b
e7
07
06
04
07
f7
07
05
fa
21
04
05
fd
18
f5
0c
ff
fa
ed
10
f4
03
fa
fc
03
fb
f9
f8
0e
19
09
ea
11
03
fb
04
fd
02
fe
ff
fe
fd
08
07
01
00
00
00
ed
04
ff
1c
04
ec
08
f9
07
fa
fc
0d
fb
fc
fa
f5
fd
02
fb
03
fb
fa
0a
fb
1b
10
f5
0c
fe
fc
fb
ef
f4
00
f1
00
0a
0f
fd
fc
f7
f1
0c
08
ff
fb
07
f7
f2
09
f7
f5
04
fc
fe
f8
fc
01
07
14
06
03
fd
e8
fc
f7
03
f5
f5
03
f6
fc
12
06
0a
f4
04
02
01
0c
f6
01
f6
ff
0e
f6
05
f0
02
0d
07
01
02
16
f8
01
00
09
fb
04
fc
f9
fe
fd
06
11
17
f9
01
fe
08
f1
04
dc
ba
38
09
e1
fd
da
e5
dd
20
e5
2a
f2
2a
35
dd
ca
14
00
15
0c
fd
ec
00
b2
d0
19
ed
eb
fc
ef
ef
ef
e2
2e
04
c8
b0
13
4c
e4
f1
0e
02
f6
cf
c6
ee
45
f9
f7
b8
ff
ff
32
30
eb
08
e0
f9
f3
03
f5
35
03
51
f6
f3
04
2c
3c
3e
ed
08
fa
b2
c5
c3
ba
b0
ab
36
f3
fb
15
17
1b
fb
f0
f5
ea
10
fe
07
fa
ee
dd
e3
27
d8
08
01
fc
f7
e0
1a
f0
fc
03
74
08
2e
db
12
30
f1
02
f9
20
fe
6b
fe
f6
e3
ce
01
15
f6
04
b9
33
08
eb
f3
a0
cc
e3
f5
fa
19
0f
2f
6e
de
eb
0c
07
19
03
09
c7
fc
07
04
7f
f3
e7
15
f7
ff
ed
e9
2c
f7
e6
e9
05
44
e5
ef
f9
f7
d2
23
be
05
44
04
d5
de
ff
04
01
ff
f9
26
eb
06
e9
03
01
23
f0
2e
ef
e9
fa
22
2b
18
eb
e8
f3
f5
f7
e0
f9
f5
d9
0a
1f
1b
f8
37
03
d6
1e
f0
fc
2a
f0
fb
05
07
05
de
00
d9
ba
d6
0d
18
0a
14
10
d6
05
1c
ef
3b
df
e9
10
0c
14
03
0f
e9
03
01
00
f3
17
ee
25
f2
0d
e6
17
00
ff
fd
dc
f4
f0
f1
04
00
03
0a
35
fd
f5
02
03
0b
fb
fe
e4
0b
07
fd
4f
f9
f2
fe
ff
f4
f1
f4
25
03
de
fb
fa
20
f8
f8
fa
f7
f7
15
fc
10
0c
fd
d8
ed
07
02
f9
12
f2
fc
00
08
01
04
fe
f0
f9
0d
f9
f7
ec
0f
07
0b
ff
fa
f9
ec
ff
f2
02
fe
ec
04
08
15
03
26
03
e4
13
f6
f5
15
06
00
f6
f7
08
f1
fe
f1
e2
f3
08
1a
06
ff
08
e9
ff
ff
f8
18
e3
e1
00
0b
0b
08
02
e9
ef
f8
fe
0c
06
fa
1e
01
12
fa
fe
f5
05
ff
e8
fa
ed
f3
fe
05
08
ef
1e
06
fa
fe
08
0e
fa
04
f4
01
14
f2
38
f7
01
07
ff
fc
f4
f7
06
03
f5
00
04
07
03
02
08
f8
01
0e
06
07
e4
06
f9
fb
00
05
03
03
ee
fb
05
fc
01
08
fd
f6
fe
0e
03
09
00
05
01
ff
fd
fd
0a
08
00
fd
01
08
ec
06
0b
02
05
14
fe
ef
fa
f7
fa
fa
09
05
03
fa
0d
01
06
01
fe
00
fd
07
f8
fe
02
f3
02
01
04
05
ea
ed
07
fe
08
06
0c
fd
f1
01
08
04
05
03
0b
0f
f3
27
fc
2f
ef
a5
19
29
f6
e9
2d
07
53
d5
51
dc
da
0c
14
ee
38
1f
0b
f2
c9
dd
45
1b
d5
18
ec
f0
b4
af
c6
09
1f
ce
03
f5
d6
20
fa
1d
15
e6
d4
f4
ed
23
e4
fd
bb
3f
17
da
19
fd
36
a3
14
fe
d2
e0
b0
d4
fc
13
62
b1
f2
d3
d3
1f
fa
2c
74
ec
56
f5
10
fb
b2
8d
ea
4b
b0
f7
c0
b9
17
d7
00
33
df
0d
27
ac
0f
32
f4
6b
fc
23
d9
12
20
b4
4b
0d
00
b3
d4
70
f4
e1
dd
93
2b
7d
25
0b
dd
7f
d3
df
e1
43
fd
07
e7
fa
ff
e1
1a
e8
e5
e5
1d
c9
3a
f2
dd
b3
fd
02
04
e9
05
14
17
fa
cb
e2
10
09
23
e8
07
fd
10
05
c3
16
e6
fe
11
db
20
06
1e
fb
0f
1a
07
fb
35
f4
29
e4
08
08
f4
35
ff
ec
15
fd
e5
dc
26
e4
10
d8
f2
db
2c
0f
ef
18
f7
1f
f8
f8
1f
db
0a
01
08
f8
fd
0d
05
ea
12
f2
12
ef
f8
eb
fe
12
f5
d4
0f
13
12
34
02
1a
09
e8
00
15
ff
f1
36
f7
ff
ee
e7
22
03
f9
ff
0c
09
47
f6
01
fb
54
d5
06
f9
e0
0b
11
eb
04
02
fb
f9
ed
02
eb
04
ff
0c
f3
f6
dd
04
10
f9
0a
03
06
01
f6
e6
f5
07
07
1e
fb
02
02
29
0d
f9
15
f1
f4
12
f7
11
fa
0c
ff
fe
0e
00
ef
1a
02
0c
e6
fb
f8
f3
0f
12
ed
0d
00
e5
ea
10
fc
1a
f4
00
e5
02
10
f8
05
02
0b
f1
f6
07
de
05
0a
0f
f6
fe
10
f6
04
f9
ff
14
04
fa
08
fa
f6
ef
fb
ff
02
f6
2f
05
02
11
01
f5
00
00
10
00
07
fb
06
fe
f9
03
f6
fc
0a
0e
17
09
02
08
1a
fa
05
f2
ed
ee
0f
fa
04
08
00
f3
f2
f5
f4
fd
06
fd
fc
03
e9
ec
f8
0a
09
f6
04
fb
f5
f3
f6
04
fb
0f
07
ff
e5
12
07
00
00
f8
01
1e
03
0f
f7
04
fd
f8
00
01
05
08
ff
fe
fd
fa
0e
f2
08
17
e9
02
0a
f9
f2
13
f6
21
f4
f4
fb
f3
10
f2
fb
07
07
f4
fd
08
ef
10
0c
0c
fd
f9
0f
f7
f6
fe
05
0f
0c
f4
04
02
01
07
0e
f2
fa
fb
12
05
01
11
01
f2
ea
fc
19
08
0a
f2
00
15
00
03
fc
01
0d
0a
0a
13
04
07
f7
0a
04
01
f0
ef
eb
ec
23
dc
15
ed
1b
da
f2
35
71
16
16
21
c8
1e
fa
e9
02
e4
11
2e
17
e9
f3
f9
04
19
07
d2
ff
1f
f9
f6
f8
33
f7
f8
fc
c9
c9
fc
e6
d7
5e
d9
e2
f4
3e
d6
e8
ec
04
ec
ce
04
e4
ed
0b
d0
0b
fd
e1
16
f7
0c
05
e2
cc
20
31
36
28
f1
03
de
f6
e7
f2
0d
e6
f6
e5
02
ea
f6
e6
ed
4e
0d
81
1b
0a
da
3a
fa
f3
1b
1d
e8
fc
3e
24
d4
fc
00
ec
a5
43
06
e2
d1
e5
ec
fd
05
e6
6e
ea
f6
18
3f
10
0f
69
e9
2f
f8
19
10
00
dd
ff
10
12
ef
ff
ff
22
11
ff
ed
e6
10
03
f8
07
01
0d
01
e9
00
00
15
11
0e
f2
f3
03
e5
06
f3
fd
12
11
03
fc
f7
fe
06
ec
18
1d
e7
f2
38
27
1a
03
03
19
02
dd
f6
f5
33
07
10
fa
fe
e0
14
f1
fb
e3
01
0b
09
20
23
11
e1
05
f0
f0
f3
f5
0b
09
05
f5
ff
1b
ff
17
eb
09
f3
0c
fc
f5
17
1a
09
0a
00
11
ee
0e
0c
fd
e5
00
01
0b
f4
08
f5
02
0b
e3
15
18
fa
29
f8
ff
00
06
10
07
f0
f7
07
f2
0a
14
01
ff
f8
f5
f6
13
fa
f4
f8
0f
0d
f4
fe
01
07
0c
0f
10
fa
fb
f4
ff
fa
01
05
00
01
f5
f2
0c
f8
06
f3
02
06
07
01
06
ff
06
0c
ff
08
08
f6
fc
1f
13
02
fd
fc
03
f8
02
0a
f8
00
04
0e
0d
0c
f6
03
e4
01
f3
1f
0b
07
ff
0c
0c
dd
06
00
0a
f7
f4
0d
ff
f4
ff
fd
02
fd
18
fb
00
f8
13
00
fb
08
fe
03
f7
06
00
08
0d
00
fa
e9
00
03
f6
f7
04
f7
07
11
f0
08
ff
fe
0b
e6
08
03
f8
0c
f6
f0
f7
02
f7
0b
0d
fc
04
fa
f8
f8
fa
f4
01
02
fd
fe
fc
01
0a
fa
04
0c
09
01
04
f7
06
f3
0a
fd
09
ff
fe
f8
ff
f0
08
f0
03
08
05
0e
00
fd
fe
fa
fd
06
0c
eb
fd
0a
09
fd
06
03
08
00
02
05
f0
04
06
0d
05
0a
f0
f6
00
04
01
11
fd
12
04
11
03
e7
02
04
0b
f4
05
14
f0
f6
05
fd
0a
02
02
fc
ff
02
0e
fc
05
0c
06
fc
fe
03
f3
0c
03
f0
f9
fc
fe
05
f1
05
f2
fe
0a
10
f1
ff
f1
10
01
ef
09
11
02
06
e6
f4
fa
07
f9
51
55
00
f8
15
06
07
36
14
cb
df
e0
d6
e1
1c
2e
03
d3
20
23
02
c1
03
ef
ae
7c
e7
f0
07
f3
f2
08
b5
2b
ec
3f
b4
08
ed
d7
1b
fd
3b
ce
ba
db
28
19
f1
37
29
bc
79
9f
07
d1
ee
f5
0a
38
ea
f8
07
c5
3f
e1
2a
72
cf
1f
d8
ab
16
f3
1c
eb
07
04
08
21
55
dc
70
0c
22
0d
17
d0
25
f2
09
e5
de
21
ee
69
b3
e9
09
f6
3b
30
03
34
e7
c8
7f
11
fe
9e
fa
fe
31
b0
f2
e4
ff
b0
c5
fb
e2
0e
0f
3d
45
65
c1
d6
49
11
ff
ee
37
1c
b3
f4
fe
d0
01
eb
e9
05
f8
06
dc
d3
08
0f
01
e1
01
0d
b6
01
e5
e9
f7
fd
0c
24
dd
f6
bb
28
12
ed
d1
d3
0f
11
49
f8
bc
f9
01
99
98
22
f6
f5
09
d9
fd
e3
f6
fc
0e
15
df
f8
10
19
e6
cf
0a
51
cb
f4
31
a6
01
04
00
f7
fc
15
1a
ca
52
ea
d6
22
27
f2
bd
35
f4
07
03
1b
04
e0
ca
35
ec
a5
18
c1
fa
f2
22
14
05
dc
32
ea
ea
eb
0d
07
1d
f7
d7
d2
29
df
fb
ff
0b
0e
f8
fa
18
3e
d4
f1
1f
1a
10
f7
ff
12
e2
da
07
f2
08
06
ea
05
f4
01
ee
ec
fb
05
f8
fa
12
1c
fb
08
fd
f3
ed
ea
f9
0f
f0
ff
dc
06
11
0a
c7
f8
03
01
22
ef
ea
fe
ec
de
db
08
03
fd
04
0f
ff
0f
f6
02
ff
0f
f5
ff
0a
f1
c7
02
0c
34
ed
f4
08
e5
03
fc
f1
db
f2
11
14
ed
1f
00
e5
fd
14
05
d1
00
e2
f7
fe
05
12
f5
d3
14
fc
e5
fb
d5
01
03
12
fd
1a
fd
19
fc
fd
f0
11
0d
10
fb
fc
ed
05
f0
0b
f9
f3
1a
e7
ea
26
18
ef
ee
07
19
16
eb
f7
0d
ed
ee
04
0b
12
0a
f5
01
fc
e5
00
03
16
0c
04
f1
18
f8
f6
0d
00
ed
e8
fe
fc
0f
f5
05
f8
fb
1a
12
d3
0d
08
f9
02
e6
09
f8
e2
ea
07
f1
03
02
fc
0e
f4
04
21
07
04
0a
eb
00
03
fc
c4
fe
f2
ff
0f
02
01
fa
ef
01
f8
09
03
12
1e
f9
00
09
ec
03
17
13
e1
0e
f7
08
01
f0
0b
fd
d6
0a
0e
ed
08
f5
fd
08
01
eb
0c
f6
03
ef
04
ef
0a
08
0b
ff
e7
09
17
05
fa
0b
18
10
e8
ee
17
11
10
ed
cf
24
e9
1a
1a
cf
22
c0
00
df
0f
da
3c
e5
2b
f6
3f
fd
0e
31
28
85
bc
ee
5b
d6
f0
3a
08
00
0e
06
0d
20
c6
18
fa
f2
e5
d3
10
e2
e5
13
08
cf
04
f4
f0
1d
6a
1b
bb
d5
c4
2d
d0
0b
ee
37
19
34
2b
eb
fe
f4
2f
5d
02
f3
44
00
b6
02
0b
10
00
cc
31
2b
e1
e3
f5
c1
bb
2c
03
a2
ea
d5
ff
17
df
fb
07
cc
12
cc
ef
f5
fc
30
f1
25
19
bf
2f
e6
ee
de
e2
e9
1e
05
e4
fd
7f
5d
df
23
d4
d5
19
f6
49
db
e5
2e
f2
d4
f7
d5
df
cc
e1
f0
08
ff
e0
08
ef
c2
1c
fb
00
dc
1d
f9
00
fd
d3
f2
04
cc
dd
18
e2
01
dd
00
15
0a
e8
d7
30
f5
14
e7
2a
cd
da
0b
0b
0d
db
aa
1d
d6
dd
0f
f2
fc
b0
17
ec
c7
dc
16
da
07
01
f4
c0
e1
09
f3
de
e8
0f
ec
01
06
d6
09
d6
c5
df
e1
e3
f8
ce
c3
fa
25
f5
14
14
15
e9
f7
11
06
d2
dd
f4
dd
17
be
01
fb
cc
e6
fc
0a
21
9f
ea
22
f4
c1
d8
10
0d
fd
28
f3
1f
fa
0f
0d
b0
fb
f3
03
f8
f9
fd
05
fd
09
eb
f2
fb
f9
fe
ff
07
0c
f6
03
03
e7
f6
ea
0a
0f
07
f6
fb
04
07
fa
ee
0a
f5
07
fd
00
05
fd
02
fe
11
0c
e7
fa
07
fc
ec
0c
f5
0c
f3
f9
17
e3
fb
10
f6
ff
dc
03
e3
f7
fc
16
0d
08
fd
05
e4
f9
ff
05
0e
02
0d
06
12
08
e3
0e
f8
fe
fe
03
f2
01
f0
f1
09
0a
fe
16
0d
13
f1
05
f8
f6
ea
ec
ff
ea
14
e3
f3
07
ef
e8
20
0a
fc
f2
09
08
03
f3
ff
02
03
03
01
00
05
08
13
15
fd
03
f0
09
01
f4
0b
13
fb
08
e6
fc
06
04
f8
f9
05
11
f5
06
fd
e5
fa
f6
0a
03
f7
09
01
09
f7
f8
06
09
ef
05
01
04
fe
fd
11
ed
01
01
e4
f7
09
f2
e8
14
f4
0f
03
0b
fd
da
00
01
f2
f4
f5
09
ed
02
00
00
0a
03
fe
05
f4
08
fb
06
0b
03
f6
01
11
fa
ea
04
f3
06
00
01
fd
10
f3
f3
fa
f4
11
15
00
03
fb
11
05
ef
fb
ee
f3
f1
0c
f9
10
08
fa
f2
0b
ff
06
03
04
17
14
f5
05
02
02
fa
09
f4
fa
06
ef
fb
06
08
fb
f0
00
f6
ce
93
0f
9c
73
28
de
06
ee
d9
33
3b
ed
55
e1
ed
5a
d6
0e
d8
dc
bb
02
0a
5f
f2
e5
fd
4b
09
22
cf
13
40
f5
bb
19
2d
d3
db
48
c6
02
e4
ac
15
e9
fd
cf
ff
fc
00
be
f0
0c
cd
13
0a
fe
1a
fe
f4
29
fc
76
7f
4c
5f
cb
b6
25
44
04
17
dc
33
b1
18
10
14
03
95
00
d8
f8
0f
c5
1e
91
1e
5e
fd
20
7f
e7
3a
db
4f
05
15
eb
12
df
e4
17
12
ea
e7
1e
f8
fd
12
f4
bb
36
e7
0f
fc
3e
f2
f9
e6
3a
01
e5
2c
c4
e6
05
08
12
30
3f
ed
dd
03
0a
0e
06
14
e9
23
da
10
02
12
07
f1
01
f8
f9
09
e6
d7
2e
3c
0d
0a
0a
f9
de
1a
f3
e3
0e
fe
05
07
14
fe
ee
ed
e7
fa
26
de
10
da
f4
eb
01
e8
fe
11
e9
c7
21
e4
06
04
12
2f
4a
42
fa
2d
f7
d3
e8
f8
f6
d3
1b
da
03
ca
f4
f6
0c
07
04
0d
05
1d
d8
15
00
fd
11
21
fc
28
13
f4
07
14
00
18
27
f7
18
e8
d8
16
d3
fb
0b
d8
00
ea
e4
f7
0a
df
04
fd
0d
ba
01
eb
1b
0d
04
fb
d5
18
18
1b
03
23
08
f2
fd
01
0d
0b
fb
ee
07
00
fd
0e
ec
fc
06
11
00
09
f5
04
e4
eb
17
23
04
f9
f5
fd
e9
08
f2
01
00
ef
21
0b
f6
0a
f2
eb
ef
03
13
f3
10
f8
04
fa
01
e0
f8
0a
fb
f7
10
14
0a
08
0b
1f
20
0a
eb
08
0d
f7
e1
06
ee
ee
36
fa
07
ea
0a
ea
03
0e
00
02
00
0d
f3
fd
02
f5
f8
12
f8
17
1e
ea
f6
ea
01
10
05
f7
08
e6
e2
00
eb
fe
17
e4
08
ff
02
f2
00
e9
0c
f8
fc
eb
fb
0a
03
16
09
f1
eb
0d
05
19
fb
0e
ee
04
13
02
01
09
ff
f6
fe
f4
fc
f7
f5
fd
03
0e
0e
02
f8
e9
ec
06
06
0f
fe
05
f7
0f
f0
ff
f8
08
01
ee
3b
fc
13
f7
f7
f0
ee
07
01
f7
0d
0c
05
fb
10
f0
fb
00
09
05
02
11
10
0b
07
15
04
06
fd
f6
16
0c
f1
f1
f6
f6
22
ff
f7
eb
08
ec
0f
02
fd
f9
06
01
16
e4
fc
22
ee
fb
fa
09
22
f1
f6
f1
03
f2
ec
f2
ff
ff
f6
10
f5
f1
fa
f7
f9
f6
06
f4
02
f4
04
f1
fa
04
0e
05
06
15
0a
f7
f0
08
26
10
f0
cd
27
e9
27
11
2c
37
21
f0
29
22
c7
22
3d
1e
d8
75
36
ab
97
fd
d6
f0
ff
3a
0b
c1
e1
00
ca
b5
2b
df
09
dc
35
a5
fd
a1
97
e8
2e
c6
d2
31
22
b9
10
f9
bc
0a
11
69
e2
25
10
21
1b
b9
c7
cf
c5
d5
d3
cd
9d
2e
0d
ad
28
8a
f8
19
dc
2d
eb
05
c7
e3
de
42
e4
1d
04
18
5c
22
29
04
ec
29
0b
fc
16
be
a9
29
2b
2b
20
ee
29
4c
fd
c1
fe
ae
f5
19
13
49
f6
48
f1
3b
db
e4
2f
eb
42
09
a9
38
d5
0b
43
f7
f5
18
04
eb
1a
ef
f7
f9
df
d4
1a
f7
20
1c
3e
f9
10
71
42
f0
da
0d
0c
f2
f4
47
ee
d8
e1
fe
11
dc
d9
db
ee
ec
3e
93
d9
e6
cc
02
1a
20
9e
fe
9a
aa
e7
be
df
f8
ea
47
10
36
08
12
42
c2
c6
cc
c7
ea
ed
0d
dd
cc
d3
c4
fa
a8
f1
06
e1
1e
c8
fc
d8
08
d3
5b
f1
0c
00
ac
47
cc
f9
be
e2
12
29
e2
bb
81
18
e7
d5
09
33
b4
71
1b
5c
be
ff
23
f6
d0
ed
37
21
2f
eb
20
66
08
15
07
1b
fb
df
10
e1
1b
1b
f5
f6
21
0c
02
f9
e9
eb
06
dd
fc
01
fb
1c
01
2f
0c
1f
3c
22
22
e2
14
0e
fe
e9
1c
ec
ec
f5
07
0b
f0
db
d7
e5
ed
01
eb
e7
e1
d5
fc
19
04
eb
ff
c4
d4
fb
cc
01
fa
09
02
06
01
03
03
1a
ec
e3
e1
e0
12
f2
fc
e9
e5
e2
d9
ee
e9
05
fe
12
f7
ec
e8
ff
05
d1
1b
f1
fc
ef
c6
12
e5
e8
d4
ec
09
23
fa
dc
c5
f7
e0
f4
04
0b
e6
31
1d
45
db
fb
25
02
d7
e2
12
19
1f
e6
0c
35
ed
ed
f9
09
f9
f2
05
ef
f5
07
08
fa
ff
20
01
0b
f3
fb
0a
f6
fc
06
fd
07
03
2e
09
0f
37
fa
02
0f
df
f8
f4
f2
0d
03
e1
0b
01
18
04
e2
ea
ea
f1
f4
ff
f7
00
f6
fb
00
f8
00
fa
01
eb
f9
e2
ff
06
03
f2
e8
09
fe
05
14
f5
01
d2
ef
10
f9
07
01
0c
ff
fb
e1
0b
0a
ff
17
f5
fa
ed
e9
fe
dc
29
fd
f3
f5
e9
f9
f3
ef
e1
07
0c
1c
f4
f8
fb
e4
0b
09
01
f1
f1
11
21
2d
fc
f6
05
14
dd
eb
01
12
11
01
0b
0c
f1
15
12
06
10
10
f2
0a
0c
d8
e0
e3
ae
00
1d
07
dd
fb
f8
0a
0e
f6
0f
f6
b4
08
26
fc
1f
10
d1
09
f5
e7
4b
7f
ec
dd
e8
f8
a9
1a
2b
00
df
e7
a9
ef
fc
5a
fa
e0
ea
f4
da
26
17
02
82
06
ed
c8
0d
00
ab
d3
32
40
1c
31
d6
9b
e4
44
d3
03
f2
d9
f6
08
1b
22
da
3b
ff
14
28
1e
06
e7
dd
0f
41
1d
a1
26
af
4c
52
de
e4
ed
17
fc
2e
ee
11
33
03
29
0c
fa
58
e8
fd
14
33
42
17
f5
1a
10
e3
2f
fc
f9
eb
14
0b
32
d8
2e
5a
2c
ce
0c
c2
e1
ea
e7
14
f7
06
3d
05
ed
fb
1d
0d
e4
fa
0f
dd
10
1f
03
e2
f8
01
ef
fb
0f
f9
1f
3a
c6
0a
16
f6
0e
09
f0
01
16
f3
ab
fd
de
de
e0
f6
11
00
ec
d8
f9
15
07
0b
e3
03
03
f3
e9
e7
19
1a
01
07
eb
e0
14
f6
f7
fc
00
1e
08
f7
1c
20
fa
f2
0d
16
12
01
ff
ee
f5
1a
02
14
54
16
1a
f1
0a
0e
f1
0c
5a
1a
13
0f
f3
6b
ed
08
f2
5b
c2
18
02
fd
16
01
ed
1f
41
1d
26
11
d9
f4
f2
21
0e
25
34
17
08
ee
06
d5
fb
fc
ec
14
ee
f3
15
0f
05
fc
06
ec
02
e0
11
ea
f9
03
09
f3
f8
15
01
06
e8
f6
ff
25
0b
1a
19
f4
0c
ed
08
fd
fd
ef
e5
ec
ec
fd
f3
07
fa
06
f3
fb
04
1c
13
f2
f7
eb
03
01
f7
e4
fc
0c
ea
f3
32
de
14
f2
f5
ef
f2
fb
20
07
fe
13
ed
f3
f9
ee
0b
fe
f2
03
fb
06
03
ef
1b
0e
14
fc
fd
fa
00
fd
1d
0e
fc
f3
fc
44
d9
08
ff
f7
f8
fc
f9
e4
fb
f8
fc
03
32
06
0c
fe
f1
fc
fd
01
04
ff
17
11
fa
04
0c
ec
ed
f0
f6
12
e5
0a
fb
1b
04
ff
03
01
03
e9
07
fe
f6
06
03
fd
ea
fc
06
13
e5
07
fd
1c
19
11
0a
f4
0a
f6
fe
04
0c
f8
2e
e5
f8
f3
00
fd
01
0a
10
fc
06
04
06
0f
02
f9
0d
05
e8
db
0c
02
f3
f7
3c
e6
0f
f1
f6
fb
e2
f2
26
0b
fe
05
f8
f5
fb
ee
f8
ef
e2
0c
04
04
f8
f1
0a
0e
0d
fd
ff
f8
fd
0a
f4
05
04
ef
05
fe
ff
13
0d
e8
02
f2
02
f0
03
0f
15
ec
18
02
fb
f9
0a
f5
fa
07
f1
f6
0e
f9
f4
03
01
f2
09
e6
f3
3d
db
03
13
48
db
f8
ed
09
7f
fb
f4
e7
f0
d8
e2
d2
07
fd
0f
06
11
e3
e9
55
11
ee
1a
e7
d5
e8
e0
18
04
22
18
f5
2d
05
c6
d9
17
ed
05
f2
0a
ed
d4
19
17
c6
34
f2
0b
0e
13
b9
e6
fa
b9
02
13
ec
f5
0c
dc
ff
60
e7
62
f1
df
16
06
b1
3b
1a
ce
0d
f9
ed
fa
36
44
1a
15
25
ed
fa
f8
f7
f1
1f
f4
05
fe
e9
e0
de
d1
0d
1d
c4
f1
f5
e1
e7
f6
d8
00
f5
1c
ff
fc
ee
db
f8
fd
fb
f7
fd
16
e7
08
f7
05
01
ec
f9
ef
ff
03
2d
ee
11
f4
fe
2d
fc
f8
f4
ff
12
04
ec
e3
04
f4
00
03
04
0a
12
0f
17
fb
02
e6
f3
08
ef
f7
12
eb
f0
02
04
fc
fc
03
ed
0c
e5
fe
f0
08
f5
0b
f7
10
0a
04
12
f4
fa
e2
f2
01
f6
f3
0f
e5
0f
09
f4
15
ef
1b
fd
eb
04
05
09
0c
02
f8
f0
07
02
01
18
f8
fe
0a
fa
e8
f2
fd
f0
18
0f
08
10
23
08
e5
05
f6
26
1d
f2
06
d9
ef
f9
fd
fe
fa
f6
13
f6
12
f8
ed
0e
09
05
06
06
02
0b
1c
08
f8
f2
f6
00
04
f9
09
11
03
08
fb
03
06
04
f8
ee
fd
fd
fe
fb
fb
0d
f8
07
01
fd
02
0d
08
fe
fc
f9
f8
fe
fe
f8
f8
fa
e8
fb
fa
02
01
04
ef
f7
ff
f5
f4
fa
ff
05
0c
f5
fe
03
ff
f7
fb
f8
f4
fd
02
02
fa
02
f3
0d
fd
f9
07
ff
11
06
e7
06
04
06
00
fb
00
f7
05
01
00
08
fc
fe
08
fa
fa
fe
fe
fb
0b
03
06
01
01
1a
ef
08
f9
13
1b
f9
fe
f8
f2
02
fe
00
0a
00
00
09
01
0b
02
fe
01
fe
02
03
00
04
13
06
f1
07
04
f6
fc
f7
04
fa
04
02
ff
02
01
00
fa
f5
fa
02
00
fc
05
02
03
fd
f9
08
f8
0c
02
f8
f5
07
07
fd
fb
01
ff
01
f8
00
f8
04
03
f5
f8
f6
03
f9
f5
00
fa
08
0e
fc
01
04
fa
e8
fb
fc
ff
fa
0d
04
f8
03
fe
05
f9
02
08
fe
07
02
f8
02
01
ff
fd
f8
f9
fa
08
fe
fe
02
fe
fc
0d
f3
04
05
02
f6
00
08
07
06
f4
12
fa
01
fd
09
0d
04
fc
02
fb
01
05
02
0d
00
f9
05
fd
05
09
fb
05
fe
f4
03
00
04
0b
03
f2
1c
0f
f0
d4
d0
91
0b
e4
fd
e9
30
ef
04
cd
f5
6d
75
19
20
11
e6
40
06
ee
e0
0d
cb
ea
09
eb
f2
ca
1e
34
d3
ea
fd
0f
fe
21
cc
e4
b2
e1
43
dd
18
19
a6
f4
4b
64
27
d5
1b
d8
e8
4d
2f
0d
4a
d9
dd
f9
fb
00
01
e2
c0
d1
46
c2
c9
e4
01
17
12
14
3e
37
db
13
da
e8
20
f6
df
9e
1c
d9
d8
ff
7f
d0
e5
2b
ae
1a
fc
01
b1
1b
1d
cd
7f
1c
e4
ce
1b
0f
f5
28
13
ec
35
e3
c1
f4
1a
24
09
00
70
1c
11
26
4b
0a
eb
27
f2
00
f0
02
14
1d
18
fa
00
0e
04
fc
14
12
24
fb
fc
13
fe
ed
ff
00
f9
e9
13
27
2d
e6
fd
e9
14
03
ef
ce
f7
f0
06
f0
19
e0
e9
f6
f0
ff
fb
0c
de
e9
25
3c
19
cc
14
ff
cf
23
01
20
1d
f8
0c
02
ec
e2
ff
fd
00
df
18
f3
02
cf
05
f9
fc
04
15
f9
06
05
09
f3
f5
e4
02
05
13
01
03
ec
4f
05
eb
fd
0f
d2
0a
f7
da
13
06
e1
2c
e2
f2
f7
f5
f9
00
02
0c
fe
27
d5
fe
d4
fb
06
07
f7
17
07
e1
f4
fc
f9
08
14
f3
00
f5
15
02
01
0b
ff
f5
03
fb
06
f9
01
13
0a
f3
04
fa
fc
00
07
04
03
03
06
0d
f1
06
06
06
fe
f3
eb
f7
fa
0b
f2
01
f3
04
00
ef
f3
f3
f6
f4
ef
01
19
09
db
fb
ff
f4
07
f6
0e
10
0a
10
f8
f0
ef
ef
13
f4
f2
1c
f4
02
f0
fb
fa
fb
f5
1a
f9
f8
fd
f4
01
fd
f1
03
0a
0c
0a
fb
02
28
0b
f5
fd
09
e9
25
f5
ff
0c
fa
e2
04
fa
f8
00
03
f9
06
03
09
ef
0f
f3
f9
e9
f9
fd
fa
0a
06
01
f7
06
02
02
08
0c
03
f9
f7
13
fc
fd
ff
07
01
04
fc
01
ed
07
05
f5
f7
03
04
04
05
04
06
0b
09
03
04
fd
fa
08
0b
f2
fe
f5
fa
fc
05
f9
ff
fa
03
06
e0
ee
f1
f0
f9
04
fd
03
00
eb
f0
f2
f2
0c
ef
0d
f6
16
28
03
00
fa
f5
11
02
f2
14
e9
00
ff
f5
ee
01
02
10
f6
00
0a
02
f8
f2
03
14
04
09
f4
0d
fc
17
05
f9
fa
05
f7
08
fd
fb
14
03
fa
f4
ff
00
0d
03
00
05
fb
04
f2
03
00
f4
f5
fa
f2
e9
05
f8
00
f5
f6
0a
d2
0c
7f
d3
e8
0d
f2
08
0f
e1
d6
16
e8
11
e5
fa
ea
20
f8
f3
fe
df
df
00
15
e2
0b
12
fb
f4
c0
0f
18
09
f3
e3
a6
0f
09
e0
19
2f
ba
20
f8
00
e5
2c
fa
0a
e7
18
06
e6
22
f4
07
0c
ca
0a
d7
39
08
33
d9
d4
d9
11
13
2c
ed
36
02
f4
06
10
50
20
2e
05
eb
f7
ff
d3
f9
09
d5
11
b9
0f
32
d4
fc
5f
f1
59
18
bb
01
fc
f1
d8
de
04
d2
06
b6
eb
f3
25
f5
68
f1
2d
13
e6
06
eb
08
fb
08
0a
d1
14
0e
4d
bf
d7
10
f9
32
e6
1b
ed
ef
11
ff
ff
f9
ef
f2
21
07
e0
eb
d8
f6
f8
04
f5
e4
07
d6
fe
e2
27
e8
dd
cc
13
02
fe
09
04
e5
f8
0a
e3
15
34
e6
eb
fd
e4
19
3f
e8
f9
da
f0
0c
de
06
f6
29
03
13
e4
fd
2c
ed
ea
ef
d4
0e
35
f0
fc
e6
50
fb
fb
12
f8
08
f2
0d
08
0c
f2
10
f2
f3
18
03
06
fe
e5
0e
05
05
33
03
14
dc
ca
dd
0a
1e
eb
ea
f3
d6
f3
ef
f1
0a
0d
01
1a
14
0e
0b
f3
0b
fb
fa
f4
e2
f1
f0
fb
27
1e
dc
db
09
fc
0d
fb
fc
ff
f8
f7
f9
f7
fa
fb
02
17
fb
de
f8
eb
f3
fc
fc
05
f0
05
e6
fd
fa
0e
0a
f1
ef
18
fa
05
06
0c
fc
f6
08
f6
19
16
f6
f4
ec
f7
ff
13
ef
fb
f0
f2
0b
01
f7
fd
14
14
09
f8
0a
1d
fa
ed
fa
da
16
27
f1
e7
f3
14
fe
f9
21
fd
08
f0
f8
11
14
f1
07
fe
04
1a
0e
f9
03
f5
01
fe
04
25
f9
11
dc
e8
f8
12
f7
ff
fc
0a
da
f7
01
ec
fc
01
09
03
0e
05
07
f9
f3
fd
f2
00
02
f2
f9
f7
0f
11
df
f0
fd
0f
02
05
ee
03
09
ef
f8
f1
07
00
ff
03
fb
f0
02
f9
fe
f8
01
ff
06
00
f9
09
09
f7
00
08
fd
1c
f7
09
fa
15
fd
f9
05
f3
13
ff
ee
f4
f2
0b
ee
f4
fe
ed
04
00
05
13
f6
0e
08
0d
04
fe
0a
0c
03
eb
fd
f7
fe
0f
00
fb
08
04
03
f4
08
0c
1a
f0
f3
0b
05
fe
04
f5
fc
0d
09
02
18
f6
07
f6
01
0b
f1
13
04
fc
fd
00
e5
01
f9
ff
f8
f9
01
f1
03
ea
05
fe
06
06
0f
f1
ee
0b
02
fd
18
0e
08
f8
12
0c
eb
f5
1c
01
05
ff
f6
0c
07
da
ea
09
2c
fb
05
0a
43
02
16
e1
fc
e9
fc
fb
f7
04
ff
07
03
f3
e8
09
04
e3
f1
fb
32
10
14
2a
e8
e5
df
09
cf
3b
09
fa
03
da
de
da
d1
1a
21
00
fc
54
09
0a
db
f3
13
03
f8
f5
15
ff
ed
ee
e0
ea
19
f2
07
1a
0a
d2
0a
3c
f5
f1
ee
f6
f8
00
09
fa
0d
da
11
11
d1
0e
03
f9
fb
e7
eb
e0
da
f4
fe
04
03
e1
09
fa
fa
e5
03
1a
07
12
fe
1b
f3
ee
f5
0a
1c
fd
29
ee
fd
03
20
0a
17
ff
0b
f3
f4
02
25
fb
ff
e5
f9
ff
17
fe
f8
08
03
ff
0c
f2
f8
04
09
f6
01
03
01
fd
f9
f5
08
27
fd
de
ef
fd
1c
0f
7f
1c
fc
f0
00
f5
f8
0b
f6
03
e2
04
ec
f4
00
00
1c
f6
f7
3c
ff
11
f1
04
ff
1e
08
ec
1b
f8
f1
f8
ef
fc
12
00
fd
22
f2
02
fd
28
f5
e9
fb
fc
1f
0e
06
fb
02
de
07
f4
ea
fe
f5
fd
f5
07
f0
f5
e0
fb
ef
f9
f2
fa
fc
01
0f
16
09
28
fb
02
01
01
ee
fe
0a
01
e4
fc
05
ff
07
18
fe
12
20
ff
00
f9
f9
f3
09
fb
fb
f8
fc
fc
04
fe
f3
01
07
01
f9
04
06
08
0f
02
f9
ff
f7
f5
f7
01
06
fe
ff
f5
fb
ff
03
fd
36
fe
0a
fa
01
ee
f3
02
08
02
fe
00
f3
fd
0b
f6
09
f2
01
13
fe
f5
fb
f9
fd
03
fa
f8
08
f3
fe
fc
04
fb
00
06
04
0d
f9
01
07
18
f7
fb
07
f7
13
fb
00
00
01
fa
04
f7
f6
02
f8
05
06
03
03
fd
ea
04
05
f6
fa
01
f3
fc
fc
03
ff
06
f9
02
05
f6
f4
02
fd
f9
ed
ff
02
f5
ff
0b
fd
03
14
fd
00
02
0c
f5
01
04
00
ff
0a
fc
06
07
01
fe
07
fa
04
0a
03
01
08
01
04
01
fc
f1
fc
04
0d
f3
fe
fd
f9
fd
00
04
2d
00
07
06
f9
00
f9
fa
09
fd
00
ff
fb
fc
14
f8
05
f8
fb
f8
f8
f9
ff
fd
fb
fd
fd
f1
fe
f8
04
01
0c
06
f7
05
0c
00
00
ff
fd
07
fa
fc
02
fe
fe
ff
01
01
01
02
09
00
ff
09
05
0c
fc
fe
0e
fa
f7
fe
06
00
00
fe
f0
00
fd
fe
fa
03
0c
fd
00
fa
f8
f5
fe
f6
f8
02
ff
f9
07
11
04
fd
0a
00
ac
fa
d2
e9
eb
16
51
a2
f0
1a
fb
e0
f6
fa
d4
24
20
b6
18
e4
3b
1f
e0
f9
5f
0d
ce
fe
e3
fc
ff
c9
31
13
b4
fc
1b
5e
df
ae
cc
fc
0a
37
9a
d0
37
31
fe
26
1c
0b
f8
37
dc
c6
f1
1b
4a
74
13
f2
5c
e2
31
b0
eb
fc
0f
e7
ea
b1
ab
eb
16
f8
fb
03
2b
c8
d1
3b
f2
09
0d
cd
6c
01
21
ed
25
3b
e3
f3
1c
10
ef
49
ec
2d
db
20
40
48
f5
e9
ef
48
31
b7
d5
50
07
17
fa
ff
cf
7f
fd
00
d9
ec
1f
a8
2c
2d
ff
9b
d3
e5
e6
0f
3e
f8
fa
f5
e3
e9
04
fc
10
e4
c5
00
21
11
19
f2
36
fe
3b
13
fe
48
13
dc
c8
56
0d
f0
0a
03
e4
2f
f0
38
19
ea
d5
08
0d
05
d3
28
16
ee
f8
17
0a
0c
07
dc
f0
f6
f8
15
17
33
f4
d8
2d
1f
e4
e6
e2
14
1d
d4
fd
d5
21
f8
17
e3
f9
10
fd
14
cb
25
e8
dd
11
dc
1d
26
1b
dd
13
f7
fd
f0
e9
26
fb
1b
00
15
ea
08
0b
fa
04
ec
dc
41
0e
25
05
13
ef
03
e0
f7
36
0c
40
fb
01
ed
2e
d8
13
28
1b
bf
f3
f7
fd
13
13
fc
e9
05
fc
fd
0d
f4
0f
01
eb
e8
0d
04
0f
ef
0e
08
0d
06
fd
09
18
f8
e7
1c
19
f6
0d
fc
fd
1c
f3
1b
2b
05
eb
f5
0a
08
ef
0c
0f
f4
01
04
fb
fa
fa
fb
02
e9
f6
24
01
04
f8
f9
05
29
01
f4
05
f5
0d
ef
f9
0d
0e
0b
13
db
fe
17
e9
08
f6
10
01
f2
fd
e0
06
0d
18
f7
12
ed
04
0b
00
1b
02
15
ea
f7
01
02
05
06
08
eb
f2
13
0c
21
14
00
fc
02
00
21
00
fd
23
fa
15
fc
23
fa
ff
19
18
f9
f5
f2
f5
04
17
02
fb
08
ff
ee
11
f0
08
f7
f4
e5
04
01
07
fe
05
04
f7
fc
fa
f8
14
0a
f2
f2
04
ed
f7
f0
f4
10
03
12
1d
05
e3
02
0a
02
03
0f
16
e9
ff
fd
fe
f1
fc
01
fe
e7
f4
0d
f9
ff
ed
00
f5
2d
fa
ee
15
f8
0f
0e
fa
06
10
0f
06
e3
f5
13
f5
fe
02
06
fe
03
09
fe
0b
00
0b
f5
26
de
05
12
fc
0b
09
00
f7
ee
01
f5
09
ff
fe
ef
f2
e4
06
1e
f7
02
00
fc
02
0f
fb
f6
21
e8
1c
0f
ff
f7
04
25
10
14
3b
09
cf
d2
28
ea
0c
e0
fa
07
fd
08
bc
e9
32
15
f7
23
0a
27
1e
e6
b9
ff
d9
1e
24
2f
1a
01
4d
e1
00
f1
f7
e8
f2
e7
ec
e4
37
dc
da
0e
00
df
29
db
0a
ca
54
e6
0c
22
d3
e9
f7
fe
1b
f1
ce
45
34
1c
db
ec
e5
fa
05
0c
12
81
54
20
dd
ee
e9
0c
ca
f5
53
c6
13
fe
f9
0f
c6
0c
2c
c4
18
10
f0
24
ba
17
e9
56
d0
1d
16
25
e2
2d
29
05
db
de
fd
aa
f8
0e
11
ed
16
e0
fa
01
8d
20
e6
05
f9
0e
28
d5
f4
41
25
f6
08
e9
21
fe
2a
ed
ff
fa
03
ef
ea
ff
18
46
f3
fb
1a
fc
04
ea
eb
0d
f4
0c
03
13
0f
f8
3d
f6
10
0c
f6
e5
06
04
fb
f5
18
f8
e6
f4
0a
e4
ec
d6
d3
e1
f9
ff
f8
f2
ed
e8
04
e9
1d
f8
d8
09
05
0c
05
f3
f3
10
0c
f6
01
e8
20
10
eb
00
04
03
03
f0
1b
ea
f4
03
01
fd
0f
e8
17
05
f9
00
f5
03
e3
2e
e4
2a
17
1a
05
f5
07
11
2f
00
ed
0e
04
fc
03
fb
0c
d9
0a
f6
09
f2
f5
0f
05
f9
f4
f6
f3
02
ee
09
08
fa
04
ee
12
fd
07
f4
f5
07
f5
fb
fa
01
02
17
0d
01
04
fd
fb
fb
fa
fd
fe
10
f1
00
09
05
2b
03
06
04
00
f0
06
05
02
f8
f9
00
f0
01
12
ee
02
0a
dc
f3
fd
f6
fd
f9
03
fb
f6
f8
0d
f7
fd
0d
00
15
f4
06
03
03
0d
00
06
fd
fb
fd
fc
f3
04
02
fc
06
0b
f4
fd
f5
ff
ff
08
fe
0c
ef
07
fe
00
0a
ec
03
03
14
0e
10
ff
f9
f1
fe
0f
fb
02
06
02
01
05
fe
00
e8
02
fc
fd
fa
0c
00
fa
f9
03
f4
fa
00
0a
02
ff
01
01
f1
13
ff
07
f7
ef
04
fb
f8
0b
03
00
07
fb
ff
fa
05
00
ff
07
fa
09
14
ee
fe
f9
f6
0f
06
06
02
f9
f5
00
02
f4
08
07
09
00
09
20
ff
06
14
f2
f4
f6
02
02
fa
03
f8
f2
f7
03
01
fc
03
08
04
f4
05
08
f9
07
02
04
fb
e9
03
03
f8
07
08
0b
fa
05
f6
f6
f6
fc
ff
04
02
0b
fa
03
fa
f8
fc
e9
f7
15
05
07
03
0a
ed
f4
06
0b
fc
fe
f5
06
0a
f9
01
fc
f1
fd
f0
fe
02
09
ff
ff
02
01
fd
01
f5
06
02
f7
21
ed
1b
05
01
cc
2c
14
04
e3
fd
f6
ff
f0
e3
41
cb
f0
00
f3
19
18
fd
03
0f
33
e5
26
0b
ee
dd
eb
f6
14
7f
e7
e3
15
fd
f6
24
36
34
dd
22
02
d2
10
d8
36
d4
02
e9
19
fe
e7
f7
2b
fc
df
f1
dc
31
e8
09
ee
fb
e6
2e
23
dd
48
1a
ef
ec
d4
17
1c
db
ea
f3
f3
ec
1f
f3
cf
1e
19
cd
09
fa
e4
09
fa
04
28
04
07
04
07
e5
e9
cf
0f
e8
e6
b6
5d
f1
f8
03
04
1f
f7
0e
f2
eb
0e
fd
09
09
e8
f8
f2
e1
06
11
e5
f6
03
00
fc
08
fa
ed
fe
fb
f9
10
19
fb
06
f1
f3
0c
00
09
f2
00
23
fc
0d
03
ec
fa
14
f0
fc
ef
f2
0c
07
34
f9
f2
f1
fa
06
16
17
0f
01
22
27
f7
17
e9
0a
f1
07
f7
00
18
fd
03
f3
f7
e2
f9
fc
05
05
12
f5
10
2a
05
20
fe
02
fa
e3
fc
ed
ff
fb
f4
03
07
0b
23
0f
f8
e2
08
fd
09
00
ee
ed
09
f3
12
15
ef
fb
fd
fe
e9
11
08
03
1b
02
ea
11
f8
fd
04
05
0e
fc
fc
ff
1f
05
fc
0a
00
03
fe
10
04
f7
14
fe
03
03
fc
f8
03
fb
fd
fe
fb
fd
06
09
fd
fe
fc
f6
07
04
02
f8
ff
02
00
03
0b
f1
05
11
fc
06
fe
f5
0a
04
09
05
0c
fc
09
12
0f
08
0a
09
07
0f
f8
0b
f7
03
03
09
fb
fb
0c
f0
fb
fd
fc
ef
0e
f6
02
01
08
04
06
1b
fa
12
f8
05
f9
f7
00
f4
07
ff
f3
06
f6
fd
18
fb
03
00
05
04
0e
03
05
fd
00
00
0f
09
fe
0a
02
01
f8
03
01
fb
10
fd
02
f5
01
f8
fe
0c
03
f8
01
03
12
08
f9
fd
fd
f2
01
03
0e
07
08
03
fd
05
fc
fa
01
01
09
fa
fa
f8
02
03
ff
fc
ff
f3
fd
07
f9
07
04
f0
f4
f8
02
e9
04
06
f9
f9
03
fd
01
fc
fd
0d
02
fe
07
06
17
07
01
01
07
0b
09
fd
ff
fa
02
02
fe
fb
0b
f3
fc
00
02
f6
07
fa
00
f4
06
fe
05
fa
f8
08
04
f7
08
03
fd
fc
00
ff
fd
01
f4
f5
10
fd
07
f9
fd
04
19
04
0a
fd
04
f8
05
fa
ff
06
fa
fc
00
02
03
f8
06
03
fe
eb
07
00
fc
0c
05
fa
ff
fd
08
03
fc
f6
05
03
08
03
05
02
02
f5
ef
f4
ed
16
36
f0
4f
05
ec
07
2f
e0
1b
e7
f9
3e
25
e7
f2
02
fd
40
fa
0e
94
e9
d0
f6
0e
dd
3e
19
10
1f
df
fb
1e
e0
06
2b
02
cf
d5
bb
ff
fc
da
df
17
24
f6
5d
0a
fe
1c
fa
e4
0f
e0
27
d9
bf
ea
19
26
f1
ae
db
6e
3a
f2
e7
00
fb
15
fe
df
d0
f0
25
fd
13
0e
e8
df
03
20
e3
0a
c4
cf
0a
fb
0a
4a
0d
7f
ff
f1
0c
fc
0d
d0
19
fa
e3
bb
0b
f1
fc
02
ea
ec
ec
0d
19
4d
e6
4d
08
f7
0f
f3
0d
f2
02
12
e5
ee
d8
15
1c
fe
fa
32
06
1e
fa
eb
04
f9
0a
1b
07
11
05
17
1c
fb
04
02
f7
d5
13
03
da
ee
d3
03
fa
f9
ed
09
16
05
e8
16
15
0a
fc
00
e2
ee
09
f7
1b
fb
fe
0a
f7
0b
01
d8
f0
fb
27
f3
04
03
0b
ec
15
02
f0
f2
de
23
1e
dc
f2
0a
fe
f7
06
19
08
fe
02
1f
e2
f4
0d
f4
e2
f1
cf
0c
00
1d
f9
0d
fe
37
19
3c
f5
f7
01
e3
0d
00
09
fc
fa
fe
0a
04
08
ec
d7
0b
16
0d
d9
16
eb
37
0b
05
22
00
19
00
ff
ff
fe
f0
e6
f8
00
f8
0d
1b
07
06
f0
fb
0a
02
f5
00
04
10
f7
0c
fa
01
fd
01
f2
f7
fa
07
ef
f0
f0
04
0a
fe
ff
04
0a
05
01
01
01
fd
f9
04
f5
05
03
06
07
00
0f
0d
fc
00
0b
ec
fb
fc
01
fd
06
ff
00
05
ff
01
fa
fc
e4
10
01
0d
fc
05
03
0a
04
01
00
fb
fc
07
ec
fd
01
fd
f2
fc
fa
10
0c
10
fc
02
08
14
03
09
f7
06
ff
f1
0e
f9
f5
08
05
07
fc
19
02
fe
f6
03
0f
01
ef
05
06
04
02
09
04
09
19
fb
ed
01
0b
fa
e8
f0
04
fc
0a
07
fe
fc
ed
fe
09
fa
02
ff
fb
f6
f8
0b
04
fe
fc
06
ff
ee
f6
fd
fd
f9
f8
0f
0a
02
fe
00
0b
02
0b
02
00
fc
05
02
fb
0d
0b
08
02
04
02
08
ff
09
0d
03
02
ec
04
04
0f
00
fb
05
05
f9
f6
fe
f9
0d
f0
0b
fd
0a
06
05
00
fc
06
fd
f7
09
f6
02
f8
f7
f6
fe
04
0c
0c
00
08
03
02
14
f6
fd
07
08
fd
fe
05
f3
07
0b
08
08
02
08
fd
ef
f4
01
0b
f9
00
06
09
01
f9
ff
fa
10
03
f8
fe
f9
f8
e4
df
1a
04
fe
f9
26
13
e2
00
0e
19
09
f4
1a
e5
f5
08
db
fb
16
21
de
11
1f
e5
13
ef
fd
fa
2f
0f
ec
e8
dd
07
9e
e5
13
41
f1
a3
0f
03
ef
f9
09
f4
0f
09
3b
1a
20
0c
d3
30
f3
e7
0b
be
e2
cb
f9
df
fe
f0
e6
0d
f1
45
f6
0f
16
1e
28
dc
3d
fb
0f
0b
dc
fc
f4
7f
0a
0a
35
d2
19
12
42
bf
f8
fd
d0
1c
dc
01
da
13
ea
27
44
26
1b
05
09
f7
1b
e6
d4
ec
f4
ee
28
3c
f8
07
1d
12
f8
f8
d8
03
ee
d2
25
fb
dc
e8
04
ed
ec
fd
e8
08
f3
f0
e4
03
00
fb
07
0b
f4
17
f7
d4
00
08
fe
07
fe
0d
15
e0
fe
fd
04
e9
f9
f0
e9
03
d4
e5
fd
0b
f3
e8
f9
03
10
01
03
d9
ff
01
21
0e
08
f7
01
1e
fa
08
05
e1
02
02
12
f9
fd
f4
f4
f4
f1
0e
1d
06
f3
06
29
09
06
eb
fd
08
fd
00
fc
57
07
ff
00
03
10
01
1b
ef
f0
15
f0
f1
01
1c
e8
05
01
09
18
05
fe
04
fb
01
fc
0b
f7
f1
f3
f0
fb
0e
f7
e6
14
f9
fb
f2
01
16
00
da
06
f7
f7
ff
fc
f7
fd
0a
eb
fd
fc
fb
f6
05
0d
05
08
f8
f9
0f
fe
f3
f9
09
0a
01
ff
09
03
01
00
fe
04
f9
00
fa
01
04
f5
f2
07
05
02
fa
0a
00
08
ff
0c
02
04
ff
04
fe
01
fc
fd
f3
0b
01
03
f2
f6
03
11
fc
f9
f2
04
07
02
0f
06
ff
f8
00
11
03
fe
fc
fb
04
fb
03
fb
2d
05
00
02
08
08
04
0c
00
fc
0c
fa
fc
ff
12
fe
ff
03
0a
0e
02
fb
fb
0b
ff
ff
fd
02
fc
00
09
02
fc
02
f9
0a
f3
03
00
03
05
04
fb
fb
fe
f9
01
03
ff
04
07
f4
00
f1
02
fa
fd
0e
05
01
00
fb
15
fb
f5
fc
f7
04
06
fb
f5
00
05
03
08
05
fc
02
fe
ff
f9
fc
fa
02
03
06
f4
00
00
03
fa
00
fe
fe
f5
f9
ff
06
01
07
f9
05
01
03
ef
fb
06
09
ff
fd
f4
fe
01
02
00
04
fe
fe
06
0a
01
f7
ff
fc
01
01
ff
fd
25
fa
0b
04
00
fa
08
03
f0
fd
0d
03
f9
f9
0a
06
f6
08
09
05
ef
f5
02
08
f5
0a
09
0a
02
00
09
0b
fa
06
ff
fd
e3
ed
ff
07
fb
05
f1
02
f4
64
cf
cd
11
69
d4
b8
d4
29
7f
08
67
1c
02
1b
ce
f2
08
96
ee
06
cc
08
20
e3
e4
0e
fc
e5
cc
fb
f3
1e
0f
08
f4
33
0b
cb
13
2b
a0
67
f3
a3
10
e2
08
d8
30
ce
01
58
4d
ee
ff
f2
b9
d4
e4
41
dc
22
41
2f
f4
a4
e0
48
42
f1
36
3f
f3
0f
d7
2c
be
28
58
46
c7
01
02
34
47
35
fc
12
42
eb
e7
1c
0f
cf
16
b2
cd
f9
f9
c4
b3
45
0e
ca
00
f2
f6
39
e6
de
51
9c
e3
00
2a
45
0f
2e
da
23
d5
e2
2f
f8
05
d6
f4
0b
cc
f8
1a
28
eb
f5
ed
f5
20
08
0a
16
fc
fa
dd
e6
05
e7
ff
fb
16
ee
0a
07
12
17
e2
15
dd
fe
0d
ec
f5
07
1f
18
0d
0f
08
07
1b
17
05
fc
f8
27
22
f6
2a
2b
e2
0e
06
11
eb
05
f8
ee
f4
20
02
36
1d
04
09
f1
0c
15
fe
0a
e1
ee
ea
10
f0
00
f8
0c
1d
f0
f9
ee
f9
29
07
07
f8
f3
07
f3
fb
04
0c
1b
ff
e7
01
f5
08
07
f3
20
15
03
f0
fa
0d
07
fe
fb
f7
03
f9
0f
1b
0d
fb
04
f4
f6
08
15
05
ff
ed
eb
ff
0c
ff
f8
08
0f
f0
f8
f6
07
0c
01
f9
04
04
04
fb
f4
0a
eb
02
02
fd
f9
07
07
ff
0b
f1
ff
f9
fc
09
fc
fe
05
f3
00
f7
0c
ee
08
04
f8
0f
05
06
08
03
fa
0c
07
fd
0e
ff
fc
f2
f8
f4
f7
f5
0c
ff
0b
f8
01
09
02
0b
0e
07
0c
f0
f6
f1
10
08
05
f7
05
0a
fc
07
f8
01
07
f6
fb
ff
ec
ff
f1
f9
fb
fe
0e
01
ef
f9
f1
09
05
0f
11
20
fd
f7
fe
06
f9
f8
03
fd
07
f6
08
0c
02
ed
f8
00
f5
00
06
ef
04
fa
fe
ff
fc
05
f7
18
04
f9
01
09
0b
00
01
03
01
08
f9
ff
fd
00
f5
0e
03
02
1d
fd
05
fd
0f
f9
fe
05
f5
0f
07
fb
02
f6
fe
f3
0d
f1
ff
04
fe
06
08
fe
06
00
05
08
05
06
14
02
00
f2
00
f8
ff
f7
f8
03
f8
ef
fc
12
02
08
fe
04
04
ef
fa
f7
fb
02
04
01
fb
0d
0b
0c
11
f9
05
fd
fc
fb
e5
fa
ff
03
02
05
05
0b
f5
01
03
fd
fa
03
00
12
f4
fe
f3
ff
05
02
0f
f8
04
f4
ff
04
01
f7
f8
f8
f7
f4
fd
03
0b
06
ff
0b
36
ef
f6
f8
f5
2f
0d
ec
17
ec
fd
93
0f
fc
20
30
f4
e2
e7
ea
e5
e1
04
f6
ac
1e
0c
09
11
c4
04
d1
f8
11
36
da
d8
d7
e7
f0
db
f5
08
f8
d4
fd
f9
1f
ee
08
f9
fd
49
c1
fe
ff
c4
07
e4
17
77
fc
c0
17
08
d0
de
10
33
d6
d7
11
46
f1
ec
2e
fc
c2
f7
17
12
da
1c
02
e4
3c
20
f6
14
c3
00
e3
c7
f6
02
e5
3c
de
7f
e4
07
08
67
da
2b
e9
db
0e
26
e5
1e
59
43
fd
c3
0b
0b
0d
f2
36
0c
69
54
06
11
36
d4
2e
03
ee
db
09
fd
19
fd
fd
20
f7
fb
13
06
06
21
07
10
f9
fd
df
07
2f
03
f6
11
05
1a
fe
22
15
f8
ed
f7
12
f4
f8
16
06
00
e7
1c
10
02
fe
0a
0b
fe
18
0d
0d
ff
f9
02
08
13
09
15
08
0d
0f
03
21
eb
13
01
0c
0e
0c
07
11
01
06
04
99
05
11
13
f5
0b
f3
f1
f4
fb
06
ff
15
fb
05
1b
02
07
ee
eb
06
05
01
21
00
28
ee
e0
0b
22
00
09
07
e1
ec
ec
f9
ff
13
03
fb
fd
07
0e
f0
ef
f5
08
12
1a
f1
f3
5e
f2
0c
02
fe
f1
08
fb
05
0f
f7
1c
f8
0c
0e
fc
fb
12
02
01
f7
05
ee
ff
0d
08
fe
0d
f7
03
f2
19
12
f4
f5
f3
fb
fa
e7
07
04
fc
f8
05
0d
04
01
07
07
e6
16
06
03
0f
07
fa
0a
13
0f
0b
f6
01
fe
ff
06
13
f1
ef
0b
0e
f5
01
0c
f7
07
ef
c4
fa
f3
f5
ff
0a
f6
f6
f7
03
03
08
fe
00
fd
08
06
f7
0a
ec
07
f9
f8
fb
12
f2
fe
ec
03
fe
0a
f1
07
fc
f4
f6
f7
ff
07
f6
fa
f3
05
fb
fb
f5
f6
f7
01
f8
ff
02
39
07
03
02
fa
fb
0b
f4
02
f9
00
ff
00
fc
01
f6
f8
07
00
fa
ff
04
fc
01
f9
f5
03
10
03
02
f2
fe
09
ff
02
fb
0a
fd
f4
03
fe
fa
06
07
0f
f8
ff
02
0b
ed
00
06
00
09
03
05
0a
06
f8
0a
00
01
f4
03
f9
06
f3
fc
06
13
fa
fb
0c
05
05
ff
ef
05
fb
f8
ff
01
01
00
f5
05
f7
06
01
02
f4
fe
02
f8
00
fb
0c
02
ff
fd
0f
f1
11
04
f9
fb
09
f4
11
0b
fe
f2
05
01
06
f3
f5
fd
05
04
fd
03
03
0e
ff
01
0b
04
0c
ff
fd
ef
ea
e2
eb
fd
f0
16
03
d9
2b
09
df
f6
fe
eb
1d
cf
f9
1d
0f
0c
01
ff
2e
0b
e4
0d
e0
fe
c8
f5
d6
17
09
c8
c2
fb
0a
13
f2
ed
ef
da
16
f5
f8
e0
fb
ed
3c
ee
44
03
61
11
fd
21
2f
e8
cf
0b
05
f4
f8
d9
01
d5
2e
29
1c
21
e2
e6
0b
f7
24
dc
f3
27
d8
18
dd
19
06
06
27
00
0c
cc
cf
33
07
d1
d9
11
f7
d5
0a
e7
ea
1d
21
ce
d0
3b
1f
f2
20
18
fc
db
00
17
7c
09
1a
12
06
0d
2b
f6
f6
1f
2d
f1
fb
23
fd
e4
ee
0a
00
0d
d5
2e
f6
f7
fe
05
fb
f1
ee
f5
2f
f7
fb
09
f7
02
09
fe
0a
f3
f9
0e
38
25
e3
fc
e8
11
e4
f6
f4
f2
fc
e8
ed
d6
eb
f9
02
d9
01
f2
fe
16
08
db
20
f0
2a
02
10
1e
1a
f1
03
e4
f5
d1
09
da
e7
db
13
09
04
fa
12
0f
fd
f7
f5
f7
e8
14
f0
0f
de
e8
fe
fe
0b
f4
f0
f7
fe
03
02
e5
e9
10
f3
e6
10
12
d6
fe
00
09
c3
12
19
28
0b
3b
f6
e2
f3
f4
7f
e8
f8
01
f0
fb
04
15
33
01
f9
09
16
fd
06
01
00
20
f4
06
f2
1f
02
01
0a
00
fc
fb
f6
00
1b
0a
03
f4
ff
09
08
fe
03
01
fd
09
23
ff
f3
f7
02
f8
f5
03
fe
07
f5
fc
ef
f7
fb
08
02
f5
01
f3
f8
fe
fe
eb
00
05
05
f7
0e
fc
05
fc
01
fc
09
e4
01
ef
f7
ef
1c
0c
17
ea
15
0b
f9
f8
00
ff
ef
0e
fe
01
f8
f0
fc
02
0d
02
0a
f6
03
fa
fe
ff
fe
01
fb
f8
0d
0d
f7
f5
03
02
ed
02
00
0a
fa
19
fc
f9
f3
f9
27
f5
05
04
f5
02
05
07
18
e4
ff
fa
0c
fe
01
fb
f8
14
fa
00
00
0c
f8
fd
fc
fa
0c
f9
02
07
08
04
ff
f5
09
fe
08
fe
f4
04
fe
fb
1f
e9
ff
fe
fe
fa
ec
fe
fa
0c
08
fb
fb
01
f2
09
02
f3
f9
f5
f9
00
01
f7
fd
fa
f7
f1
fa
e7
fc
00
06
01
09
e9
f5
f0
ff
fc
0a
14
16
ed
16
03
fd
fb
07
fc
02
0e
02
f6
f9
fa
fa
03
10
fb
0e
f8
f8
02
02
f8
fb
02
04
ff
11
f4
02
00
09
0b
0e
05
04
f6
f9
17
02
0d
fe
f3
27
f7
0a
05
f1
07
fe
fb
f1
f1
00
f4
00
04
21
39
06
7f
0a
04
fd
00
e2
29
29
eb
ff
1c
fe
fd
fd
e1
f7
02
19
0b
fb
04
31
fc
e1
2e
06
fd
dc
3a
eb
01
f3
ea
db
0d
e8
11
21
c8
13
07
1c
fe
01
fe
0c
ed
ee
ee
f5
01
f8
12
fe
d8
f2
0a
ec
1c
e2
f9
3b
f2
f3
ee
e7
20
18
dc
e3
fb
ee
f9
f4
17
06
b6
1f
00
0b
05
02
f5
ec
d3
fa
de
f5
fe
07
db
2e
f0
04
19
0c
2e
f0
f4
03
d3
ea
02
0f
18
e6
ec
fe
13
c3
06
d3
f9
06
0a
0a
e4
03
fd
56
d5
f2
0a
04
10
05
fc
ee
16
04
02
e6
07
15
16
f6
06
f3
f5
ff
08
00
04
fc
0c
16
0a
ea
ff
0e
03
ef
13
f8
08
02
04
10
02
fb
fa
fc
01
e7
fb
f3
03
06
f8
f6
f6
f8
e2
0e
f8
16
03
0a
08
e9
f6
0c
04
0b
0a
03
fc
40
ec
37
1a
c4
f3
06
f9
f4
01
f3
07
f2
09
0d
0c
f7
0c
10
fe
fc
05
fb
f5
0a
f9
02
0d
08
eb
05
f1
1e
f5
fd
04
11
e3
f7
03
10
04
fe
07
01
0c
00
08
00
f7
17
0e
00
f0
f9
06
00
07
11
13
05
0f
fd
30
10
12
fe
f7
01
f7
fc
04
f3
0c
07
06
f6
00
fb
fe
f8
04
0c
06
ff
01
07
ff
fe
02
00
01
f1
03
f6
00
04
fb
00
0c
fd
f6
fd
00
fe
f9
ef
04
f4
01
f7
03
fb
de
0e
f7
0a
fb
fe
fc
ee
fe
00
09
04
ff
07
f8
20
fa
0a
12
ef
f5
0a
fb
02
01
fe
00
f8
05
03
fa
f3
0f
ff
05
fa
06
ff
fb
09
fd
01
06
0b
fe
03
07
0a
f9
f9
f7
01
f3
f7
06
06
05
fa
06
fb
0f
fe
0f
fa
fa
1c
fd
0a
fb
ee
12
fb
0d
06
04
fe
11
fe
10
04
03
fd
f7
06
fd
07
02
fa
03
fe
f9
f7
02
fc
02
01
06
05
05
fe
fc
03
02
f9
f4
f2
00
04
00
fa
06
05
00
06
03
f8
fb
06
f7
0f
fc
fe
09
f3
fa
fc
08
fa
e8
05
ff
03
04
00
06
f4
f9
03
07
05
05
06
fb
19
ff
fd
12
fb
fa
06
fd
07
02
fe
04
fb
f9
fc
ff
f4
0b
03
05
02
06
fe
f9
0a
fa
f8
06
00
03
fa
06
04
f9
04
f8
04
fc
03
04
0a
0e
00
fc
fe
04
fb
01
ff
f8
0d
f8
04
01
f8
fb
f5
06
fe
fd
ff
05
06
03
fd
fd
c6
1a
3f
ed
e7
c4
18
1a
fb
f6
3a
13
fb
18
e5
df
32
15
ee
27
f8
18
fa
f9
bb
fc
d6
9d
c0
fc
e9
26
06
c6
3e
4e
c1
e3
db
02
f5
f6
39
40
b0
35
e5
f3
db
1b
0c
c1
27
d5
46
bb
d8
d3
a6
6e
ea
d4
dc
da
ba
42
15
36
d0
e5
f3
fb
12
00
30
e2
1c
1c
22
06
f6
3a
13
81
0b
0f
28
d4
ca
6b
09
f6
f9
38
a2
fe
ce
03
73
06
f2
f5
3f
2a
06
28
09
a5
ec
1a
e3
f6
25
e3
26
4e
d7
f2
32
d9
e6
fd
08
0b
3a
0f
9d
31
d4
de
f8
ec
fa
f6
e8
f5
f4
01
02
02
29
04
e8
e4
e7
e9
06
02
f7
07
01
f6
0a
15
0b
c4
e0
19
03
08
01
ed
fa
1b
16
03
f3
e1
1d
08
0c
1b
fe
07
09
09
14
0e
11
f3
10
ef
0c
e9
04
0e
10
0a
03
e3
e7
23
e1
10
db
06
0e
bc
27
f5
f6
ef
e6
04
07
17
10
0f
f0
1b
1d
08
05
fb
f3
f1
16
2b
14
15
f2
fa
f8
de
f6
f2
3c
03
d4
e8
0b
0b
0b
fd
09
f2
f8
00
e1
f6
fb
0b
fb
03
d1
f6
05
f9
25
02
14
04
2f
21
13
1a
f2
e5
fb
f9
0d
09
f3
ed
ee
ff
f5
0e
08
fd
0b
e6
08
ef
13
f4
0c
02
f2
02
05
01
fa
f2
f9
10
f6
04
fc
f5
fa
10
0d
fd
ee
05
16
0e
03
08
08
00
09
03
1e
fe
02
f6
08
fd
04
fa
f6
13
f9
f6
0d
f3
fc
17
e8
f3
fd
fd
15
f6
17
f9
e8
f8
de
fc
fd
0f
05
fe
fb
ff
12
07
f9
fb
f6
0a
05
02
ff
17
f9
fd
ff
f7
ff
ff
15
04
dc
f3
06
11
0c
f7
0b
fa
01
06
f7
f5
fc
0a
f9
0e
e5
0a
09
0c
11
f2
19
0c
01
02
1a
09
fe
f4
00
f7
fb
06
ee
fe
f2
03
fd
0f
f2
02
06
f4
0f
ff
0b
f7
ff
01
e7
0b
fe
02
0b
f4
03
fb
f1
fd
01
f6
fe
02
0c
fb
ef
f9
00
08
fd
ff
05
03
fa
fe
0b
fa
0f
09
03
ff
f9
fa
0d
05
08
f5
f8
f8
11
0c
e9
eb
00
ff
fd
f8
07
f9
e8
02
f9
00
f6
f8
08
fe
ff
03
0b
08
13
09
ff
0e
06
fc
01
09
07
fa
f9
fd
05
01
f9
05
f4
f9
fd
11
02
fe
0f
ff
fa
fe
06
fa
01
00
fd
08
ff
f9
06
11
13
0f
09
15
f8
f9
14
0c
04
f4
0b
2c
eb
ec
c3
ef
dd
01
d0
32
f5
02
06
13
e7
db
07
04
e8
fa
5a
09
25
ee
e2
ef
26
f9
ff
04
17
1c
0e
df
f7
23
ef
f4
1d
e5
e6
06
17
30
44
2c
f4
f7
d7
1a
0c
23
fe
1a
fe
1d
e0
06
ec
11
0a
ef
2d
ef
44
05
fe
19
0c
2a
08
eb
fd
f8
1f
12
08
2f
f8
aa
19
1a
fc
df
ea
eb
0d
ef
0d
81
f9
c1
11
00
0a
ee
fe
28
09
1a
df
2e
0c
f7
00
e9
dd
18
fa
d3
de
0b
ef
03
fc
f9
2e
26
ee
13
0e
06
f2
3a
0b
e8
f5
07
08
0b
f0
e6
fc
0c
ea
f7
00
16
e8
04
fd
e8
f0
f6
0e
00
ed
00
1b
ff
09
13
fa
fb
07
f2
02
0a
04
12
20
ec
fc
10
05
f8
20
f8
13
04
09
e2
0c
00
e6
ec
05
13
32
09
06
08
ee
1a
ff
fb
0a
03
1c
fc
f4
f2
0c
fc
10
18
10
1a
f1
fc
1f
f2
1b
f8
01
15
fc
0c
11
fe
00
fe
07
f5
fc
e5
f1
f7
00
e9
fb
f2
0d
01
03
19
01
f5
e2
17
10
fc
0d
f4
f1
09
ff
f7
fb
0f
09
09
ef
fa
ff
0d
f0
03
fa
17
f7
10
fc
0b
f8
04
0b
06
03
fb
fe
10
01
f6
00
fc
f7
fe
fc
ea
f8
fa
08
f8
fd
01
07
ff
02
06
ff
fb
05
05
0e
05
05
01
04
f2
fd
01
09
03
10
fb
08
fc
fe
ec
02
ff
f8
f7
fb
07
12
04
02
fe
f3
18
f6
fc
03
02
13
0a
fd
f3
05
03
0c
fa
03
06
fb
f6
1b
02
06
05
fe
0a
fd
04
ff
00
01
0a
09
02
fc
00
03
fd
00
fb
01
f9
fe
03
05
14
f1
fe
f0
0f
02
fe
07
fa
fa
fc
01
01
f7
04
05
0b
f5
fc
f4
00
05
06
ff
09
fa
06
f8
04
f8
fa
10
00
03
fc
ff
07
fa
fb
fc
fc
f9
06
00
ef
f8
f8
04
fc
04
04
fc
0c
fd
04
02
00
f9
06
0c
fb
ff
ef
03
fb
03
fd
0a
07
04
05
02
fb
00
e6
fc
fa
03
fa
07
fb
11
02
04
f9
f6
00
02
fc
14
08
00
fe
fd
fb
05
fe
07
fe
fc
01
fe
f8
0d
03
01
07
04
04
f8
fb
f9
ff
fe
04
02
08
f7
fd
02
ff
00
fa
03
fd
05
fe
ff
05
f0
06
fb
06
08
03
fc
07
03
00
ff
ff
fa
f9
ff
07
fb
f4
f0
fb
ff
fb
fb
0c
fa
ff
fb
03
15
09
dd
20
ee
fd
dd
f1
3a
18
25
e7
09
0f
40
0c
13
11
1d
fd
0e
fb
1c
07
24
b4
30
fb
f8
ec
f6
fb
1d
ed
d2
2a
cd
e0
17
01
c2
cd
af
f6
05
e7
d9
e0
1e
f1
b0
fc
25
bc
0c
f7
1f
e1
f3
f0
e6
02
02
23
2e
ee
f4
e5
03
08
05
e6
55
df
c9
26
06
16
b6
dc
14
22
00
e1
02
4a
11
11
03
fb
db
12
0f
2a
e0
03
b0
e7
eb
10
f7
04
dd
ff
b7
f7
7f
0b
f4
01
0d
03
ff
43
e2
d6
ee
e8
ee
ff
12
10
17
49
e8
e5
09
6a
02
fd
f5
f7
ee
f7
ff
ec
0c
14
fd
0c
11
0e
02
2b
08
e9
fd
0f
de
13
ef
f3
fa
de
f0
f5
00
cf
00
01
ff
eb
e0
12
02
16
fe
f9
06
f2
ff
0b
07
09
0b
08
e9
0e
01
e6
10
fa
0a
f7
07
fd
f8
13
17
f7
f7
01
12
fc
ed
e3
eb
ec
06
0b
01
07
f7
06
04
fe
ef
06
02
06
fb
f4
0c
05
e3
08
ef
f3
f1
0f
06
02
f4
e9
eb
f3
0b
f0
32
f5
ee
0b
2e
ef
34
e1
00
fe
01
f5
fa
09
f8
e8
18
eb
09
18
03
18
f5
24
f2
04
00
05
07
fc
fc
f9
f0
fa
f8
08
02
06
04
04
01
fa
fe
0e
00
ff
fc
08
ff
fa
02
f7
fd
f6
f8
04
f5
ee
fb
f4
fe
f7
f1
fe
10
06
f8
fd
03
f2
fd
fe
14
ff
10
f7
fb
09
02
00
00
ff
02
01
fd
f7
04
f9
0a
04
ff
07
04
03
ff
fa
ee
f2
09
05
fd
0c
fb
05
00
f6
f6
04
03
02
f9
f8
04
02
f9
ff
f7
f5
fa
04
00
fd
fc
f8
01
fe
06
ed
2a
f3
f8
fe
10
f5
17
ec
11
ff
ff
fe
00
fb
f9
f7
0f
fc
00
0a
0b
09
01
0b
0c
fa
00
fe
0a
fd
f9
06
f4
02
fc
fe
05
07
06
fd
00
f9
f8
15
fc
04
07
0d
ff
00
02
fc
fa
ef
01
01
fa
f9
f4
ff
fb
f9
f7
fc
08
0d
ff
02
02
ff
fa
05
06
04
0e
02
09
0a
00
02
01
08
00
0a
00
01
04
fd
0b
05
fc
f7
fb
fa
06
fc
06
f7
0e
fb
09
02
ff
ff
0e
fe
fb
0e
fb
01
ff
f7
02
fd
fb
02
fb
f6
02
07
fd
fd
fe
f7
02
f1
01
fe
18
f3
09
fe
08
02
1a
f6
0e
fb
fe
f3
06
00
fb
00
0e
03
0a
0d
07
f5
02
00
07
fd
03
fd
01
e3
fc
47
fa
25
14
24
16
f9
ef
7f
dd
db
37
27
0e
de
e5
4b
18
e7
e2
20
14
25
9f
36
b3
38
60
d9
cb
d0
38
01
17
b5
03
df
2f
bd
60
b2
f2
41
fa
92
00
bb
64
e5
08
01
c9
f3
ef
13
34
54
2e
06
bd
1e
3e
d2
00
e2
15
be
df
14
ed
df
f0
e4
c7
43
09
d3
12
e4
5f
d7
19
6a
45
0c
a3
ef
0e
26
cb
e7
10
17
00
25
58
ae
fb
42
c1
fc
92
0b
09
2e
34
05
15
fc
01
00
db
f3
dd
08
2c
05
2c
12
0e
e2
e1
de
03
9d
cb
1f
f7
27
eb
f8
fc
08
05
e2
f1
35
e4
cf
28
ed
f0
e4
1f
55
04
f2
08
fd
0a
11
cd
e8
04
e4
3d
e6
f3
d7
3d
e2
ed
ce
fb
b7
20
df
3d
ed
ef
14
04
f3
4a
f3
ef
db
ff
1b
cc
e2
eb
07
fe
0f
58
f4
fd
0b
1b
b1
fb
03
24
de
04
ce
14
f7
b1
eb
d3
26
27
ee
24
d3
57
ec
16
4c
57
e9
e3
06
f5
12
fe
ea
f5
41
ae
eb
3a
eb
10
32
d7
de
d8
f7
ec
0c
f2
f7
10
22
11
e0
fe
f3
c5
24
4a
0e
2b
cf
0e
db
09
0e
47
d5
e1
15
eb
16
e8
04
f3
15
f3
e2
fc
2f
ec
f7
20
e3
eb
fb
01
34
fb
fb
f0
07
00
18
ef
e6
20
08
24
fb
ec
f9
22
09
ff
fb
ee
d3
10
fa
26
ed
e2
02
f8
f7
30
fb
f4
e4
00
1e
fb
09
e2
e5
1d
fe
12
fa
03
23
00
e2
ef
fa
2a
f8
e9
e1
1e
04
d0
f9
df
16
16
f6
0a
e8
2d
f0
0d
6d
3c
e8
04
15
03
08
02
04
e8
1c
f6
ec
26
ef
00
14
06
f8
e2
ee
05
ff
f9
09
00
fd
fd
e6
f1
02
e7
1c
26
f6
15
e7
0e
ed
01
11
23
f0
f6
19
fa
0c
e1
f6
fb
01
f5
eb
fb
43
fe
f9
15
fc
e5
f4
12
fc
ea
ff
f4
f6
07
07
fd
de
12
fc
12
0b
f7
05
14
f6
f8
fc
de
f3
f3
0e
20
fd
03
19
ef
fd
0b
02
ee
e1
11
27
06
0f
f2
f7
1c
08
07
08
11
15
f3
f3
f1
fd
02
ec
05
ed
0d
f2
f4
fe
f0
09
09
ff
fe
f5
13
02
fd
75
24
e9
03
07
fe
fb
ff
f6
f1
07
02
fa
2e
f9
03
10
0a
07
fc
f3
09
15
f9
00
fd
f5
03
d4
0b
fc
ec
03
17
f3
fc
fd
05
fc
ed
ff
f8
03
2e
1f
0c
4b
ee
fd
ee
17
da
08
f1
c1
21
07
b6
b4
13
0a
f1
f4
02
1d
32
15
f6
14
0a
f3
ec
fb
08
22
2d
28
fb
fd
1a
22
f3
35
e6
33
14
07
e9
9b
81
a4
dd
fe
b9
07
0d
17
d7
e6
f7
13
14
07
0f
0f
e3
fc
c8
da
d7
cb
26
23
dc
16
09
08
de
29
07
fb
e1
ea
f2
26
d9
f7
06
fe
02
25
01
38
32
65
00
03
1c
0c
2b
ef
1b
0a
ed
16
06
b3
fe
2a
ea
29
06
08
fa
0c
00
f4
0c
fd
e3
24
4c
d6
0d
0a
2a
1f
e6
f2
17
17
16
1f
07
05
0b
05
ed
ff
18
0f
0a
0f
0b
fe
0f
03
01
fc
fe
05
0d
04
24
01
06
16
10
ef
11
ed
02
11
17
ff
fb
04
ef
01
fa
13
07
16
03
03
1e
04
08
fa
f0
0d
07
fe
0e
16
f4
f2
fa
fc
08
0c
0c
08
10
fd
fa
0d
ec
03
fc
09
f3
02
11
fc
12
02
09
ff
11
fd
f1
f9
fc
12
fb
f2
19
12
17
0e
06
08
f5
0d
05
02
21
07
fd
1c
07
f1
fd
02
1e
00
07
13
08
05
05
f2
f9
02
08
f7
e1
03
03
0f
14
08
07
ff
00
fd
f8
06
fd
05
f7
00
f4
00
f3
00
0b
fc
02
0c
f8
ff
06
07
03
ef
00
fe
fa
f9
0a
fc
03
08
05
f8
01
02
08
08
07
02
f1
ff
fc
f9
ff
05
fc
06
04
fd
16
fd
03
01
fb
fb
0c
fb
00
05
fc
f6
08
ff
01
fc
fa
08
02
05
ff
05
f9
07
fd
01
fd
f5
08
fe
fd
02
ff
01
05
fd
fb
ff
02
01
fb
06
01
09
07
02
fa
f4
fa
09
f7
f7
09
ff
fd
06
0e
f5
f5
03
12
fc
05
01
fe
05
09
05
f3
ff
f9
f6
f5
00
00
09
05
f4
04
f9
07
fd
f5
ff
06
02
fa
f8
f9
02
05
f7
0c
fd
ff
0d
fd
07
fe
10
04
f6
fc
0b
f7
00
0b
06
fb
08
06
01
0d
fd
09
03
f6
08
fa
00
fc
00
fd
00
08
05
05
07
0c
fc
fe
0a
fb
ff
06
fb
ff
04
01
fe
05
08
07
f4
fc
08
05
02
03
fb
01
09
fc
00
fc
f6
fc
fe
03
fe
04
01
ff
04
ff
fb
06
04
03
05
03
05
00
ff
02
ef
02
07
f9
f9
0b
09
f1
0c
0e
fc
fe
0a
0e
f7
00
f4
02
f2
fb
07
f4
04
f7
f8
f4
fa
f9
ff
08
05
fe
f1
08
fe
fd
03
1f
e7
05
3b
1f
02
ee
d3
50
07
38
48
05
49
c5
32
05
26
ed
b2
26
d8
f5
19
dd
aa
ea
03
08
fa
16
9b
eb
d4
e8
12
c6
00
c6
13
28
03
40
d2
0d
2c
e8
ce
10
22
d9
21
e9
e5
12
27
13
d1
dc
ef
18
e9
35
de
f6
03
17
3c
eb
51
d6
d9
58
59
03
f8
d7
ff
34
3e
0b
d3
35
1f
d8
28
21
18
c7
0f
51
be
f4
03
e3
e2
81
ea
cc
2c
ee
ee
e7
25
0e
e9
02
d3
21
db
0b
f6
f9
de
0a
1c
fe
d5
ff
d3
dd
1e
fb
eb
3a
d2
ec
11
17
d4
1f
16
fc
fc
f3
f7
1f
13
14
04
ea
0b
c5
2d
2d
fd
01
ef
14
08
16
04
08
ec
e1
1a
e3
ed
13
fb
02
09
e2
04
fd
ec
0a
0c
19
02
06
12
f9
12
f2
fc
05
1d
d9
0f
e4
09
f7
03
00
b2
ed
12
21
fd
13
ec
0c
06
02
ef
f3
18
04
25
17
23
0a
ee
fd
06
13
f5
fa
0e
1d
dd
f8
f5
ec
e7
0b
0b
0f
fa
07
02
e5
d3
f4
19
fe
f3
e8
00
f3
13
28
e5
f6
e2
f3
f9
04
dc
fe
f3
e3
1e
fb
f1
0e
e0
dd
e7
fe
ed
36
f8
20
f5
fe
ee
09
13
f7
02
fc
f3
11
09
09
14
fe
fc
e4
12
09
ef
fd
06
0d
fd
0f
09
0d
f7
01
09
e9
ef
11
07
07
10
f0
09
07
0a
fe
01
14
06
0c
ff
f0
00
f0
fa
ff
09
07
01
f0
fb
00
fc
f5
de
fb
06
0c
03
0b
0a
0b
ff
f6
f0
fc
14
fe
13
09
15
00
fe
f6
0f
01
f0
fc
01
0b
f7
07
fc
f4
f9
f4
ef
f6
06
05
02
f6
e4
02
18
06
06
f5
04
01
00
0d
ec
07
f6
fc
08
0d
ef
f7
f9
f7
00
f8
fc
fd
fe
ff
ed
07
04
10
03
14
02
f8
fc
fe
ff
00
02
01
02
0c
05
0e
0c
01
fa
ec
ff
0c
f1
fd
06
11
04
04
fe
05
0a
15
09
ef
f1
03
00
00
0e
fe
06
0b
07
ea
07
0f
04
04
07
f9
ed
f8
09
f7
f9
13
01
fb
04
ff
f7
03
f6
02
04
0c
fe
ff
0b
fd
fe
fa
05
f1
0f
07
04
ff
ff
f8
f9
fc
14
ff
f1
f4
03
0d
fc
f9
06
ec
f7
f6
ff
f9
0f
01
ff
03
06
fc
0f
f9
05
f6
01
01
03
0d
f7
05
fa
fc
f0
fe
fd
f3
01
04
fa
0f
fa
f7
04
09
0b
01
0b
02
01
13
04
fe
e6
cb
e1
f6
0a
f7
0a
e1
3c
33
57
e6
03
ea
b7
42
d7
2f
00
1e
81
1b
14
09
06
f2
15
c7
23
f7
13
40
cf
0c
cf
38
bf
fa
10
32
07
cf
1c
fa
83
12
23
f1
f5
04
ec
30
20
28
b6
f3
d9
1d
ec
e0
23
35
ce
22
cf
1e
14
15
e0
06
d0
fd
19
00
d1
ec
d9
27
0e
f2
18
e1
0b
d2
e4
1f
19
e5
ec
ff
ca
f5
31
09
fb
9f
d8
f6
e8
11
08
f3
0f
19
d3
1f
cc
be
f2
cb
09
27
60
fe
fd
c2
b3
ed
f0
b3
18
e7
d5
4c
e2
ec
2a
fa
13
f8
ef
0d
0f
03
04
14
0c
1a
e3
cf
ff
e1
d5
02
dd
02
f1
d1
e9
18
fe
f0
ea
0c
f7
ce
c3
ed
fd
23
dd
0e
02
f0
f5
ff
00
1d
0f
09
11
07
bd
e5
e5
bb
d8
dc
ef
ed
f9
f2
f2
f8
dd
e8
ef
f1
0c
35
15
e2
e8
0d
ff
f0
ef
f6
c5
06
04
3c
e2
04
0c
e4
ce
ef
db
fe
fc
c8
16
0b
f8
0a
f3
05
04
03
ff
14
f1
0d
f7
04
f3
4c
13
f9
f4
e9
e7
ff
d2
da
e7
c1
e9
02
0b
f2
10
ed
d4
d5
d5
fd
fa
0c
e6
fd
e4
ee
15
ee
09
f5
fc
0d
02
0e
1b
0d
ff
0d
f7
ed
f7
fd
04
02
f9
ff
06
ed
d3
15
07
03
f5
0e
10
e2
e4
f8
0f
fe
05
06
06
fe
f2
1d
09
06
06
0c
15
1f
fe
12
0c
e4
da
fd
f6
00
f1
00
f5
11
ec
fe
f2
00
05
09
27
01
fe
fc
07
e4
f0
f9
f5
0b
f9
42
f5
fa
07
f9
fb
fc
ee
05
f4
fb
fe
16
f9
ff
f4
0a
05
06
f2
0c
f4
11
fc
0b
15
62
ff
f6
fa
d9
06
ff
f8
f1
fc
f1
f8
f5
12
e8
fa
0d
f5
f5
ef
1b
07
0c
fd
ec
f8
e1
17
03
04
f5
01
0b
fc
0a
0c
0a
f8
04
01
f4
f7
ed
01
fb
04
27
ff
fc
06
09
d8
ef
f7
0d
11
fa
f9
01
0a
e9
03
0a
0b
09
f9
23
01
05
0f
06
09
0a
f3
09
06
fa
ef
ec
f9
06
f8
09
ed
2e
f8
03
ff
03
11
f6
0b
0d
f6
07
fa
f4
05
fc
e6
00
f7
24
15
ec
00
fe
00
fa
f8
00
f5
16
05
14
fe
ed
fe
00
02
f2
f1
05
f1
03
f2
fd
16
22
fa
f1
fb
df
08
fb
f0
f9
fd
f3
03
00
fa
ed
fc
08
f0
fa
fd
05
39
0d
fa
01
f6
e1
04
0e
cf
06
16
e4
19
12
31
aa
d3
7f
1a
e3
01
0e
1b
30
eb
09
cc
2f
d4
25
00
09
dd
38
85
de
11
26
ea
34
cb
f2
13
2d
e6
de
0c
ca
d2
fc
69
f7
1a
a8
02
12
a4
31
06
fb
15
c2
43
28
fc
3a
a5
9f
c9
f5
e1
d3
06
ea
d4
fe
06
12
e2
69
fc
96
07
18
09
f7
2d
1c
3c
a0
35
08
57
d9
5b
e1
3f
9d
3c
e8
ed
96
f7
d8
cf
28
fe
dd
fe
10
37
f0
fa
fb
ed
e2
0a
ec
cf
87
41
bd
4d
0e
cb
18
f0
ea
12
f5
36
10
62
f5
2b
22
f4
52
05
e6
f4
34
c3
b7
ed
2a
18
10
db
f7
1a
2c
fd
0f
e9
18
f1
20
12
e8
00
f2
db
0e
55
fd
d2
dc
e1
d1
01
12
19
fe
00
f6
10
ea
09
eb
f6
ca
1d
06
d9
f4
f6
fa
fb
f5
2e
f7
ef
0e
d7
e3
eb
1c
c0
f2
ed
de
09
fe
12
f7
12
4a
02
af
ff
27
0a
e3
0a
e6
15
f1
18
06
05
28
e3
17
0a
d3
24
05
d7
ff
21
e4
d7
b0
04
d5
ff
08
1b
d3
fa
ff
d5
f4
41
05
ce
c3
1d
e3
3d
0f
f1
fa
fa
02
de
08
1f
e3
11
2f
16
10
0f
1d
03
04
f7
07
e6
f9
e4
0e
17
fe
fb
14
13
13
05
09
0d
21
08
01
0e
ff
f5
f5
e7
16
2b
f9
df
ea
ef
f5
04
09
06
fa
fd
fd
1b
f5
02
fd
fa
08
1a
09
04
03
07
0d
eb
fc
0a
fc
e9
f5
fa
f2
ed
15
e8
f1
f2
f3
0d
09
0b
fb
19
2c
fd
c6
fa
14
18
ee
00
f7
05
09
0f
02
02
1f
f3
0f
04
ec
00
00
dd
0b
02
e3
03
e4
f8
de
16
16
08
00
ff
ff
f2
ef
0c
0f
f9
ea
08
fe
f7
0c
ee
f5
03
05
08
0a
10
fb
fe
1c
12
fe
01
fc
02
01
fa
02
e4
f4
eb
09
13
07
fa
16
0c
14
f0
02
02
18
00
07
f4
10
e8
ff
eb
17
15
fd
e5
f7
e9
05
00
0e
0f
f9
ef
f6
04
05
f7
ff
ee
0a
03
ef
f0
03
f1
fd
ed
f3
0c
07
fc
f1
0b
03
ee
0a
ff
f3
01
f8
03
02
fe
ff
17
1c
f9
d7
02
f7
0c
03
f1
ff
fc
ff
0d
0d
0f
0d
f5
10
f3
fa
fe
07
e9
07
fd
fe
10
02
f3
06
04
13
ff
ed
ed
02
fe
f4
0d
00
08
f9
f8
02
f9
ff
f5
e8
03
fb
11
14
13
03
ff
01
12
23
c6
08
01
ef
da
df
12
eb
d7
da
42
06
ce
e9
f2
0b
19
f0
1c
f2
04
fa
0c
43
63
e1
de
e5
ed
df
ff
01
f5
09
46
2d
17
07
4e
f8
ed
b3
c0
ff
2f
fc
0f
07
fd
4a
0d
05
e5
e1
05
12
0a
ee
25
e8
1e
2d
cb
49
d0
f0
e4
cd
19
33
f7
e2
22
ec
ec
e7
89
68
d8
13
d8
1a
ed
fa
e9
1d
f0
c1
21
7f
10
0b
09
ea
fd
f3
25
02
c7
e6
f9
16
e6
f5
da
07
f6
2a
ef
08
ff
15
d8
ff
0d
11
3d
d8
21
19
e0
08
3c
dd
d0
22
e9
1c
13
ff
ff
02
f9
fb
13
0d
00
02
14
ee
0a
09
0b
f3
fa
fe
fb
e7
0e
0a
ff
11
16
f8
05
ea
fb
f6
09
0a
08
e5
09
07
07
fe
0a
f9
03
00
f3
0a
ff
27
f4
0e
07
0a
04
fe
06
f7
17
f5
f9
06
0b
fe
00
00
04
1c
15
ff
0c
ee
03
fe
13
f2
1b
0b
f6
f3
09
46
f9
06
f9
fe
ec
01
fb
f1
14
19
08
47
09
f9
0d
ef
f2
11
18
f6
ea
2d
f9
07
06
e5
04
13
11
0d
13
fc
03
02
07
00
11
e5
1c
ef
03
08
0e
f8
fd
f1
fc
f3
fe
03
0e
ff
fc
ff
fa
03
06
0c
fa
fe
0e
ff
fe
09
0e
f5
ff
ff
f9
f9
00
07
f6
10
01
fe
f9
f4
03
f8
08
03
0b
f7
f9
00
0e
ee
fe
01
07
0b
17
02
01
0f
02
05
01
0c
f8
fa
fd
fc
08
04
fa
0c
06
13
0c
fb
02
ff
12
f9
07
fe
09
f5
12
fd
03
08
fc
f7
08
0b
f7
03
0b
09
ff
ff
02
f7
0c
07
03
0a
0b
fd
0a
08
fb
08
03
f1
ff
13
fb
0c
fd
ed
08
0f
16
07
fd
00
10
04
05
00
ff
05
f7
fe
0a
0d
00
ff
f5
0a
03
ed
f2
fd
fc
fd
fc
01
f1
02
07
00
f6
04
0d
02
f9
f9
01
00
f5
00
fb
f7
f8
01
08
0d
fd
02
f9
f7
fa
06
09
02
fa
04
fa
07
07
f3
f2
02
02
09
11
fc
fd
06
08
04
05
0a
07
fa
fc
fc
fd
04
fa
10
05
0d
fd
fd
ff
05
0a
fc
04
06
fe
f8
04
04
09
fe
f8
00
fe
06
f9
0a
01
00
02
04
03
fe
0b
05
08
06
00
01
06
02
fd
04
fc
f8
ff
02
fe
0c
f8
f3
fa
06
09
ff
02
00
10
fc
09
06
ff
ff
f7
06
f9
fb
f3
fd
00
0b
f5
00
ef
e5
49
1b
ed
ec
df
f3
23
2a
2d
f8
19
e4
e9
31
cf
28
28
f3
15
2a
f8
29
fe
05
54
f6
0a
04
f7
e4
fc
0c
f3
f2
f8
da
d8
0b
2f
1c
ac
35
f0
e3
22
f1
24
07
1c
ea
09
cc
03
d7
05
11
ec
17
07
e8
e9
03
0a
db
0f
0e
f1
fb
e2
dc
fd
fa
fe
02
db
7f
39
eb
e4
f7
e7
01
e3
fa
e6
22
ef
04
f6
fb
04
0d
04
fb
f9
00
eb
f0
ca
fb
11
48
f5
ed
0d
0b
17
24
04
00
f2
fb
ce
18
f4
f8
25
18
d8
f7
ff
ea
e7
e7
f1
12
ef
25
20
19
07
ef
e7
04
28
2f
24
02
ee
09
f4
fd
0f
fe
13
fa
fc
17
00
06
fe
f3
19
f0
ff
fb
d8
f9
ff
12
14
0a
11
1b
f8
fb
26
11
e2
10
e8
0a
fb
ff
09
22
fb
00
ec
ef
19
f0
f0
06
f0
0a
ff
ff
05
08
08
02
25
ea
fa
f6
14
f5
f5
e2
0c
ef
00
42
2a
f8
e8
f2
e4
07
25
f8
08
ff
f3
d4
fa
0f
04
f7
ff
1b
f6
01
fe
ef
07
1c
0f
20
07
ff
01
14
f4
15
15
ff
e9
de
e9
06
eb
15
15
fb
0c
05
07
fa
eb
0f
fa
21
01
0f
01
f9
f6
fc
f3
09
0b
0d
06
03
f8
0c
01
fd
fe
f5
fb
02
f8
0a
ff
fc
fd
f9
fb
fc
07
05
05
fd
fa
0b
06
06
03
01
fa
0b
04
0a
04
14
f8
04
04
ff
fc
07
f9
f7
f2
00
08
03
00
01
f4
f8
fa
08
fe
04
f9
04
fc
f6
f9
fe
00
fe
f1
f2
02
f0
02
23
14
fc
ec
01
ef
00
02
f9
01
0a
fb
f8
fc
07
fc
fc
01
0a
fa
03
fe
03
fe
08
10
fe
01
ef
fd
04
f4
07
0a
f9
f8
ed
ff
06
f8
08
fa
fe
02
fb
01
ff
f2
05
fc
0a
03
08
f9
fa
fa
01
f6
08
0b
02
ff
04
fc
0c
04
f9
fc
fd
f8
fb
f2
f6
05
03
0a
03
ff
00
09
06
01
fb
08
ff
07
fb
04
00
fd
06
fd
06
03
0e
fd
0a
03
f8
f9
f4
f9
fb
f8
f9
00
04
fd
03
fd
fa
fc
09
02
fd
f5
fe
fd
01
f6
00
06
05
fa
fc
05
fc
ff
0e
06
fc
f8
09
f6
03
01
05
15
03
fd
03
00
00
fe
02
fd
06
07
04
ff
00
00
fe
06
ff
ff
01
fe
01
fc
05
05
fa
fc
fa
04
f3
ff
03
fd
00
09
01
06
ff
f7
ff
02
f6
f3
2b
bf
d4
43
1e
ac
2e
2b
c8
df
36
1b
e5
42
f2
b0
09
cd
e5
0a
f8
0f
f5
09
01
e3
11
3b
da
d7
df
3b
08
c5
0a
0c
ea
22
2c
7f
c4
ee
fe
dd
04
d7
bf
f7
1f
ef
e6
f5
e4
37
01
eb
00
01
ee
d8
ca
19
01
35
7f
bb
e4
0e
dc
1c
fc
0b
fc
da
0c
37
f9
05
0d
d9
e8
01
c6
02
09
e8
22
1e
31
3f
cd
0f
17
f4
2f
f2
26
17
f3
39
df
e8
03
f4
cb
19
df
e3
ca
f9
09
f7
2a
28
45
0d
dd
ec
2c
d8
32
10
e9
eb
a8
0b
ed
d0
1e
01
f7
1a
1d
de
ed
05
50
21
ec
f3
f6
13
fe
56
e7
f7
fb
fd
03
fe
fa
05
09
16
02
10
fc
c4
ec
1c
ca
0d
f1
3c
f8
e4
37
07
e3
eb
fd
e0
e9
ed
e3
d8
18
08
fc
09
dc
13
15
33
f5
d1
f0
01
e0
03
dc
16
5d
fb
0a
3c
c9
02
e6
0e
0a
0e
1a
0a
f5
ee
fc
0a
f2
15
15
03
fe
ed
24
0b
fc
1a
df
0c
08
e4
2a
ff
14
13
e4
26
13
fd
f6
ea
d2
e9
0b
1e
df
ee
00
ef
02
ff
ff
10
f4
05
fb
e8
22
fa
f0
29
f6
13
e8
06
fc
02
fc
fd
f9
fe
eb
12
29
0e
f8
f4
f7
0b
05
41
f5
01
02
f5
04
01
03
f8
f7
06
f1
02
e1
e9
eb
05
ee
06
05
0b
fd
f1
33
02
fe
e9
02
ef
f4
0e
0c
f6
18
fd
fc
08
f0
03
f6
21
02
f5
00
ff
fa
03
ed
f5
31
14
00
0f
fc
08
f9
09
08
fe
1c
02
0b
01
ff
05
f0
0c
08
fc
09
0d
18
f7
f6
0d
00
19
08
f2
0a
01
0d
0d
00
ec
19
08
f8
f8
f8
fb
0d
08
f9
fe
04
02
ec
00
eb
ff
01
03
fa
f7
0c
01
ed
09
12
09
f2
f6
ef
03
f6
f4
03
05
f8
1a
10
0a
f8
fa
04
07
07
2a
04
ff
fc
fa
02
fd
05
0d
01
0c
f4
fb
e5
00
f6
fe
00
0b
f8
04
0b
03
14
f8
00
03
11
eb
ed
11
1a
f4
0d
11
f8
04
eb
fe
fd
1a
fd
07
08
02
f2
f9
f2
fe
21
15
08
0a
fc
fb
fe
01
05
06
0c
06
0f
00
fe
07
ef
0c
09
0d
06
09
0f
ed
0a
00
05
0b
f3
02
05
f7
04
0a
07
dd
f4
02
0f
f5
00
fe
07
fb
eb
03
03
09
f8
04
05
fc
ef
0b
09
03
fb
f3
eb
10
04
0d
03
f9
2c
e0
2d
ea
da
22
03
2f
d0
d3
c0
1a
51
e1
dd
ee
11
3e
02
f2
f3
db
3b
0d
08
c8
19
f3
30
c4
e7
de
f6
c5
f4
ef
4d
c9
f6
da
32
d2
a8
3b
ed
08
64
c9
fe
4e
40
ab
1b
fe
ca
4e
f8
00
20
2d
eb
d2
a9
0a
02
17
11
f6
ea
d9
f4
ef
d6
e8
bf
03
02
b3
f2
20
3f
d3
fa
e9
ea
e4
dc
f8
06
ed
dc
d2
e8
e4
1c
3d
bc
c0
e7
ed
41
c7
0a
08
ce
48
29
ec
be
f3
02
23
15
42
28
22
40
13
1d
1d
17
16
7f
03
1a
e8
3c
8f
16
fe
09
e2
c4
26
11
d3
da
f6
e3
e8
0a
da
e9
d6
f8
f0
fa
e5
f1
fe
e7
09
0c
f6
fe
eb
f4
bc
f0
da
1f
eb
f6
d4
28
d7
19
fb
19
c8
ef
11
f8
bb
fe
e1
96
0a
05
c1
18
e5
d3
16
12
13
13
f0
f7
f9
b6
01
dc
0a
11
ec
ec
da
e0
f2
ed
de
fe
1e
fe
d5
c5
f4
31
f9
e1
e7
fa
da
d6
ff
f1
ef
e4
f3
05
01
f3
1c
f8
d8
e0
ca
23
ea
0e
ee
05
11
fe
f7
f8
c5
05
1e
01
fb
19
27
16
26
fe
ee
08
f3
29
e2
f1
11
2b
0e
fa
09
ef
ea
e7
13
f8
f1
f9
0f
04
f8
fb
e9
08
ff
fc
f0
fd
00
0b
f8
f7
fc
06
ff
01
fb
f5
ea
0b
e5
03
fb
f7
f8
10
fa
05
f3
0a
ef
06
13
10
ec
0b
13
d9
ff
04
eb
07
ff
fb
04
01
11
09
00
11
f6
d5
f9
fe
12
0c
04
fc
f8
f0
fa
0c
e7
0f
12
ff
fe
fe
f2
1c
0b
09
e9
01
e5
eb
fd
e6
fe
ff
08
01
fd
de
0d
0b
fd
e3
e0
1a
fb
09
f3
03
fe
06
11
12
e2
09
1c
09
f5
12
08
21
13
0d
ef
07
07
03
f5
fe
0d
0a
12
03
02
ec
e4
f1
08
f4
00
f6
13
08
f9
f4
f2
06
fa
03
f8
e9
fb
05
f6
f5
08
04
ff
f9
fa
e4
ed
01
ec
06
f6
f7
fe
15
02
ea
f7
fd
05
06
08
09
f1
09
11
f3
09
fd
f9
08
12
ff
ee
fb
08
f8
fd
00
0e
ea
ec
03
09
09
fd
09
ef
f7
01
06
04
0b
fc
fd
fc
14
e4
06
07
01
f2
fe
e7
03
04
f3
f5
f8
12
08
f9
ef
ff
0a
07
f3
ff
07
fa
06
ea
fe
02
06
23
0b
fb
11
13
05
fb
02
0e
12
ff
01
d9
e4
fd
0a
f9
02
01
04
26
06
be
04
0e
f3
cf
1d
de
e5
02
fb
ea
e0
29
19
d5
e3
1d
06
d3
04
df
fc
08
08
e3
d5
ae
eb
e1
0d
1b
1a
dd
1d
0d
7f
42
27
de
e9
03
aa
bd
f9
e9
fd
f8
ec
1a
08
e0
c9
bb
07
16
1d
ff
d2
0b
a8
20
12
c1
06
e8
17
12
08
f5
ff
2f
b2
df
fa
f2
15
0d
0e
1a
e1
35
d0
2a
e9
0c
00
0a
fe
3b
07
21
e5
ca
40
70
eb
09
eb
01
f6
05
11
1b
09
01
77
31
28
db
00
e6
c5
a5
07
05
f4
c0
ef
64
f9
e1
09
54
dd
22
e8
15
e8
ff
06
ff
fc
fa
fb
ce
fb
09
de
ea
f4
0d
f1
e3
f8
ff
01
08
25
0f
1a
03
f5
00
0d
07
fa
fc
ea
01
ff
0c
11
10
11
1e
37
16
e6
da
05
f8
11
0b
fe
00
f4
10
fa
07
0d
f1
0c
fb
0b
00
ef
18
0e
00
f5
ee
06
e5
06
ee
20
fe
04
ff
06
e3
fb
f2
05
ed
f2
02
f1
f5
fc
1e
fb
f6
10
ef
11
06
0b
dd
fb
ef
09
32
e5
03
f9
e5
c6
20
f2
10
25
e0
36
04
0b
d6
f4
14
d8
f5
e5
fc
fc
e2
f7
28
fb
f9
0f
1f
fe
f7
21
0f
fc
f5
0d
0c
f9
ff
f4
e1
ff
05
ee
e3
0f
0a
f4
03
fc
ed
fd
ff
0b
11
08
05
02
06
0f
ff
1c
03
f2
ff
13
09
03
11
04
0c
15
04
eb
fb
10
fd
12
06
f8
03
01
0b
00
ff
0e
fa
03
00
07
ff
fa
05
07
ff
f9
00
04
f6
fe
07
05
10
fa
ed
fe
f8
f9
fd
06
fb
f4
f8
04
04
02
0d
01
ff
fd
f2
0f
08
11
e7
fe
fd
04
06
f4
fb
f8
f5
f5
04
f1
04
1e
f5
15
03
02
f6
f9
06
e3
09
ea
f0
0b
0a
f1
03
02
f6
08
0b
fe
fe
0b
fa
ff
fb
0d
03
f5
fd
02
04
fc
06
e7
f5
0b
0b
02
00
f8
fd
fc
fa
03
01
fd
f9
10
02
0b
00
13
ff
f4
fd
07
07
02
03
00
03
fe
05
f7
fd
fc
0d
fc
0c
ee
03
fe
03
03
f1
0a
f6
00
fe
0b
fe
f0
0e
07
03
f4
07
05
fa
02
04
fe
08
0e
f6
ef
09
f1
ff
fb
03
ef
f7
03
01
09
fd
01
08
03
fc
07
04
06
f4
fb
02
05
fe
f8
ef
02
01
01
fb
ee
0f
0c
fa
0c
ef
0e
00
fa
06
ed
01
f4
ef
13
06
00
07
fe
00
07
fe
fa
f8
08
f8
1e
20
38
b2
1b
c8
ab
4e
da
45
32
22
eb
1c
7f
12
cd
f4
25
d1
f0
07
51
f5
00
cc
ff
52
42
2c
13
59
fe
ff
27
d2
53
0b
2e
de
af
2b
ec
bf
03
1e
e7
de
be
f6
ec
be
d5
cb
35
29
e4
db
d4
43
ef
a0
01
db
07
4d
33
e2
ec
1f
e6
f6
c1
1b
1f
e1
e1
20
0c
33
0a
17
0b
dd
10
19
1b
16
be
dd
33
de
f3
10
f0
ff
30
29
c7
fc
14
06
a8
ff
09
ed
46
8d
fa
f7
f6
f9
11
fd
08
5d
03
0a
19
f0
3d
ff
dc
f3
bf
2b
ea
d6
f0
f5
e7
e9
eb
00
d0
2c
06
14
30
ed
f7
24
36
f2
ed
fa
0c
fd
d0
00
ea
ff
f7
da
07
2f
16
2e
15
1d
14
fa
05
fc
fd
1f
14
ec
df
02
f2
e7
fd
fc
dc
d9
e9
02
06
eb
11
06
0c
f3
09
fa
f1
1d
f6
de
1b
21
f3
14
fc
e4
dc
0e
e3
f6
e3
06
2b
f6
fc
19
34
17
0c
ed
00
fb
fc
ff
ee
10
f3
d2
0d
21
f7
13
f0
fb
17
20
27
f9
0f
ea
dd
0f
f6
06
13
cc
f6
f8
e3
ff
f7
34
e0
52
e2
f2
f2
0e
19
19
ef
fe
fc
24
f3
e6
ef
00
ef
ff
f7
15
f3
00
0b
07
14
f5
fd
00
17
fc
f4
02
0d
fb
f8
fd
f5
0a
fa
ef
ed
00
16
14
fc
07
08
fc
f8
0d
f1
f9
fa
f1
f6
f6
ff
e9
fb
f9
fe
01
ff
00
05
00
12
02
0a
f1
fd
08
fb
ff
00
f1
fd
25
f3
fa
f7
e8
fc
05
fb
15
f0
0c
08
fb
f9
03
03
0a
08
04
01
01
0a
fe
fc
01
10
ec
fe
1a
05
02
f9
f5
0a
04
10
0d
ee
f7
e6
ff
e1
03
fb
fa
fc
f7
f1
04
fe
1e
04
39
f2
f6
fa
06
05
ff
ff
fe
02
17
f0
ef
f3
09
fd
f9
0d
03
f7
01
0a
05
02
02
f2
f0
03
03
f7
06
fe
ea
fc
00
08
fc
f9
f4
ff
05
1a
09
fd
fb
0d
ff
fe
00
eb
f4
f7
ed
f1
f8
f6
f3
05
04
fb
08
19
03
ff
02
09
fe
0a
ff
f9
03
02
f9
fe
f6
fb
03
00
e9
fc
f4
fd
04
fd
0d
f1
10
0b
01
fd
fc
07
0b
02
f4
f7
fc
fa
fb
fe
07
00
f8
fa
0c
f4
03
ed
fc
07
0d
0a
03
f8
f8
00
06
f2
f8
ed
f5
03
ee
0a
09
fd
22
ff
25
fe
02
05
00
07
05
09
fd
00
f7
fe
f6
ed
d6
13
eb
df
f1
27
3b
07
0d
0f
40
ed
17
1e
fe
30
f4
f1
32
fb
14
d5
0e
a1
f3
fb
09
e5
14
f4
e1
0f
d7
09
f2
08
d8
14
25
0c
fa
f7
f4
e6
00
03
03
dc
00
ea
28
c9
ee
15
03
1e
e7
d6
ea
fa
7f
c4
15
e8
1d
e2
02
d3
26
07
19
0e
1a
12
14
ef
eb
47
df
fa
e9
0b
e9
0f
0a
e5
02
d6
d5
0c
30
29
14
ec
e1
3f
d7
19
f9
15
ca
d1
05
ff
28
03
f4
10
27
17
da
f3
a8
0f
fb
1d
bd
dd
14
48
fc
2c
02
dd
0f
d3
1e
f8
e1
fa
f8
0c
e8
f7
2b
04
15
16
fd
fe
1a
0b
dc
30
fd
f8
34
f6
fe
e7
fe
f7
f6
de
17
e5
06
05
08
0d
f5
12
f8
12
d3
0f
f6
fd
1d
ff
f8
27
0c
19
fc
d3
1d
00
22
ef
e2
00
15
05
0e
02
fe
e8
59
e4
fe
f2
33
ff
42
c2
04
fe
07
dc
fa
1d
17
16
eb
2f
0c
0a
1b
18
e6
01
f5
e7
ed
dc
de
07
3e
11
0a
fb
ee
e3
c6
ff
08
ff
d7
09
f5
07
20
f5
f1
26
03
04
03
e4
d1
23
00
04
f0
01
fd
05
12
fa
04
ec
0b
d1
0c
f7
f2
02
fe
05
f7
ef
03
05
18
0c
e7
04
11
0e
f3
0d
f1
05
1a
fe
03
03
ff
15
fa
eb
0c
fb
f6
fc
07
03
06
15
fe
08
fc
f9
00
f8
14
03
f5
fc
fb
ff
fe
eb
f9
01
17
f8
ee
0a
0c
18
10
06
05
f4
1d
e5
09
f5
22
fe
1f
d2
ef
f5
00
f5
eb
0e
08
1b
fe
0c
02
0b
0b
01
00
ff
fa
fe
f3
fe
f9
02
14
07
02
fc
0e
ed
ee
fc
f9
22
f9
06
fe
0e
fe
eb
0a
1f
f8
04
fd
ee
ec
05
fa
0f
f7
fe
f8
fe
15
fe
02
f7
02
04
fe
00
f4
0c
ec
fc
f4
f6
fb
03
13
0a
f5
fd
0b
09
fe
13
f0
08
fa
fd
f2
0d
fd
17
f8
ee
fa
f2
05
f4
fa
0a
07
02
02
f7
01
fa
00
f2
fc
00
f7
fa
00
fd
03
08
f9
00
15
f3
f2
04
01
10
0f
04
0a
ef
20
ef
fc
f2
15
f6
03
f6
f1
02
e1
fd
f8
ff
f9
26
f4
00
00
00
05
04
00
07
ef
fd
01
0c
f5
ff
01
06
02
f5
09
f8
f5
03
fc
0b
fe
fc
f9
0c
03
f4
06
16
fa
09
01
f9
f4
06
01
09
00
09
02
f3
00
fe
07
15
f6
1c
06
de
21
2e
f7
28
1e
c4
e6
33
0a
02
4c
da
ef
3b
f7
01
f7
f5
3c
2a
e6
49
02
e0
14
bd
fb
c2
ed
44
0f
2e
fa
0f
0c
06
cd
06
9b
2e
08
ab
f0
02
a5
24
96
e5
2c
10
cc
0c
d2
db
00
ef
4a
c9
53
06
2a
40
f0
04
1d
b2
5c
13
f7
eb
d8
e9
48
2e
ff
19
0c
c3
fc
f3
df
49
d7
f7
d6
36
d7
30
de
17
98
02
ea
01
d4
29
16
2c
3e
ef
77
c0
11
cb
7f
f5
fa
d4
45
eb
ed
e1
eb
4a
c9
03
cf
f7
03
0f
16
d6
d9
0b
cf
1a
ad
cf
1e
36
1e
f7
da
b7
ec
0d
06
1f
d1
f0
d9
0a
fa
32
fb
f4
1b
2d
ea
03
07
e9
15
33
17
be
cf
14
e2
f1
01
33
f6
1b
f1
fb
d7
ff
ee
b7
1a
ee
c1
1c
db
cb
d5
0d
25
13
e1
8c
09
f5
05
ea
21
f8
1d
07
c7
de
2c
f5
41
c2
e6
d6
1a
fc
1b
04
0f
3a
db
dd
f1
ec
16
f0
fb
f9
20
f9
b4
fa
c4
3f
21
14
04
f1
de
04
14
fd
0b
30
10
cf
fc
ea
36
e4
1c
f1
16
f7
07
17
10
34
0c
de
d8
0f
24
f1
04
d6
f2
fe
fe
26
c5
f1
0c
27
15
0f
f3
d8
0f
f1
02
13
d7
fd
de
fb
0d
08
00
0c
12
17
fd
e9
0a
15
03
1f
fb
d5
ef
04
e8
f7
fa
13
05
04
04
f9
ee
0d
e9
fa
0b
e1
f7
18
dd
df
f9
0a
18
09
fa
c4
fc
21
23
f9
28
f7
fd
08
e1
d8
01
f3
0e
cd
e0
e9
00
05
03
1c
fc
12
da
01
fc
ee
0f
01
0b
fc
10
02
e4
08
e2
12
0b
05
02
db
f5
f9
09
08
fa
1d
0f
fe
0b
f0
09
f7
13
04
ec
05
0b
0f
04
12
07
fc
f6
07
fc
10
ed
df
09
06
f4
0b
e7
06
0d
34
14
13
ea
e1
0b
01
0c
fe
e2
ef
e6
fe
09
f7
fd
0c
11
00
ff
f8
ec
1d
09
0c
ea
f9
04
0d
fc
f8
10
0d
fb
fd
01
fe
f4
11
e6
06
11
e0
05
18
e7
fe
02
04
11
f3
f4
e2
f9
14
1c
fd
20
01
ef
fd
d2
e1
02
fd
ed
eb
f2
f8
05
fd
fd
20
ed
0b
e2
03
fe
fe
11
f8
04
00
06
fa
e4
16
f3
18
fa
00
01
f2
fc
fa
03
09
08
15
fa
fa
04
f7
e9
eb
10
fe
d6
05
07
12
e4
0f
fc
12
f8
f8
07
17
14
fb
0c
fd
fc
04
01
4d
81
1d
01
ef
e0
c1
20
fb
2e
08
0d
d7
2d
fa
17
ea
1a
de
f7
08
0b
ea
00
d3
dc
e3
e3
f3
f7
09
e7
f4
21
13
1b
16
26
ec
14
ff
0b
e1
07
1b
07
dd
f5
0f
d9
f4
1d
f3
