0c
26
ff
1b
1d
d6
f0
03
f1
0a
e4
ca
9a
02
0d
fd
1b
03
fa
df
0b
24
4f
e6
f4
9d
fa
f2
18
1d
2f
5e
0f
a8
14
fd
38
e8
fa
0b
2a
c9
10
81
fa
fd
c7
19
5a
b2
05
eb
fa
ec
e8
b7
f7
08
f7
05
f0
02
06
2b
f5
03
03
00
f5
05
fa
f1
04
7f
03
fe
01
0a
00
02
04
07
04
f1
08
f3
08
0a
10
02
ff
0f
f8
fb
05
f3
ec
08
fc
f5
0a
fe
fe
f7
f2
fa
f3
06
fc
f8
fe
05
0e
09
f7
f3
ee
01
ff
05
f4
f9
f9
07
fa
df
03
fe
f8
ea
22
0b
0b
7f
1e
fb
e7
ff
d7
ea
22
ff
0e
02
10
00
1a
07
0f
04
14
f5
0b
0d
07
00
27
1c
da
1d
00
0a
13
fd
0c
e6
ff
ed
f3
b6
fc
2c
24
00
d4
19
52
f8
03
1d
05
12
ec
ff
1d
07
0a
d9
14
ff
60
0d
17
03
ed
26
30
81
01
ca
c0
f1
c5
2d
4d
0f
f8
ee
2e
dc
e3
4d
37
0b
0a
45
1d
f2
e7
0c
43
58
13
1c
0b
fc
6d
29
d8
07
0d
0b
fc
bf
38
fe
0d
fe
ee
2a
4b
e6
15
e3
fb
ba
fa
24
34
fb
33
f0
f2
08
ec
07
18
07
f4
08
eb
19
22
fc
21
ec
fb
01
0e
81
01
1b
0e
1c
f5
0e
12
12
12
ea
b1
0d
ef
b0
04
fa
f3
0a
b5
2f
01
bd
f6
e8
36
ef
fa
04
71
ff
06
e1
09
07
fc
f0
b1
ef
31
0a
06
ff
05
32
58
14
01
4b
0d
05
3b
e8
06
f5
26
13
57
b1
7f
ee
14
42
20
fa
21
f6
b9
e2
f0
fa
1a
cb
04
b0
04
df
f5
e8
29
0a
2e
c7
e9
69
0c
0c
db
c3
eb
0b
b4
ff
b9
07
f9
41
df
e7
06
0a
eb
f9
01
da
f7
d5
32
e0
10
ff
1f
63
fb
82
17
4d
ff
2e
81
1d
6a
13
45
6a
09
d8
bf
11
ec
09
27
fc
2e
e3
7f
71
29
cc
a2
5b
0e
c2
e2
03
01
ed
fd
39
d8
4f
28
ff
b9
14
bd
df
14
51
2e
63
12
f1
83
37
08
26
b3
26
ea
d9
06
b1
4b
1d
b4
6b
14
1d
f1
0b
01
02
f6
f4
05
f9
fa
f7
03
fd
02
0a
f9
fd
0b
1f
ff
0d
f6
08
ff
06
04
0f
fd
02
0f
00
06
03
81
f2
08
18
fe
fa
07
fe
01
f7
0d
f7
08
05
fa
05
0c
f6
09
fe
0a
0a
fc
f2
fc
f2
0c
00
02
0f
0b
f8
1b
22
ee
bd
da
d3
f6
37
4e
2d
f1
e3
df
08
f0
f5
13
04
81
e2
1b
01
f9
fc
f9
04
c3
db
13
27
e0
00
fa
11
a4
ef
f2
25
fe
3e
21
f5
fa
f6
1b
f9
05
17
18
f8
00
c4
23
09
fe
03
fa
1c
fe
28
f4
11
fd
04
38
04
ff
fe
49
e6
0f
fc
10
7f
03
f6
f0
e4
06
c1
d2
d2
35
2f
ee
3c
0c
0b
a4
01
12
35
de
0a
16
09
b4
02
f6
00
f2
ea
fb
e5
fc
1a
ec
fe
08
26
fd
f7
f5
08
e2
fe
06
f2
01
13
12
d1
ea
14
ef
07
38
01
ed
fe
fd
05
ff
17
0a
07
10
13
00
05
fe
55
00
1b
02
f9
f9
fa
e8
f8
06
03
eb
00
04
ef
02
fe
00
01
f8
0a
fe
08
05
f7
34
fa
05
03
e0
04
f9
0a
fc
ff
ff
07
1a
03
81
00
05
fa
fd
f7
0a
fa
fc
f8
f9
fd
0a
f7
1c
f7
fc
12
11
f6
fe
09
dd
14
f6
0b
1e
01
07
f6
0a
29
7f
2e
19
27
0a
0a
f5
08
08
20
00
24
13
08
0a
15
11
fd
05
06
22
df
16
07
01
14
f0
07
0a
d5
07
fe
09
fd
ed
11
32
f8
15
0b
0c
fe
25
12
14
15
dc
fc
2a
10
01
ed
f0
fd
e4
1b
a9
00
ff
04
03
04
fd
ee
fb
ff
56
dc
07
81
f5
fc
0f
14
f5
22
02
97
15
f8
23
f3
f7
09
33
d2
00
81
23
f7
d3
06
42
a9
fd
e9
ea
d0
35
c2
e2
ff
ec
f2
ed
00
f1
2d
0d
41
d0
b2
f5
e8
12
56
d2
14
81
cf
ec
08
00
00
26
fa
a1
f0
ff
09
1e
fb
1b
25
9f
fb
31
49
bc
74
12
2f
99
fa
10
3a
00
5f
56
e2
18
de
2e
f4
1a
26
35
e7
12
86
10
14
11
13
ee
19
f9
55
f4
00
fb
18
00
15
f8
f5
dd
e7
1e
06
f9
db
f3
f2
f2
77
fa
cb
00
e7
0f
22
1e
23
ee
09
07
fd
0d
d6
f1
07
fc
05
d2
f0
e9
b8
06
0a
13
06
05
01
4d
f5
1c
d8
f1
f5
fd
f7
81
fb
05
e6
05
18
03
0f
e2
02
ff
46
0f
17
05
05
fb
01
07
e6
0a
e8
fe
01
01
07
14
12
04
0a
01
0f
f2
0f
f5
f9
01
fc
fa
02
fc
ea
08
00
09
03
06
08
03
14
fd
f4
fa
02
f4
fc
fb
fe
0c
0c
04
09
11
fd
08
fa
19
13
04
0b
02
fa
81
02
fb
02
21
03
09
1f
f6
0c
1c
e7
fd
03
02
0d
e8
f5
aa
05
11
02
22
0b
f3
dd
0f
0e
54
db
f6
9d
ec
f1
13
17
2d
4e
08
ad
0a
01
22
f0
f6
12
27
c7
10
81
fe
06
cc
0f
52
ac
01
e9
fa
e6
00
c3
f5
04
f6
fe
e7
04
fe
26
04
ef
08
e5
e5
d9
15
02
21
ec
f5
05
ff
81
0a
bd
09
6b
13
20
08
f8
06
09
42
00
09
14
11
fe
1a
05
1e
07
ec
f7
10
fc
02
f4
f8
fd
20
ff
14
71
0e
07
06
f9
09
e9
b9
ee
f7
0e
02
e4
30
0f
08
fa
12
fa
0b
4a
c9
35
31
cc
a5
12
5d
f7
5d
38
ef
fd
cf
ff
2e
fa
c7
01
eb
1e
06
f3
fc
1d
df
06
02
cc
fb
7f
06
ef
35
e3
e5
3f
ef
1b
d2
4a
dd
f6
00
f2
03
16
a0
61
e7
00
f6
0c
10
02
e6
05
d9
43
e4
de
92
f3
81
02
fe
0c
04
e0
01
04
01
0f
00
05
ee
fb
0c
f6
09
fb
28
03
fc
12
0e
f1
f7
f5
f7
91
12
fb
16
fa
1e
06
06
11
05
f5
0b
02
0e
00
36
fd
12
fb
fb
f6
04
f5
32
09
fc
fc
ff
00
0d
fb
00
f5
ed
f9
0c
03
e6
11
d8
f8
26
33
b9
e6
0b
db
22
d6
b6
f3
db
f8
d1
ef
b7
62
25
de
d7
18
f3
ee
00
ed
ea
ef
02
85
f7
0a
01
df
e6
7f
ff
00
d3
42
0a
f3
b2
f2
19
c9
d6
fd
f8
15
cf
22
0c
08
0c
f1
c1
f0
46
fd
d2
e7
0d
58
e7
a8
04
ec
01
63
a6
fe
81
d9
f4
0a
1a
0a
18
f6
b8
ed
f3
04
18
15
18
26
aa
fc
2c
42
c7
66
10
14
a1
f8
04
41
fe
54
44
e6
0e
ea
1f
f5
0b
2c
34
e8
11
83
13
0c
09
0d
03
1c
fb
42
fa
fe
fb
2c
0e
f7
1d
15
e2
f9
c9
42
81
f3
02
d5
2d
29
ff
17
46
fb
f6
03
c7
55
0f
09
2d
02
08
25
ca
f4
25
0f
20
b6
02
0a
ee
21
06
25
34
0a
f8
d0
4b
19
ee
fe
24
e1
0e
f2
06
cd
e3
1d
0a
f9
fa
fe
13
d2
f9
04
1f
e6
fc
0d
d4
ce
f3
10
fa
02
f1
10
e5
76
fc
c4
00
e2
53
23
f9
ea
07
30
1a
ef
f6
2d
13
fe
f0
fd
02
0f
11
a9
06
f4
a7
e8
06
ff
19
fe
12
0d
e2
10
28
07
c7
fb
88
14
01
f7
07
16
7f
ef
19
13
33
fe
04
18
da
29
e2
48
e3
a4
7f
1e
3e
d1
e2
0a
6e
c5
15
19
ea
0f
10
e2
e4
f9
e0
05
1c
02
25
f5
ec
e7
e1
21
12
f7
d8
36
f6
0a
f0
18
d7
0c
0e
f7
fd
01
e6
1e
f2
5a
f4
19
1d
ff
f1
03
e5
df
0c
00
df
f8
2e
02
03
10
f0
f0
0b
01
fd
e4
00
05
fa
e6
09
01
f0
18
09
04
06
08
02
06
fd
03
fb
03
f8
fc
03
00
1a
fc
09
18
12
f7
11
03
f8
01
1d
00
01
81
fa
05
02
09
18
fb
1f
06
fd
00
f6
ec
1b
00
f6
c5
17
0c
f6
fe
06
07
f4
ec
f7
fb
fb
08
ff
ff
fc
f9
fc
13
05
1a
f8
0f
0a
19
fa
15
f5
10
00
02
fc
ff
f9
fb
11
f9
06
fc
f7
fb
f4
fb
01
f6
20
f5
00
0e
02
05
fc
0e
f2
fe
10
ff
ff
0c
03
81
fb
00
0d
2b
0d
03
0a
22
ff
1d
21
e6
e9
fd
ea
03
e5
cf
a4
05
0c
00
1f
fb
f9
db
0f
1a
4c
e6
f9
99
f1
f7
1a
21
2a
57
0e
b1
13
fb
2e
f0
fd
0f
26
c9
10
81
fc
ff
c8
1c
53
ad
09
e3
f9
e7
e9
be
00
09
00
0f
ed
05
00
24
ff
00
00
08
fc
e3
08
fe
f4
ef
fd
06
01
0c
fc
01
01
07
03
fc
fc
ff
0d
01
81
fc
02
14
0c
ff
05
08
0b
08
02
05
08
00
1c
f9
fd
fc
00
ff
00
0c
03
07
0a
fe
fd
fb
fd
f7
00
0f
fc
0b
14
fe
ff
ef
02
07
fd
c7
a4
56
ef
d5
24
d8
d6
20
16
12
22
09
d9
f2
31
f8
17
19
fb
2b
15
fb
08
fa
ec
03
0b
45
1f
14
08
3c
81
12
05
24
03
f4
2c
e3
0f
ef
e4
0d
e3
e6
12
f3
01
52
13
36
89
07
32
ed
15
50
2d
09
2f
0f
fa
0c
24
f2
11
db
33
c7
f3
10
f6
3f
1f
04
1d
e9
eb
02
22
23
ee
0b
32
e5
09
7f
f1
15
00
1f
ea
13
05
09
20
0e
18
dc
0e
37
19
1b
da
15
17
05
1c
e2
dc
c8
ef
fc
13
36
ce
fd
37
ec
cf
12
12
02
0e
1b
0b
e3
44
1f
fd
fd
04
a6
8f
ea
a4
32
36
09
7f
f5
0c
00
23
e1
f6
07
0e
20
0b
fa
e1
17
53
10
32
45
1b
f0
17
11
d6
ee
f8
c6
03
19
1e
11
c3
0c
d2
1c
04
e7
13
36
06
ed
c5
0a
0b
ff
05
cc
e7
08
30
ff
15
00
15
02
07
de
fb
13
04
b5
f5
02
08
8e
07
c0
1b
5d
1d
2c
e7
06
06
24
39
06
ff
01
0b
fa
eb
fc
16
f0
02
22
03
18
0b
ea
11
01
20
00
0a
44
f7
0a
01
f9
26
02
81
f1
ef
06
17
db
2e
fd
10
ff
16
0f
70
f8
1b
29
14
bc
c3
1e
ff
9a
ff
df
d5
46
f4
d7
0f
5a
d6
c4
38
2c
28
ff
3d
22
ff
49
4a
04
06
7f
eb
c9
1a
bb
12
24
b1
f4
e5
06
5c
08
d4
ae
e6
e9
f4
ed
e8
ea
b5
e0
e2
e1
d6
5f
d4
0d
e8
2a
09
08
0b
21
db
b1
04
de
fb
68
ae
07
9b
dc
f8
0c
f6
07
15
f9
b7
ec
ec
04
18
0c
17
23
a7
fd
29
56
cb
6c
11
27
81
fa
fd
31
02
4d
50
e9
13
ed
14
f6
09
25
2d
e5
11
97
15
13
02
09
01
17
fc
59
0a
02
06
23
15
fd
01
e4
24
a9
f0
05
fa
f1
fe
34
03
f3
0c
7f
f4
83
3b
f2
0d
d9
0f
05
26
ef
05
c2
08
fb
ff
e4
10
0c
00
56
fe
09
37
ee
0e
f8
e5
fb
31
e7
ee
e9
17
f2
84
fc
dc
07
e8
05
0f
df
5f
04
0d
69
24
01
30
fd
fc
f9
04
ca
02
02
f0
06
02
fd
07
37
0c
ed
09
0e
09
19
f4
04
fd
10
f7
14
f7
81
f7
f4
03
02
05
fc
0b
eb
04
f6
02
f8
01
08
f1
03
11
24
03
0f
01
11
f1
03
16
fb
07
06
0d
0d
19
00
06
e1
19
ff
16
1c
f5
df
18
54
13
1b
7f
fa
1e
f4
de
09
d3
f5
eb
0d
f5
09
3b
f5
03
e2
ef
14
0e
00
d8
fe
f1
a9
e1
22
e6
10
e5
57
fc
fb
db
56
ad
14
2b
00
f8
e4
c3
14
e5
10
06
15
1b
e5
e9
11
e8
12
e3
19
ae
ea
0a
f4
ff
5c
f2
eb
d8
fa
85
df
03
81
ee
0a
04
fb
27
13
0f
d8
19
64
c6
2c
0f
1b
04
08
2d
ed
1c
28
1c
1f
31
04
bd
d3
fd
06
ea
f4
12
53
ea
1a
3e
0a
ff
37
04
d0
05
20
c2
51
02
09
fa
45
c8
07
44
33
07
21
fd
0a
28
ec
f4
fd
0b
13
e5
d7
c0
02
0f
02
16
f6
f2
d8
0c
1f
5b
eb
f3
b0
ed
ed
15
1e
29
52
0b
b2
06
fc
3d
f3
f7
13
20
c3
10
81
fd
04
c5
13
5d
a4
06
dc
f8
e2
ea
be
e7
02
08
0a
f8
14
f4
28
5e
09
fc
00
0c
e1
28
ce
ef
e6
f9
1b
0f
03
ff
04
f1
00
81
13
d1
eb
f3
e9
12
fe
02
46
1f
13
2b
0a
d2
f9
01
f5
07
ed
21
0a
ec
e6
a7
04
dd
e1
0e
02
08
00
d5
e0
02
1a
f8
fe
02
ea
ea
19
f2
2f
35
f7
4b
df
07
d1
28
e0
bd
47
a8
17
e6
e6
c4
ec
0f
36
f8
10
c4
00
81
07
0a
0e
90
1b
e6
a9
55
fd
05
4d
9d
ea
e6
65
11
28
03
e2
d2
dc
f1
e2
d0
d5
e7
13
0b
f6
e5
db
e8
e3
e6
d6
04
02
e7
19
ce
30
0c
dc
f9
f5
04
05
15
09
c9
fb
fd
eb
0d
ff
08
39
fc
04
b7
64
81
bf
ed
ea
d7
02
0e
ff
ea
28
ec
00
03
f5
f7
02
0a
cb
fb
05
20
f4
d5
26
f5
07
c4
f6
01
f1
f0
3b
f9
f1
48
24
f0
25
f5
0f
c7
13
09
ff
04
d6
26
16
04
e9
36
76
5c
57
5a
ff
0e
40
05
09
e7
f5
ed
34
38
05
fc
f3
d6
f8
0a
0c
30
d4
ab
0c
07
81
c0
34
c5
2d
f4
7e
e2
09
ea
46
dd
5d
6c
10
16
e9
a6
21
c8
d5
d8
24
ff
10
e7
1f
b5
15
d0
2a
e1
1c
9f
f3
f8
df
01
d1
f4
fc
f6
e5
11
1e
0c
a8
fc
de
d8
26
1f
06
df
03
d3
e9
2c
dd
02
7f
14
06
06
ee
d8
c9
02
13
e2
0f
d3
19
fe
0a
e5
1a
03
39
0d
f1
f9
20
e6
0b
dc
ef
06
1a
30
b4
32
ec
ff
21
c8
01
f0
0c
08
04
09
1e
ef
f5
01
bd
00
f1
f0
14
f4
a1
f9
c4
fc
f8
0a
fe
09
0a
f1
16
fe
18
eb
00
08
fb
4d
00
05
fd
08
f8
36
ff
0d
f1
dd
f7
e9
d9
fe
f6
0a
13
e4
fb
5b
04
f3
f5
0e
ec
0f
05
0e
7f
fc
f8
d7
14
06
11
15
07
78
c0
f1
2c
09
48
1e
a7
39
df
f3
41
0e
0f
25
f8
fb
06
f9
e4
f9
9d
04
fc
0f
ec
e4
37
0c
a6
e8
a5
05
dc
fe
f1
7f
09
d9
ff
16
2e
07
0b
40
21
df
de
10
f3
04
c6
fd
ea
c0
63
05
0b
db
04
fd
0e
c8
17
12
19
02
36
f6
2e
09
e2
17
b7
01
44
01
0e
2e
f9
f7
0f
be
00
f6
f7
10
f8
11
f0
06
f1
0d
cd
0a
eb
fc
08
fd
00
fa
e3
f6
c5
ca
f9
1c
f8
30
fe
bf
f3
08
0c
12
5b
0c
fc
17
7f
27
0a
0c
fc
0b
fe
fc
f5
0a
06
16
f4
f6
02
06
7f
fe
e0
02
10
17
03
3a
0c
0b
f9
06
11
02
04
09
20
0d
04
19
09
04
e7
fc
08
ee
0c
06
02
e8
fc
f1
f5
04
00
04
ec
f2
00
01
ef
fe
02
1a
e8
38
13
f9
fd
06
06
0e
36
df
af
05
fb
1a
f8
3c
0b
bc
7f
de
08
0e
07
d6
ff
dc
42
07
2e
5f
12
08
e9
01
02
23
2e
0a
09
f1
04
cb
07
4c
3a
0c
37
49
2b
0d
d8
20
0a
3f
e1
d8
a1
0e
cb
0c
c2
31
15
ff
fe
04
54
94
17
c6
1a
e4
ef
07
e8
f3
3f
07
0e
f3
0f
fb
12
08
f9
17
ff
ed
04
06
1e
81
e6
ee
0d
ef
ee
fb
0c
ed
eb
08
eb
f3
01
01
e0
08
05
f4
f8
f9
0b
00
07
0c
fa
09
fe
0a
0c
f7
17
04
18
05
11
12
f9
05
e3
19
f1
2c
06
f8
ff
08
06
07
ef
fd
fe
f2
ea
fd
04
00
f8
f7
dd
0b
d8
fb
0e
de
f5
11
13
ff
02
0c
f9
fa
fc
01
f4
e0
02
f8
0f
03
ef
09
f2
f5
f9
0a
05
03
eb
fa
fe
ff
07
1f
fc
ee
ff
f9
09
0d
7f
0c
01
06
ed
0e
06
6b
f3
f6
23
0b
96
f5
39
3a
8f
0a
fb
da
14
f7
e3
28
ca
39
ea
eb
2d
0f
12
bc
de
43
7d
14
d5
ed
f8
44
02
ef
28
e0
64
81
d4
3b
0c
ec
e2
7e
a5
d1
11
e8
00
5e
21
a8
d9
01
11
d3
44
2c
c5
ca
ae
fe
29
07
30
37
f6
07
cf
09
de
81
f3
e8
23
38
01
0c
f9
50
0a
28
cc
e9
ed
30
df
18
f7
2e
0a
48
ee
12
3e
16
df
35
08
0e
f1
f3
ec
fe
0c
2f
05
bd
0f
ef
f6
01
f6
17
19
f5
e1
cf
11
23
f9
12
e4
06
07
4c
f0
25
d8
fa
03
f2
e9
f8
10
f4
0e
ec
0e
0a
a7
f6
04
fc
f4
fd
0a
fc
ed
09
12
d0
ff
0f
f3
26
0b
fc
f5
28
ff
08
d7
01
02
d3
f6
0a
e0
83
f5
fc
0e
f7
0f
19
ed
7f
f4
49
10
fd
02
06
de
1a
09
19
17
1e
ee
e5
d2
11
d9
d4
b1
32
5d
41
4e
f1
ff
22
f7
07
c6
45
f9
1e
ce
65
00
0f
0b
a1
1f
1b
ec
d7
04
d4
e4
d2
7d
e5
7f
3d
31
06
d2
fd
5f
b8
c9
59
29
00
f5
2d
13
4b
1b
bb
01
e2
ff
0d
38
00
04
36
48
e9
18
17
2d
1b
e1
45
ca
fa
fb
50
10
11
e3
d2
3e
e4
14
e7
4b
e5
b7
36
05
51
f2
f7
87
fc
dc
fc
03
ff
f1
f1
d1
b6
ba
23
0f
ee
2d
22
b6
16
81
00
f0
d4
eb
21
1d
fa
16
e2
c2
f6
e9
bf
1a
89
db
f0
16
ca
fa
0e
fc
fd
05
eb
2c
02
0b
02
16
00
06
04
f9
09
ed
ff
e5
f9
18
06
fa
fa
06
f9
ff
01
e9
f4
08
f7
f1
09
09
ff
7f
08
06
ec
0d
fc
08
0a
01
fc
03
ff
00
f9
08
eb
05
e8
0f
00
f4
00
04
f5
ff
08
f7
ff
03
07
fa
f8
f4
e3
d0
1f
fe
f9
f1
f2
09
08
0c
11
05
fd
b7
f7
15
02
00
00
04
2e
04
04
f5
19
ee
09
0e
e7
07
f5
ed
10
e7
3c
e9
02
00
f0
05
17
e2
f3
07
fb
e4
7f
f6
d3
07
f8
05
0c
df
b2
00
01
05
2d
02
17
3c
1a
ed
12
0b
e1
e9
7f
fa
28
1d
82
ef
d6
17
c8
0e
dd
18
f2
04
5a
d9
f3
c1
06
f0
dc
e1
19
fb
f9
a6
e5
e5
19
06
ed
0e
07
cd
01
ec
da
f7
1c
d7
41
26
fa
13
d7
c3
22
c0
e2
01
cf
e0
e3
1d
a7
29
3e
1a
01
44
0d
ab
8d
38
eb
fc
04
1c
81
08
e1
d8
0c
2f
de
d7
ec
1e
df
f6
0a
1f
4e
e4
e6
ec
2e
d8
19
f0
01
bf
e1
e4
eb
ca
e7
f1
fa
1d
db
b4
4b
20
fb
0c
1e
2c
fd
6f
29
ce
d2
02
ea
d8
ac
d2
06
1c
d9
04
fe
07
e6
eb
0d
de
f9
d9
fe
0a
04
13
14
d0
f6
31
ea
03
0f
02
06
18
02
09
f6
f9
f6
fc
06
0b
81
07
00
50
13
e6
0c
0e
f2
e9
e6
fa
fb
1e
02
fd
1a
04
29
f1
08
0c
00
ee
03
de
44
03
f8
f5
11
0f
28
03
f6
03
f5
33
0e
f8
0a
e0
00
0c
04
e4
fe
10
f4
eb
f3
e6
f0
f6
f3
f7
fc
f3
00
f3
00
f3
06
f2
ec
ff
ff
eb
fc
f7
f7
01
f1
06
0f
0d
fb
7f
f7
fd
fd
0f
19
f7
24
01
07
f6
0f
07
fc
f8
ff
c0
06
fb
ef
1e
2d
b4
20
6b
32
01
37
de
df
1a
81
fb
dc
f4
9b
0e
d8
68
18
fe
ff
e3
f5
f9
00
e3
f6
e8
0d
07
f3
f0
e7
db
fc
02
f0
02
e3
c3
e8
29
fb
fc
18
f9
f0
42
e4
fe
f7
2c
07
98
02
f9
d6
ba
c3
19
c0
fb
13
12
fb
12
ff
c9
0e
07
11
d3
04
fb
f1
f4
04
c0
13
1a
07
12
1a
1d
10
00
bd
f6
fd
cd
1f
04
0a
22
f1
e7
f5
cd
f3
05
c9
01
1f
04
0a
f2
ee
e3
ed
08
fb
fc
7f
1c
d7
f0
ff
f7
ff
e9
26
ea
dd
4f
ff
0e
89
08
e5
fd
01
06
05
02
14
de
01
fc
06
da
f5
31
02
1d
16
1f
ef
eb
0f
16
15
16
10
2e
e0
f2
f4
03
1c
fb
f1
f6
f5
e4
f7
ea
f8
0c
81
0c
0b
14
eb
12
04
00
db
05
51
f4
0e
18
03
3b
0a
0e
06
f9
41
09
f4
f3
05
ff
f6
e6
02
08
0b
fb
fd
07
00
fa
05
fc
06
81
02
13
f9
ff
01
0d
14
03
f7
18
12
02
01
fd
07
0b
0c
fa
05
05
f8
00
fc
f8
12
fd
f9
0f
03
02
0a
01
01
ff
17
f2
03
02
fd
07
10
fe
05
08
0c
07
00
00
ea
fd
13
e6
eb
06
db
f2
fb
03
2b
00
04
0d
f6
04
02
0e
06
ef
d8
f2
09
81
f5
ff
1a
04
f9
d4
fd
22
0c
05
db
09
02
06
01
05
f9
d5
07
00
cf
f5
fa
0d
07
fb
01
f4
00
fd
04
04
06
01
fc
11
e4
d3
4e
ed
14
c4
e9
11
47
dd
4c
fb
02
f4
48
f3
19
30
c4
03
ff
04
0b
f1
26
ec
28
0d
f0
fd
1a
06
fd
ff
c6
34
fd
27
2d
1e
0c
f2
f8
18
ad
f0
01
be
0f
25
46
df
c3
01
21
ec
e3
b7
14
ec
7f
db
e0
1a
1a
c1
07
6c
c0
c5
01
c5
e9
f7
39
03
d6
c9
c2
20
c9
09
f0
e2
85
1b
33
ec
0d
d4
f4
05
be
ec
ee
22
17
eb
03
2b
a3
d8
f2
32
f8
2c
28
d1
fc
f1
1e
f5
16
13
0a
1a
f5
81
02
10
3a
e0
e6
07
df
69
33
f6
d5
06
f8
f9
01
04
00
d0
0a
ff
03
f8
fb
06
fa
05
02
09
01
10
f7
07
ee
0a
0b
fe
00
04
05
14
07
fb
06
02
07
06
09
20
07
fe
81
f8
01
02
0a
00
06
f8
00
03
fd
fb
01
fd
0a
fc
fa
07
07
07
f0
00
fe
12
12
ff
08
f8
f1
8e
be
1e
16
e8
6b
45
22
22
11
23
37
11
10
13
39
d1
37
fb
f1
fa
08
fa
fd
0e
d4
d7
e6
f6
f6
1e
bf
13
26
0e
24
f5
f4
33
03
30
7f
fe
ef
09
e5
10
16
05
30
fd
02
09
05
05
21
df
e3
24
2a
f8
f8
06
fd
02
fa
e4
f6
00
05
00
ff
06
fe
1c
fb
81
0a
1b
08
05
f6
03
fb
04
08
05
fe
fe
01
00
fe
fc
19
fa
06
0f
fe
11
16
04
00
f7
00
fd
07
10
ff
01
08
01
fc
05
0f
ff
00
fc
09
ff
07
fa
01
04
01
05
f1
09
fb
10
ea
e2
2e
ef
dc
73
ed
0c
fd
e4
f0
cd
ca
fd
f0
f5
f2
04
00
fc
7f
fb
0f
9e
f7
11
f4
0c
c8
fa
fd
b7
08
ea
de
0c
f9
fb
10
06
e9
f3
ff
f3
0e
03
d2
f7
33
0c
05
0a
fa
f7
f5
0c
f9
3b
1f
05
0a
f2
1a
3e
f6
c0
23
ec
fb
f1
ed
04
02
13
fd
f0
f6
10
ee
03
17
0e
00
0d
0f
ba
7f
f9
00
ea
2f
db
f2
ea
0a
15
38
db
fc
d0
0a
dd
f0
f9
1d
01
f3
17
0f
c6
fb
3e
0e
f9
d9
08
13
01
08
cf
06
1a
17
1b
dd
00
08
f7
07
d4
0a
01
1c
08
f7
15
07
3d
1b
f4
fe
00
0b
22
d2
fd
fa
fc
2a
fb
fc
23
0d
f5
15
09
ce
03
00
34
1a
10
47
fb
00
db
32
03
1e
f0
fa
0a
03
ed
81
f4
ef
03
f4
12
f7
f5
fa
f1
0b
ae
3d
0e
f9
f9
1f
fa
fe
f2
a6
fb
81
03
f8
fc
f5
04
21
f7
f3
31
0d
de
af
05
15
11
f4
f3
f4
0f
37
de
ee
4b
01
35
0a
04
ec
f1
0b
df
12
f8
46
25
c8
f2
de
00
11
ee
1c
1d
f9
da
d7
10
0c
fc
1f
d6
11
fd
0f
0c
18
f3
fa
ec
10
d6
02
17
f0
0b
f9
0b
10
fa
00
4a
13
81
28
fe
ff
f2
eb
00
14
fb
06
fe
fc
f6
1a
0c
25
fc
f4
31
16
09
0c
08
08
fb
22
0a
0a
03
10
f3
13
f4
e4
0a
3b
07
02
fa
0a
fa
dc
f3
ea
c8
fe
e6
58
bf
f9
f3
c9
06
f1
2f
dd
8b
ea
15
00
15
02
ca
20
1c
42
06
6a
00
1f
41
dd
fb
27
fb
2a
08
de
ff
c2
1f
fc
e5
16
22
9e
ed
0a
f7
6f
11
62
04
f8
f1
f8
da
3f
fc
7f
dd
f9
2a
1f
f6
b9
11
16
e5
07
f7
f0
fe
f9
07
26
65
11
f1
29
be
f7
f9
06
7f
06
bd
f7
db
02
0a
0b
f3
0d
f0
28
01
f9
d2
15
00
0d
0c
1d
f2
0a
09
10
f1
d8
f3
f2
fd
ef
04
ee
da
1b
01
12
f2
11
fd
f4
14
fe
f3
00
c6
3f
00
0b
0d
14
f4
