memory_initialization_radix=16;
memory_initialization_vector=
f3,
ed,
ef,
0d,
c0,
f9,
eb,
21,
f5,
ea,
01,
fe,
1e,
66,
ce,
07,
ee,
1e,
fd,
17,
f0,
f5,
04,
99,
11,
d0,
48,
02,
ff,
f8,
0c,
32,
14,
fe,
0b,
06,
fe,
2d,
f5,
f2,
dd,
f8,
0d,
e8,
f0,
d3,
17,
0e,
0e,
fd,
fe,
0c,
e8,
f5,
ef,
0f,
06,
02,
1f,
13,
06,
06,
0b,
0f,
17,
12,
2d,
16,
06,
0b,
e5,
11,
0a,
25,
01,
c8,
a3,
0e,
fb,
16,
05,
e9,
d3,
fa,
fd,
1b,
0e,
ec,
c4,
03,
02,
05,
f7,
16,
d1,
ce,
fa,
fb,
03,
ea,
03,
fd,
d9,
2c,
fc,
f4,
ec,
ee,
29,
28,
0e,
02,
f7,
05,
fe,
ef,
07,
f7,
f2,
09,
e9,
23,
1f,
20,
2a,
fc,
f7,
06,
e2,
05,
d5,
bb,
02,
e7,
eb,
22,
01,
fd,
30,
00,
fb,
f5,
15,
02,
01,
1f,
fe,
ea,
df,
e9,
02,
15,
f9,
02,
fd,
18,
f3,
f8,
f6,
07,
06,
01,
07,
dd,
ed,
e1,
9f,
e5,
02,
01,
e9,
18,
03,
ef,
01,
08,
ed,
07,
0e,
07,
01,
f2,
0d,
fa,
2a,
f5,
fa,
02,
fc,
23,
f6,
08,
0b,
30,
2d,
fb,
11,
f3,
e5,
f0,
0a,
1e,
ae,
d0,
f4,
26,
e9,
27,
d8,
fc,
81,
86,
04,
ef,
46,
f3,
00,
40,
fb,
f4,
f5,
00,
f0,
fc,
06,
11,
fa,
03,
0f,
1f,
f0,
07,
0b,
0c,
f9,
0f,
08,
dd,
d2,
20,
01,
ff,
04,
e3,
24,
0e,
1c,
08,
f8,
ef,
dd,
04,
fe,
2b,
f6,
0a,
f6,
dc,
f2,
07,
1d,
05,
ee,
0b,
df,
e6,
f2,
e4,
07,
e8,
d7,
0b,
fa,
32,
45,
ee,
22,
e1,
05,
f9,
11,
01,
0f,
26,
11,
f3,
f1,
15,
0d,
18,
0f,
c4,
72,
e7,
2e,
16,
18,
06,
33,
fd,
0a,
bd,
ec,
08,
0e,
1b,
f4,
f2,
0c,
07,
c5,
14,
03,
fb,
15,
f9,
19,
fd,
21,
28,
f6,
07,
fa,
00,
dd,
14,
07,
08,
fb,
15,
f3,
06,
f8,
07,
2a,
42,
08,
12,
da,
1f,
02,
ef,
fd,
f9,
f7,
da,
8d,
fa,
ef,
d9,
01,
f9,
eb,
0e,
09,
e6,
fe,
e2,
f1,
0c,
e1,
40,
03,
ef,
5e,
f3,
ec,
0f,
27,
f7,
ff,
dc,
f4,
fa,
fe,
02,
e8,
00,
e6,
ef,
c6,
ef,
b0,
bf,
0c,
df,
d8,
f9,
fe,
0c,
fb,
04,
1d,
07,
13,
07,
fe,
18,
08,
ee,
36,
0e,
ee,
00,
00,
f6,
f3,
f3,
18,
f4,
ff,
f1,
ea,
1d,
ef,
14,
13,
07,
f2,
16,
f9,
ff,
00,
1b,
13,
1a,
fb,
64,
0c,
e2,
05,
08,
0c,
14,
15,
ea,
4b,
12,
05,
12,
17,
0d,
b0,
e4,
42,
b5,
f9,
24,
d9,
0b,
e9,
c7,
07,
0c,
f6,
16,
ed,
ec,
f1,
1f,
45,
05,
f2,
26,
06,
01,
1f,
ee,
03,
e8,
1f,
f1,
aa,
13,
e4,
14,
39,
f3,
c0,
13,
f8,
08,
b9,
fe,
06,
ff,
02,
ff,
b6,
e4,
7f,
e3,
01,
e1,
cb,
2c,
15,
0e,
c8,
37,
10,
13,
27,
16,
d0,
d0,
bb,
ac,
ff,
e0,
e3,
0c,
04,
0f,
f3,
fa,
e1,
34,
fc,
06,
e5,
00,
fb,
f4,
ed,
fc,
f9,
27,
04,
0a,
f8,
22,
f8,
ee,
f8,
aa,
f6,
04,
d5,
fa,
eb,
d2,
3c,
f8,
a3,
2c,
ee,
ed,
0f,
f9,
1b,
02,
e2,
00,
0a,
00,
1e,
f4,
2e,
96,
c1,
34,
dd,
0c,
02,
2c,
1d,
f6,
07,
fe,
eb,
24,
17,
04,
38,
ff,
d8,
c4,
fb,
19,
66,
f8,
fc,
44,
f2,
e9,
f4,
ea,
e4,
e8,
14,
19,
d2,
16,
03,
ed,
22,
eb,
e3,
30,
0e,
d5,
05,
f3,
09,
0c,
11,
13,
e7,
e4,
1c,
fe,
fb,
df,
1c,
0e,
e5,
07,
0d,
ec,
00,
c3,
f7,
17,
1d,
0a,
1e,
f9,
fe,
f5,
e3,
e2,
0f,
e2,
f0,
12,
de,
e4,
00,
0c,
e7,
fd,
00,
d1,
18,
29,
d6,
1c,
07,
06,
fb,
32,
d5,
04,
f2,
ef,
0f,
18,
f5,
0d,
fd,
fd,
11,
f3,
e7,
f9,
f1,
c7,
fd,
ea,
29,
e0,
ff,
42,
f3,
02,
07,
09,
02,
eb,
07,
f1,
06,
08,
12,
e6,
0c,
2c,
33,
30,
01,
fd,
ef,
e6,
21,
0b,
08,
e5,
22,
20,
fb,
f7,
0c,
19,
ba,
00,
f9,
e6,
06,
ee,
e8,
f7,
d8,
fb,
d8,
07,
07,
f8,
00,
0d,
f0,
da,
ec,
07,
ee,
28,
f1,
06,
0c,
09,
0f,
18,
10,
e0,
12,
04,
1b,
ea,
0c,
36,
0c,
fa,
18,
f7,
0a,
28,
07,
08,
fc,
f8,
0c,
14,
05,
f6,
02,
1f,
04,
0f,
03,
fc,
ca,
0a,
fd,
16,
0b,
e0,
15,
02,
03,
00,
31,
e6,
26,
f3,
00,
26,
f8,
2c,
26,
12,
eb,
ec,
b3,
0f,
2d,
03,
e3,
d3,
f1,
ca,
09,
0a,
0a,
ba,
e9,
24,
d8,
d1,
e2,
f2,
d4,
ed,
37,
fa,
f1,
ea,
ed,
12,
21,
df,
f4,
e0,
14,
03,
b3,
f9,
fa,
01,
1a,
d6,
f3,
09,
4e,
bd,
0d,
f0,
e9,
f4,
f3,
dc,
0e,
08,
be,
20,
f3,
d4,
f9,
11,
dc,
0a,
02,
30,
04,
e1,
52,
f5,
b9,
ce,
02,
08,
ce,
f4,
18,
fd,
01,
f2,
0e,
e9,
e7,
81,
fd,
fb,
07,
14,
f9,
ee,
f7,
ea,
cd,
f0,
01,
00,
07,
09,
09,
f4,
00,
f2,
02,
fd,
02,
02,
f7,
fd,
f6,
07,
0f,
0a,
f8,
fa,
f5,
f6,
07,
fc,
e1,
c3,
e5,
f2,
10,
02,
0f,
0d,
f3,
f4,
1e,
05,
05,
fa,
f7,
d5,
fd,
0e,
fb,
e4,
e3,
fa,
21,
f5,
14,
16,
fc,
34,
52,
ff,
01,
02,
f9,
0d,
04,
f9,
15,
fa,
03,
0d,
f1,
03,
f3,
fc,
09,
10,
07,
10,
f3,
f3,
02,
fb,
16,
1b,
07,
f4,
f6,
f7,
ef,
f2,
fa,
dd,
f8,
00,
19,
1b,
fb,
23,
02,
03,
f9,
0a,
fc,
ee,
0f,
05,
0b,
0b,
f3,
c5,
08,
04,
ed,
fc,
00,
ff,
03,
ff,
fa,
05,
25,
10,
14,
20,
11,
03,
07,
0c,
da,
fa,
22,
ef,
f9,
07,
07,
eb,
f9,
04,
fa,
0d,
05,
ec,
07,
f2,
fd,
29,
25,
13,
7f,
41,
f8,
0a,
ff,
f4,
13,
fe,
07,
3a,
08,
0a,
07,
0e,
05,
07,
fe,
1e,
65,
1b,
f7,
15,
dd,
fe,
ec,
fa,
1c,
2c,
07,
17,
08,
0c,
07,
00,
fc,
0b,
f0,
e0,
ef,
fe,
f9,
13,
17,
1d,
fb,
fb,
11,
f3,
00,
f9,
f7,
f6,
ee,
f8,
31,
ef,
0d,
f2,
f2,
eb,
f6,
06,
14,
00,
0b,
f1,
0c,
f0,
0a,
f8,
ed,
fd,
0b,
0a,
ed,
eb,
01,
fd,
f8,
01,
00,
eb,
f7,
10,
19,
00,
05,
01,
0b,
0b,
05,
0d,
00,
f2,
05,
ea,
15,
00,
f6,
12,
0f,
f5,
f4,
f1,
fa,
08,
de,
19,
22,
f4,
01,
fb,
03,
fb,
f2,
06,
f6,
fb,
01,
f2,
18,
fc,
e4,
0f,
f1,
f0,
de,
f0,
f7,
f4,
fe,
0a,
fd,
f4,
0e,
55,
2f,
f6,
11,
15,
02,
fc,
00,
f8,
fc,
01,
fe,
f6,
fc,
fc,
07,
0b,
0b,
2d,
2e,
05,
10,
08,
ff,
01,
f8,
00,
f7,
04,
01,
01,
01,
03,
03,
fc,
fd,
09,
02,
f6,
fe,
01,
fa,
fb,
fb,
00,
0e,
05,
fb,
f6,
f8,
fc,
fb,
fb,
01,
ff,
03,
01,
00,
02,
fa,
f6,
f9,
fe,
fa,
f2,
fb,
fb,
fe,
ff,
fa,
ff,
07,
eb,
ee,
ea,
07,
0d,
fc,
fa,
02,
f8,
f6,
ff,
02,
fc,
04,
0b,
f5,
04,
fb,
f3,
10,
fb,
06,
0e,
01,
fd,
05,
fc,
fc,
05,
03,
04,
00,
ff,
fe,
02,
02,
fe,
05,
00,
fe,
fa,
04,
f9,
f8,
00,
0a,
01,
02,
fe,
00,
00,
0b,
03,
04,
fa,
06,
06,
fc,
fd,
ff,
ff,
fa,
01,
fb,
ff,
01,
02,
01,
00,
fd,
fc,
00,
02,
01,
00,
04,
02,
fe,
fc,
00,
f6,
fe,
00,
06,
fb,
fe,
fb,
05,
07,
12,
06,
f3,
04,
00,
fd,
fd,
02,
01,
fa,
f4,
06,
00,
ff,
f7,
02,
fb,
07,
06,
05,
01,
fe,
ff,
01,
01,
04,
02,
01,
f7,
03,
fd,
f3,
fd,
fb,
02,
01,
03,
03,
00,
05,
02,
f5,
fb,
01,
ff,
01,
15,
ee,
f7,
06,
02,
ff,
f4,
fe,
f2,
10,
fc,
02,
fd,
f9,
fe,
fb,
fe,
fa,
f9,
08,
fe,
fe,
fc,
f9,
f6,
06,
e4,
ed,
13,
04,
01,
f8,
01,
f7,
fc,
e8,
81,
ba,
f4,
e3,
fe,
f7,
fe,
02,
11,
fa,
0d,
00,
02,
05,
fd,
00,
fe,
fd,
01,
1c,
fe,
fe,
ff,
fe,
fc,
00,
ee,
0d,
15,
08,
00,
f9,
ff,
01,
08,
0b,
ed,
ff,
ff,
f1,
08,
00,
ff,
fd,
fd,
ff,
fc,
05,
07,
fe,
fc,
16,
01,
f5,
1f,
f8,
14,
e9,
d9,
0d,
01,
02,
f8,
17,
05,
10,
d5,
12,
fc,
06,
10,
fe,
0c,
90,
00,
f7,
cf,
0c,
05,
11,
db,
af,
dc,
f9,
f7,
03,
f0,
fc,
04,
09,
e4,
f5,
fd,
f8,
14,
01,
49,
de,
d6,
37,
67,
ef,
f7,
07,
03,
0e,
f9,
00,
25,
09,
f0,
09,
04,
fe,
10,
f9,
e5,
0c,
ff,
f5,
02,
00,
f7,
e1,
16,
09,
ea,
da,
e9,
15,
12,
fc,
fc,
ed,
fa,
ba,
24,
f7,
1f,
08,
ff,
12,
20,
02,
f4,
fd,
f2,
e9,
1a,
05,
0b,
fb,
14,
ff,
0a,
0a,
0e,
22,
fe,
43,
ed,
03,
17,
32,
e8,
f8,
ef,
f7,
ec,
f5,
eb,
0f,
13,
f4,
e5,
fd,
06,
f2,
27,
11,
01,
24,
01,
fc,
d3,
e7,
15,
02,
f6,
30,
fe,
0c,
e3,
f5,
fc,
0d,
06,
10,
1b,
4d,
f8,
fd,
ec,
0f,
1e,
0c,
14,
d6,
dc,
12,
02,
d7,
f0,
02,
0f,
ff,
81,
64,
fc,
ff,
2a,
f7,
fd,
0d,
f9,
43,
58,
ef,
f6,
ee,
fb,
fe,
fe,
0b,
0c,
fb,
fe,
f6,
24,
ec,
f1,
ee,
e6,
f0,
0c,
05,
01,
0c,
e5,
d6,
db,
17,
7a,
bb,
f1,
e2,
cf,
f3,
fc,
19,
17,
8b,
f8,
f4,
01,
1b,
fa,
fb,
f1,
0a,
f0,
f3,
f2,
e9,
0c,
f9,
0c,
ff,
03,
03,
fe,
f8,
ec,
fd,
fb,
f2,
f4,
fb,
e1,
d1,
0b,
07,
02,
ea,
b7,
0c,
3c,
49,
fe,
16,
1a,
02,
ea,
e4,
10,
f3,
c7,
da,
fd,
f0,
00,
fd,
09,
13,
03,
09,
0f,
0c,
fe,
06,
16,
f7,
0e,
d9,
04,
b8,
f4,
20,
f8,
fe,
0b,
f7,
09,
06,
07,
fa,
1a,
35,
c5,
b3,
f6,
f5,
b4,
ff,
f8,
26,
0b,
04,
ff,
f6,
f9,
2f,
c7,
05,
db,
04,
0e,
28,
cf,
f2,
28,
17,
e5,
e4,
ee,
18,
fc,
0f,
fa,
0c,
0c,
21,
20,
fc,
ff,
32,
14,
0a,
40,
fd,
f5,
f7,
08,
e0,
0e,
0b,
ce,
0a,
1b,
e2,
e3,
18,
04,
e6,
db,
e3,
c2,
d8,
fe,
fa,
ff,
ed,
e8,
fe,
81,
bf,
16,
eb,
cc,
00,
18,
f0,
1a,
33,
02,
f5,
ef,
00,
e7,
e1,
f8,
f6,
2c,
1c,
e8,
f7,
2a,
0c,
10,
bf,
15,
42,
cd,
0c,
03,
de,
e6,
eb,
df,
fd,
f8,
cc,
eb,
00,
f1,
00,
b6,
b3,
f9,
1f,
0d,
00,
f2,
f8,
01,
37,
05,
f9,
42,
24,
06,
f9,
45,
e8,
06,
94,
ec,
03,
dc,
c8,
f0,
e5,
ec,
bf,
1f,
fa,
b0,
c2,
d7,
0a,
eb,
ff,
07,
0f,
07,
f2,
27,
fc,
01,
e9,
f8,
0d,
f2,
f9,
1f,
f6,
16,
06,
b4,
ff,
1b,
d6,
21,
fa,
d5,
ec,
e5,
fe,
0b,
f8,
67,
0d,
f0,
20,
1c,
06,
15,
16,
f4,
1a,
f5,
03,
d3,
17,
05,
32,
2d,
04,
07,
f3,
ee,
07,
07,
03,
02,
18,
da,
dc,
29,
29,
03,
42,
25,
e3,
15,
d2,
e7,
fa,
23,
06,
0a,
fe,
e0,
e2,
1d,
0d,
eb,
28,
45,
e4,
0d,
01,
e5,
f7,
fe,
e4,
f1,
e0,
c1,
04,
b9,
d6,
06,
0b,
07,
17,
10,
45,
fa,
2b,
04,
d6,
fe,
08,
26,
e7,
f3,
31,
d8,
0c,
10,
29,
08,
04,
35,
08,
fd,
0a,
19,
e3,
0a,
ff,
15,
fb,
f3,
17,
12,
09,
cc,
b4,
e5,
cb,
3b,
fb,
ce,
38,
02,
fd,
30,
f3,
1f,
37,
14,
eb,
e5,
d9,
07,
1c,
fd,
34,
ef,
01,
fe,
fc,
17,
ed,
00,
f3,
01,
f2,
14,
fa,
03,
08,
0c,
15,
04,
04,
41,
e4,
fb,
20,
e1,
0c,
ed,
f7,
14,
bc,
16,
0a,
e0,
06,
06,
22,
e8,
f7,
26,
e1,
fb,
0c,
ec,
fc,
dd,
fc,
0b,
02,
ff,
05,
00,
03,
f3,
10,
03,
e0,
ef,
09,
e5,
07,
04,
ff,
02,
fa,
f8,
10,
fa,
f6,
e0,
0d,
ef,
1a,
ec,
e5,
2c,
26,
26,
10,
ff,
13,
e0,
0e,
31,
ee,
f8,
0d,
f8,
fa,
09,
2b,
09,
13,
1f,
fe,
f3,
04,
29,
fa,
f8,
f8,
f4,
fd,
07,
fa,
f0,
06,
16,
f5,
00,
e6,
f4,
01,
fe,
0f,
0b,
f3,
17,
14,
f5,
21,
12,
0a,
ea,
fe,
07,
fa,
f3,
07,
eb,
df,
0a,
f1,
fc,
01,
e7,
f5,
f5,
e3,
fc,
f6,
05,
ff,
ec,
18,
f1,
00,
16,
f4,
ef,
05,
f5,
18,
d9,
0b,
17,
cb,
29,
13,
c9,
07,
e7,
24,
f3,
06,
d1,
fd,
03,
f8,
ee,
05,
05,
13,
0d,
b9,
3c,
f6,
f9,
13,
08,
f3,
fb,
fa,
1f,
d5,
0f,
0a,
d4,
12,
eb,
10,
03,
c7,
16,
00,
d7,
f6,
f5,
0f,
0b,
f9,
7f,
ce,
e4,
03,
0b,
01,
cd,
f7,
5e,
1d,
08,
22,
f9,
fe,
0c,
39,
de,
12,
fc,
ef,
01,
e6,
1b,
04,
dd,
f4,
0d,
e0,
14,
fc,
fc,
12,
01,
07,
02,
06,
15,
ea,
0b,
1a,
fd,
e4,
0b,
19,
be,
2a,
0c,
dc,
18,
16,
08,
24,
ee,
fc,
46,
f6,
03,
1c,
f2,
03,
06,
f1,
16,
f7,
fb,
0f,
eb,
ee,
d8,
0f,
e6,
a6,
e9,
e8,
d8,
03,
fd,
ff,
fc,
06,
ee,
15,
e4,
fe,
fc,
12,
df,
ec,
15,
d5,
ae,
e0,
e9,
fd,
e1,
09,
06,
fc,
df,
9e,
f9,
09,
fc,
0b,
06,
b9,
e5,
f7,
85,
b0,
0f,
d8,
f4,
f3,
ec,
ef,
98,
b1,
f0,
f4,
f0,
f2,
f0,
b1,
f3,
0c,
bf,
f9,
f8,
05,
08,
dd,
33,
32,
23,
fa,
f4,
09,
08,
f5,
f3,
f2,
ea,
17,
fc,
f6,
f6,
00,
e6,
fe,
0c,
ff,
ff,
df,
0e,
15,
22,
ee,
d6,
dc,
eb,
d4,
b9,
d9,
e2,
ef,
f1,
f9,
f7,
f1,
21,
f4,
12,
0d,
f0,
f5,
ed,
cb,
10,
a6,
8e,
aa,
e2,
d9,
ed,
f0,
ef,
0a,
f7,
fd,
04,
f8,
00,
0b,
c4,
d2,
21,
f8,
fd,
ea,
03,
f2,
f0,
0b,
f5,
ef,
1d,
2b,
09,
e2,
fb,
fd,
ea,
9e,
f0,
f0,
e0,
ba,
f7,
ea,
e8,
c9,
ff,
f2,
06,
c7,
ff,
f4,
03,
fe,
f3,
ff,
0b,
da,
d1,
09,
fa,
0b,
0c,
f5,
f9,
ef,
13,
72,
01,
f3,
13,
fc,
e4,
a5,
ce,
ef,
b8,
0c,
ef,
ec,
04,
f1,
eb,
1d,
06,
c8,
1f,
0a,
03,
1a,
0a,
f8,
11,
06,
d7,
99,
ea,
03,
f6,
0b,
06,
01,
01,
e0,
cf,
fb,
f1,
f3,
fc,
20,
dc,
13,
de,
14,
f5,
f5,
0e,
81,
00,
f8,
93,
a8,
ee,
d6,
0d,
04,
0c,
df,
c4,
da,
f9,
ec,
02,
ec,
f0,
f2,
2e,
0e,
e9,
0b,
1d,
fa,
fa,
09,
04,
f9,
0a,
de,
91,
d6,
02,
f9,
00,
ba,
d5,
f8,
f5,
ce,
fa,
12,
f2,
f2,
f8,
c3,
d3,
0f,
e8,
c5,
ff,
0a,
e0,
fe,
f0,
fc,
ef,
da,
d5,
e8,
04,
f0,
00,
20,
fe,
fb,
18,
f0,
0a,
17,
e8,
f8,
13,
fa,
dc,
e3,
e7,
f1,
11,
0a,
14,
f7,
f2,
e7,
29,
35,
fd,
f9,
09,
00,
03,
ea,
07,
50,
bd,
11,
22,
20,
07,
05,
f8,
06,
20,
73,
fa,
13,
22,
f1,
dd,
fc,
23,
0b,
00,
fd,
0d,
02,
0c,
10,
04,
0f,
fc,
1c,
fa,
0b,
f9,
ff,
27,
fb,
de,
06,
d5,
05,
ec,
01,
03,
2d,
03,
fb,
cb,
0a,
f5,
c7,
05,
f5,
f4,
0c,
e8,
ee,
fc,
ee,
b8,
17,
e5,
cb,
2c,
11,
32,
1e,
0f,
fe,
0b,
e4,
45,
ed,
1c,
b4,
29,
0c,
f7,
fe,
02,
d6,
e6,
07,
31,
df,
fc,
3c,
d8,
fe,
40,
00,
fd,
2f,
07,
ef,
14,
f5,
fd,
5f,
e7,
e6,
1a,
f2,
ff,
03,
0a,
f7,
e2,
fc,
2c,
de,
1e,
2c,
f3,
fe,
0e,
16,
05,
0d,
d1,
ff,
fe,
14,
0b,
0d,
e5,
02,
f2,
e3,
ff,
f9,
f6,
08,
ff,
13,
bd,
05,
2b,
e6,
02,
f8,
fa,
25,
c2,
0c,
fb,
e9,
2b,
08,
30,
30,
1e,
1d,
fa,
0d,
7f,
c1,
e9,
fc,
06,
03,
dc,
cc,
1e,
29,
f7,
ea,
f7,
08,
07,
1e,
e6,
f5,
3f,
e8,
00,
3d,
d0,
e3,
58,
eb,
07,
bc,
d9,
fd,
07,
00,
2c,
1b,
45,
e2,
52,
dc,
1c,
1c,
2c,
cd,
ee,
18,
4c,
3e,
fb,
0f,
f5,
f0,
14,
16,
06,
1c,
3a,
f4,
f6,
ed,
1f,
01,
43,
ee,
d9,
3c,
eb,
fa,
f3,
fb,
f7,
de,
18,
05,
fe,
18,
03,
00,
0c,
e5,
f6,
f7,
e2,
a7,
f9,
dc,
ec,
fc,
f6,
d3,
38,
f2,
e9,
1a,
09,
fc,
1d,
ee,
f4,
ff,
10,
ca,
00,
03,
c6,
ed,
ee,
b5,
01,
ee,
96,
21,
fb,
9b,
0b,
fe,
db,
f3,
0c,
d9,
ee,
0b,
05,
ff,
01,
fd,
07,
04,
20,
04,
f6,
07,
fc,
05,
0a,
fe,
ee,
0d,
fe,
09,
1a,
17,
ff,
f5,
10,
00,
e4,
db,
00,
13,
fb,
ff,
01,
03,
0c,
05,
f7,
01,
fe,
f5,
ee,
eb,
07,
02,
1a,
f6,
fc,
02,
0a,
02,
fd,
fb,
01,
f1,
fe,
ff,
02,
03,
fe,
04,
02,
f1,
0a,
fa,
0a,
fc,
01,
fd,
f5,
00,
04,
ec,
04,
fb,
f8,
ff,
06,
1e,
06,
e3,
03,
ff,
f6,
f3,
09,
04,
fe,
04,
0e,
00,
f6,
f6,
07,
f8,
06,
04,
05,
fb,
14,
03,
02,
e0,
03,
f9,
ff,
05,
f7,
fb,
04,
00,
00,
05,
f9,
eb,
fb,
0b,
ef,
07,
06,
ff,
00,
08,
ec,
02,
fa,
3b,
f5,
e8,
28,
02,
fb,
09,
03,
06,
f8,
06,
05,
ff,
00,
08,
f7,
07,
f9,
fa,
07,
04,
fc,
01,
fd,
f9,
06,
02,
05,
08,
10,
0e,
0e,
06,
18,
0a,
22,
ea,
ff,
fc,
fc,
06,
03,
07,
04,
fd,
fc,
05,
f6,
ff,
0f,
10,
f0,
04,
fc,
e9,
16,
07,
e9,
f5,
09,
fe,
02,
16,
f4,
12,
01,
4e,
04,
fd,
dd,
01,
0a,
f4,
02,
06,
f7,
fe,
f9,
1b,
ff,
00,
e1,
1c,
fa,
dd,
02,
f4,
1c,
08,
f4,
e2,
fe,
13,
0c,
10,
ef,
dd,
11,
c8,
7f,
09,
00,
fb,
08,
fd,
00,
09,
0b,
02,
00,
09,
08,
04,
fe,
f4,
02,
f6,
f5,
f9,
f8,
f9,
02,
f3,
f2,
fd,
e3,
fd,
f5,
f2,
f2,
f6,
06,
f9,
08,
f0,
1f,
ef,
f9,
fd,
fc,
01,
06,
01,
db,
40,
08,
0c,
0b,
10,
ef,
f7,
fc,
e6,
34,
0c,
05,
13,
07,
fb,
fc,
04,
f8,
f3,
03,
06,
f5,
07,
0f,
e2,
f2,
47,
ef,
ce,
dc,
0c,
dd,
0f,
e2,
dd,
fb,
29,
08,
00,
8a,
d5,
ef,
13,
d6,
0c,
06,
fd,
08,
c8,
18,
0c,
1b,
f6,
08,
df,
e9,
10,
42,
f4,
f1,
4c,
f6,
e5,
e8,
fe,
02,
f7,
03,
06,
d0,
02,
22,
1a,
0a,
f8,
10,
f2,
0c,
0a,
05,
e0,
0e,
19,
ec,
f8,
15,
ef,
fe,
f8,
e8,
df,
1c,
26,
e7,
05,
fc,
3d,
e6,
06,
15,
11,
f7,
00,
f4,
ed,
ba,
1e,
d7,
65,
f3,
ea,
0a,
10,
f5,
d7,
26,
3d,
54,
c5,
0e,
30,
e0,
04,
f4,
e9,
02,
07,
ee,
0c,
1c,
f5,
1c,
fc,
16,
fc,
3f,
dd,
fa,
07,
e5,
03,
1d,
18,
e2,
cf,
fe,
c9,
02,
1d,
08,
1f,
ef,
f0,
46,
f4,
02,
11,
f9,
0c,
d5,
fb,
2e,
e3,
fc,
c8,
12,
0e,
11,
fb,
f3,
f3,
ec,
f5,
f9,
18,
ff,
e7,
f1,
25,
22,
bf,
07,
1f,
de,
ef,
de,
03,
f2,
00,
f2,
b6,
09,
39,
04,
19,
d5,
26,
09,
c1,
2f,
e2,
fe,
06,
fc,
f4,
07,
f4,
c0,
e6,
e5,
f3,
dc,
0f,
e8,
e3,
f2,
81,
1a,
f3,
19,
ea,
fd,
17,
e5,
fc,
36,
de,
18,
08,
e0,
3b,
ae,
fc,
0e,
c6,
00,
cf,
0e,
f1,
fe,
1a,
0a,
ca,
ea,
d2,
f2,
07,
f5,
f7,
e6,
02,
24,
16,
05,
ea,
36,
0a,
f2,
fc,
f9,
fb,
e8,
f9,
19,
4f,
20,
f0,
0c,
13,
7a,
43,
23,
01,
cb,
f9,
03,
1c,
ff,
06,
fd,
31,
f8,
0a,
27,
ef,
01,
06,
f5,
29,
f7,
ee,
f4,
f2,
ab,
1b,
29,
b6,
ce,
b6,
19,
eb,
03,
0a,
fa,
e4,
f6,
01,
01,
09,
1f,
f1,
f8,
fa,
03,
f4,
3d,
1b,
0c,
e7,
0f,
07,
21,
07,
e3,
ef,
f5,
fb,
2b,
04,
f8,
03,
02,
03,
00,
dd,
fe,
1c,
f6,
00,
fd,
06,
0f,
63,
43,
06,
37,
0e,
fd,
0d,
07,
f7,
1b,
14,
f8,
07,
07,
fe,
f9,
0f,
0c,
e6,
f2,
f6,
1f,
05,
01,
f8,
f0,
09,
f8,
ea,
fd,
f5,
f9,
fe,
03,
f8,
09,
ec,
fe,
ea,
0f,
f4,
05,
fa,
01,
1a,
1d,
fa,
05,
f4,
04,
f5,
04,
08,
03,
1a,
ee,
ff,
24,
f9,
fa,
f2,
05,
fe,
ed,
1a,
01,
0a,
ff,
08,
f0,
08,
1b,
f0,
02,
05,
f0,
19,
0e,
c9,
0a,
00,
f8,
0f,
07,
0a,
04,
02,
11,
fd,
2a,
2e,
eb,
0d,
d4,
f2,
ff,
18,
f7,
fd,
0e,
04,
05,
fd,
fc,
e9,
0d,
02,
f5,
00,
09,
f7,
f5,
02,
0b,
fe,
08,
01,
c7,
e1,
ff,
ff,
0b,
ff,
12,
0d,
fe,
f9,
ee,
1f,
ee,
0f,
f9,
0f,
00,
fc,
fb,
26,
f9,
0f,
fe,
06,
e4,
50,
dd,
bb,
31,
f5,
f3,
0d,
f8,
f3,
fe,
0c,
c4,
0f,
f9,
bf,
13,
fb,
dd,
0f,
04,
f5,
18,
fe,
ef,
ff,
09,
03,
ec,
fb,
d6,
34,
e9,
0f,
f5,
0b,
f5,
fa,
37,
13,
02,
07,
e7,
fa,
f9,
f3,
06,
00,
dd,
4c,
f8,
e9,
f0,
08,
05,
f9,
18,
f3,
fd,
25,
0f,
f3,
fb,
0a,
fc,
07,
1c,
08,
0a,
f1,
f3,
ed,
12,
15,
31,
16,
ef,
1e,
ef,
e8,
06,
16,
f2,
0d,
49,
19,
04,
09,
ff,
fb,
f5,
07,
f6,
00,
01,
00,
f5,
07,
f8,
0c,
05,
c1,
7f,
03,
c0,
07,
09,
f4,
0e,
08,
f7,
ca,
e8,
fa,
d5,
fd,
25,
02,
fd,
e7,
25,
e5,
e2,
fd,
1c,
09,
06,
fe,
d8,
c2,
b6,
ff,
d9,
0b,
06,
00,
04,
0b,
f2,
08,
00,
13,
0f,
0a,
0e,
f7,
1a,
fb,
02,
ee,
08,
17,
f0,
05,
01,
fa,
f2,
fd,
f9,
02,
0c,
1b,
03,
0d,
fa,
8d,
d4,
01,
fe,
f8,
ff,
fe,
f8,
e1,
a5,
f1,
ec,
e6,
fe,
f5,
01,
e9,
0c,
f6,
e6,
03,
d6,
fa,
fc,
e7,
f6,
ff,
c5,
0b,
fe,
cf,
02,
fe,
02,
07,
01,
e0,
fd,
07,
0c,
f9,
08,
07,
00,
01,
1a,
fe,
04,
15,
f8,
1a,
09,
00,
1e,
1b,
15,
ff,
0d,
02,
11,
07,
0e,
05,
81,
f1,
01,
ee,
ff,
f3,
fa,
fa,
e3,
e6,
f5,
0d,
08,
03,
02,
0e,
1b,
0b,
ee,
e7,
0d,
fd,
f5,
f5,
fd,
fe,
d2,
d4,
06,
f5,
f8,
fd,
00,
ef,
f7,
fd,
bd,
e8,
fb,
ec,
fe,
f3,
f5,
f5,
14,
2f,
15,
05,
fb,
06,
fa,
09,
08,
0f,
56,
1e,
fa,
00,
0c,
08,
00,
2f,
f0,
1b,
2c,
eb,
00,
f2,
f5,
0f,
00,
16,
2f,
ec,
fa,
0c,
13,
fb,
ea,
02,
fb,
27,
f4,
f5,
0f,
f4,
f0,
1d,
fb,
f2,
33,
15,
01,
d0,
eb,
17,
ff,
03,
d6,
e2,
0b,
f8,
1e,
08,
09,
17,
ea,
ff,
0a,
d9,
f7,
ff,
0c,
f9,
d7,
f3,
e6,
b7,
d8,
ea,
d9,
00,
ff,
fd,
fa,
24,
41,
16,
fe,
f8,
fb,
28,
f2,
f8,
23,
9b,
ed,
f3,
fb,
02,
fd,
17,
0d,
e7,
e3,
f5,
09,
01,
0f,
05,
06,
fd,
05,
18,
00,
18,
1d,
0f,
e7,
e1,
ee,
3a,
3a,
08,
07,
13,
0c,
fe,
e9,
f7,
0c,
e9,
1e,
02,
0f,
15,
e3,
c9,
f1,
20,
20,
f8,
09,
00,
fb,
f7,
d1,
14,
0c,
f5,
ec,
fc,
0d,
09,
0d,
00,
fc,
f9,
e8,
1f,
02,
e9,
f4,
01,
14,
ff,
f2,
f8,
e7,
f2,
11,
08,
25,
eb,
0c,
fd,
c5,
fa,
fc,
f6,
fe,
f5,
5a,
12,
04,
04,
01,
ef,
ee,
0a,
fb,
fa,
03,
12,
f3,
08,
01,
07,
fa,
05,
19,
fa,
f8,
4b,
01,
f7,
09,
04,
0f,
f9,
f1,
3d,
b1,
f2,
fe,
de,
0b,
fa,
f3,
03,
e9,
ea,
05,
01,
09,
12,
02,
0b,
15,
06,
d9,
df,
fa,
08,
d5,
14,
00,
00,
12,
c6,
fb,
02,
f3,
fa,
fe,
6b,
0b,
22,
23,
e5,
07,
08,
f8,
da,
e3,
fd,
2c,
f6,
fc,
ec,
fa,
04,
fb,
08,
05,
f7,
e3,
0c,
07,
05,
07,
e8,
f2,
ff,
e4,
28,
17,
1e,
f1,
f6,
ff,
0d,
11,
fb,
e2,
ee,
f9,
f7,
f4,
1a,
01,
f9,
d4,
4b,
fa,
ec,
e8,
01,
0f,
bc,
f0,
fd,
ba,
03,
01,
fd,
f6,
f5,
c2,
d3,
0a,
4a,
fa,
fc,
e9,
f8,
ea,
f4,
f7,
18,
12,
ed,
f3,
b6,
03,
17,
20,
07,
f1,
e6,
e5,
fa,
f7,
f7,
fd,
f7,
da,
4a,
eb,
31,
00,
0b,
09,
e5,
08,
f5,
c8,
1a,
00,
f8,
fc,
03,
2c,
30,
f1,
f9,
81,
13,
06,
01,
f7,
fd,
04,
0d,
fd,
41,
14,
29,
14,
fb,
04,
04,
f5,
ec,
11,
0e,
fa,
f4,
08,
f6,
ea,
06,
75,
c8,
f4,
28,
f5,
00,
fd,
eb,
f2,
0e,
0c,
28,
fb,
00,
04,
15,
e1,
0a,
1e,
b0,
05,
f4,
fd,
f4,
18,
e5,
e4,
d6,
13,
f2,
ef,
01,
11,
ff,
0d,
02,
0c,
0e,
02,
fe,
00,
06,
f8,
ff,
f6,
3b,
30,
0d,
ec,
1e,
fb,
fc,
f9,
f9,
12,
36,
00,
00,
db,
16,
fe,
1e,
02,
f5,
12,
01,
fb,
f2,
11,
f6,
f0,
0a,
05,
33,
0b,
f4,
f1,
f7,
01,
11,
01,
f9,
f9,
f9,
fd,
e8,
0b,
f6,
ee,
14,
f2,
46,
24,
f9,
cf,
e5,
ea,
ff,
ed,
06,
e8,
f6,
f6,
04,
fc,
09,
0f,
08,
f7,
1c,
01,
1e,
28,
1e,
14,
03,
03,
f1,
01,
03,
f8,
f4,
04,
dc,
1b,
e5,
00,
c5,
d2,
ef,
dd,
09,
fe,
f3,
02,
06,
34,
06,
f1,
ef,
fc,
0b,
ee,
12,
07,
01,
17,
02,
f3,
07,
ff,
0a,
0c,
c8,
da,
0f,
e5,
e3,
f4,
11,
1a,
00,
fa,
9c,
d7,
de,
05,
22,
f9,
ed,
fd,
f4,
e0,
15,
f7,
f3,
08,
03,
09,
0b,
de,
48,
fb,
04,
d3,
f3,
0d,
0a,
08,
fd,
d6,
f1,
f8,
ff,
f5,
0a,
25,
19,
13,
f7,
d8,
0c,
ed,
f6,
f7,
04,
02,
fe,
ed,
f3,
e3,
f7,
e8,
ee,
08,
ee,
0b,
b4,
26,
1b,
22,
17,
e5,
11,
f4,
e6,
e0,
29,
e9,
19,
b2,
eb,
03,
01,
e2,
5b,
23,
e9,
fe,
0f,
ef,
fb,
f3,
0c,
d8,
fd,
fa,
06,
fd,
0b,
03,
07,
07,
0b,
fa,
f9,
16,
05,
11,
05,
fc,
0b,
59,
bd,
e2,
ea,
11,
fd,
fa,
ff,
f8,
ed,
d3,
21,
dc,
03,
f0,
01,
e7,
10,
3e,
4a,
f0,
fa,
d7,
0a,
ff,
fd,
b7,
d3,
fa,
e8,
10,
ee,
11,
11,
f7,
ef,
01,
e3,
03,
11,
fb,
f3,
ff,
ec,
ee,
2e,
f8,
c5,
02,
d8,
11,
3c,
f5,
f3,
81,
bb,
e0,
f7,
ff,
f7,
0e,
ed,
08,
27,
11,
e8,
d8,
bf,
0c,
20,
ff,
d3,
5f,
e4,
d8,
53,
fc,
0a,
fa,
f7,
04,
05,
09,
03,
f6,
e3,
02,
fd,
07,
0d,
14,
19,
f1,
09,
eb,
f2,
fb,
f6,
ef,
1e,
e8,
2a,
3f,
f8,
f1,
f3,
f7,
28,
fc,
1a,
f1,
fa,
02,
df,
31,
0b,
08,
d8,
08,
03,
00,
02,
05,
f1,
ff,
e7,
ae,
f3,
f7,
f1,
02,
00,
fc,
04,
fa,
f0,
fe,
02,
de,
f5,
e3,
0c,
f5,
0a,
df,
ec,
0e,
ec,
f3,
0a,
1e,
00,
d9,
0d,
ff,
1e,
0d,
11,
01,
f5,
00,
0d,
07,
01,
28,
d2,
f5,
fe,
fa,
fc,
e6,
d3,
0e,
fb,
0b,
fd,
f5,
08,
04,
14,
cd,
ff,
05,
ed,
00,
eb,
1f,
fa,
12,
23,
e8,
9a,
e9,
1c,
f9,
f0,
fd,
ff,
1e,
f5,
fe,
0d,
f6,
e2,
08,
f8,
d3,
07,
e6,
03,
ed,
fa,
0c,
18,
f4,
f3,
c4,
eb,
f0,
f2,
0b,
ed,
fd,
fb,
21,
1d,
f3,
16,
09,
fd,
0b,
f1,
01,
1f,
e9,
05,
18,
fe,
15,
17,
3c,
33,
f2,
48,
f0,
ee,
24,
0b,
fd,
0c,
0b,
05,
02,
1d,
07,
17,
08,
02,
17,
0f,
00,
25,
f6,
ec,
15,
f8,
0f,
f3,
19,
f3,
0c,
04,
18,
06,
0e,
f4,
ee,
fe,
ad,
12,
00,
da,
06,
fa,
15,
ed,
00,
0e,
53,
00,
fe,
f1,
ff,
e9,
14,
fd,
de,
fc,
e7,
08,
f5,
00,
ff,
08,
03,
0f,
09,
0d,
f7,
ef,
fc,
02,
e9,
d9,
1f,
ab,
e5,
14,
f1,
06,
ed,
ce,
3c,
16,
a1,
ed,
f2,
e9,
1a,
ef,
04,
f2,
f1,
1d,
0b,
fe,
0b,
09,
10,
ed,
01,
7f,
4c,
02,
e6,
13,
eb,
03,
fc,
0d,
fe,
1c,
3e,
f6,
f7,
0d,
f9,
00,
0a,
e7,
d1,
e4,
0b,
d6,
fe,
07,
fc,
02,
12,
17,
1a,
0a,
05,
d7,
fa,
f7,
17,
f7,
23,
41,
fc,
0c,
06,
f3,
fe,
0f,
f7,
ea,
fc,
09,
34,
0d,
0d,
07,
eb,
03,
fb,
eb,
fd,
f2,
ec,
27,
1d,
fc,
0d,
36,
f2,
14,
f6,
f3,
f9,
01,
11,
26,
53,
1b,
f1,
0a,
02,
f3,
0a,
f9,
ef,
00,
ea,
f9,
0d,
00,
08,
17,
eb,
3b,
18,
18,
ff,
1a,
09,
1e,
5d,
0b,
bc,
22,
04,
d5,
ed,
f6,
ee,
ef,
fe,
eb,
28,
33,
09,
21,
ef,
0e,
f7,
12,
1b,
1c,
18,
0c,
f3,
06,
fc,
ff,
16,
fb,
f1,
f0,
06,
07,
fb,
ef,
e7,
03,
44,
4d,
00,
ed,
e4,
f3,
16,
d4,
f7,
05,
b6,
ea,
08,
04,
02,
cd,
f0,
f9,
ba,
e9,
0b,
f8,
02,
0d,
08,
02,
f5,
fd,
19,
ff,
f2,
11,
11,
12,
21,
11,
e7,
f4,
02,
2e,
15,
17,
0c,
03,
fd,
f8,
d7,
f7,
20,
1a,
ee,
e1,
3d,
19,
08,
24,
ba,
f5,
f4,
0b,
04,
01,
07,
1a,
0c,
05,
ec,
bd,
de,
f2,
e6,
e1,
f5,
26,
17,
fa,
08,
f9,
c3,
d6,
01,
0f,
81,
d7,
ee,
01,
0a,
ed,
0c,
f9,
13,
38,
f1,
03,
1c,
06,
0d,
11,
14,
fc,
b5,
20,
fb,
19,
0c,
0b,
22,
10,
21,
19,
00,
02,
1a,
fb,
ec,
fd,
0f,
f2,
e0,
dd,
df,
e6,
19,
d8,
08,
f2,
2e,
47,
00,
0b,
ff,
e8,
03,
00,
0f,
ef,
ea,
fb,
f9,
eb,
09,
0b,
fa,
03,
f3,
ee,
0c,
eb,
05,
f4,
08,
06,
0a,
1d,
37,
e9,
f3,
d3,
fa,
0b,
f5,
f8,
0c,
fe,
16,
e5,
f6,
01,
05,
ef,
03,
17,
d7,
df,
06,
20,
0a,
10,
15,
fd,
df,
e4,
f3,
0d,
1b,
2c,
fe,
e9,
04,
fa,
e7,
4a,
04,
cf,
19,
0b,
0f,
19,
e3,
81,
f5,
07,
e1,
1e,
f5,
f6,
e6,
08,
f6,
f3,
f2,
04,
04,
00,
0e,
05,
02,
ed,
30,
0f,
10,
f9,
19,
fc,
01,
e7,
f0,
1a,
ef,
09,
03,
02,
06,
fd,
11,
05,
18,
08,
f2,
04,
eb,
0d,
07,
f9,
f2,
11,
e6,
cc,
0b,
0e,
03,
07,
0f,
e6,
fb,
04,
e8,
ea,
f3,
eb,
f7,
de,
31,
f3,
e6,
e8,
fd,
fc,
21,
11,
ee,
14,
0c,
09,
05,
05,
e4,
cc,
f8,
09,
e0,
09,
07,
fe,
fe,
04,
ec,
0d,
44,
59,
29,
27,
14,
e3,
f7,
e1,
f4,
01,
e9,
e8,
00,
fe,
f3,
fb,
09,
02,
f7,
ed,
ff,
ee,
cb,
e7,
02,
06,
28,
ee,
f3,
fa,
0d,
0b,
f4,
02,
1d,
13,
02,
09,
18,
fc,
ed,
ef,
fd,
0f,
01,
e8,
ff,
f4,
c7,
c4,
0e,
ea,
c2,
8c,
1f,
3a,
1d,
39,
04,
01,
00,
ff,
e9,
f8,
ff,
c5,
00,
51,
f6,
0a,
13,
1b,
07,
b0,
f5,
14,
25,
12,
e7,
f3,
f7,
26,
42,
09,
e9,
c8,
f5,
01,
2b,
08,
01,
3c,
eb,
ba,
df,
1a,
ff,
ee,
c3,
f0,
2e,
f8,
12,
24,
02,
04,
fb,
fc,
11,
50,
04,
ec,
d4,
fe,
09,
fe,
0e,
fc,
f7,
fc,
04,
f6,
ff,
dc,
2d,
16,
a6,
9f,
e6,
e6,
f2,
f0,
fd,
14,
ed,
fa,
08,
04,
f0,
00,
fa,
f0,
03,
ff,
e6,
09,
05,
f7,
f0,
ff,
0b,
cb,
d7,
60,
ba,
f6,
40,
36,
1d,
f8,
05,
fb,
fe,
06,
db,
0c,
44,
14,
ed,
18,
ef,
ec,
f4,
1b,
09,
f3,
0a,
05,
f6,
0d,
f8,
06,
1d,
17,
00,
07,
f5,
ee,
28,
0c,
0c,
34,
04,
f3,
2a,
04,
06,
fe,
0a,
f1,
12,
05,
1d,
f8,
0e,
f8,
0f,
0e,
04,
02,
fd,
f6,
0f,
09,
e1,
e1,
f0,
f2,
f0,
05,
ea,
f2,
ee,
dd,
f7,
dd,
c9,
03,
db,
ee,
02,
ff,
08,
fd,
ee,
d2,
fc,
02,
d5,
16,
0b,
29,
f6,
07,
1d,
16,
fd,
1b,
f6,
18,
df,
00,
f2,
e9,
11,
fb,
f3,
03,
03,
28,
09,
fb,
04,
f7,
10,
19,
f1,
f7,
9a,
c1,
f6,
81,
d6,
02,
be,
e6,
eb,
bb,
05,
e5,
bc,
f6,
f3,
ce,
04,
db,
03,
0c,
0e,
2b,
09,
28,
11,
fc,
02,
bb,
ef,
f4,
ba,
e1,
ff,
de,
e7,
f6,
f5,
03,
ea,
b3,
f8,
fb,
d3,
fb,
f9,
fc,
07,
f6,
db,
f8,
f4,
f3,
fa,
f3,
10,
ee,
ee,
25,
01,
f9,
24,
f1,
fd,
1e,
0b,
f3,
21,
0c,
00,
17,
01,
0b,
ea,
ff,
fb,
0c,
11,
12,
e1,
e6,
02,
06,
f7,
0a,
e5,
d1,
ed,
e7,
e0,
0e,
be,
c6,
fb,
be,
da,
ff,
f1,
fc,
0e,
25,
f7,
fc,
f2,
c0,
fd,
1b,
02,
00,
18,
fb,
19,
57,
fe,
18,
15,
02,
ff,
f8,
f8,
df,
02,
fd,
f7,
02,
0a,
f3,
08,
18,
d5,
f5,
01,
02,
f1,
f9,
02,
f5,
e7,
0f,
30,
03,
05,
06,
04,
f0,
fa,
0d,
eb,
f1,
0b,
e5,
da,
0b,
ee,
e3,
02,
eb,
db,
11,
ee,
f5,
15,
05,
03,
fc,
0f,
f4,
14,
f3,
e8,
10,
1f,
f0,
eb,
f9,
e1,
05,
fb,
df,
07,
01,
07,
e5,
f6,
e7,
cd,
f8,
ef,
e5,
1b,
e8,
f8,
f5,
f5,
fe,
02,
c5,
dc,
f9,
d6,
0d,
15,
be,
f9,
cd,
df,
02,
e8,
19,
ff,
ff,
4e,
08,
12,
2f,
c7,
fe,
0b,
0e,
02,
e8,
fb,
e8,
f7,
ed,
07,
1b,
fa,
1b,
1e,
d3,
ff,
f0,
e7,
ce,
85,
eb,
72,
5b,
27,
ed,
1a,
fe,
d7,
de,
e1,
0a,
17,
0b,
ed,
1e,
11,
ff,
f5,
f3,
22,
24,
e5,
e9,
15,
0b,
10,
0a,
fb,
22,
aa,
13,
ce,
de,
f5,
2b,
f2,
0b,
0f,
05,
f4,
4a,
0b,
00,
fb,
16,
f5,
53,
b8,
3a,
6f,
ce,
0c,
01,
e6,
fb,
11,
0e,
ec,
02,
f4,
02,
f8,
cb,
f3,
56,
39,
0b,
02,
18,
06,
0b,
11,
f3,
bb,
15,
25,
0e,
29,
f6,
24,
9f,
d7,
fa,
75,
e4,
f6,
29,
f2,
fb,
f8,
ed,
05,
f8,
ee,
2c,
17,
08,
f7,
1a,
f9,
15,
ff,
ff,
f6,
03,
02,
e8,
13,
fe,
81,
74,
1f,
ea,
e5,
04,
03,
22,
eb,
2c,
c1,
b9,
ff,
2a,
ed,
04,
39,
f3,
e7,
24,
1d,
c0,
17,
05,
f8,
09,
f0,
e5,
21,
0c,
12,
a3,
d5,
f9,
e0,
fa,
e8,
30,
03,
07,
ff,
1a,
f4,
55,
1a,
df,
27,
13,
ea,
ad,
db,
da,
02,
fa,
94,
05,
05,
be,
db,
e4,
06,
f7,
01,
3c,
b6,
ff,
12,
23,
09,
02,
fd,
fb,
2f,
90,
f7,
08,
38,
0e,
10,
08,
e5,
f7,
2a,
22,
1b,
2e,
fd,
21,
0b,
f2,
4f,
4d,
01,
07,
fc,
fb,
02,
e4,
e8,
4c,
4b,
c3,
e7,
f4,
fe,
f7,
ed,
09,
15,
d5,
04,
f6,
e6,
ea,
0e,
2b,
0c,
d2,
f3,
f8,
d1,
35,
ff,
04,
ef,
ef,
1d,
29,
f4,
f3,
ba,
ec,
06,
12,
0c,
2d,
37,
1b,
f2,
de,
e5,
ed,
d9,
23,
e9,
d1,
5b,
ed,
db,
27,
01,
f9,
fc,
f4,
fc,
0e,
08,
d4,
f0,
fa,
f2,
fa,
37,
40,
1b,
11,
09,
e7,
01,
f3,
ff,
ff,
c5,
f5,
06,
fb,
db,
12,
08,
00,
ea,
07,
09,
e8,
ef,
fb,
10,
39,
01,
1f,
01,
f5,
01,
f1,
f8,
0b,
fb,
10,
fe,
27,
f8,
ef,
de,
fb,
22,
14,
0a,
1d,
f0,
0b,
f7,
ea,
f3,
1b,
e4,
fe,
43,
c5,
f3,
13,
e1,
16,
fc,
dd,
03,
f0,
1f,
19,
0f,
19,
09,
f6,
f3,
0b,
03,
e6,
ff,
f0,
0e,
ff,
07,
0a,
fa,
12,
19,
01,
f9,
04,
f8,
f9,
31,
ff,
15,
51,
fc,
0b,
03,
fc,
f5,
ff,
05,
05,
02,
0a,
03,
f1,
fd,
12,
12,
06,
47,
a4,
ef,
1f,
f6,
05,
00,
fa,
e8,
ee,
cd,
f3,
fc,
ef,
fd,
10,
f6,
e3,
ff,
47,
14,
02,
07,
f7,
ed,
0b,
03,
d0,
d2,
cf,
e6,
d3,
f2,
1a,
29,
0e,
20,
19,
fe,
16,
01,
f4,
fa,
02,
f7,
02,
15,
1e,
04,
e5,
22,
ec,
e7,
f0,
fd,
e0,
10,
00,
0d,
15,
fa,
37,
dd,
14,
0a,
20,
00,
d4,
0f,
18,
06,
f9,
ec,
ed,
ef,
d7,
ea,
00,
1d,
15,
03,
01,
bb,
f6,
f8,
00,
f7,
10,
c2,
e8,
43,
81,
d8,
13,
23,
13,
14,
11,
f0,
20,
e4,
d6,
10,
fa,
d6,
ec,
0a,
03,
00,
3c,
f1,
0e,
10,
17,
03,
08,
04,
f6,
02,
32,
04,
ef,
f5,
fc,
eb,
f8,
c3,
86,
f6,
03,
0d,
05,
e6,
f2,
f1,
d5,
29,
04,
01,
20,
04,
04,
f4,
ed,
e7,
b6,
d2,
08,
0c,
f8,
05,
06,
ec,
eb,
05,
f9,
23,
0c,
15,
04,
f6,
f0,
24,
7f,
e1,
fd,
02,
da,
ff,
f7,
10,
02,
0b,
bc,
f5,
08,
cf,
fe,
13,
02,
12,
f6,
f7,
fa,
1f,
fa,
fd,
c8,
f9,
fa,
b7,
2d,
fd,
07,
27,
ee,
0c,
05,
13,
29,
08,
ff,
17,
e1,
06,
1d,
fc,
24,
24,
12,
fe,
f8,
05,
e9,
e8,
fc,
0b,
b9,
12,
09,
75,
fa,
0a,
f1,
f1,
00,
08,
10,
e4,
07,
02,
1d,
c6,
e3,
12,
04,
c4,
2b,
45,
ea,
02,
00,
08,
ec,
3d,
fe,
0b,
1c,
dd,
06,
10,
0f,
11,
f8,
03,
08,
f3,
16,
f1,
ca,
ff,
f7,
e5,
f3,
ff,
10,
f1,
f3,
20,
09,
10,
50,
f6,
e4,
14,
05,
02,
f3,
f1,
fe,
f6,
e4,
f5,
01,
e3,
f8,
ef,
03,
fa,
e0,
07,
07,
ec,
04,
f8,
fc,
f0,
ff,
f6,
fb,
09,
0e,
0b,
fc,
98,
ef,
b8,
45,
ff,
e5,
04,
ee,
ef,
07,
ea,
f2,
f5,
f2,
fa,
fa,
ef,
17,
ff,
2a,
00,
c5,
f7,
06,
03,
fe,
01,
ee,
01,
14,
ca,
fb,
f4,
af,
e3,
f8,
14,
2e,
08,
c6,
f4,
fe,
d4,
00,
0e,
52,
39,
52,
39,
18,
22,
1d,
18,
05,
eb,
04,
04,
d2,
0c,
d1,
fe,
06,
fe,
f9,
ff,
0a,
d4,
dc,
ee,
e5,
ec,
10,
0a,
f9,
ee,
50,
20,
03,
cf,
f1,
fe,
d9,
05,
e5,
f3,
22,
ef,
ea,
15,
f6,
00,
f3,
16,
11,
f7,
1f,
0b,
f8,
04,
0b,
09,
1a,
19,
e2,
11,
ef,
12,
fd,
f7,
ef,
fe,
3a,
f4,
dd,
a7,
e9,
e8,
fc,
0a,
01,
52,
1b,
e0,
2d,
06,
0a,
fa,
f3,
0b,
cc,
f6,
ed,
db,
db,
0c,
e2,
e1,
0f,
81,
ea,
f9,
a7,
f1,
f5,
01,
12,
0a,
f8,
23,
dd,
10,
e0,
fe,
fb,
de,
19,
32,
df,
f2,
f8,
33,
0d,
ff,
f8,
0e,
c0,
0e,
fe,
d2,
dc,
0e,
04,
eb,
e4,
aa,
20,
f7,
0d,
19,
ed,
14,
00,
24,
25,
ea,
17,
1f,
13,
d8,
fe,
03,
1a,
0d,
10,
0a,
ff,
dc,
ea,
e6,
09,
da,
ae,
eb,
d7,
a7,
cb,
f4,
14,
08,
f7,
7b,
cb,
e7,
55,
0e,
23,
b9,
fb,
1c,
4c,
27,
55,
2b,
34,
0a,
e8,
e8,
31,
b2,
e3,
06,
17,
38,
f6,
a0,
e4,
e5,
ed,
0b,
f5,
f8,
01,
08,
0f,
0b,
1b,
2d,
02,
ea,
fc,
03,
17,
d8,
fd,
0b,
3f,
04,
14,
d9,
e7,
13,
f4,
28,
16,
f6,
44,
09,
f0,
fc,
0e,
1d,
f2,
18,
65,
fc,
f4,
0a,
0e,
ed,
f7,
e7,
fb,
d8,
15,
04,
ff,
0a,
0d,
15,
1f,
fc,
17,
ee,
02,
3d,
e8,
f8,
f5,
e6,
3f,
ee,
3c,
09,
29,
f6,
38,
26,
ff,
de,
1d,
c9,
eb,
e8,
e9,
0e,
ff,
f8,
f4,
19,
b7,
17,
dc,
5d,
02,
0a,
05,
f1,
d6,
e8,
00,
d7,
df,
25,
59,
01,
f7,
4a,
49,
ee,
1a,
57,
d9,
07,
05,
f5,
32,
10,
38,
13,
fa,
d8,
0a,
e0,
f8,
d3,
df,
01,
29,
e2,
0b,
15,
16,
2e,
00,
1a,
fe,
de,
f6,
e8,
d4,
f3,
ec,
c0,
9a,
13,
ea,
25,
01,
01,
10,
43,
21,
36,
d9,
0c,
23,
1a,
fd,
e3,
13,
e3,
c7,
10,
0b,
e4,
ec,
09,
fc,
f4,
00,
f3,
12,
57,
23,
d9,
12,
0a,
d0,
dc,
3d,
ee,
d6,
00,
f4,
09,
05,
df,
1c,
be,
19,
14,
35,
e4,
db,
fd,
10,
2f,
00,
e3,
f6,
04,
02,
08,
f1,
00,
09,
f0,
03,
00,
f4,
fe,
ff,
f1,
fd,
07,
01,
04,
f4,
ee,
06,
f6,
0b,
fb,
0f,
07,
df,
fa,
fa,
01,
15,
e1,
1b,
0c,
cb,
11,
ff,
da,
0c,
f3,
f8,
26,
21,
00,
03,
ff,
f6,
f7,
e3,
f7,
f3,
d8,
05,
0a,
ff,
04,
fd,
f8,
fe,
fd,
ec,
fd,
05,
0a,
fd,
0b,
03,
06,
00,
19,
db,
ff,
fb,
e8,
12,
7f,
38,
02,
ea,
14,
c8,
bd,
dd,
fb,
d3,
ea,
10,
45,
05,
02,
f7,
fe,
fc,
f2,
f5,
fc,
01,
fd,
03,
f7,
06,
09,
f6,
fa,
f1,
0c,
12,
0b,
01,
02,
23,
01,
04,
f7,
fd,
ec,
fb,
16,
04,
10,
00,
0c,
f7,
0d,
06,
fa,
05,
fd,
ff,
11,
fd,
1f,
03,
06,
fa,
ff,
0a,
f8,
f0,
fd,
f7,
d0,
f4,
0c,
0d,
0f,
ec,
fd,
ec,
ec,
24,
09,
df,
20,
ec,
ef,
df,
06,
00,
00,
0a,
17,
10,
0e,
fa,
2e,
0c,
f1,
de,
21,
ef,
eb,
f0,
10,
05,
fd,
f6,
e5,
ee,
18,
14,
e9,
04,
1d,
09,
06,
f6,
f7,
f9,
f7,
f3,
dd,
b0,
e4,
ef,
c8,
1a,
f9,
0a,
16,
ff,
f5,
0d,
2e,
d0,
ef,
fe,
09,
01,
ef,
f5,
08,
1a,
30,
40,
06,
ed,
24,
f1,
1d,
05,
fc,
1b,
12,
fb,
05,
07,
f8,
01,
ff,
fe,
07,
e4,
02,
04,
0e,
f9,
ee,
1b,
0a,
ee,
eb,
10,
05,
f7,
05,
f6,
09,
fc,
f4,
fa,
0e,
06,
0c,
f8,
0a,
01,
1f,
32,
08,
fd,
e6,
f4,
ff,
cf,
f5,
e0,
0a,
01,
fe,
07,
f7,
fd,
04,
0d,
fc,
f5,
e3,
07,
f5,
f6,
f9,
f6,
00,
ff,
e3,
f8,
fc,
f9,
fc,
fa,
f3,
0a,
e8,
81,
eb,
09,
01,
f4,
ff,
f3,
00,
03,
02,
01,
f8,
08,
fe,
08,
03,
05,
07,
03,
05,
ff,
05,
fe,
fb,
e8,
00,
fe,
0f,
00,
ff,
fa,
04,
00,
14,
02,
f6,
f9,
fb,
f6,
0a,
fc,
0a,
fd,
00,
05,
fc,
05,
01,
01,
02,
fd,
fb,
fd,
ca,
ee,
05,
05,
f8,
fa,
fd,
00,
05,
f9,
ff,
01,
fd,
f9,
ff,
1a,
ed,
ff,
01,
01,
0a,
09,
08,
00,
04,
f2,
03,
ff,
ee,
fe,
ff,
0d,
01,
08,
0b,
fb,
fe,
01,
fb,
ff,
00,
00,
03,
fe,
05,
f9,
fd,
02,
00,
fc,
00,
fd,
f6,
03,
07,
ff,
00,
08,
06,
fd,
04,
f6,
06,
fd,
03,
f6,
fd,
00,
fd,
fd,
fd,
f5,
17,
e9,
fa,
f8,
ff,
01,
f4,
f7,
fb,
f8,
00,
fb,
ff,
f6,
fb,
1f,
05,
02,
fa,
e2,
16,
01,
ed,
00,
fb,
f6,
f7,
ea,
fd,
f9,
f9,
00,
02,
f9,
ff,
10,
12,
e6,
07,
01,
01,
06,
ff,
02,
09,
ff,
f2,
f2,
04,
13,
01,
fe,
0e,
01,
02,
f9,
04,
fe,
01,
02,
fb,
11,
ef,
05,
06,
fb,
02,
fd,
02,
e8,
11,
07,
f5,
00,
fc,
0e,
03,
00,
ff,
df,
ee,
0d,
05,
fe,
ff,
fc,
04,
fe,
f2,
fb,
13,
08,
05,
f8,
fe,
01,
0b,
fe,
00,
0b,
37,
06,
02,
02,
03,
ee,
fd,
07,
fc,
f4,
06,
f9,
fc,
03,
fe,
02,
fd,
f6,
0b,
13,
04,
05,
fd,
01,
f9,
0a,
1f,
f2,
fe,
08,
06,
06,
09,
f6,
fc,
0f,
fb,
fa,
05,
0d,
fc,
fd,
fc,
ff,
01,
05,
f8,
fe,
04,
fe,
e2,
2b,
fe,
0b,
94,
0b,
06,
d6,
fc,
f7,
d7,
17,
f2,
34,
fd,
06,
e8,
f8,
f8,
d2,
2e,
0e,
1c,
ad,
01,
0a,
f7,
18,
21,
18,
01,
07,
14,
09,
e8,
f2,
1a,
07,
04,
f3,
0a,
ef,
0c,
02,
f2,
db,
f6,
ea,
eb,
3b,
16,
04,
f6,
f5,
f9,
e6,
09,
12,
e9,
08,
06,
07,
09,
f4,
ed,
01,
b6,
19,
12,
08,
f8,
0c,
d2,
11,
1c,
2a,
f1,
ef,
19,
0b,
02,
ea,
17,
0a,
33,
e4,
0d,
f9,
fd,
fe,
0a,
bf,
21,
00,
df,
2c,
08,
3f,
de,
04,
0a,
f4,
05,
0c,
04,
f5,
05,
fe,
f3,
13,
f3,
ea,
16,
02,
f1,
fa,
ef,
db,
dc,
13,
2a,
d7,
fc,
2e,
ea,
f4,
12,
e0,
06,
06,
cf,
1d,
07,
f0,
0c,
fb,
f3,
00,
19,
e9,
f5,
1a,
11,
03,
de,
09,
f6,
13,
fb,
e9,
f9,
fa,
fb,
40,
0a,
01,
d5,
e1,
fd,
fe,
fa,
14,
f9,
13,
06,
f5,
02,
e4,
02,
0f,
f6,
07,
df,
08,
06,
ca,
e6,
00,
eb,
07,
fe,
db,
f8,
01,
2b,
10,
06,
eb,
f9,
ff,
33,
da,
e2,
07,
21,
fd,
f7,
ff,
e2,
01,
06,
29,
cd,
eb,
03,
29,
ed,
81,
55,
0b,
45,
df,
e5,
26,
d4,
0a,
0b,
fd,
0c,
10,
e2,
e8,
f7,
f4,
03,
f7,
11,
11,
f0,
f5,
fd,
08,
1b,
fa,
05,
d4,
ff,
e4,
0e,
e8,
08,
19,
fe,
83,
2c,
13,
1e,
42,
2b,
f4,
0b,
0e,
08,
0f,
e1,
e3,
53,
1b,
f6,
06,
ea,
05,
e9,
fa,
43,
f8,
f2,
f6,
0c,
ff,
95,
15,
1e,
cd,
04,
fb,
ff,
ff,
e5,
08,
f0,
cc,
fe,
18,
eb,
f4,
f6,
fb,
0f,
09,
fc,
f1,
fc,
f1,
04,
f9,
03,
09,
14,
01,
0e,
0b,
22,
fc,
10,
f6,
fb,
0e,
f8,
fd,
11,
f5,
01,
15,
0a,
04,
00,
fb,
f1,
ed,
02,
f0,
ed,
f8,
f5,
e6,
02,
03,
e0,
00,
f7,
09,
0b,
f3,
fc,
09,
0b,
ee,
f1,
08,
16,
fc,
f9,
ed,
0e,
ee,
de,
06,
fd,
fb,
00,
fc,
00,
fc,
ea,
a8,
06,
e9,
a0,
f7,
fb,
fb,
0f,
02,
09,
10,
05,
ee,
07,
0f,
ed,
f2,
16,
f9,
f6,
0f,
20,
ed,
09,
eb,
00,
0b,
cd,
e7,
17,
fa,
01,
08,
ea,
00,
0a,
e7,
04,
05,
f7,
fc,
f4,
f7,
07,
fe,
df,
00,
00,
00,
fc,
0c,
01,
01,
02,
f4,
f4,
ef,
fd,
1b,
0c,
01,
0a,
03,
0e,
0f,
fa,
11,
09,
ff,
ff,
fd,
05,
fc,
08,
0c,
ed,
09,
06,
f8,
fc,
05,
d9,
f9,
fe,
f6,
fa,
fe,
f6,
07,
e5,
fc,
e7,
f5,
f7,
18,
fc,
e5,
f6,
08,
ee,
fe,
08,
05,
00,
18,
23,
25,
f2,
0f,
1d,
e6,
0a,
0b,
fb,
02,
fe,
ff,
f2,
ee,
01,
de,
e4,
00,
e9,
ee,
fb,
b0,
ca,
ff,
df,
e4,
fd,
27,
e3,
0d,
2c,
01,
ed,
e5,
d6,
ff,
05,
0a,
21,
16,
12,
01,
ef,
f6,
fd,
f5,
f5,
ff,
cd,
fc,
02,
f3,
04,
03,
1c,
0e,
02,
f1,
0b,
12,
f5,
0b,
08,
f7,
09,
02,
f0,
09,
fa,
fa,
05,
d3,
cd,
f8,
eb,
c4,
f9,
0d,
f2,
f3,
fa,
05,
f9,
0a,
13,
ef,
02,
f8,
f6,
fd,
e8,
02,
ea,
81,
f4,
eb,
a2,
f4,
d8,
dd,
e2,
d8,
e2,
0f,
f3,
f7,
f5,
02,
f6,
fb,
0b,
f1,
e4,
f5,
e1,
e5,
eb,
e7,
00,
e9,
8c,
e7,
f1,
f1,
08,
00,
f1,
f9,
20,
e9,
22,
fd,
e9,
f4,
06,
fb,
f0,
10,
f8,
ae,
ee,
f6,
e8,
fe,
fd,
fb,
e9,
eb,
23,
0a,
55,
18,
fd,
e2,
07,
0c,
c6,
eb,
fc,
f1,
0f,
f9,
d8,
e6,
01,
19,
f8,
fb,
0e,
18,
24,
06,
f7,
d2,
af,
df,
f8,
f6,
fb,
f6,
0b,
f8,
fb,
34,
fb,
14,
f4,
0c,
d7,
01,
05,
12,
c3,
4e,
ff,
d3,
09,
04,
ff,
18,
eb,
e6,
00,
f8,
1e,
f7,
10,
17,
1c,
05,
06,
ef,
f8,
04,
07,
fe,
12,
11,
ff,
fb,
05,
10,
00,
03,
00,
e8,
e7,
f0,
ca,
e8,
fd,
06,
06,
0a,
0f,
f9,
3f,
1d,
06,
ec,
11,
19,
f5,
2a,
ee,
f2,
1e,
ca,
fe,
17,
05,
12,
06,
f9,
c0,
cd,
17,
01,
ef,
10,
f5,
05,
12,
c9,
81,
d4,
e1,
ff,
fb,
0b,
04,
03,
1d,
39,
20,
0d,
16,
ff,
0d,
0a,
ff,
fa,
f3,
f8,
14,
01,
ea,
f5,
f6,
fc,
0d,
1a,
43,
f6,
11,
06,
0c,
fc,
0d,
e5,
e3,
f2,
f2,
df,
06,
06,
05,
18,
fd,
00,
13,
09,
f1,
f9,
08,
07,
f1,
05,
bc,
fc,
01,
fc,
d7,
f9,
d7,
01,
f7,
cc,
11,
f4,
02,
f6,
df,
d8,
fb,
03,
0a,
20,
fe,
cc,
f1,
0a,
e2,
f0,
ee,
f6,
2f,
ed,
f5,
e3,
e7,
e3,
f2,
1e,
f6,
f9,
f9,
ff,
18,
d9,
0f,
06,
fb,
59,
0a,
1f,
ee,
e8,
fd,
dd,
eb,
08,
ef,
ca,
ff,
f2,
03,
fe,
05,
09,
21,
21,
14,
0f,
1d,
fc,
35,
43,
0b,
df,
05,
f5,
d3,
08,
09,
fa,
f8,
00,
e1,
e3,
aa,
f3,
f2,
ea,
fa,
f2,
f3,
03,
f0,
e4,
1b,
f3,
fb,
fe,
e1,
eb,
ff,
43,
9c,
fb,
f7,
d5,
f8,
f5,
0b,
fe,
21,
cc,
0b,
de,
fd,
f3,
fc,
ff,
fc,
be,
f9,
0b,
ee,
0b,
12,
17,
eb,
f7,
16,
b6,
fe,
db,
e9,
03,
fc,
1d,
f6,
d8,
02,
02,
04,
07,
f8,
fc,
0f,
ed,
d8,
e8,
00,
f7,
f5,
02,
ef,
00,
e9,
81,
13,
e7,
23,
e9,
f5,
e2,
fc,
08,
35,
20,
00,
f3,
f0,
e7,
3b,
06,
e9,
f3,
ff,
d7,
d5,
ec,
0d,
0b,
18,
e0,
c7,
d0,
0b,
02,
01,
f6,
18,
f2,
e4,
f1,
de,
02,
00,
f3,
f9,
eb,
17,
03,
13,
f8,
f5,
01,
01,
ff,
f1,
f9,
26,
01,
00,
06,
ed,
17,
02,
11,
0f,
fd,
29,
0c,
02,
f3,
04,
0c,
f6,
09,
1b,
11,
16,
01,
f4,
fa,
05,
e9,
08,
fc,
d8,
fe,
01,
f9,
0a,
28,
3a,
1f,
05,
d8,
fc,
20,
23,
18,
0b,
01,
fa,
e2,
fd,
2c,
fc,
e1,
fc,
fe,
05,
e9,
15,
f1,
30,
06,
e6,
09,
13,
09,
f2,
13,
19,
d4,
fd,
c4,
1c,
f3,
ed,
01,
04,
9f,
cc,
00,
14,
1c,
ff,
f9,
e1,
fe,
cc,
12,
f7,
f4,
0b,
d3,
07,
fe,
45,
f3,
0e,
cd,
f8,
06,
f0,
fc,
04,
d2,
00,
f2,
f3,
1e,
10,
0b,
ef,
f0,
ea,
4c,
ca,
19,
e1,
f0,
e2,
eb,
ed,
ca,
d1,
4d,
ef,
e5,
f2,
ee,
f8,
fe,
fe,
db,
ff,
12,
f6,
f4,
01,
04,
df,
0e,
4d,
f5,
fb,
f5,
07,
f5,
e6,
07,
da,
43,
dc,
ea,
ad,
f9,
0e,
45,
e8,
d1,
e9,
f1,
ef,
19,
f8,
fd,
f0,
02,
f6,
f5,
e9,
fc,
f7,
e4,
dc,
f4,
ef,
f9,
af,
dd,
ee,
02,
02,
f4,
e9,
07,
0e,
f6,
b9,
03,
14,
ed,
08,
07,
f3,
ef,
01,
81,
03,
09,
17,
00,
17,
0b,
ca,
d3,
01,
0c,
1a,
02,
f9,
f5,
e4,
ff,
cf,
ee,
f8,
0d,
0e,
1e,
02,
00,
dd,
6e,
04,
fe,
ee,
0b,
09,
f8,
f6,
11,
00,
12,
fe,
e7,
00,
03,
fc,
fd,
07,
fa,
1b,
f7,
16,
fe,
ff,
d0,
0a,
f0,
ea,
d3,
ec,
e3,
f3,
14,
e9,
f0,
f4,
5b,
e4,
ea,
f5,
14,
0b,
1f,
09,
f4,
0c,
e1,
eb,
e2,
f1,
fe,
fa,
eb,
fb,
12,
fb,
fc,
04,
08,
0c,
19,
fc,
fc,
45,
06,
00,
f2,
03,
f9,
1c,
00,
f5,
19,
00,
fc,
f3,
f8,
09,
fc,
eb,
04,
f1,
23,
00,
f5,
fb,
e7,
ea,
06,
dc,
79,
07,
f3,
ed,
02,
fb,
f7,
fb,
15,
4a,
1c,
fe,
f7,
f9,
09,
28,
f0,
08,
c3,
04,
0c,
ed,
df,
13,
0b,
fb,
05,
ec,
1e,
0f,
09,
20,
e6,
0f,
1c,
0a,
d9,
e1,
0a,
02,
f3,
04,
f7,
09,
f0,
0b,
f3,
0a,
fe,
0b,
03,
f7,
ff,
ff,
0e,
1e,
f5,
16,
f9,
f1,
db,
df,
06,
1a,
13,
f8,
07,
0a,
09,
f6,
05,
ed,
97,
04,
fb,
0e,
03,
eb,
e5,
02,
1c,
e2,
d0,
0b,
f2,
fc,
05,
db,
03,
00,
60,
00,
02,
e8,
ff,
fc,
02,
f9,
0e,
f8,
0c,
09,
05,
fb,
ee,
c1,
0f,
f9,
d6,
ef,
f5,
eb,
07,
fa,
1c,
0e,
f2,
ce,
2e,
f8,
00,
16,
10,
f6,
0f,
f7,
e6,
ea,
03,
d5,
06,
2f,
05,
fe,
23,
e3,
fd,
08,
07,
f6,
fb,
0c,
08,
0a,
2b,
0d,
f6,
10,
0a,
f5,
fd,
ff,
1f,
fc,
04,
0e,
0c,
df,
fd,
e6,
03,
0f,
f3,
f7,
0c,
ee,
f4,
02,
fb,
f5,
fd,
03,
c5,
03,
e4,
0c,
fd,
04,
f1,
03,
38,
2b,
08,
f8,
fa,
18,
f8,
01,
04,
e0,
ef,
fd,
00,
09,
23,
28,
f6,
ff,
28,
03,
ff,
e8,
fd,
f6,
e7,
f9,
01,
c4,
f5,
f5,
f9,
0c,
ff,
f1,
05,
f5,
d5,
fe,
07,
09,
ff,
01,
e4,
fb,
06,
f6,
e5,
12,
f3,
12,
02,
fb,
0e,
11,
e9,
08,
f0,
eb,
f7,
fb,
08,
11,
f1,
e8,
03,
ee,
13,
1b,
08,
08,
03,
f8,
f6,
f2,
fd,
1a,
fd,
28,
03,
ee,
e8,
0a,
15,
06,
02,
07,
f5,
0e,
ee,
13,
7f,
f3,
1c,
cc,
0e,
f9,
07,
fa,
03,
ec,
fc,
0c,
00,
0e,
fd,
e6,
f6,
17,
d6,
ed,
f8,
21,
fe,
04,
03,
f8,
fe,
f6,
e9,
fb,
fe,
f8,
f6,
25,
04,
f2,
e1,
f7,
14,
3b,
f6,
f5,
e8,
f6,
01,
e3,
f6,
05,
06,
02,
f1,
0e,
3a,
12,
38,
13,
0f,
ea,
00,
00,
f1,
f4,
f2,
16,
26,
06,
2e,
12,
08,
f4,
f4,
fa,
f7,
f0,
fe,
00,
f3,
fc,
0a,
f8,
0e,
0a,
ee,
05,
46,
16,
f0,
f5,
fb,
f4,
c6,
fe,
f5,
09,
05,
f7,
f7,
1f,
02,
0e,
0a,
fc,
f7,
ee,
15,
06,
0c,
04,
d2,
03,
01,
f5,
04,
11,
01,
f4,
e9,
0a,
06,
fa,
0b,
18,
28,
fc,
e8,
d8,
38,
0d,
dc,
1d,
0e,
ff,
04,
f1,
fc,
e7,
0a,
02,
07,
f2,
02,
04,
f8,
18,
1b,
fd,
f5,
01,
01,
e1,
2b,
0f,
2a,
d2,
eb,
fb,
c2,
e5,
fd,
fc,
fd,
02,
06,
27,
0d,
26,
1f;
