000000f6
fffffef2
000000dc
000000e4
fffffd37
000003e0
000001ea
ffffffc5
000001ac
ffffffef
ffffff5f
00000074
ffffffe1
ffffff3d
0000003f
00000042
000001c9
fffffdfb
fffffa8a
ffffff0e
ffffff0b
fffffdc8
0000001d
000001ee
00000165
00000029
ffffff66
000000a3
00000203
fffffee2
00000171
fffffd35
000000cb
fffffe39
0000003a
000000a0
00000073
00000183
fffffbe0
fffffe8c
fffffff8
0000009e
00000213
0000000a
fffffea8
fffffe09
ffffff30
fffffd19
000000c9
fffffe7a
000001e1
ffffff7c
00000086
000000f5
00000510
fffff8b1
fffffe39
00000423
ffffff3b
fffffe6c
fffffe23
fffffcb8
ffffffb3
ffffff6b
ffffff0e
fffff9dc
ffffff74
000000ab
fffffed2
ffffffe3
000000c1
0000022b
ffffff0c
0000016a
00000075
fffff66a
ffffff89
ffffffc5
0000006d
00000013
0000009b
ffffffd9
0000005f
ffffff53
ffffff99
ffffff6e
0000009c
000000e1
ffffffbb
fffffe98
000000de
00000232
00000204
000002cd
fffffb65
0000015e
fffff8d3
ffffff88
0000033e
00000110
00000029
000001d9
fffffd93
ffffff7a
fffffff8
fffffef5
0000007e
00000052
000001d2
fffffed5
ffffffb3
00000104
000002bb
00000012
fffffea9
ffffff06
fffffd02
00000033
000000da
fffffef3
00000123
fffffef5
00000124
fffffbc5
ffffff00
ffffff05
fffffae7
ffffff15
