f8
f2
f9
05
81
06
02
14
05
fe
0b
00
03
81
02
fd
ff
fc
eb
e9
e9
fa
81
fe
07
1f
0a
fa
fb
fa
04
81
08
06
0f
08
fb
e2
fb
f4
81
f5
05
39
0a
06
0f
08
06
81
03
02
fd
02
02
0a
03
ff
81
00
fb
fe
fc
02
04
04
03
81
04
f6
f8
f8
fd
0d
00
09
81
0a
00
07
01
01
03
02
fe
81
03
fe
06
ff
e9
fd
e7
fa
81
fe
ee
03
ef
f9
ee
f7
fa
81
04
fc
09
fc
fa
ec
f8
f4
81
fc
ee
ea
eb
fb
f5
f9
fb
81
01
fd
fe
fc
04
08
06
03
81
09
04
07
03
fc
02
fd
fd
81
00
fd
05
fc
02
0e
04
00
81
01
fb
e9
f9
ff
f8
fe
fa
81
fd
fd
08
00
fe
fe
ff
03
81
06
00
05
01
fa
f6
fa
fc
81
ff
03
0d
03
04
03
04
03
81
05
fc
f9
fa
08
1a
0b
00
81
01
fa
ef
fb
00
0c
01
00
81
04
fe
03
fe
fc
01
fc
fc
81
01
fe
04
fe
05
11
05
ff
81
04
f2
d6
ef
f8
f0
f7
fe
81
fe
fd
0e
00
03
20
06
03
81
00
01
ed
00
03
01
03
0a
81
0a
00
fa
00
db
c1
da
f4
81
fc
de
c9
d7
ff
f5
fc
00
81
02
ff
05
ff
ff
01
00
07
81
06
01
03
01
fd
fb
fe
00
81
03
01
02
00
f3
ee
f3
e8
81
ed
f7
e8
f4
fd
fe
fc
01
81
05
00
fb
02
fa
00
fb
0f
81
0f
ff
01
01
ea
c6
e3
e7
81
ec
05
1f
06
f0
02
f0
fc
81
01
f9
04
f8
09
01
0a
0c
81
0e
f0
d4
eb
0d
00
06
26
81
2b
11
0c
0f
e9
db
e6
da
81
e0
e5
f4
e7
fe
fb
f8
df
04
e8
e9
81
de
fc
e9
fa
05
81
0b
04
17
05
fd
fd
fc
ff
81
01
ff
fe
00
fa
f6
fa
06
81
0a
ff
0d
00
fc
cd
fc
ed
9c
ec
ff
81
fe
fc
01
fc
f7
81
fc
f3
d1
ee
fa
00
fa
f7
81
fa
fb
05
fb
fa
fc
f9
06
81
09
00
0a
02
fd
01
fd
01
81
03
ff
06
01
fc
fb
fb
fc
81
ff
fc
08
fc
f2
e0
ef
fa
81
fc
08
24
0d
fd
08
fd
fa
81
fe
fb
fe
fc
08
47
0f
ef
81
ec
f3
b8
f0
c1
81
bc
ee
a8
fb
fa
41
fb
ff
fc
ff
fe
81
00
03
05
03
fc
fe
fb
06
81
06
fe
07
00
1f
3d
1d
f1
81
f4
d1
b7
ce
f3
cc
f2
fe
81
fe
08
1d
0a
f6
ef
f6
fb
81
fe
03
2c
06
ca
dd
c1
c3
7f
ca
c3
e8
b9
00
fd
00
01
81
03
fd
00
fe
11
24
12
ec
81
f2
e8
bb
e2
e5
e2
de
94
81
a6
e9
be
dd
02
ff
03
04
81
06
02
05
03
e4
81
dd
f6
da
ec
19
55
27
fa
ac
f2
10
51
0e
01
81
fb
f7
0a
fa
dc
54
dd
c3
81
bd
df
81
d4
f3
07
f2
10
1b
17
e9
f7
11
81
02
65
d5
f6
20
06
16
0c
05
11
01
f8
81
ed
16
02
26
10
ec
05
e7
81
e3
f9
fc
fa
ff
81
f7
03
02
07
fa
0f
02
ef
81
e3
f7
e6
f5
04
0c
08
f5
81
ed
fa
ee
fa
fc
02
ff
fd
81
fa
01
f6
01
cc
81
c3
dd
90
cd
0a
26
14
fb
81
fa
fb
eb
ec
0b
f3
0a
ff
f8
06
e5
81
d7
ed
d6
ee
f7
f4
fa
f5
81
ee
fc
f8
ff
15
25
19
fa
f8
f3
f1
81
e8
fa
f8
fc
f6
81
f5
fd
f8
fe
f7
05
fa
fb
81
fb
06
09
07
f5
b6
f0
b4
7f
b9
f3
ce
f0
0d
19
10
f9
81
f1
ee
e2
ef
fc
fd
fd
f9
81
f6
fc
f4
fd
fb
f7
fc
f8
81
f5
00
01
01
d3
81
c5
ed
2a
eb
14
24
1a
f8
e3
f5
fd
81
fc
07
19
0b
0e
14
12
09
03
06
f5
81
eb
d1
81
c8
ec
f1
e7
2d
66
3b
fe
81
f7
1e
18
1b
04
f5
02
fd
ef
fd
fc
81
fd
ff
0f
01
fd
07
00
fe
81
f2
05
f5
06
03
ff
02
f2
81
eb
01
f4
04
cf
81
c7
ee
ff
e4
2e
18
34
0d
41
22
de
98
bd
df
81
d7
07
79
18
ec
81
d7
fe
9a
fc
37
6a
3e
ee
b8
e9
cb
81
c4
5a
22
5f
7f
92
76
40
2f
29
f2
81
ed
3e
ce
2f
15
b8
14
fd
e8
f9
b8
7f
91
f3
e5
e5
fb
f9
fd
05
81
fe
ff
f5
03
cb
f5
2f
81
e9
4f
dd
cb
26
00
fa
ff
e4
81
df
19
5f
20
32
3f
43
92
ca
81
b7
a2
aa
0c
19
12
04
db
f8
f4
81
ef
f0
e9
ee
b9
4b
aa
cc
81
c9
f3
81
ea
0e
05
0c
07
40
0b
fd
01
fe
00
81
f9
fa
ea
fc
f6
0a
fb
87
7f
81
ea
0a
ef
fb
02
02
f5
81
e7
fa
aa
f3
27
77
36
cc
91
b7
d7
81
d5
ef
e0
ee
92
7f
87
ed
02
f4
07
03
0b
fe
81
f4
04
f5
06
dc
04
0c
81
d1
60
d7
e5
3a
05
f9
04
02
81
fb
07
fc
09
14
f8
ee
4a
e7
81
20
da
d7
e8
d2
e8
95
7f
91
ed
e3
e6
ef
07
f3
eb
81
df
f4
f5
f8
de
81
d9
d3
1b
cf
22
6f
2c
f1
ef
f2
e8
81
e2
14
25
18
03
08
06
fe
81
f2
fd
d3
fd
12
ff
13
c3
f8
c5
dd
81
d9
23
21
28
11
b0
0f
ed
81
e7
1b
04
d6
4b
9d
81
36
e1
de
fc
09
01
dd
3c
d1
f1
81
e9
d8
c9
d3
f6
91
ef
3a
7f
42
04
ef
02
e7
c0
e1
fc
7f
08
