ffffffdf
00000555
ffffffba
00000526
00000307
000006af
00000414
000002f3
000001b4
fffffef8
ffffff8e
ffffff89
ffffffd6
00000245
000002dc
00000323
0000022b
000005b0
ffffffcf
0000039f
00000411
0000025b
00000395
fffffbbb
fffffa5f
00000219
fffffec6
00000884
fffffd5e
000001c9
0000007a
0000045b
00000413
fffffeaf
00000298
0000019a
00000172
000002db
ffffff6d
00000280
0000021f
0000056a
00000511
000007a1
00000272
000003da
0000012b
fffffd11
00000290
000000bb
000005ca
ffffff1e
fffffd12
000004fc
0000009f
0000012f
fffffef7
ffffff14
fffffffc
0000018a
000005c0
000005ef
fffffe3e
00000126
00000061
fffffe41
ffffff27
00000adb
000002df
000005d7
0000019d
000002d8
00000620
0000049c
0000033a
00000643
ffffff02
fffffd14
fffffda1
0000006f
