fe
11
04
fc
16
00
f5
fe
f9
f1
17
f8
dd
00
ea
e9
0a
f7
f0
18
f8
ff
18
fa
f0
30
d8
fd
ff
f5
07
06
ff
02
05
0d
0f
fa
e8
0c
f7
ed
00
fd
0c
ee
d7
f2
0b
08
0a
f2
e3
fc
f6
ff
fc
f9
06
fc
fa
fd
fc
ff
08
f7
fe
f9
f3
f1
08
ff
0a
0c
04
1e
06
0a
0a
f5
0a
c8
d9
ce
cd
ae
cc
fb
ea
ea
0a
0f
07
fb
fe
03
00
05
04
f8
f6
f8
05
00
f1
fe
fd
01
f2
ed
f5
f5
06
fc
00
fe
f9
ef
ea
f9
06
f7
f5
ec
07
06
f1
ea
ec
ec
ea
ee
f9
ff
01
ed
fe
08
ef
00
0c
f6
14
13
1e
4f
2c
05
33
15
f4
fb
f8
01
01
10
ec
ea
f5
f4
ff
fe
e4
d2
db
d1
c1
cb
c9
bb
c9
02
ea
ef
69
6b
7f
f0
cd
f4
ec
ed
f5
fe
f6
00
11
0a
0d
26
0e
1d
1f
ff
10
1f
08
12
1e
14
2b
15
1d
2c
cb
d3
c8
f8
01
f9
06
0c
fd
0d
21
02
e1
d2
d0
00
06
eb
0f
22
03
f2
dd
ec
d3
9e
cc
f6
ea
ee
fa
f3
f1
03
ed
f6
06
0a
05
09
e7
06
0f
fe
04
02
ff
0f
00
2d
09
ee
1e
f5
e9
0d
03
11
fb
04
16
fe
08
1c
04
13
1e
0f
13
f9
04
f7
e9
18
03
1a
0f
0d
0e
10
04
05
0f
04
f6
f8
f5
fd
f9
fd
f8
fb
01
f3
fd
fd
f1
f9
f2
f0
f6
f4
f9
f6
f5
01
05
05
00
09
07
01
09
e6
fc
14
f3
f7
0a
f4
fc
ee
f5
f5
06
00
f5
07
0a
04
01
0a
07
15
0d
ff
0c
0a
0c
12
0a
fd
01
f4
04
ff
f9
ea
d7
dd
0c
36
08
04
02
e7
19
fe
01
f4
dd
ff
e5
ef
e7
fe
fe
2b
f8
f9
15
03
e8
0d
fd
02
fa
02
ff
ff
0b
0c
07
ff
f3
02
ff
fd
03
f2
fd
05
01
ff
fc
f4
f5
ed
06
fe
fe
04
2b
f6
04
19
eb
fa
10
ed
fa
00
f9
ff
04
f1
02
05
f9
02
0d
0b
fa
f1
f5
04
fc
07
ef
10
16
fc
f7
0b
09
03
05
08
fd
02
04
02
fd
09
0a
07
01
ee
0c
0c
00
0b
fe
f9
fd
ff
01
02
08
04
02
ff
fa
f9
ed
0e
e5
00
19
fb
f6
0a
fb
ee
f7
ef
cf
e9
da
e0
dd
eb
05
0d
00
06
f4
ea
e9
f7
00
2a
11
16
0e
fb
07
ef
f0
06
15
f0
09
24
f3
03
12
f4
01
08
fe
f5
0d
0a
04
02
0b
fb
ec
f9
0c
01
fc
0b
fa
f5
08
f2
ec
e4
e1
e3
da
fd
09
07
06
16
18
02
fe
06
08
fe
04
00
e6
f3
0c
00
e6
02
ff
fb
17
04
ec
0c
0c
fc
f3
08
ff
08
c9
f2
f1
bb
eb
f8
cf
00
0c
05
1c
13
fb
1e
02
f3
0f
d9
ef
e1
f4
fb
f1
08
07
01
ff
07
06
ff
05
fa
ff
01
fa
0d
15
16
04
fe
07
05
f4
02
18
01
0b
08
f1
00
1f
f2
00
ec
ec
13
f6
fa
16
00
fa
01
13
03
06
12
2a
1b
eb
d6
f8
fd
fd
00
e8
d9
db
28
28
2b
ff
00
fa
05
05
00
0f
02
fb
f1
0e
f9
f8
19
08
04
19
0e
fb
ce
19
fe
e6
0a
0d
cf
1c
fa
fc
fb
00
07
04
fc
06
fe
10
0b
17
05
fa
fd
05
f8
02
f9
fd
09
00
00
05
03
09
0e
06
03
06
fb
ff
fc
fd
0a
ff
01
ee
05
0b
ea
05
31
16
2e
d9
03
05
16
21
11
18
f4
e2
06
ff
fb
ff
f8
ee
03
fa
05
0f
03
02
19
e6
f7
fa
f4
13
fe
0c
fc
04
07
00
08
03
f9
00
09
ff
0d
0f
0b
f2
d8
ee
0c
0d
05
02
0b
05
f7
fa
f3
fa
0b
0d
00
01
15
00
fc
0c
0f
01
10
07
fc
07
01
fc
fe
16
18
0d
12
14
02
e9
fd
ef
04
f9
06
ef
eb
f6
f8
f8
03
17
14
1a
04
fa
03
f3
f1
f0
08
09
07
fb
ed
f4
05
f6
fb
f1
11
eb
05
0f
ef
f9
0d
e9
f1
fb
f4
fc
07
ff
f6
07
fb
fc
05
f8
01
f6
ee
11
f3
fb
f5
19
21
06
07
fb
0f
02
f1
07
15
09
02
04
f8
fb
04
06
f2
ec
05
00
f2
01
29
20
1e
00
01
03
08
08
11
0e
0d
0d
1c
1f
05
00
fe
ee
ed
f7
f3
05
00
01
04
04
06
fc
fb
f5
04
fd
ff
12
ef
db
0b
25
3e
0a
08
10
f9
01
09
fd
0a
fc
fb
05
fd
f9
05
02
03
09
01
15
1b
04
04
0f
09
f7
06
fe
09
0e
06
05
fd
fd
06
f5
fb
fa
04
fa
fe
03
ff
08
08
06
03
10
08
01
0a
00
ee
f5
f0
f3
0b
f5
ff
0e
01
03
00
03
ff
f2
f9
fa
ee
04
f5
f4
fe
f4
f7
01
17
1b
f9
ff
fa
ed
fc
fb
ff
0b
08
09
01
0c
08
01
00
f8
fd
f6
ef
06
08
ff
ec
ec
07
f7
f6
03
f6
dc
df
f1
02
cb
f4
04
d7
03
0d
db
fa
1b
02
fa
0f
f6
03
01
f9
01
02
08
f7
f6
f0
fb
01
fe
d5
d8
d9
bc
b0
bd
e4
e5
e7
19
e6
1b
15
f7
0f
01
e3
19
06
fd
05
fc
fa
fb
f4
fc
fb
09
06
11
05
f3
0b
0d
04
01
16
0e
03
0e
f7
07
03
00
f8
06
07
03
f5
0f
f6
f9
15
f6
fc
f9
fb
04
07
04
0a
0d
08
00
1f
f1
f9
f6
f3
03
f7
f2
04
04
f0
f7
fa
fa
f7
ee
fa
08
e5
f9
15
ee
fa
0a
04
0e
f1
1b
06
f3
23
03
ed
08
f9
0a
0a
06
0e
0c
06
04
f8
ee
03
06
1f
0f
18
0b
15
20
08
f5
fa
11
f8
06
0a
f9
fa
fc
01
ff
fd
0d
03
07
0b
fe
09
04
0b
15
e8
d6
f8
ef
ef
01
22
2d
22
e7
e6
e3
fe
f2
f4
f2
ed
00
09
f1
12
0e
fe
0c
be
06
1c
c3
0b
08
32
15
04
da
f8
25
1e
28
09
23
21
fc
f8
04
05
ff
10
05
07
0b
07
00
01
fc
02
fa
fe
fc
fa
fb
0a
16
fe
08
13
f1
fd
08
f6
10
04
ef
23
19
ee
ec
fb
f8
03
0c
02
fc
0e
03
f8
14
f3
09
f7
0c
f8
eb
08
fa
ed
08
18
d7
2a
08
ed
29
10
d6
18
00
d3
ff
09
d6
04
14
d5
fe
fe
ed
13
f9
f2
06
fa
f7
05
01
fe
00
02
ff
01
00
04
00
f2
f1
ec
f6
fb
f9
fc
fb
fd
02
0b
07
1d
2c
0b
fe
f5
e7
08
10
e6
fe
0c
f4
06
00
e7
fe
12
1e
1a
05
fe
fa
0e
f8
01
0b
f0
ef
03
ff
fb
01
f4
18
f2
f0
19
28
26
f2
19
42
f9
f6
f5
f6
fa
fc
f8
fe
00
f9
f5
00
00
06
02
fe
01
ff
08
f0
f7
fe
f9
ef
06
04
05
02
f4
0b
f6
ee
09
f1
01
03
f4
f1
f2
fb
ff
fe
08
0c
0c
18
15
0d
0b
f7
06
11
07
0b
f5
f2
f0
de
f8
1c
ee
07
1f
eb
19
02
ea
1b
03
f5
0c
fd
09
07
01
06
0a
fb
06
05
f9
f6
da
f0
ee
ec
fa
0f
1c
0e
22
1c
1a
11
13
fd
f5
e8
e7
f4
1c
03
f1
05
f5
eb
ff
ef
fa
f9
10
f1
06
14
f0
fe
00
f8
f0
f9
fc
fc
ff
05
09
08
fc
01
fe
00
fd
f9
fc
fe
fe
11
23
16
08
f5
0e
06
fc
fc
0f
fb
ef
17
03
f8
05
f9
f5
09
14
04
03
0b
08
f5
f8
f7
e2
fb
fe
d8
fd
12
d5
0d
08
07
05
09
0b
00
08
0f
0b
09
02
08
fa
10
12
01
05
ff
fc
f1
1c
e6
f7
21
fc
00
3d
e6
02
10
06
f8
04
fe
01
0d
06
fc
06
f5
f0
df
e6
e5
d5
e3
fd
2a
ec
f8
19
f7
1f
fb
13
09
06
0a
08
04
f7
0c
05
03
e9
09
18
ef
17
32
f0
f9
ed
fa
f9
02
fd
00
01
01
fc
0b
ff
02
07
fd
f6
01
0a
fc
08
f9
03
03
fa
05
09
05
f6
f7
e4
f1
ef
01
0b
03
07
0f
10
05
09
03
0a
09
07
fd
fe
f7
f9
09
fe
fa
02
f6
f7
f7
e9
de
a2
d5
19
51
0f
e3
02
e5
08
f6
10
06
fa
08
02
fb
09
02
f6
0f
f5
fc
fe
eb
f6
f1
fb
f0
06
01
fe
23
f8
f6
1b
06
f8
0e
fb
f9
15
01
fc
16
0e
f7
03
05
f8
06
fa
fc
ff
f7
ee
f2
f8
f2
f7
ee
e7
f2
18
18
14
04
04
ff
07
04
fe
19
fb
0d
0a
e7
0f
0d
fb
0f
0a
08
ff
ed
f9
f0
f9
00
f7
1a
19
22
01
f2
0d
03
f5
13
ec
13
04
e4
1c
0e
f4
09
09
f5
f8
f0
f5
fe
f3
05
09
ff
fa
fa
03
01
0c
fa
fd
0c
ff
08
1a
21
f4
fa
15
fa
fa
1b
01
03
01
f5
f4
f8
01
01
ff
07
01
0e
0a
04
0c
02
06
08
0e
f8
14
14
f6
0d
0b
f6
18
f6
ef
f6
01
00
06
06
01
0a
fa
ff
f7
f6
fd
f5
02
07
00
06
07
00
fe
ff
f6
02
07
fd
ea
ea
e9
09
03
0a
0f
16
10
fa
00
06
02
0d
05
05
0f
0a
02
ff
fe
03
ff
fe
05
05
fb
08
03
06
0b
07
0a
06
fd
fc
08
e9
f0
01
0a
05
13
fb
01
fe
fa
fe
db
f9
03
e1
e8
fc
0f
08
07
0b
fe
0f
f0
f0
06
0a
00
00
fd
00
04
fa
04
03
f6
ee
fe
d6
ed
0c
e5
ee
03
f7
ff
03
fc
fb
fe
06
09
05
f8
f6
f9
03
fe
08
0d
07
10
0a
08
05
0a
12
09
00
0c
fd
f1
02
f7
03
13
04
0c
0f
08
05
00
01
06
03
00
f6
f7
f8
16
0d
11
19
15
11
06
0c
0b
0c
e2
dd
00
d8
c9
f8
db
d2
e6
e7
f3
fc
f8
fa
07
09
04
ff
01
25
f6
fb
1b
5e
4a
16
fc
01
fc
f9
fd
f5
ee
f7
ed
0f
f6
03
0c
02
01
fe
fd
fd
0b
12
0d
0a
0a
03
12
04
0a
03
02
04
f8
09
01
fb
fa
f9
08
11
09
05
02
0a
03
11
05
00
35
1d
e3
f6
f0
fe
f5
f7
04
13
05
05
18
0c
f9
0d
06
f3
ea
f5
f3
f0
fb
f5
f8
fb
03
f4
f3
f8
f4
f9
fb
f9
fa
fd
0b
09
0a
03
0b
f0
16
f2
fd
03
fd
fd
07
ef
02
01
00
ff
fe
07
f9
f5
04
00
f7
07
14
11
15
01
01
08
eb
f0
f8
d7
11
07
d4
09
08
d1
00
0f
dc
c2
e5
d2
c7
d7
af
93
ba
d7
f7
cd
1a
27
22
18
38
21
01
f8
0e
1d
28
1d
ff
1a
f9
1a
09
f4
07
f1
e8
1a
5a
51
05
0a
0f
eb
f2
f6
04
02
02
0d
0b
07
ef
00
03
fd
f6
06
e1
01
2a
e4
e6
00
01
f6
fc
fb
f2
0a
fe
02
01
fb
fc
06
db
d2
d2
4d
55
47
2a
30
42
f9
fe
f8
02
0e
f0
0e
fa
fc
1c
22
1e
1f
16
18
e5
c1
dd
fc
ff
fa
f2
f1
ee
f2
f2
ef
05
07
fd
00
08
fd
ff
03
fa
f5
e6
ee
f5
02
fd
0b
09
0b
0b
04
fa
ff
01
16
01
ff
08
fc
f6
06
05
0a
04
fe
fb
06
f7
f8
fd
f9
06
fb
fc
0f
f3
eb
f2
ec
e2
ce
ef
c1
bf
cf
02
04
f8
f7
f7
ff
ef
eb
f4
fb
fc
00
05
f9
01
07
f6
ff
00
f8
ff
02
ec
fd
0c
fb
04
f1
f8
04
04
fd
09
0c
fb
ff
fd
0d
fc
fa
19
f2
f5
06
f5
08
fe
fd
fc
fd
fb
fe
03
00
fb
ff
fd
fc
ff
fe
fa
fe
09
ff
07
02
fc
f9
01
06
fa
05
05
10
fa
01
03
f9
08
fc
04
00
05
02
06
0a
03
05
06
fe
0b
0f
0a
fe
03
09
07
18
11
07
04
fb
f7
fb
0c
fb
03
07
fd
00
f8
05
05
fd
00
ff
00
fe
01
ff
fb
f8
fe
05
ff
07
04
07
13
f3
f9
06
f8
05
01
fb
03
fe
09
01
06
0a
01
09
fb
0d
05
fe
07
00
01
05
fe
e1
e0
e9
00
04
05
0a
0e
09
fb
f8
f7
ff
f5
f7
06
00
ff
03
fc
02
fe
f5
ff
01
fc
05
fc
04
02
10
1c
0f
f9
fe
f8
03
05
00
fc
07
02
fd
03
fd
00
ff
fc
0e
13
07
04
03
fe
f6
f0
ef
f4
fa
f0
fa
12
09
f3
f4
f9
f9
ec
fd
fd
fb
03
ee
e8
f3
06
08
0b
00
04
fa
03
03
f6
08
00
fb
00
09
fc
06
0a
fb
fc
ff
fe
fd
fa
fa
ff
04
02
fe
01
0e
01
00
02
02
ff
02
07
06
02
f5
06
f5
f7
f7
fb
ff
fa
fe
fd
f4
f6
ee
e0
ec
ea
f5
e9
e2
c4
d1
ff
01
00
02
03
03
fd
fb
03
fb
fb
fd
fd
02
02
02
06
03
01
03
fd
f3
f5
f3
fa
fd
02
02
0c
05
03
00
f6
fc
e6
fa
fd
f9
fd
fb
f8
fc
01
fe
01
ef
ef
e0
b3
81
a7
df
d6
e4
07
04
03
04
02
fc
fc
02
00
00
02
f7
ff
05
fc
fd
03
fc
fe
01
0b
00
fe
04
03
02
04
00
03
00
07
0b
06
06
09
09
f3
ea
f7
f9
fe
f0
f8
0e
f4
f0
f6
01
f6
2d
1c
0f
2d
24
06
f6
f7
03
06
0d
06
f1
06
fc
02
f9
fe
ff
00
06
0b
0a
03
01
ff
fc
fd
fe
f8
f6
fa
02
00
0c
06
f9
09
ff
ee
08
fd
f7
ff
ff
fa
05
04
06
10
13
2a
0d
ed
ea
e9
18
19
0f
02
fb
fc
03
03
01
05
0c
06
fd
0b
02
fc
00
f8
06
00
fe
07
0d
05
f5
f1
fb
fc
f7
07
01
f4
05
08
f7
01
f0
ee
ff
ff
05
01
fa
00
08
f6
02
02
fd
05
f6
fd
fc
f7
00
fd
01
f7
00
f6
fc
08
02
04
06
06
09
06
fd
00
f5
fa
00
00
09
ff
f9
f7
01
fe
f8
05
f9
fe
08
05
05
f9
fd
ff
fb
fc
fc
f8
ff
f4
00
fb
f3
f5
f0
e9
01
04
02
10
1b
09
09
0b
f1
ee
db
fb
fd
fd
01
fd
02
f9
04
fb
06
00
18
0d
03
18
08
f7
f9
ff
fb
fc
06
fb
fb
fd
05
04
03
03
ff
05
fd
f5
02
ff
04
0a
fe
01
07
ff
f6
fa
0b
07
02
00
fc
00
03
07
05
00
fb
02
fb
fc
fe
05
ff
f9
f4
fc
f8
0b
11
fa
f9
dd
ed
f3
f1
f5
f4
ee
f5
01
fb
ff
03
0c
07
ff
01
01
fb
f5
f9
ff
09
f8
fa
f6
f8
fb
f9
fb
02
fd
03
fe
02
01
fb
05
02
04
06
08
fd
02
fc
fa
00
fa
ff
03
02
03
fe
02
fe
f4
fb
00
f1
ff
fb
06
01
f8
00
f2
f7
e6
fc
fe
10
0c
f9
10
02
02
04
ff
f0
d5
fa
02
f9
09
ed
f7
fe
06
0d
09
0b
09
fe
05
06
fe
04
02
fd
09
02
fd
09
f3
fc
0d
f4
05
11
09
06
fa
ff
ff
fe
06
00
fd
07
fd
f9
e5
f4
e3
aa
d7
27
17
2a
ff
09
04
06
10
04
ff
04
fa
08
01
0a
f5
fe
11
ff
fa
00
03
fd
00
06
fd
ff
02
fe
fe
f6
03
00
f9
fc
06
04
03
05
00
06
00
fc
0a
08
fa
fe
07
fa
02
fd
03
05
ff
0c
09
02
04
fc
03
01
fb
06
08
06
07
03
fb
00
09
08
07
fd
f9
ff
ec
e8
ea
f9
0c
fd
0b
26
11
ba
ca
cc
fc
f4
f8
ff
f5
fd
f7
03
0f
05
fe
fe
03
fb
fc
05
08
f9
fc
fa
f6
fd
f9
00
0a
09
00
f6
ea
f9
04
fe
fc
01
fe
00
00
06
07
04
09
06
02
00
f5
03
fa
fb
ff
02
ff
05
02
02
ff
fa
ff
fd
f5
02
fa
01
ff
01
04
03
fc
00
f8
fc
02
03
fe
00
fe
06
fc
02
01
03
fc
09
0f
08
00
ff
04
0c
08
fd
03
07
fd
fc
ff
04
03
ff
fd
fb
01
01
fc
04
ff
01
fe
fa
fc
02
06
02
0d
11
01
fe
fc
ff
ff
01
01
05
07
f8
02
fa
f4
f5
eb
fb
ec
ef
00
0b
f6
fe
05
03
04
fa
01
05
fc
fa
12
0c
0a
fc
ea
f5
18
17
f8
10
13
ff
ee
fd
09
04
02
ff
0b
f9
fe
08
00
05
06
03
fb
06
06
03
fd
00
00
01
0f
02
fd
06
fc
f6
fc
fa
fd
04
fc
00
07
01
fd
10
f9
07
0c
01
ff
03
03
fd
00
00
fa
fa
fa
0a
05
02
08
ff
07
03
04
fe
07
05
00
fd
08
00
fb
07
fd
02
0c
01
03
ff
fd
09
15
0b
0a
0d
0a
eb
e1
ec
ff
08
fa
09
07
ff
05
f5
0a
05
0e
fd
ff
f9
fd
08
f4
02
fc
fb
ff
fc
fa
ff
ff
fc
03
ef
08
fd
01
14
04
fd
f6
fa
fd
08
03
00
00
00
06
fa
fc
05
04
00
02
01
00
07
07
f6
fa
ff
03
f9
fd
00
07
0f
10
fd
fe
02
f4
fd
f8
05
0b
05
f9
02
fb
00
fb
f8
fd
f9
fd
f5
fe
03
fa
00
fe
05
dd
f6
fe
fc
ff
ff
ff
02
fe
fb
02
09
0a
00
f4
ed
f8
f8
fb
00
08
08
04
07
03
03
ff
f9
01
fe
05
00
00
01
fd
01
fc
fb
ff
fe
ff
06
fe
f8
04
01
f7
16
09
f7
07
ef
fb
04
f5
f5
0b
08
02
04
05
02
02
08
03
fc
f9
fe
f0
17
f8
ee
20
ea
06
09
05
fa
fc
fa
fc
00
ff
0b
04
ff
0e
08
02
02
06
f9
04
03
ff
fe
f4
00
f2
c9
e9
00
02
0b
ff
fc
03
02
f9
05
03
fa
fb
02
f5
fd
04
fe
09
08
f8
06
06
fc
03
06
f8
05
03
02
02
00
f3
fe
06
00
02
ff
fe
fd
02
01
ff
07
05
05
fb
fa
f8
fd
ff
fd
fa
fb
ff
f3
ff
01
fa
ff
05
f3
e3
f3
fe
04
01
fa
fc
fe
09
09
03
fc
f6
ff
ff
0f
fc
0b
17
ff
03
f7
04
f7
06
0c
eb
f5
fb
fc
0e
06
f3
f7
fc
01
0f
03
02
07
02
05
05
04
fc
f9
fe
fd
ff
fc
0b
10
07
07
15
09
fe
05
08
f6
01
14
fd
f6
fd
fb
fc
03
01
05
02
00
01
01
04
08
04
00
02
fe
fe
f7
fb
10
07
0d
01
ff
07
03
fc
13
f9
ff
0d
08
f8
05
03
0a
0a
05
08
02
00
0a
00
01
05
fa
05
03
03
01
f7
00
05
f3
fb
03
05
ff
00
05
f9
fa
01
fd
02
fc
ff
f5
e6
f6
0d
fd
11
01
06
07
fc
04
07
f7
f5
01
f4
01
02
f6
ff
fd
f3
e1
f7
05
fd
04
02
f7
fe
fd
f1
f8
fa
f6
02
10
1c
0a
01
14
04
09
06
07
02
11
0d
02
03
0e
01
ff
f7
ff
ff
fa
f9
fe
04
f9
d7
05
f9
ef
05
01
03
09
00
ff
fe
01
fb
04
02
fb
00
0a
fe
06
08
ff
06
05
02
06
13
22
15
06
fe
0d
f3
e6
f8
01
09
f9
fa
06
fc
fd
fe
fa
02
03
f7
02
fa
e9
04
06
0a
f5
01
fa
fb
ff
f9
08
05
04
f9
11
fe
ff
11
ff
f7
f3
f4
02
09
fb
04
09
ff
01
0e
f3
fe
02
05
00
03
0c
f6
fa
f7
03
f0
01
17
36
03
17
38
10
fc
06
04
fc
0c
06
f6
04
00
02
fe
07
fd
fb
01
ff
01
04
fc
00
fe
00
06
ff
02
04
00
01
fc
08
fe
fe
ff
fa
f6
f4
04
fc
f7
06
0a
02
f6
0d
fe
fe
12
00
f5
fd
f6
05
fd
07
f0
01
fc
01
fc
f3
ff
02
04
07
07
ff
07
01
01
17
16
17
03
0d
0b
fc
01
f2
fe
01
02
fa
f9
00
fe
f8
03
02
00
fe
02
03
ff
f6
fd
04
f8
03
04
f5
f1
f6
04
04
04
03
03
02
fe
ff
fe
01
03
00
01
05
06
00
0c
06
fe
fd
00
ff
f9
05
09
10
04
04
fe
07
02
03
05
00
e8
fb
0c
14
ff
07
09
0a
f4
ff
01
f6
0a
07
03
01
00
03
07
01
ff
fc
fe
fe
00
00
1e
23
11
d2
8f
d9
fe
e4
01
00
fe
fd
00
fc
fe
04
00
0e
f6
f9
fa
fd
fc
fc
03
ff
00
fe
03
ff
04
02
05
01
02
ff
00
fd
02
05
09
03
0c
01
fd
07
04
04
03
03
fe
fe
00
fc
fc
03
00
fa
f6
f3
fd
f8
f4
fe
fa
fc
f9
f9
ff
02
05
08
04
03
04
fb
f6
f8
ff
fb
fe
00
ff
00
00
fc
ff
fc
fa
ff
ff
f6
fc
01
f4
fc
09
fe
04
03
fc
fd
01
01
02
03
04
00
ff
ff
0a
fb
f1
fb
0c
fd
ff
f7
ff
f9
f2
fb
04
ee
07
ff
f9
03
fa
f2
fa
f4
f3
fa
f4
fe
01
04
fe
09
ff
f4
f8
f6
f0
ee
f2
ec
f3
fd
e8
f2
07
ff
00
fd
fc
fa
f9
05
01
03
05
fb
01
04
fe
00
05
02
07
03
0e
07
0c
15
0a
fe
fb
fc
ff
fb
00
04
01
fd
f9
fd
fb
01
fd
fc
f3
f1
fb
ff
fd
06
03
00
01
05
02
07
02
04
06
f0
ea
f4
f5
ef
f8
fc
f6
fd
fa
01
fc
f2
ec
f4
f8
fa
fd
05
01
00
02
fa
05
03
fa
02
fe
03
05
f5
fa
01
fc
f9
fb
ee
f5
f6
fd
f7
ee
26
29
0c
fb
f6
fb
f5
ed
f7
fe
eb
04
28
3e
12
f0
e0
fd
d2
d8
df
fe
01
fd
03
0a
03
02
03
00
fb
00
05
03
ff
02
06
ff
04
a9
a0
b4
08
00
00
18
15
12
00
fc
ff
00
03
ff
03
04
03
fe
01
07
fb
fb
fa
ff
fe
06
16
26
1c
f3
fd
f4
f2
e4
e4
0b
06
f0
fc
e7
f9
ee
00
e9
fa
39
06
ff
03
fe
0e
1f
05
03
fa
06
05
f8
01
0b
03
03
f7
08
fd
f5
0c
fd
f5
02
f9
fc
02
00
fe
f9
02
fe
04
09
07
fb
01
06
fd
03
05
ff
03
06
08
0e
05
09
02
03
eb
00
ff
06
fe
fc
fe
00
fd
03
04
0c
1c
08
02
0e
fd
fa
03
f7
f9
ff
00
f2
fe
0a
02
03
08
01
f6
fb
fe
e6
fc
0d
03
14
fc
08
f8
ff
08
fb
fa
04
ef
04
02
00
04
f8
09
01
fa
05
00
00
01
07
00
08
00
ff
fe
04
01
00
05
fe
05
00
f8
07
fd
f9
fd
03
fc
01
05
02
06
f5
f4
f3
fe
fd
fd
00
fc
00
f1
e1
0c
0f
26
20
03
fe
08
05
fc
fc
05
06
0b
f9
f8
fe
00
0f
fd
e4
f0
e0
02
0a
fc
00
0d
06
03
04
0d
f0
e8
f9
04
06
fe
0b
10
07
1e
21
07
f7
f2
eb
03
f9
f8
ef
e9
ec
01
ff
ff
fd
ff
00
05
fb
01
00
fd
fc
00
f0
f9
08
f0
fa
f4
f0
f4
03
ff
01
f6
ff
0a
f4
23
fd
fb
14
f1
ed
fe
e0
00
f7
fe
02
fa
fa
08
0b
02
fe
0b
f5
f1
f7
f6
00
01
fe
01
0c
fd
00
05
ff
0b
fb
03
05
0d
01
fc
fe
f7
08
ff
00
06
05
05
05
01
06
06
07
08
04
03
00
03
05
02
08
0c
0d
01
fc
01
0a
fd
fe
ff
ff
fd
f7
f6
f8
fd
ff
00
03
fd
ee
02
02
02
04
02
03
08
fe
08
01
02
0c
f4
fa
07
f2
04
00
03
09
01
04
04
04
fa
fa
fe
04
0b
05
02
08
06
00
ff
fa
e8
e6
e6
fe
00
fa
00
02
fa
00
ff
fb
01
f0
fc
03
03
fe
fe
fa
fe
02
fb
00
08
fe
0a
06
0e
0b
10
21
13
ef
fb
ed
fe
03
01
09
06
08
0a
00
04
fe
f2
f8
01
ff
02
00
ef
f9
f6
f4
fc
fe
fb
fd
10
14
06
fc
f1
f7
04
fc
02
04
f9
02
fa
f7
f4
f6
f6
f8
fb
0f
f4
0f
05
fe
0d
02
04
ff
08
0b
07
07
00
06
07
04
fc
fd
f5
f9
03
fc
fd
fe
01
06
03
0a
fb
f0
f4
03
09
fd
e0
fc
de
03
02
01
07
04
02
01
fb
f8
fd
f7
fc
f7
ef
ee
e8
e5
e6
00
07
02
05
06
03
04
00
02
fe
fd
fd
03
04
01
04
07
04
fe
0c
0a
01
06
02
03
fe
0b
02
00
04
0a
fd
fb
fe
e8
e8
fe
fe
fd
fe
fc
fa
09
07
02
ed
ed
e3
f0
d9
e2
fb
e8
ec
05
fb
04
04
f4
ff
fb
00
02
fd
00
03
02
06
03
fe
00
ff
06
fe
fd
00
fd
fa
fa
05
fc
fd
fb
fd
02
05
03
01
01
06
03
13
07
f4
ff
fe
f1
ca
e9
f8
ee
ee
fd
e2
e6
da
03
e7
fb
f7
fd
fc
01
07
fd
f8
0e
01
10
fd
01
09
ff
07
0c
0b
f7
f5
fa
fd
fb
fb
fd
f9
fc
f4
03
02
fe
f8
05
fb
ef
02
f7
f9
fb
ff
00
ff
08
08
08
f8
fc
05
ef
0f
fe
34
61
45
fd
01
fe
04
0a
07
00
0c
05
02
18
03
f9
fd
f6
00
08
02
fe
09
07
f4
f1
fe
ff
03
04
09
f2
01
02
ef
fb
fc
f3
f9
fd
02
03
fa
fb
fe
04
06
fc
fb
ff
f9
00
fc
f8
03
ff
f7
f7
ff
f6
ff
04
00
08
04
07
fe
01
00
fd
fb
01
01
06
08
fa
fb
fd
f6
01
f8
f8
fe
f2
04
08
06
04
00
03
01
00
06
0c
04
f7
03
06
00
f4
fb
fd
f7
0a
07
01
0c
02
0a
0b
f0
fc
dc
f8
f7
f3
f8
f7
f6
f2
fa
ff
fe
04
ff
00
0c
09
04
00
f8
fe
03
07
05
fe
00
01
03
06
05
05
05
07
06
ff
02
03
01
0b
fe
f7
07
f9
f8
08
fe
01
ff
03
fc
01
0b
07
06
01
02
08
ff
ff
f8
fc
fd
f6
f6
ff
fe
f8
fb
fb
12
fb
07
00
f5
fa
f3
ea
ef
02
f8
fe
00
0b
06
fe
fe
fd
f2
ee
f1
fd
0d
04
05
02
03
07
f9
07
03
06
02
04
01
ff
f9
05
04
01
fd
fb
00
04
fd
00
05
fe
06
06
06
04
03
02
f8
f3
f6
00
01
fb
00
f8
fc
f7
e1
ec
fb
e3
f8
0f
11
15
24
23
20
fc
f5
fa
f1
ce
f4
0d
05
11
fe
ff
fe
02
02
12
f7
0a
2b
00
0d
fe
fb
03
fe
fc
f9
f3
05
ee
f3
03
01
ff
10
13
f9
fb
00
06
00
07
00
ff
fc
f4
fd
ea
f9
ef
d5
ef
1c
29
2a
04
0b
09
ff
09
05
fa
06
fd
04
00
0d
03
03
0c
f5
fa
0c
02
fe
01
04
fc
04
07
fb
fc
f8
fa
ff
00
fe
04
05
01
fe
ff
fd
02
0a
09
10
02
01
0f
f8
fe
fb
fb
ff
f9
04
06
03
fb
fc
00
01
01
07
05
0a
07
04
0c
07
0a
07
fa
fe
fd
f6
05
22
05
ed
f6
ec
f3
f8
f4
e2
df
e4
c7
cc
ce
d3
e0
e5
02
f5
03
fb
f7
02
f5
01
fd
09
0e
f5
02
00
f9
04
fe
03
03
f4
fe
fe
f9
fe
ff
f7
00
fc
f6
fb
ff
fb
ff
fc
f7
fe
01
fd
fe
fb
fa
fe
f3
f6
f6
04
fb
ff
04
f6
00
06
f7
07
fc
09
fd
01
03
01
fe
fa
ff
f3
04
fa
fb
02
fb
f2
06
02
05
04
08
0c
08
0d
fe
f7
ff
09
ff
03
02
f6
fb
fb
f6
f9
fb
fa
f3
05
ff
fb
09
08
0b
03
ff
fa
06
08
07
01
fd
0d
ff
fc
fb
09
06
01
0a
09
09
f2
f9
fa
f6
f8
f4
f8
eb
fb
08
06
00
01
0d
03
ff
06
01
04
f9
f2
f9
e8
eb
f9
d2
ef
fa
f4
f7
09
f5
f8
11
0f
e2
00
01
fa
fd
f0
f8
fc
ee
f9
fe
0d
fa
03
0c
fc
02
08
02
03
09
03
f7
ff
fd
f8
02
fc
08
10
01
0a
06
02
fb
01
f8
02
0c
01
ff
01
00
fc
f7
fe
fb
fd
fe
fe
ff
01
0b
05
0b
05
02
fc
08
07
00
f7
01
09
05
08
fe
03
09
06
01
02
03
10
15
13
01
fc
ff
f3
f1
f5
fd
06
fa
fe
ff
fa
00
f7
00
08
20
04
01
ff
01
fc
f3
01
02
fd
03
03
ff
07
06
05
0b
f2
fa
f3
fa
f2
f9
ff
00
fc
fa
09
07
0a
04
01
0f
03
09
03
fe
ff
01
01
fe
fe
0e
00
fc
05
05
fa
ff
03
03
fb
02
fa
06
fc
f5
09
02
fb
15
10
02
ff
fa
05
fd
06
ff
06
01
ec
f5
ff
e9
f6
fc
fe
dc
e7
fc
fb
fc
01
fe
01
02
ff
fe
fc
fd
fc
02
00
fb
05
02
ff
0a
00
ff
02
f7
fb
ff
f5
f8
fd
fb
fa
fd
02
fe
f7
f6
f0
01
00
03
02
ff
fe
08
03
06
09
fd
f0
07
f2
fd
02
f2
fe
09
08
05
04
01
02
f7
f6
f7
f4
fb
f3
f4
2c
fc
f0
35
ff
04
fd
05
09
fc
f7
03
fd
fe
0f
09
05
02
01
fd
01
fd
f4
fb
09
01
01
03
07
fd
e1
f9
02
04
02
09
f7
02
fc
f2
04
00
00
00
00
f8
f9
03
fb
ff
01
fe
08
03
fd
04
fd
fa
04
fa
0a
06
00
fb
fe
07
01
05
fb
f9
fb
01
02
00
06
03
07
fc
fa
fe
02
ff
01
f9
f5
f9
02
0c
0d
fb
f7
05
e8
f1
fa
09
fb
f9
05
00
fd
fa
04
04
0d
fb
f1
03
14
05
0b
0f
09
fb
f3
fd
03
fb
02
02
fe
06
f3
fe
04
fa
f8
fa
06
08
ff
fa
fe
fb
02
04
00
00
00
fc
ff
07
f4
01
1f
ff
e8
00
f2
fa
01
f7
f5
f5
f7
fa
0f
24
ff
fb
03
02
00
fe
ff
ff
01
04
07
04
fd
fb
fa
fd
fa
fb
02
01
05
ff
f1
f6
f9
d6
ee
01
fd
03
0c
03
04
00
01
00
03
0a
0a
fe
00
ff
fc
ff
f9
06
0b
0c
05
00
08
00
ed
ff
06
04
f9
01
ff
fa
f8
01
03
00
f1
fd
05
df
fe
0e
f4
09
fc
04
02
fb
f9
f5
f1
eb
ef
f4
ff
0b
ed
00
03
f9
e8
ef
06
01
01
fe
f8
fd
fb
f5
f8
ef
fc
f8
f5
f4
fa
d1
d8
d6
02
00
02
07
06
09
03
02
0d
0c
0b
03
fd
00
fd
f5
f9
03
f9
e5
fd
f5
d1
05
0a
ed
0f
02
03
fd
03
04
fd
09
07
0a
01
f7
00
05
fd
08
09
04
0e
08
07
0b
f9
f3
03
04
fa
12
00
06
01
fd
fc
01
01
f1
01
fb
04
06
f4
fc
02
0f
03
e7
fd
fc
fd
05
06
01
0b
0b
0a
00
0a
03
03
fe
04
f0
f1
f3
06
00
01
08
f7
01
ff
03
fd
05
fe
fa
01
01
01
f3
fa
06
08
f8
07
04
d8
f7
07
f5
f2
fc
02
00
01
f6
f3
f4
03
04
fc
fb
f9
ff
f5
f8
fb
fb
00
00
07
03
02
05
05
02
06
04
0a
02
07
0d
04
03
03
ee
fc
04
f7
02
fe
05
07
f9
11
01
fc
06
f8
f7
f3
f9
03
fe
03
04
02
ff
01
00
ff
04
0f
ff
fb
f9
f5
0e
f7
0a
21
f2
15
00
01
06
01
06
0d
fc
f2
f8
f8
fd
01
fa
fe
01
fa
fb
f9
fc
04
fc
fd
02
00
f8
fe
07
fa
f3
f8
05
03
00
09
08
02
f9
fb
ff
fa
f8
ff
0b
06
09
f9
07
03
01
03
00
09
11
05
0d
04
08
ff
b9
f8
e3
99
d7
05
02
0a
0c
21
0d
07
02
05
f1
0b
00
f8
00
fb
08
02
00
00
ff
01
04
00
06
07
04
08
0d
0a
04
dd
bf
d3
da
bb
db
00
f8
f2
03
fc
f5
00
09
10
f9
fd
03
02
02
04
08
05
06
00
0c
02
05
07
05
01
fd
00
02
f7
00
03
07
07
02
0b
08
06
05
06
03
01
06
00
fd
02
01
07
03
f9
fb
fa
fc
fe
fe
fc
ff
00
fe
f9
fd
09
ff
04
06
07
08
fa
f4
f5
f4
e9
ec
00
fc
04
01
ff
05
04
00
06
fc
f6
fa
ff
f7
fd
06
00
06
02
01
fd
02
fc
ff
01
0b
07
fd
01
06
01
fa
03
09
03
01
f8
01
06
00
02
0e
fe
02
fa
f5
0a
f6
ef
fa
ed
f4
f5
f0
fd
07
07
01
09
04
fe
fd
00
eb
ef
ff
f7
f2
00
fc
fc
fe
ff
fe
fd
fe
ff
fd
01
02
02
03
fe
01
05
ff
01
08
06
06
08
11
07
03
07
06
01
fe
fe
02
ff
07
ff
fc
05
f8
fa
fc
f4
f2
f3
fc
f7
f7
06
ff
07
00
00
fd
01
02
01
04
fe
03
f5
ec
f9
f5
f2
fd
02
08
08
fd
fb
f6
fb
02
fc
ed
f8
ed
03
ff
fa
01
01
fc
03
fb
02
fd
ff
ff
f9
f4
fc
02
fc
04
e6
da
f1
e6
fc
e5
0e
1b
0a
f9
fb
f5
f9
f3
f5
f4
f2
f3
07
10
f9
2b
17
13
25
10
2e
fc
fc
ff
04
03
02
05
06
06
f9
fd
fe
00
fc
08
01
02
03
e3
d3
e1
b3
91
b9
96
81
a3
f9
f4
fa
fe
f8
fb
05
ff
05
ff
f7
06
f9
f0
fb
01
fb
07
fc
04
07
fe
06
03
00
03
fe
0a
08
0a
0c
13
fe
0c
f9
f7
f3
11
fb
10
65
1c
fa
4f
07
ff
f2
01
06
fb
01
08
05
0b
fc
03
fe
fd
fd
f9
fd
fe
fc
fc
00
fd
fb
f9
03
fc
ff
f8
03
fe
01
03
fa
fd
0c
ff
05
01
0f
0e
02
00
09
00
f0
ff
fc
0d
ff
fe
05
03
06
01
03
0f
1c
0f
03
0a
04
f8
ff
f9
f9
04
08
fc
fa
07
f7
f6
fd
fb
f0
f2
01
f1
fd
05
fd
06
01
01
01
02
fc
02
01
09
00
02
07
06
05
00
04
fd
f9
fb
00
f4
f6
03
fa
fc
f5
01
fb
09
06
05
01
ff
07
fe
fa
00
fd
f8
fc
07
01
07
04
fe
03
f4
f7
f7
04
07
04
03
fe
fe
f3
e5
f8
f1
ea
0c
ec
e8
32
fc
02
04
ff
00
03
f8
f8
02
11
29
0d
f3
0b
f3
be
a8
aa
fd
12
01
00
05
05
e4
d0
f3
06
0a
fb
0e
10
07
fe
ec
f7
fe
1f
ef
f0
07
f0
fc
0a
03
fc
f7
01
05
02
fe
ff
fb
02
00
0e
03
e4
06
f6
f4
11
09
04
fe
f3
f5
f5
f8
03
05
08
0b
2e
02
e5
dd
f8
ea
cd
fb
06
fd
07
08
0a
0c
f5
f8
fd
f9
f3
f6
f6
f6
fd
f1
f4
00
f6
08
f8
00
01
fb
fb
f5
f9
ef
e9
eb
e5
d3
ee
07
03
07
fc
06
fc
fb
05
02
08
09
07
fb
12
f7
fa
f5
f6
09
04
03
fe
00
03
02
09
11
fc
f0
f8
fd
ec
fe
fa
07
f5
fc
0a
00
0a
0c
06
0a
11
08
05
05
06
06
04
f9
f6
f7
f8
f9
06
04
f3
ea
e3
f5
f8
f5
10
02
17
09
01
05
02
02
06
fc
04
03
f0
f7
f7
eb
ed
f2
f9
f6
f6
0b
26
19
00
12
00
fb
09
f5
04
0e
0c
00
06
03
05
0b
02
f2
f5
f1
f0
f0
f9
09
09
04
f8
f1
f9
b2
99
bb
0b
17
08
03
0d
fb
05
0b
00
f5
eb
fb
fc
09
08
e0
04
ff
f1
f0
f6
02
01
07
ee
e1
f6
fd
f8
fb
fd
fa
fe
fd
19
03
e5
d7
e4
12
13
03
fc
d0
fb
02
f7
fc
08
0d
fa
f8
f5
f7
05
02
fb
08
fa
fb
01
fc
07
fc
00
ff
db
c8
e2
12
45
08
fe
fd
06
11
06
0d
09
ff
07
08
06
08
f8
ee
f9
04
06
f9
06
01
00
02
02
05
fc
fe
fe
01
fe
01
fd
00
fe
f9
f8
f7
03
08
07
06
12
fe
fc
00
fd
0a
03
04
ed
cc
e5
ff
fc
fe
fd
fa
00
fb
f6
02
04
fe
06
f8
f3
fc
fc
00
fe
fa
fb
fb
ff
08
fc
f5
e8
fd
f9
e0
f2
f5
f5
03
0e
fa
fb
04
01
06
05
0c
03
05
11
f3
0e
05
fd
05
fe
fc
fa
03
f8
f7
f9
f6
0a
09
06
f9
08
fc
01
0f
fb
03
f9
f8
f7
06
fe
f9
ff
f8
fa
f5
00
f9
f2
ee
01
f5
ef
06
07
ff
07
0f
06
f9
fb
fa
06
05
fe
fd
fb
fb
00
06
00
02
07
ff
fe
fe
fd
09
01
fe
04
fa
fc
fc
ff
fb
fa
00
fc
02
06
03
04
0d
04
f3
f6
f8
f6
de
f2
ff
05
02
05
00
02
01
03
00
04
06
ff
02
03
08
f8
f9
08
0d
27
0e
f8
f7
f7
fa
e3
f6
0d
00
fd
09
0b
0f
05
0d
10
ff
fe
08
05
07
08
f1
fc
fc
08
10
04
00
fd
04
f6
f9
05
fd
ff
f9
fa
fa
02
03
00
09
05
f7
07
ff
0b
08
00
fe
fc
19
18
10
fb
f0
00
0b
00
06
03
ff
01
05
04
07
0a
05
08
16
29
12
f7
ee
0b
03
05
0d
fb
14
06
f0
01
0c
e6
e7
04
f5
f6
04
eb
e0
e9
12
1d
0a
02
f7
05
02
fb
01
f7
f8
fe
e4
da
e8
e8
e3
e9
f6
f6
f7
fd
fc
fa
04
04
06
09
08
07
f0
fa
03
06
fb
f2
03
fc
ed
07
07
f9
07
02
03
f9
03
02
fe
fb
ff
07
f8
04
06
fb
f5
d3
b2
da
08
f3
1a
00
f9
01
f5
ec
f7
f4
ef
f1
08
0a
0d
f7
fe
00
fb
0d
01
f7
04
fb
0a
0e
fa
06
09
07
04
0b
05
0b
fd
06
09
04
08
02
fc
0a
fd
ff
fb
06
07
03
08
05
02
0b
f5
05
fe
00
fc
fc
00
fc
10
03
05
0b
06
08
05
11
fa
0e
fb
04
06
05
ff
0b
04
0c
f1
9e
ef
ef
be
00
18
13
04
13
13
ef
f8
e5
ed
f9
f8
07
06
11
0c
fe
f8
01
f2
f2
08
fd
f9
f9
fc
f5
03
fb
f8
06
06
00
f8
09
08
01
09
01
ff
fd
f9
fb
f0
f2
ed
0e
1e
0c
06
08
07
fc
fd
f6
02
fb
fa
06
f8
0c
06
f0
fb
01
fd
f8
01
00
fe
ff
01
00
fe
ff
fe
e4
e0
ef
ed
f6
f1
fe
f5
00
f3
10
fa
13
1c
13
02
05
07
01
fd
01
fb
fb
fd
0a
05
08
fa
01
02
06
08
0a
01
04
06
0a
fa
fe
ff
f5
04
fd
08
07
f3
fc
f2
f4
05
00
05
02
05
0d
16
f9
02
fa
ea
f9
00
fe
04
e6
fb
03
fc
0a
02
07
0e
10
fb
03
0c
09
fe
f7
f8
f7
f7
e6
0b
03
25
17
f4
03
ff
ff
03
ff
ff
ff
fe
05
09
05
03
0d
f9
f2
f8
01
ec
f4
02
fd
00
01
ff
04
ff
fe
08
fd
fa
f9
0b
fa
f9
0a
0b
04
07
f5
02
01
02
f4
fa
0a
f1
f9
fe
00
f8
fe
05
01
fd
fe
fe
06
f4
ff
fd
f8
08
01
fc
03
f3
04
04
00
ff
04
f2
f9
00
02
f9
05
00
03
fb
04
11
06
01
15
08
f3
00
f6
0a
14
0b
fd
e6
02
04
ef
00
f9
00
08
05
10
fb
09
07
f8
fa
f2
f4
e2
e1
05
e8
f3
08
0a
0f
08
02
01
04
14
06
11
04
f8
01
f7
f9
06
f6
06
fd
03
09
ff
09
12
14
02
09
0e
ff
02
05
09
0f
fe
04
f9
f0
f6
f0
f2
f9
f0
f4
f3
ee
f6
f9
f5
fd
fd
f6
f5
09
0d
07
04
06
09
ee
ed
f2
ff
01
fb
04
ff
02
fc
f9
03
09
01
fe
f8
05
07
06
09
06
fd
fe
00
fe
fe
04
01
fb
05
20
26
1b
f7
f1
f9
fc
03
05
09
08
01
01
fe
07
f6
f9
00
dd
da
ed
0a
17
11
fd
0b
05
fa
ff
fd
fa
00
fe
ed
fe
ff
02
f2
03
07
ec
02
05
0a
08
f9
01
10
01
fc
03
10
0e
0c
fb
fa
00
05
fe
fa
04
f5
f3
03
07
06
f8
f7
f6
05
14
07
02
fd
f6
fa
ef
00
f2
e9
ee
1d
27
16
f9
f3
fe
f6
ae
c9
05
fb
f9
08
05
07
00
fd
01
02
ff
04
0a
03
06
09
04
01
08
04
f7
0c
09
f6
03
0c
04
09
1a
11
04
01
04
00
f5
01
ff
03
fe
f0
ff
f4
10
03
fb
f6
f4
f5
f7
f8
e9
de
ca
03
bb
b7
f7
fd
05
0b
f7
f1
00
07
06
fd
fa
f6
f6
06
24
0a
00
14
02
f5
da
f8
06
06
06
01
05
01
01
fa
f9
fe
12
ff
04
05
0d
01
f8
0c
01
f0
09
03
09
f7
fb
01
f9
05
01
0c
fe
01
fe
fc
0d
ff
f1
ef
02
fb
05
04
f6
f6
f3
fa
04
fe
00
08
fd
fb
05
f8
fc
01
fc
fe
02
03
ff
f4
00
09
0e
07
fe
03
f9
fe
02
01
f7
f5
f4
f7
f5
fb
ff
fe
02
f5
e9
f7
e1
ce
e1
02
f8
02
fc
0b
fe
f7
fe
fc
ec
f6
f7
0b
06
00
01
0a
fb
fa
f7
f6
0a
0c
0c
08
0a
08
03
01
02
fc
d4
01
fd
d2
e3
04
03
fa
09
15
09
0e
0c
0a
0d
0e
09
ff
06
00
f3
01
f8
04
fb
ff
fb
19
10
ec
f2
fc
f8
f9
07
fa
fe
ff
ee
ff
0a
fd
0e
0a
05
ff
08
ff
fd
04
ff
fd
ff
fc
0c
00
de
e3
ef
fc
0b
fb
f7
f8
f1
03
0d
f0
01
0e
01
03
02
fd
fe
03
03
02
01
ff
02
01
01
04
03
fa
02
0f
07
05
fc
fd
f6
e4
f3
0a
14
0c
0a
f4
00
05
fd
05
08
06
06
10
1a
05
0b
0f
08
00
03
02
fc
c8
e1
ff
f2
f4
05
04
05
03
05
04
fa
ff
fb
f8
fe
f9
ff
0c
fc
fe
08
fa
fa
fe
fd
fd
00
fc
ec
00
f9
f4
06
f6
fe
fa
00
0e
05
03
f6
03
04
f7
e0
05
ff
08
04
fb
13
01
f7
0b
fe
f6
07
ff
00
fe
06
01
0a
03
01
0a
05
f8
fc
f9
ba
a8
cc
0a
18
0c
ff
0e
07
0d
05
ff
09
01
04
ff
04
00
04
10
fe
0b
12
ff
fb
f4
f5
eb
e0
f0
18
14
0d
0e
09
07
00
da
f8
fa
0d
00
01
0b
00
04
15
04
ff
e9
03
03
00
06
02
04
eb
09
03
f8
0f
04
09
08
12
08
08
10
f8
f8
f7
f4
fc
ed
06
06
f2
f7
01
eb
ef
07
fa
05
06
11
ff
f8
04
f7
fd
04
01
f5
ff
f6
f9
f9
f8
f8
fe
f1
f0
fa
f2
f0
f3
f4
fe
00
fe
0f
09
0d
01
ea
f7
05
c0
02
ef
e0
f6
07
1f
fc
08
00
f5
0f
08
fe
ed
f7
06
fc
de
03
fc
ee
07
12
10
0e
08
05
fc
05
03
06
fb
02
09
02
07
00
01
fb
f9
ff
f5
f9
fa
fd
04
f8
02
07
f5
01
04
fa
ff
fd
fb
fe
fb
08
11
09
fc
f4
fc
fe
fa
fe
fe
fb
fa
0c
1b
0b
fc
fc
07
02
f9
00
f8
ea
f4
16
17
0e
09
09
00
f2
f7
ff
f4
ff
02
f5
f8
e9
02
01
06
fc
09
02
01
01
fe
10
13
0c
05
ff
00
02
ff
00
fd
04
ff
05
18
fc
04
18
07
ff
04
02
01
01
fb
fb
f3
ff
05
00
03
06
04
00
0a
0b
06
f8
f0
fe
f9
f6
02
02
00
04
0b
fe
07
0b
04
09
f8
f8
fa
ff
04
00
02
0a
02
00
07
ff
11
0a
0b
06
06
04
08
0a
07
05
fe
01
00
fd
02
fc
f9
fb
0f
07
0b
04
0a
00
ef
f6
f8
01
05
fe
06
0b
fe
fb
01
ff
05
07
01
fb
00
fb
01
01
fe
ff
0d
09
04
07
06
02
f3
f5
ff
fe
01
04
04
02
f7
ff
05
0d
39
1c
0c
fd
01
07
04
fe
fb
19
09
f6
0c
04
f7
fb
06
17
28
14
01
02
07
00
ff
06
e3
fd
04
05
0e
04
15
10
0a
0e
11
0a
04
07
04
04
06
08
01
07
08
f9
f9
fb
f6
f8
f8
ff
ff
04
fa
fe
ff
ff
fe
ff
04
ff
ff
05
07
02
01
fe
fb
fe
02
01
06
0b
0a
0e
0a
06
00
03
01
fe
03
fd
fc
02
fc
fd
ea
fa
06
e5
e8
0a
03
00
fb
fc
ee
fe
08
f8
fa
ff
ff
fb
f3
07
03
02
03
0b
00
fd
ff
fe
03
fe
ff
fb
01
fc
f8
00
fe
f2
ff
fb
fc
f6
f9
fd
06
08
06
01
13
06
0f
26
0f
02
12
00
04
09
f6
f8
fe
fc
ff
06
01
f3
e2
f8
01
f4
03
1e
29
16
ff
0f
0d
0e
06
03
09
14
fc
02
08
00
f7
fc
f7
03
00
fe
04
05
f8
05
04
00
06
ff
00
fc
fa
fb
fd
f8
f9
ff
00
03
0d
0a
17
0c
0f
0e
fb
0b
fc
f8
ff
01
f6
f4
fe
ff
f6
fc
f7
04
fd
fb
02
08
f6
f7
f7
fb
04
ff
fd
0c
07
fc
13
05
f5
08
fd
f2
fb
fa
04
f4
0d
d8
b2
e7
0f
17
07
e9
d7
e4
f6
25
05
e6
e6
f4
fc
f6
f6
03
10
03
08
06
04
05
0b
1d
00
ea
ff
fe
f8
04
ff
02
fa
f8
fa
fd
fa
f4
fb
05
1c
0e
05
fe
f9
0d
fe
04
f5
f2
f8
f5
f3
fa
0a
09
08
09
10
0b
fd
e6
04
03
00
05
f7
eb
f4
f3
e3
fa
ed
ed
f7
0b
06
09
f9
ec
fe
f1
e9
f8
13
04
0a
0b
fc
0e
ec
d8
f9
fc
fe
fd
ff
00
fe
04
07
06
f6
f9
f5
fc
03
fd
05
0d
05
fc
02
f5
fe
11
04
05
10
09
fd
02
f6
02
f4
ee
0f
06
04
07
12
fb
03
0c
02
f3
02
00
bf
81
c6
f2
dc
e0
0e
07
04
fc
fb
01
f9
03
fa
f9
06
ee
ff
f7
f9
07
fd
f8
03
05
f6
01
fc
04
ed
ee
f7
0a
ff
f4
07
dc
fc
0c
ed
f8
08
0e
06
fb
f9
02
04
fa
01
00
f5
fe
fa
0c
fd
f4
fa
de
f9
fc
f6
0a
03
04
03
06
04
08
ff
fb
fb
f5
0a
e7
f6
f8
0b
0e
f7
03
f8
fd
f8
f8
f6
10
11
f9
d6
b8
d3
f2
f0
dd
fa
f1
fd
fa
f5
f6
fd
fc
f8
02
09
03
09
ff
0e
fb
f3
06
f4
f6
02
f8
fe
fa
03
03
fb
f2
fb
f9
05
fe
01
f8
ee
07
00
01
f7
01
fb
07
05
f8
fc
04
00
00
f8
08
16
00
fc
09
05
f7
01
0b
08
05
02
01
fd
ef
00
f9
04
fb
09
0c
00
09
0c
ff
09
fe
f6
fc
ff
f7
f8
e2
d5
dd
e9
c6
e7
02
f6
f8
15
1d
18
01
f2
04
04
fd
08
ff
f8
01
e6
e1
e6
f4
f6
f4
e9
e9
ed
19
17
14
eb
d7
ee
da
b7
d5
fa
03
fe
0a
07
02
02
01
fa
06
11
ff
1b
22
0a
f6
04
fd
ee
cb
e2
09
05
fc
f7
ea
ec
f4
e6
e8
05
dd
f6
ff
02
f8
01
ec
fb
fc
f0
f8
fe
e6
f9
03
08
03
0e
01
01
fe
f4
f7
f6
02
01
04
ff
ff
0d
04
fe
f9
ec
f1
16
0d
0c
f4
27
e6
fc
f5
00
04
f5
ff
fc
f0
f5
fb
0d
fc
fd
e2
fe
f7
01
fa
fd
fa
00
fc
f8
fc
fe
f9
fd
fc
04
03
fd
00
06
fb
fa
fa
0a
fd
01
02
fd
ff
fd
04
09
06
03
02
01
f7
fb
14
27
17
05
fc
07
06
ff
07
fe
f9
fc
15
0a
06
07
0b
0d
0e
12
10
02
0c
ff
f9
04
fd
fd
18
fe
fc
06
01
fb
00
f5
da
db
e2
06
ff
ff
0c
f6
f8
ff
02
05
fb
f6
fd
fb
ff
fc
fc
00
01
01
f2
05
fc
f8
02
f7
09
fc
f7
00
03
05
08
07
02
0f
fe
fc
07
00
0c
fa
ef
04
f6
f9
f9
f9
f6
f7
fc
f8
f7
fd
fb
01
04
fd
fe
05
fb
00
07
00
0a
0a
eb
f1
04
06
03
f2
03
ff
06
02
ff
09
00
fd
ff
fe
fd
0a
04
02
f5
ff
f6
03
f7
05
ff
06
00
ff
04
fe
f0
fc
f7
fe
fc
f9
ef
f6
00
0d
01
0a
f3
0d
07
fa
0a
0b
24
0d
f5
f0
08
f9
ff
0b
0b
04
15
f9
07
0f
e0
f1
07
fc
f8
ff
ec
00
f4
f2
fa
fa
00
04
02
ef
eb
eb
fd
06
f9
04
ff
07
0c
0a
fb
08
03
f7
03
0b
f5
03
f8
fb
fe
1a
f9
08
05
0b
01
00
fc
fc
05
f7
03
09
ff
fa
ee
f6
f4
eb
f7
0c
fa
04
fd
f3
f7
07
0c
f3
06
0f
ee
f5
e3
ee
f8
ed
ed
fe
cf
ed
02
08
02
fc
03
05
fb
f5
fb
fe
d8
eb
15
07
1d
f9
00
fc
04
fa
03
ff
fc
fe
fa
f5
fe
fd
fe
03
fc
fb
07
f7
f8
05
00
00
08
02
f8
fe
07
06
09
00
fd
f8
fe
fd
f2
fb
fc
11
09
ff
09
e4
ce
e0
08
ee
01
e4
dc
de
f3
f7
fe
fe
f6
f1
01
0c
08
04
01
03
00
08
06
f5
f5
fc
fd
04
fa
fe
06
00
f8
f3
04
00
f9
02
fd
fa
fb
00
fb
00
f5
fe
fd
03
06
01
fb
f8
01
02
f6
fd
ff
fb
f7
fd
05
02
f6
f8
f3
0d
f5
05
01
04
03
fc
0a
07
05
fe
f7
02
de
fc
f7
81
f0
13
1a
20
01
10
0b
0f
16
09
ed
f1
f9
fc
fc
fb
f7
f5
f9
f8
ff
00
fd
00
09
e8
ff
07
09
f9
ff
fe
fd
f5
fc
04
f7
fd
06
01
24
e8
1d
e9
84
d8
ed
e3
f6
f5
ff
f9
fe
06
00
f5
08
f9
02
0c
f5
0b
fc
f7
0b
f8
f9
09
f9
08
0a
f7
01
01
f8
fa
f5
f5
fb
fe
ea
02
fc
0d
ff
01
fb
01
fb
f6
fd
fb
ec
f6
f6
ff
f0
fa
00
f8
f2
ff
f8
0a
ff
05
03
05
fe
ff
f2
fc
10
03
02
08
ff
f6
03
f5
02
ef
f9
f2
05
f7
f9
fd
ff
ff
fd
f8
ff
fe
06
fb
fc
ff
fd
f2
03
06
03
0a
0a
fa
fe
0c
00
02
06
f0
00
fe
02
10
fd
11
d8
03
1a
fe
15
fb
05
fa
04
00
04
fe
fd
fc
02
00
fd
fd
f5
06
f9
f0
f9
fa
f9
fb
ff
f3
f9
f8
f1
fa
fc
fc
ff
05
11
fe
0a
19
02
ed
fe
ef
05
09
fd
06
03
fc
fe
0f
01
00
fa
01
04
fd
02
f5
f8
f4
ff
0c
f7
08
0f
fe
0d
02
04
06
f7
f7
fb
fc
f5
f2
f5
f4
fe
16
fb
ff
fe
00
05
f0
fe
fa
f5
f9
fd
f8
f8
f9
fb
f7
05
fc
f9
0e
fb
ff
f4
e9
f1
00
01
00
06
06
fc
0f
1d
fe
07
ee
fc
fd
f2
ff
f6
e9
f1
fd
fe
00
eb
f1
f0
05
f6
00
fe
e8
f6
09
fa
05
03
0b
04
0f
1e
03
13
1c
05
00
13
fe
05
fe
09
f8
ff
f9
ff
05
f5
14
ff
16
03
02
09
f5
02
f9
09
06
04
01
08
ff
00
03
04
fd
f3
f5
0a
09
0c
03
08
04
0a
03
fa
f3
ef
f6
19
09
f6
fb
f7
f9
fd
fb
fd
fe
fc
fb
fc
0a
f7
f1
de
ef
01
10
0a
fa
fd
07
e8
fa
03
00
05
05
fe
02
f6
02
fd
ef
11
f4
07
02
00
01
03
06
01
04
07
04
f8
ed
fd
f7
f4
f2
fb
18
f6
00
f8
07
01
02
0a
02
08
0b
f2
00
fd
05
0c
0a
06
07
02
00
04
02
f9
f6
f4
fa
13
0c
02
f6
03
f8
f9
f5
06
10
0b
f9
15
f7
f0
d5
ea
21
22
16
05
ee
f4
04
ed
f9
fe
0b
0b
03
fa
02
0a
05
08
f9
f7
f7
fa
f8
02
f9
fc
0a
f8
ed
f9
f5
e2
ef
02
eb
fd
01
00
05
06
0d
06
02
fb
02
fa
f3
fc
fa
fe
01
10
02
08
01
fd
0d
28
fb
ea
fe
e5
00
ea
ec
00
02
fc
fc
00
fd
fe
08
14
04
fb
07
09
e9
f4
e6
e5
13
da
f8
09
ff
f4
fb
04
02
ff
ff
f7
fd
fd
f0
fc
f9
04
07
f7
ff
0e
fa
02
f2
13
f4
05
01
03
0b
07
02
fe
f7
fc
04
04
08
fd
f9
00
f8
01
fb
0a
02
00
04
ff
02
ff
f0
fb
02
03
fd
fb
01
f4
f6
f9
ef
fb
ff
fc
f8
fc
01
ff
fe
00
02
fa
fa
fd
01
fe
06
05
f6
fb
f9
01
f7
f9
f2
ea
f8
fb
0f
03
00
f7
01
06
f3
fd
0a
fe
fd
f2
11
fe
ea
15
01
07
f8
07
e9
f2
02
f3
f1
ff
ff
08
06
01
00
1d
f8
d2
ee
08
ef
ea
ff
fa
fc
fb
00
03
09
01
04
02
00
02
04
f8
f9
fa
06
f3
fc
f6
fc
fb
03
02
fa
08
02
ff
fa
fb
f2
f9
e5
04
f8
f4
04
fa
01
08
ff
fe
03
02
01
06
ea
0e
03
17
01
01
d4
05
fa
f4
18
f5
fe
1a
f2
ff
ff
0f
04
05
03
02
f1
0d
0d
09
00
00
04
f7
f4
07
fe
fd
fb
f4
ff
f6
f9
f9
f9
fc
08
f8
ff
0d
03
0c
0f
0b
11
08
0b
02
13
16
f9
ef
06
f2
fe
04
01
fc
fc
ff
f6
f8
03
0d
0e
fb
f9
00
00
fb
01
07
ff
02
0d
01
05
f8
f0
fd
01
0b
02
07
f7
10
0e
ff
01
f3
e8
fa
f4
02
fd
ec
00
06
10
09
07
03
00
1a
03
e6
15
0b
09
fc
07
00
f6
03
06
fd
05
0d
ff
03
f6
fc
07
fe
02
fd
fe
ff
22
2d
1d
fe
e9
01
f9
f9
ff
e5
09
f2
fe
f0
e3
02
06
0f
f6
fa
f7
f5
f1
f8
f5
06
01
fc
db
00
fb
cc
f3
0e
19
0a
f7
d0
f9
04
da
f1
fc
00
fc
fe
f4
f8
f5
f4
f8
f9
e5
f8
03
fd
fd
07
fe
f8
fa
13
0a
f8
ed
fa
fa
f0
07
f5
06
e5
e4
11
f8
f2
03
f1
f0
13
0b
fa
f8
ef
09
f4
f6
fd
fa
fd
f8
f9
fb
fe
fd
00
fd
09
ff
f8
e5
03
f6
f2
f1
06
0c
fe
01
fd
fc
fd
fc
ff
fd
07
fc
00
18
0c
f4
c2
fc
28
1f
2b
02
01
fd
fc
08
04
04
09
09
04
11
00
01
f9
fa
fa
f4
fd
07
07
fc
fc
05
f1
05
09
02
05
fa
fb
05
01
ff
09
03
f2
fb
09
09
f8
f8
fd
02
06
00
00
01
04
05
ff
01
f1
e9
ed
05
fb
03
03
ff
01
02
fe
fe
ff
f3
06
f4
fd
01
07
0b
08
fe
07
03
eb
ce
e6
e8
d4
de
03
ef
03
fc
f4
e1
15
0e
16
01
06
04
02
fc
f9
f2
0f
07
ff
f3
fc
00
fd
06
00
fa
fc
0e
f5
02
f4
cc
fd
02
00
03
07
ff
0b
05
f9
08
00
11
fb
ff
fe
03
09
02
06
f6
f3
f7
06
00
03
02
fb
01
fe
f9
01
08
0d
05
09
0b
01
07
05
0d
04
f5
08
fa
f9
fd
ff
fc
00
f5
f9
f4
00
f8
f1
04
ff
02
fe
fb
fa
02
fd
fe
ff
fe
06
03
04
08
07
fe
09
fc
fe
02
10
08
0d
02
fa
03
09
0b
04
05
fc
01
08
00
01
fd
fb
fe
fc
fe
06
fe
f9
01
f6
07
01
fd
01
06
0a
ed
fb
05
0a
05
ff
e7
f9
f2
e5
ed
09
f1
fb
07
f1
02
ed
ee
e1
04
0b
fa
04
02
01
00
00
02
08
04
11
09
fb
f7
fc
fa
03
f2
e8
ef
08
04
09
09
ff
05
fa
f8
fc
fd
f9
fe
03
fd
04
ff
fc
01
02
fb
fe
02
f7
fe
06
02
01
08
fd
09
07
ff
05
02
06
01
07
f9
ff
fc
f9
f8
fa
f5
f6
01
00
06
f9
f7
ff
02
f9
00
06
15
04
05
01
01
ef
e4
e7
fc
fe
05
f3
f0
f7
fe
ff
f8
0f
fc
00
f3
fb
f9
f5
fb
fb
01
02
fb
f5
f8
f9
fe
00
fb
02
02
0c
fe
fb
fa
ff
0c
00
f2
f8
fa
01
f0
f9
00
f5
06
f5
e7
f4
f6
f8
f7
fb
08
fe
f9
fb
f4
01
02
00
02
ff
06
00
d7
f8
1d
26
0a
fe
09
00
fb
05
06
f7
0d
02
00
15
01
00
fe
fe
01
02
02
0b
11
04
00
fa
01
02
f6
ff
01
fa
02
03
fa
05
08
03
fb
f2
ea
e9
ff
f5
fc
05
fb
fc
f3
1a
fd
f9
13
11
08
0f
0f
f9
0a
03
01
f8
01
03
fb
ff
05
fb
04
04
05
0b
fc
0a
09
f9
15
06
f5
eb
f0
f5
e0
f2
d7
c6
da
00
fe
06
f4
fd
f0
09
17
07
ec
13
fd
0c
0c
06
f2
e4
f7
fd
04
fe
05
0d
03
16
05
0d
f7
f7
f0
02
02
fa
ff
00
01
07
f4
00
02
f2
01
ff
09
03
13
05
05
18
ff
03
07
f9
08
fd
f5
f7
f7
ee
f8
fa
e6
f9
0a
fe
08
f2
e9
f1
0f
18
0b
f4
fb
05
f9
e7
07
04
fd
06
ff
0e
02
00
04
0f
f4
04
09
f9
f8
fe
00
00
04
f3
f2
f7
02
05
01
06
06
03
f7
f6
f6
02
04
08
f5
f0
fc
fa
ff
f5
fc
f8
fe
01
00
fc
ff
fb
f7
fd
f7
02
f0
f5
fc
09
0e
fe
f7
12
05
ff
f2
06
e8
dc
e6
fe
04
01
fd
ff
f8
08
01
03
f5
f8
f4
f5
00
f4
fb
fb
f3
01
00
fc
08
00
f6
fc
ff
00
03
04
03
fd
10
04
04
07
03
00
02
04
fa
fd
fe
00
00
02
f9
fb
fb
0a
16
f7
f8
03
f6
04
fd
04
02
fe
02
ff
f7
04
02
fb
04
13
fa
fc
01
fb
fd
0b
f9
f6
13
fd
c3
0c
fc
e7
f7
fc
f9
03
05
01
ff
fc
03
fc
fb
fe
07
fe
01
05
ff
ff
00
f7
02
fd
ff
06
f9
fe
fa
03
fa
02
00
fc
02
00
f9
fa
f8
fa
f8
f3
01
f1
f4
fd
fb
02
00
fd
04
ff
f9
00
ff
f9
fd
07
f9
1e
2a
06
0e
0e
10
01
ff
f2
03
07
f9
fd
01
f6
fe
03
01
02
05
fa
f8
ff
fd
00
09
07
01
0f
06
00
08
02
fa
f2
fc
01
f9
05
06
fe
fd
ff
00
fb
00
fe
fc
fe
00
fd
f6
f8
fd
fc
04
06
fd
0b
0a
01
01
03
03
04
f5
fa
05
fe
fd
fb
fb
fb
f8
ff
01
05
08
fd
08
fa
fb
0d
f9
fc
10
f8
03
fe
05
fa
fd
00
00
fe
04
05
06
04
f8
08
07
01
05
f6
00
fa
00
08
00
f6
06
02
fa
ff
fe
07
00
ff
06
01
f9
05
ff
00
fd
fb
01
04
fc
02
fb
fe
fe
0f
fa
03
0c
00
07
f7
02
03
00
04
fe
fd
01
00
fa
09
01
ff
fd
fc
fb
04
07
fd
04
07
fe
00
00
f9
ff
fe
fa
ff
01
fd
fc
01
fc
fc
04
ff
f8
08
04
e6
11
09
f5
0f
00
fe
05
00
fc
05
01
f7
f0
fe
02
02
03
04
04
fc
ff
02
05
fc
01
ff
01
f6
fa
05
01
07
fd
00
03
fa
f9
03
05
04
03
fd
00
05
00
fe
07
fd
06
fc
ef
03
0b
1e
05
11
f3
04
0b
fe
ff
03
02
00
02
03
03
00
03
01
fa
00
06
f9
01
08
ff
fb
fe
08
fc
00
fd
01
00
00
18
09
06
0f
02
15
10
16
0e
02
fa
fc
05
00
05
05
03
04
05
03
00
07
06
ff
05
00
fc
02
04
0d
09
00
08
03
04
08
fe
03
01
fe
06
ff
fe
02
01
ff
f6
f8
fd
06
ff
fd
08
fe
01
01
fb
04
03
fb
03
08
fc
02
fc
fa
06
0a
05
00
f9
fc
02
02
f6
0d
14
01
02
f3
f0
fd
02
fe
fd
ff
05
02
08
fd
f4
f7
02
ff
07
00
fb
fa
03
05
fb
fd
09
03
fe
01
fc
fb
fd
07
02
07
0d
05
07
0f
06
fd
02
00
fe
fe
fe
02
fb
fc
ff
04
05
08
00
ff
03
01
00
fd
fe
03
fd
fc
04
fe
f9
fd
fd
fe
00
f9
00
f9
fa
fd
02
fa
fe
fe
fd
02
fb
09
0c
04
f9
f7
f6
03
fc
f4
ff
fc
fc
fb
fc
fc
fa
fc
ff
01
fe
02
00
06
03
f8
07
05
03
fb
07
fe
fc
00
fe
f8
00
fd
f5
ff
05
f8
14
08
fe
0f
fd
fa
09
04
fa
fd
05
01
03
02
fc
ff
08
03
ef
fc
f4
f5
00
fb
fe
00
04
09
06
0b
08
fe
ef
02
f3
f7
fc
04
fd
07
09
03
00
01
02
02
f8
fd
01
ff
04
00
fc
01
03
fb
0b
fa
fa
07
fa
05
03
fa
02
05
ff
07
08
ff
fd
ff
04
00
01
01
01
00
00
02
fd
fe
06
fe
08
02
fd
07
0a
05
04
05
fc
fd
01
01
06
02
0a
03
05
f5
00
fc
00
02
f5
fd
fe
fb
0f
ff
01
02
ff
fe
02
03
03
0d
01
fe
06
00
0d
e8
00
fb
f0
fa
07
ea
fc
fa
00
0d
05
fe
04
fc
fe
0c
05
fd
15
04
04
1c
08
06
1b
fa
ef
fd
05
15
0d
01
02
ff
01
03
03
03
08
08
02
06
08
02
fb
dd
ff
fe
d2
1a
0f
ec
ff
fe
01
00
fe
04
fe
f9
08
ff
01
00
02
0a
06
00
fe
09
fe
01
fe
ff
fe
04
fb
ff
fb
02
fd
ff
08
fd
ff
04
fc
fc
01
08
fd
03
08
02
02
05
fd
07
10
f5
09
09
f8
ff
05
f5
04
00
ff
f8
f7
f7
08
04
fd
f6
fe
08
fe
ff
0a
f9
06
05
0e
09
05
0f
14
07
ff
06
05
fb
f5
f9
03
fd
f3
fb
fd
f9
00
01
ff
fc
f8
fb
0a
fc
f6
fd
ff
fc
00
fe
f8
ff
fe
fc
f6
fa
03
fd
06
05
f6
01
06
fc
fe
00
ff
fd
ff
02
fd
01
05
01
03
fb
fb
f9
03
00
fd
f3
0d
f8
c3
36
e2
f7
17
f1
02
fd
ff
01
fc
fe
05
00
fa
f9
02
01
fa
01
fb
f7
fb
fd
fd
01
01
fb
fd
03
fa
01
07
06
03
00
04
02
fd
f9
0a
fe
fe
02
fc
05
04
fa
00
fc
fd
ff
02
01
f7
f8
fe
04
02
01
ff
02
ff
03
07
fb
f9
07
ff
01
04
f6
08
0d
f9
0b
05
04
05
fc
06
0b
03
08
fb
fb
f1
ff
0c
0a
01
04
09
00
fd
03
07
e4
05
06
eb
0c
08
f5
0b
00
00
f8
ff
02
f6
ff
01
f8
01
06
01
f5
03
00
fc
03
fa
01
04
02
02
04
02
03
06
04
fd
fe
03
03
fb
03
0e
07
09
01
01
fb
03
03
fd
01
01
fd
ff
02
fd
fe
02
fb
fe
04
fa
fe
02
f6
ff
f3
fe
fb
f6
02
fd
fc
f9
09
fe
f8
fa
ff
fc
f8
ff
fe
f9
f9
fa
04
ff
0a
01
00
fe
fd
fe
fd
fe
00
02
f8
01
fb
ef
ff
f8
00
f7
ff
ef
ea
fd
01
e2
f7
ff
e8
13
03
e4
32
20
f2
38
0a
e2
39
f9
f8
f0
05
e8
ca
fc
ed
e9
05
f6
fb
12
f4
1a
12
fa
0e
05
02
ff
01
ff
fb
ff
02
01
05
05
fe
00
fd
02
fc
ee
fc
01
09
fb
fe
04
f7
03
04
fd
fa
0c
06
01
14
fb
fa
fc
fa
04
0d
01
fb
04
ff
ff
01
05
ff
fd
fd
fd
fb
03
ff
01
05
00
fc
fa
01
09
fc
fe
02
fd
07
05
04
03
01
02
00
ff
fd
03
00
01
02
0a
02
06
00
02
04
00
ff
03
01
ff
04
fe
fd
00
02
02
02
01
01
fe
01
ff
01
01
02
02
ff
02
00
fd
05
0c
07
ff
f8
ff
fa
fc
08
03
03
f4
12
f2
dc
27
03
dd
23
fb
fa
02
01
fc
03
f9
fb
fc
03
05
d1
06
fd
12
fd
fb
e0
01
00
f0
f6
00
00
01
fe
fe
00
02
03
01
fd
fe
fd
fd
00
05
03
ff
05
01
01
03
fd
ff
f8
fc
07
ff
03
01
07
f6
f7
f9
1f
e5
df
37
ed
fd
23
ef
ff
0d
0d
13
fe
fc
fe
10
19
fb
ff
fb
07
0b
05
05
07
fe
06
06
07
05
06
0c
06
fd
04
01
fd
01
fc
fc
f9
fd
fc
ff
00
fc
01
01
fe
03
02
fb
03
f3
f8
ff
f9
02
fb
f3
f4
02
fc
fe
ff
fe
ff
07
fe
f8
0a
01
03
fa
02
03
f8
03
05
fe
fb
0e
fd
fb
f3
ff
fa
f2
fe
00
0e
12
0d
10
0e
fa
02
0b
0e
fa
40
1b
f9
54
12
ff
4e
05
fe
fc
f9
fa
fb
04
fc
fe
fd
04
00
07
06
02
02
01
01
fb
0b
01
f7
f7
fb
fb
f1
fa
04
ff
01
00
fb
0f
fe
00
00
02
07
fc
ff
ff
fd
fc
f0
fe
02
00
ff
03
00
01
00
fc
03
00
01
09
fd
fb
fc
01
05
ff
02
fc
07
f5
f8
05
fa
06
06
02
06
08
06
04
03
01
03
01
03
f9
07
fe
fa
08
f6
f9
fe
fb
02
02
fe
06
fd
f7
fd
fe
00
00
fd
02
fc
00
05
ff
00
0b
07
05
fe
03
04
02
05
02
f9
11
e7
ed
0d
ea
f6
ff
e8
f7
d2
04
fe
e0
0a
e7
d4
02
f9
ff
06
ff
00
fd
01
fd
01
f5
05
fa
f4
05
01
06
01
00
fe
f5
fc
04
f3
f3
06
f5
f4
08
fd
05
f7
f1
f1
f9
f4
f1
fe
fb
fd
fd
00
05
09
03
04
02
fe
eb
f3
f1
de
00
0b
e3
00
03
06
f9
fe
01
01
05
fe
00
fb
f6
ff
fc
fe
04
ff
ff
01
fe
fd
02
fe
02
03
ff
01
0f
fb
02
0a
fe
ff
e4
05
0b
fe
04
f2
00
08
fb
fe
fe
02
ff
04
04
01
04
01
fd
04
05
ff
09
fb
04
01
fb
01
f9
fc
fa
fc
00
f1
fe
f4
f5
fb
fe
f4
05
0b
0d
0a
0d
ee
ff
03
f8
ed
b4
08
f4
cf
fb
f5
ab
00
02
fd
ff
04
ff
05
05
02
01
01
01
02
02
01
ff
00
02
ff
03
07
ff
04
fe
f1
ff
07
fc
fa
fc
f7
03
06
ff
05
08
04
00
f9
fc
fa
0d
00
11
fe
e7
c8
e5
e3
81
e3
ee
ae
d7
ff
01
03
fb
02
01
fd
fd
fd
04
f9
fd
03
fe
08
fe
f5
f9
02
fa
01
01
01
fa
01
f9
f9
02
04
fe
01
00
fb
02
01
fe
03
fe
fe
00
fd
f9
fe
fe
00
f9
04
ff
1d
f4
fa
ff
ee
02
fd
00
01
fd
fc
fe
ff
fd
02
03
00
fd
ff
00
fc
fd
fd
00
02
00
05
01
fb
01
02
ff
06
01
01
02
03
00
00
04
04
01
01
02
00
fd
04
00
ff
04
fe
ff
02
01
00
fc
01
fe
fe
04
f1
2c
ef
d3
45
cf
e6
28
e5
f8
fd
f5
da
f7
f6
fd
f2
f0
02
fb
ff
02
0a
03
ff
08
fd
02
05
fe
08
0f
03
05
fd
fa
fd
fa
02
00
08
fd
00
03
ff
fa
f7
f8
fe
07
09
fd
02
02
00
00
f8
01
ff
fa
00
06
fb
fe
02
fa
fe
fc
f7
03
ff
fe
01
f9
07
03
f9
03
00
f8
00
03
01
02
02
fd
00
04
01
00
02
02
fd
04
01
fb
ff
02
f8
00
01
05
fe
04
06
fd
04
07
08
fe
01
03
ff
fa
00
fd
f9
00
fa
fd
fe
00
03
fd
05
04
02
ff
f9
00
08
f6
fe
02
f7
04
00
03
02
00
02
fa
fe
05
05
f9
fd
ff
01
09
fd
01
01
07
0b
09
01
ff
0d
fd
fe
04
fc
fb
fe
03
04
0c
00
f8
fe
00
08
01
05
0b
02
fa
09
00
00
fe
03
02
05
ff
01
01
04
fd
fd
fd
01
fd
f0
ff
fc
f4
01
00
02
03
fe
fe
ff
fa
fc
03
00
ff
07
02
ff
06
00
fb
fc
fb
01
0b
04
06
fb
fd
fe
04
02
04
f4
05
fc
03
01
00
fe
00
00
ff
03
02
02
05
fb
00
00
02
fe
fd
fd
ff
fd
02
f7
fc
0b
f6
f8
f7
fe
03
09
fd
01
06
fa
01
04
f5
fb
fb
01
fe
0a
02
f1
fd
05
fa
01
02
ee
fd
f6
dd
ee
fc
f2
fd
f9
00
01
fe
00
02
05
fd
02
00
01
03
04
01
0a
04
02
03
01
fc
00
f9
0b
04
fa
0c
10
02
ff
ff
01
fe
04
fe
fb
01
03
fa
f4
08
01
f0
07
00
f3
ff
06
0b
fd
fa
ff
03
f9
fd
08
09
03
08
00
05
0d
03
00
f9
05
ff
f8
0a
00
fb
02
f7
ff
04
03
ff
04
04
ff
03
04
ff
fb
07
02
fe
0b
06
00
08
fb
f8
fd
09
08
03
01
f7
fa
fe
01
08
fa
fe
09
fc
05
0b
fe
f9
fb
06
09
09
04
f7
f7
04
10
07
f1
f2
fa
fd
fd
0c
fa
f8
01
f5
fe
0e
f9
09
f8
0c
0d
fd
0e
11
fa
09
0c
f1
00
06
f0
fb
0e
f4
f0
09
ef
fa
f5
0f
ed
f9
12
f8
01
06
fe
ff
fd
fe
07
10
fd
fa
05
f3
ee
f0
ec
f6
05
fc
ee
07
02
05
00
03
fd
fb
0a
fe
05
14
e5
0a
0a
eb
fe
28
f5
01
dc
47
d6
d6
4f
b8
cf
21
c1
f6
ec
00
08
05
ff
f8
00
04
0b
f0
fd
00
fd
f7
fa
fe
fc
06
fd
fa
12
ed
05
fc
f3
fa
0c
13
f6
10
11
fe
08
0d
ff
0c
ea
09
07
e2
0e
04
f2
0e
00
fb
fd
00
02
fa
ff
f7
fe
d8
03
16
81
6d
28
d5
22
08
fe
0a
07
01
07
09
f7
05
06
0c
f9
03
00
f6
02
f6
f1
05
02
0e
05
02
0e
06
01
0e
0a
fe
ec
fb
03
03
fd
f8
ff
03
01
fc
06
fd
f5
03
03
f4
02
0a
f3
ff
fc
f1
01
ff
f7
05
04
fc
f3
fd
fe
fe
03
f8
01
03
fe
13
10
fa
04
1d
f4
fc
f9
ff
08
f6
08
fe
f6
05
07
02
0a
f8
03
08
f4
03
02
06
03
0d
f9
f9
0f
01
ff
07
05
14
00
f9
ff
f0
00
ed
02
f7
f3
fa
fb
ef
f0
f7
fd
ef
ef
f5
f0
f7
02
fa
01
02
fd
07
09
01
08
03
f0
fa
10
04
02
08
fc
ff
fb
f3
fb
f4
f2
fd
f8
0e
fa
03
0e
fd
0b
f8
0a
03
0a
02
01
03
03
04
09
07
f8
04
00
f4
06
02
fd
02
00
fd
f6
00
f9
f2
05
fb
f4
ff
fe
ed
09
f8
ec
0b
fe
01
02
fb
0b
08
f7
01
0a
f9
fc
ff
f5
04
fb
03
ff
fe
02
f5
f8
0b
ec
0b
18
e5
03
01
ef
19
fd
ff
03
03
f9
0a
ff
05
06
c3
23
ec
a0
53
f5
c2
29
f9
00
f7
fd
01
fe
fb
f7
f9
fe
f8
08
f3
ff
06
fb
05
01
fd
05
01
03
f9
ef
09
fe
f7
fc
f0
23
0e
e9
fd
fb
d9
f7
0d
fa
fc
01
04
f7
07
fd
f6
00
07
04
fc
01
03
f8
03
02
fa
f9
f7
11
fd
07
06
07
ff
03
00
09
fa
fb
03
fc
fe
01
fb
10
fc
05
fc
fc
f7
fe
03
f3
fd
03
02
fd
01
06
fd
ff
09
08
0b
08
1f
0d
10
06
02
f1
fd
03
f2
06
f3
00
f3
fb
f9
f4
12
ff
e7
13
fe
e8
0a
00
f9
ea
fb
fc
e6
fa
ec
eb
ed
0b
0d
fa
16
11
fe
fc
05
08
fc
08
0a
f5
0d
01
f3
01
02
06
0b
fa
07
f7
fe
04
0b
01
06
fa
05
0c
09
fd
01
08
0e
f7
04
01
0a
00
f9
00
09
f8
13
fc
f5
f9
fb
01
ff
ff
f2
ff
0d
03
fe
01
01
f6
f8
fb
12
f8
e7
fd
f4
e4
06
fc
f0
f9
f7
f7
13
07
13
fa
04
f7
07
02
03
f7
fe
fa
fe
04
02
0e
ff
01
fd
f5
03
f7
fb
01
f1
d8
f8
f1
c8
07
ee
d7
ff
fd
01
fd
fa
fa
05
f5
fb
00
fc
1b
ec
fb
1a
d9
f5
07
e8
01
e9
16
0f
ef
19
f3
01
06
ff
0d
0d
07
0c
fa
0c
03
ff
06
f6
f8
08
fb
f7
00
fb
05
f1
fb
05
ff
05
05
fd
fc
f8
f4
21
fe
09
12
03
02
1c
03
08
02
0b
08
fc
05
02
fc
03
08
01
0a
02
f9
00
04
f3
fe
07
fd
08
01
fb
f4
01
f7
06
1e
06
00
15
f7
f2
1e
f7
fe
f7
06
07
09
05
00
03
02
ff
fa
10
fe
f0
05
0c
f4
00
04
f0
13
f4
dc
1a
f6
02
13
f7
ee
0c
fd
ea
1a
f5
f8
07
07
fe
f2
ff
03
ea
fe
04
f9
06
ff
f4
fb
0f
fd
f9
04
f3
0c
f7
06
fe
fb
07
00
ff
02
f8
0b
e8
d8
03
e0
d1
11
f4
f4
04
f8
fe
fe
f0
03
fc
f4
05
04
fa
03
01
f6
09
00
fc
ff
07
06
01
0f
f2
06
02
fb
03
06
ff
fd
ff
00
f9
fa
fd
01
fd
fe
f8
f6
f8
f5
fd
ff
ff
1b
32
e5
40
41
d8
1d
0c
e3
09
fd
f1
02
0d
f2
fe
05
f3
f4
f7
fb
f5
f4
01
00
f2
0b
fa
23
02
0f
2f
1a
06
fe
0c
03
e7
ff
00
e6
f8
1b
eb
f0
02
f9
12
01
f0
03
13
0a
10
01
fb
03
02
fa
02
ff
fc
00
02
f0
f9
0a
eb
01
f3
e3
fa
05
f5
f8
00
f0
fb
03
f9
02
ff
fb
01
03
f8
06
fb
04
03
ef
1b
e1
eb
0f
eb
eb
1e
e8
05
f3
fc
10
fa
fe
04
fe
fd
ef
e3
0a
f5
e5
07
f7
f2
08
f4
0a
04
ef
0e
03
f3
07
03
01
f5
f6
13
f7
05
09
f5
0a
ff
f4
fc
f7
f8
fd
f7
f7
f8
f2
01
00
0e
0c
fc
fa
09
0d
15
ec
00
f6
00
0e
00
ee
0a
02
f7
fd
07
0b
0a
0c
0c
09
fd
fe
fb
08
07
02
01
fb
00
f0
fe
02
ff
fd
0e
04
04
10
09
04
08
19
00
01
0b
fd
04
0e
f9
f9
09
fa
f6
16
fa
fa
0b
ff
06
12
ea
03
08
05
06
fd
04
fa
fc
02
ff
f7
fb
fb
ec
f0
02
fa
f8
02
fe
03
02
16
f0
04
0d
08
f9
08
08
07
f8
fd
f1
f3
01
f1
ec
ff
f8
09
0e
fa
0b
02
fb
0e
f1
02
01
02
13
f8
fd
0b
f6
f4
f8
f8
f4
fa
f5
ff
01
07
fe
0a
fa
fc
f9
f3
00
ff
fe
02
04
e7
f2
fb
ef
df
f5
ec
03
01
e8
fe
01
f3
0d
fb
f7
fe
01
27
d2
09
1a
dd
15
09
f1
f6
de
25
02
df
0b
f8
c9
fd
01
f5
0a
02
f2
0f
07
ea
10
09
00
fd
f7
fd
f6
07
fe
fa
f2
07
e3
0d
05
e7
07
06
0d
08
fb
f8
06
fe
f6
09
fa
fb
07
02
02
ed
0e
16
f3
08
08
f9
fb
02
f8
fe
05
fe
00
0c
0f
fb
fa
02
04
ea
f9
03
e5
fe
02
06
01
00
02
11
02
f3
07
06
01
f7
15
f9
fb
12
f6
07
06
04
0c
0f
f2
14
0d
ff
08
ff
09
fe
f7
02
fe
f3
fc
f6
f6
f7
10
f8
f8
0f
04
f9
0f
01
02
06
fb
fb
ff
03
fa
fd
03
10
0a
0b
f7
fd
1c
f0
f9
2a
c9
12
4c
c4
30
35
d9
06
07
fe
06
ff
f9
fd
07
0b
f9
24
13
0a
13
30
00
34
0a
05
fe
e6
18
ed
b8
13
f9
f0
10
f9
04
04
f7
04
fe
fc
fd
fd
0a
0e
fd
10
0f
fd
0e
0d
fc
05
02
04
f2
f3
0d
f2
fe
f6
09
f1
08
0f
f0
13
0e
f7
00
05
fe
16
f7
31
fd
14
f6
16
ff
f0
01
f8
fb
09
f5
fa
fd
07
e8
08
02
e7
13
06
01
06
05
02
fd
00
09
03
01
06
01
08
08
fc
02
08
0a
02
02
00
eb
ef
f7
c8
d4
ef
ec
ed
f1
0a
fc
fe
fb
06
f8
fd
04
fd
03
00
ff
fa
f6
f8
fb
f3
01
0e
e9
ff
f4
f5
04
f2
f9
05
f4
09
14
f6
13
1f
ff
f8
04
f4
07
f6
f9
11
eb
e4
fe
f5
08
f5
06
1c
e4
0f
06
fe
00
fb
fb
09
04
fc
12
05
fe
01
f6
f5
04
fe
f5
fa
03
00
f4
f4
f7
03
f5
fb
ff
01
f0
fc
19
e8
0f
02
f1
06
0c
06
02
fb
01
fc
f4
ff
00
fa
04
05
ff
f4
f7
0f
01
04
07
fd
fc
00
ff
06
ed
ef
09
f4
f4
0a
f7
f9
fc
f3
08
05
fb
01
05
01
e0
0c
26
cb
07
10
da
05
01
eb
0c
ff
fe
06
05
fc
f5
01
f6
00
05
f0
fa
ff
f9
fb
13
f5
01
f9
f3
f6
fa
ff
02
0a
17
da
ec
1f
cf
e4
1d
f1
f1
f1
e4
ec
ea
d1
fa
ec
de
09
ef
09
0a
01
01
fc
06
0f
13
e1
0d
1b
de
08
f7
0d
0d
04
00
09
f8
f9
10
f1
09
04
f7
fe
fa
e2
e6
e2
ea
f0
eb
0c
e8
09
0f
e4
08
0f
f2
fa
ed
16
06
03
f4
ff
01
0f
02
12
f1
fc
12
f3
fb
ff
fc
f9
fc
fb
00
06
f8
fc
0e
ff
00
fa
ea
fe
e8
e8
fa
f1
f5
f5
f4
0c
07
f8
0b
fe
ed
ff
fd
f6
fb
08
13
e9
0e
14
ea
fa
09
00
f1
04
04
f9
02
05
fe
05
f8
03
02
fd
fc
04
01
fe
0f
07
07
0b
06
fc
04
ff
02
e2
ff
f1
d9
ef
f4
d8
fa
eb
04
13
e6
f9
04
e7
13
f7
00
04
09
02
08
01
04
01
06
01
fd
fc
02
f8
f9
fd
f6
02
05
f6
ff
00
f8
00
0b
e8
eb
fc
f6
fa
ff
0b
ff
f7
09
08
01
f9
ef
0f
ec
ef
1b
fc
09
09
1d
df
0e
23
ab
e0
0d
b8
fa
fe
08
fe
04
01
fe
00
02
02
fe
06
0f
09
ff
05
0f
f2
09
0b
f4
ff
fd
f2
ff
fe
ff
06
07
0b
0b
08
07
fd
07
03
fe
fb
00
04
f3
fc
02
f9
fb
03
f8
06
07
ee
07
1d
03
f2
09
fe
fc
01
02
f9
01
06
fd
01
fe
0b
f9
f9
11
fb
fb
0b
08
0a
06
07
04
ff
03
02
06
08
fb
05
fa
06
04
fd
fd
fb
fe
f5
06
01
fc
02
07
08
05
12
f8
f6
fc
fa
f0
fb
f9
f4
f7
d3
ec
11
bb
e0
21
cc
fa
14
0e
f3
ff
08
d2
f6
08
0c
f2
15
fa
0c
1f
df
17
0c
e5
0e
f9
f1
0e
f8
fe
1e
fd
0a
09
07
09
f3
fd
04
f6
04
02
00
f4
15
11
09
0f
1c
09
02
1c
fc
09
fb
fd
07
f5
fe
04
fe
f2
f8
fc
f5
f4
f6
fb
f8
fb
03
fe
fe
fa
fc
00
f5
f7
fc
03
00
03
fe
fe
01
04
fe
08
08
06
09
08
07
08
01
fe
ff
fb
fe
f8
f8
05
fb
03
06
01
0f
08
f1
05
ff
ec
fe
fb
ea
10
fe
03
05
fb
ff
01
f5
fd
fd
12
06
fe
06
ff
08
fb
f5
00
0a
01
f0
ff
fd
fb
ff
02
11
03
f9
0e
05
04
04
04
06
03
08
06
04
0f
0e
f1
ff
08
0b
f1
09
f2
e6
fe
02
f7
04
04
04
0e
f9
02
02
fa
fa
07
04
eb
00
07
f1
14
01
fd
0c
fe
15
0f
08
0e
08
0c
fd
fb
fc
fd
fe
03
ff
00
04
fd
02
06
02
fe
06
01
fd
05
04
08
03
04
fe
0e
14
00
fc
fe
01
0d
f9
02
0b
f2
09
fa
fb
fd
16
e7
12
21
d5
0c
10
f3
0c
05
f9
07
fd
06
02
fa
00
f9
ee
d9
ff
f1
c6
f9
dc
cc
05
fa
04
f8
f2
01
05
f6
05
f5
10
eb
03
0d
fa
f5
01
0d
ff
0e
14
fb
ee
07
e9
11
ff
e9
07
f4
0a
08
f2
0a
0f
f9
fc
03
fc
04
01
01
f6
01
03
00
ef
db
0e
de
c8
11
e9
e2
14
03
0f
f3
06
09
f3
03
0f
03
0f
fb
06
00
f7
0a
f7
07
fc
0b
e8
03
10
f5
00
fa
ff
01
ff
13
0e
13
1f
12
0f
0b
fc
fe
03
ff
04
f9
0b
f4
e8
0b
01
12
06
05
14
08
02
0f
04
02
0c
04
ff
08
02
ff
08
03
08
f7
f6
ff
f9
f9
08
01
ff
f9
00
02
f4
00
ff
fb
04
00
1c
01
f7
10
f5
ff
00
f7
f5
ec
fd
09
f3
01
ff
08
02
05
e6
c3
e2
f0
de
f1
2a
30
29
f1
e8
f3
ed
ee
ed
03
02
fa
fa
10
ef
ff
16
f4
f0
0c
e7
01
ee
f6
07
f2
f9
fb
f5
f4
fe
fd
09
14
f8
f4
13
f0
e4
f1
f9
f5
fd
19
fe
f4
fa
f1
f8
fc
fd
f4
fd
fb
fe
f5
fb
fc
02
f1
0d
08
ed
f7
12
fe
f6
1c
ec
f9
1a
f5
f8
1a
f4
0a
12
11
0c
13
0f
07
07
05
fb
fd
fc
01
01
04
f9
f9
03
07
0d
0c
ed
02
01
02
fd
f3
f6
01
02
f5
06
ff
07
05
f9
01
19
fa
09
0c
f7
ec
ec
04
fb
f5
f8
02
04
03
fd
fd
ff
ff
12
10
fe
07
0b
f6
f8
02
f8
fc
fc
09
04
0c
07
fb
01
f9
fe
fa
06
0b
09
ec
e8
ec
dd
cf
e3
df
d3
ea
f7
ee
fb
fb
f8
ef
f9
ff
f9
01
02
07
07
02
07
ff
fd
02
f9
fb
00
fa
fd
01
1a
1a
24
2a
2e
2f
ff
0a
05
f6
03
f9
04
16
05
fe
00
fa
01
10
ff
0b
25
17
ec
fb
e6
f0
1a
02
ff
17
13
02
f8
fc
0b
fe
fe
02
f8
ec
06
fd
fc
00
f3
fc
05
f7
01
02
03
f5
04
03
ff
f8
f1
f9
ec
20
e9
d6
26
da
f3
2b
e2
0f
05
19
0e
f7
09
03
00
f9
fd
f6
f7
00
02
02
f5
06
01
f5
fd
04
f8
fd
06
fa
f5
ff
f1
e7
e2
b4
a1
bc
b4
bd
bb
09
04
05
ff
ff
ff
fe
f8
fe
01
04
07
fd
04
05
fb
02
04
0c
f3
00
fb
f3
05
ff
03
10
06
f9
0d
fc
f8
03
03
0e
1c
14
11
12
09
0d
0b
07
0b
0c
b8
91
af
e3
d9
d2
29
1a
23
03
05
fe
0a
0b
11
07
0d
07
fa
f9
fa
ff
fe
03
fc
fd
fc
f3
05
f7
fb
12
f4
f0
0e
f0
0b
13
11
07
0f
0c
ff
fd
00
f9
ed
ee
10
51
13
14
3b
1b
0b
4f
2b
35
44
21
f6
a4
9b
0d
ea
01
08
e0
11
12
e5
0b
fe
01
06
02
08
0a
07
0c
09
04
05
08
fd
00
02
fa
f2
f5
0b
03
1d
08
f4
0e
ff
0f
0b
0b
05
00
02
08
fe
fd
f8
f6
f6
e9
f5
97
81
aa
ed
e2
04
02
02
fd
fd
09
03
06
16
0f
01
11
f0
ff
26
e8
f0
13
e0
f8
f7
fc
f4
fe
fa
fa
fd
f1
fd
f7
0c
fe
e5
08
f1
ed
16
f5
06
0e
f2
08
fd
e9
09
f8
f6
00
fc
f7
0b
10
01
03
0b
0a
0f
16
0e
18
1a
fc
0f
0d
05
04
09
03
f1
00
0b
fb
00
0b
f6
01
05
fe
fc
fa
ff
00
08
fe
01
07
09
05
0a
05
05
f7
f8
f5
03
f7
ed
fa
ef
e2
07
04
02
1f
1e
06
0a
0a
f9
f0
f0
f3
e7
d6
d8
0b
05
03
03
00
0b
e7
ef
ed
27
05
2a
02
f8
fd
fd
f7
fb
05
05
02
f9
fb
01
00
fe
09
ff
f6
03
fd
02
0b
fa
fc
0c
0b
09
14
f8
0f
fa
e9
12
f4
f5
0d
ef
00
f9
ff
f7
ff
fe
02
08
0a
02
04
0d
02
09
04
f5
ee
f2
00
11
08
05
0f
05
fe
ff
fc
0d
1c
20
04
ff
05
f7
f3
f8
ff
0c
02
02
10
07
fd
12
05
fe
ea
05
fe
f7
0f
f4
e6
04
03
fd
03
03
07
00
f9
f3
f9
f8
01
01
f5
fb
fe
f7
f8
ff
1c
0f
21
17
02
01
00
e9
e3
f9
07
02
f6
f4
e5
00
07
f4
fe
04
f5
02
f2
f4
f6
ec
f1
f8
fb
f1
ff
0d
f5
02
0b
f0
fd
07
00
ff
fe
fb
f7
08
0b
fc
f3
00
1c
f7
fd
1e
0c
18
04
0b
0d
ff
0a
10
f0
06
15
e7
cc
d4
14
eb
06
1b
0b
1b
f5
08
04
01
14
06
06
13
04
03
f0
05
0c
e8
f9
0d
e7
f1
11
10
15
0a
06
10
07
f9
0b
f7
01
fd
fc
09
04
fe
01
05
f4
06
03
ec
fb
0a
fe
fb
0c
f9
fb
fd
01
03
09
fa
f1
f8
09
05
04
01
fb
fb
04
00
ff
17
15
07
0a
01
04
02
f1
0f
0b
09
06
12
2e
18
08
fa
fd
16
fb
fc
22
f9
f2
f1
d4
c7
f9
f8
f4
1d
f1
ee
0a
f9
08
f8
0d
f5
05
02
f3
03
12
04
01
ff
f5
1e
09
12
09
f9
f5
04
09
06
03
07
04
0e
13
14
08
03
f1
13
10
ea
0e
1a
fd
04
05
07
03
02
08
fd
f6
fb
fc
fa
fc
f5
01
fd
fb
f6
f4
f7
19
fd
ea
0d
fe
04
0b
0a
03
07
06
01
04
04
f9
f2
f9
00
07
f9
fe
11
06
06
0f
03
fa
07
0e
f1
01
05
fd
fc
fe
fe
fe
fa
3d
24
36
df
a9
c6
fb
ff
01
f6
01
fa
01
0d
04
08
f1
f6
02
ea
f5
0b
eb
fc
05
08
f2
06
fe
f5
06
ea
f4
0b
fc
fd
02
f2
fb
02
f0
ee
0c
18
0b
ca
dc
fe
c3
c3
f9
fa
f2
fc
01
f5
ff
ff
fc
02
03
02
fa
f3
f6
f3
ff
f8
f6
fc
ff
e3
f1
f8
de
1d
2d
16
fa
e8
f6
f8
fb
f6
fd
fa
fb
fd
fd
fb
fb
02
ff
ff
03
01
fb
0d
fd
01
17
09
eb
f7
f8
f6
f0
15
fc
ff
12
0a
ec
12
f7
f8
f8
05
09
0d
fb
fd
f9
1d
24
18
fc
04
f7
ea
16
ff
10
06
f1
09
04
f8
05
fc
ff
0d
0b
0e
fe
fe
fe
0c
0c
0e
f2
f1
f5
f4
f8
f7
04
05
0e
00
0f
fb
ff
0d
f7
fc
0a
f6
00
0b
07
f4
f5
fd
f7
f7
f1
f9
1e
08
f7
11
fa
02
fb
f7
16
ed
06
21
f3
0c
17
dd
f6
fa
01
06
0b
06
04
fa
ea
e6
f1
fb
fe
fa
fd
f1
f8
f5
fb
fd
e9
04
eb
eb
f8
f8
fa
0b
01
04
0d
fe
f8
0b
09
f9
0e
ff
fd
f9
f2
ee
fa
00
f3
06
02
03
09
09
0f
0f
03
09
0a
0b
0b
06
fb
f3
f8
0e
f1
0e
03
06
f2
06
0e
fa
00
03
fe
06
06
02
0e
0c
04
0c
12
06
01
fe
07
08
13
0f
19
14
0e
ff
ff
0d
eb
f3
ee
ff
f9
f7
fa
04
f5
f7
fa
e7
09
0e
01
03
05
fa
14
1b
fe
fe
09
ed
11
12
0f
db
e7
ce
f0
f5
cb
ff
17
02
f4
1e
f3
05
0c
ef
f5
04
08
fd
ff
0e
f4
07
19
f4
28
f0
fb
1d
f0
ec
17
e9
f7
01
fc
f8
0d
02
05
0e
f1
03
fc
fd
00
05
02
fc
fd
01
f4
fe
f8
fb
0a
04
01
0a
05
fb
eb
03
05
f3
fe
f7
df
ee
05
03
14
09
f5
13
01
f3
0e
01
fa
03
0a
f8
e9
f6
fa
f2
ed
0b
05
ea
06
03
f4
f9
f9
06
06
0c
f9
fb
0e
02
02
1a
07
01
fc
fa
fb
fb
0e
14
12
ff
e2
f5
2b
2c
1f
e2
c6
df
fd
08
1a
f7
0e
00
03
04
da
f9
f7
0f
03
f0
06
06
e9
12
0a
03
0b
0c
07
0b
fb
fc
00
1b
0b
12
12
ef
1b
10
e7
17
f0
e7
f8
05
ee
fe
fd
ff
13
03
f7
ff
08
f8
0e
1f
e7
0e
0b
f7
f9
0c
0a
0a
04
08
fc
00
04
0b
f3
fb
02
05
02
13
ff
04
06
02
f5
f5
07
ff
ff
f9
20
fa
f4
22
09
a8
c7
a4
fe
ea
08
f3
ec
02
eb
f5
06
fc
fe
03
fb
fa
fb
ff
f8
fa
fc
f2
e7
24
43
21
ff
0e
ff
0e
f3
fe
0b
e1
0c
44
43
43
f5
fc
fb
fb
ff
f4
fc
02
fc
f3
02
0f
fa
0d
f8
0a
13
fd
fa
f9
0b
fb
00
10
e9
ed
f7
07
08
02
00
fe
01
fc
fc
fa
16
37
25
f2
01
00
eb
ef
e6
0e
e4
0d
09
f5
0e
02
e1
10
0e
ff
ec
0b
1d
07
fe
11
25
fc
fc
f9
03
0f
09
fc
0a
f7
0a
08
07
0c
01
0e
02
ff
10
fd
01
01
fb
08
05
00
f8
f3
f7
f7
0f
f9
0d
0e
eb
06
fa
1d
39
10
e5
04
dd
b8
a2
c5
eb
0f
02
fe
1a
03
0a
21
f6
09
fd
04
ff
05
02
f2
fd
f2
fd
f8
fc
00
00
03
0b
0f
16
ff
0b
0d
f3
fa
f3
fa
10
fd
fe
f7
ff
07
03
10
fb
fa
09
08
14
01
01
0d
fb
02
09
05
f6
fb
ee
0b
07
ee
0d
0f
04
ef
08
07
cd
e0
e0
e9
f5
f8
0b
06
fa
06
fb
f1
f9
03
09
0b
ff
f8
fd
08
f2
00
03
ea
fd
f4
10
07
fc
0e
05
e6
02
f0
ed
f0
ef
f2
f7
f8
f8
fb
01
00
04
05
02
08
08
03
06
fa
f4
05
00
e6
fc
13
0a
18
f0
08
ed
1b
56
33
f8
fd
dd
fe
f9
f7
00
ec
09
f3
07
fb
fd
07
fb
0b
06
09
02
ff
ff
fd
ff
f8
ff
08
00
00
00
fb
12
17
18
11
0b
0a
2a
36
11
02
01
01
fe
f8
0a
09
f2
03
fd
fb
01
f7
02
03
ff
06
07
00
fd
01
00
fc
fe
fb
f5
00
09
09
02
02
fb
e9
fe
00
f3
00
f7
00
ff
fa
01
fd
fa
00
04
fa
fb
02
01
f6
fc
f2
f3
00
f6
fb
06
ff
fc
02
f6
fb
fd
01
fc
f9
fc
fb
01
17
15
02
03
fb
ff
01
ff
08
02
08
08
05
06
07
02
07
0b
05
0b
f9
fa
fc
fc
0d
07
fe
08
f8
fd
06
02
ee
02
06
e1
f2
00
f2
f9
01
dd
ed
04
e9
f6
12
0f
0a
04
00
fd
fd
00
02
05
fc
f7
00
fa
01
fc
fd
05
fe
e2
e4
f4
d9
ea
19
ef
fd
28
f9
03
f6
f9
03
f8
06
07
fd
02
05
fd
fa
04
fa
02
0d
08
05
0b
0e
05
0c
14
08
01
0f
06
04
07
04
0a
09
05
02
0c
ed
ea
ec
f4
fd
f8
f0
f4
f5
05
00
ff
ff
06
fa
fc
03
f7
05
e6
ef
ff
da
dc
0f
f2
ec
f2
ea
e7
fe
f5
f3
ff
fb
0a
f8
fe
fa
f7
01
f5
00
06
fb
f6
fa
fd
f4
f3
f4
fd
e9
f4
2c
42
16
da
cf
d6
23
f5
22
fe
fc
00
f2
ed
f6
10
0c
17
ea
d2
01
11
23
2b
f9
fd
f2
ff
0d
08
f0
fd
00
f6
09
17
00
f8
00
04
fe
f8
fc
08
05
17
36
0f
47
5d
36
0c
49
39
01
07
ff
00
09
01
00
00
04
f2
f8
f1
fe
fe
fa
06
04
04
09
f9
fa
c9
b4
bd
f2
f9
ff
00
20
f5
d7
cc
ed
1f
38
2e
05
ef
f7
f5
d5
f0
f7
fb
01
05
06
fd
ff
f9
fb
0d
fb
07
06
01
f6
04
f9
fd
0d
0b
01
f5
f2
e8
fa
f9
f4
0e
09
09
fb
f5
fb
04
0f
0c
01
f9
fd
ee
f1
05
e9
f2
f0
04
24
09
f1
fb
f8
ec
01
03
f4
07
00
05
0a
11
02
13
11
06
0f
09
02
07
05
ed
01
10
fe
08
18
08
f6
ff
f3
e6
fd
f1
e8
02
f6
fb
04
f6
05
0b
fb
05
fe
ff
f7
ff
06
fa
09
03
f7
07
fe
17
04
00
0a
fa
f4
03
fb
f5
fa
f5
fb
f8
fc
ff
fc
04
f4
f1
f6
f7
f6
fc
fd
fd
00
03
05
07
fd
fd
03
02
04
07
ff
02
03
0f
32
f9
ec
e7
b2
05
04
f8
fc
00
f7
02
05
fe
cc
af
c8
2d
20
02
29
1d
0f
14
18
1d
00
08
0c
03
15
12
06
01
f4
05
0b
02
ff
04
fe
f1
f1
f4
ef
f2
fc
f9
f2
f1
05
fd
02
00
fc
0b
08
00
fd
ed
03
1a
ef
02
22
f7
f8
09
0f
0a
0f
0a
0d
0f
ff
ff
0d
f4
f9
fe
ef
00
0c
f4
ff
fe
04
04
f9
04
04
fb
00
fe
fc
09
fc
f2
0a
05
fa
08
03
fe
09
fd
f1
05
f4
f7
08
f4
f7
fb
03
07
f6
f8
00
00
f5
f7
fe
03
02
fd
04
01
fd
01
fe
0a
00
fd
0e
04
04
07
fd
ff
14
e3
ff
19
f6
10
1d
f0
04
09
01
00
09
03
00
0c
05
02
03
01
01
fe
fc
f9
00
00
fe
ee
ed
fb
f0
f0
06
fa
fd
ff
fb
02
00
fb
01
00
0c
04
fb
f8
03
0a
fd
08
0b
ff
06
04
f1
f5
e5
fd
ff
ea
f8
fa
e9
06
00
fa
03
fb
f9
03
01
02
02
00
08
fd
fc
02
01
00
05
ff
0c
08
02
0b
0a
fb
03
03
f9
ff
fa
00
07
07
08
06
04
00
fd
04
00
fc
fc
08
fc
f7
0f
05
f3
17
0b
f2
26
14
04
f2
fa
01
fc
f6
03
0d
fe
fb
fb
03
0e
fe
0b
16
f8
0b
14
05
05
fb
04
0d
06
04
0b
09
08
fc
02
09
fd
0b
fe
f5
0d
02
09
01
08
11
0f
05
11
0d
05
fd
fa
00
f5
f1
01
f8
f6
f9
fd
02
fe
fe
00
03
01
02
fd
fd
fb
fb
fd
02
04
fc
fe
fe
01
0a
fc
fe
06
ff
01
08
07
08
02
0b
0c
01
10
0d
04
f9
04
f8
f3
0b
ff
00
0d
f3
f7
08
08
f7
05
fe
fc
08
05
ff
01
00
ff
ff
00
01
fe
03
04
03
00
0a
03
fe
07
fb
fd
fc
fd
f8
fe
fd
fc
01
fb
fa
09
04
fd
04
fe
07
fe
ff
06
06
f9
fa
0b
fd
f7
06
04
ff
04
04
02
03
03
fe
02
03
fe
01
fa
f3
02
08
01
05
08
09
00
ff
ff
02
00
03
ff
06
0e
02
00
02
fe
fe
f7
04
04
fa
01
00
f6
00
02
02
fa
fc
fc
0a
01
fe
0b
01
ff
05
ff
ff
ed
e6
08
f7
f6
0e
02
ff
04
01
07
0e
fe
05
09
fe
05
0c
01
fc
f3
00
05
01
fb
f8
fa
02
0a
07
10
12
12
08
08
07
f2
eb
eb
eb
ee
eb
f2
f4
ef
07
fb
ff
0c
fe
00
14
06
fc
f0
e8
fe
eb
e8
ff
cd
df
00
f1
f4
fa
dd
ee
fe
e6
f7
03
05
fa
fd
fc
ee
f2
02
f6
f6
fb
00
02
f7
00
04
fd
02
02
f7
f4
f8
ff
ff
07
ea
e7
f5
fe
fc
04
fe
fe
05
01
fd
ff
02
fe
f0
ff
fc
f2
fd
fc
f9
0b
03
fa
0f
0e
fd
04
08
00
ee
fb
0e
e9
fd
06
f4
f8
fb
fb
fe
ea
04
fd
df
fd
ff
e3
04
fe
f6
12
0e
fe
f9
fb
f6
f8
fd
04
fe
02
07
08
01
00
02
00
fe
01
02
01
ff
01
01
f1
f8
f4
fc
fa
f6
04
05
fb
c2
ed
ec
b1
e0
ee
d2
f6
fc
00
08
06
06
0a
0e
fd
ff
01
f6
fd
fb
fe
fe
04
08
01
03
01
fe
01
04
f7
01
07
fd
00
01
05
06
01
08
06
ff
01
03
06
fd
00
00
00
11
04
fe
ff
fd
04
06
fb
05
07
f7
00
fa
05
01
fa
04
00
fd
06
03
01
08
fe
02
0b
fc
02
0d
00
fc
03
ff
fb
06
06
02
f6
fa
f4
fe
f7
ed
0d
04
f9
08
0d
04
fc
fa
09
f9
f8
08
fb
fc
09
17
03
fd
12
ff
fe
f4
f4
06
f9
02
04
f6
04
03
f0
fd
fe
00
fb
fa
fc
f7
fa
f5
f5
f8
08
f2
05
09
f8
06
0c
03
07
00
fa
fa
f5
e6
fa
fe
f3
f8
02
03
07
01
04
0f
05
03
06
fb
0a
12
e4
fc
09
ea
fb
04
fa
04
04
fa
04
02
fe
08
07
04
03
03
02
fb
01
fd
f2
f9
02
00
04
fc
fd
07
ff
04
0b
04
04
fc
fd
fd
fc
fd
fb
f9
01
06
03
08
0c
07
01
07
07
fb
0b
02
05
10
00
05
09
01
01
04
f9
f8
04
04
f9
f8
fc
04
0a
03
00
04
02
f6
f6
ff
fc
03
08
f5
fd
08
e0
f6
0a
f4
f0
e6
f2
f8
e8
f1
fb
eb
09
0c
17
10
10
19
04
08
08
02
04
03
03
09
08
01
06
03
e1
e7
ed
ca
de
e5
d8
e8
ef
f5
fe
07
f0
fb
01
f9
03
07
03
00
05
fd
fa
ff
00
fc
fb
fb
01
fe
00
ff
fc
fc
05
fa
01
fd
fa
ff
ff
fd
ff
05
02
f9
b4
ee
f2
8f
c8
00
b1
d3
ed
15
0d
eb
21
12
eb
1d
07
fd
01
fe
05
0a
03
03
05
fb
fc
04
0d
fa
01
0c
03
02
08
ff
fc
fc
f5
f3
fe
f7
fd
04
da
ec
f2
c6
fa
03
b5
ec
fb
fa
fc
fe
fa
01
04
f2
ff
05
fe
fa
ff
06
00
07
14
fe
fc
fb
fc
09
ff
fe
0b
09
08
0d
f8
fe
04
f9
fe
fc
f6
fb
00
03
03
fc
02
00
fa
ef
ef
f5
09
fe
fb
0b
ff
f8
06
03
01
f8
ff
00
fd
06
08
f7
02
ff
03
03
fd
0a
05
03
0b
05
03
e9
e3
f5
d9
dd
ec
ee
f0
ed
03
09
09
01
09
05
04
0b
02
0b
09
0b
00
06
0f
03
0a
10
fb
f9
f0
f8
fa
f2
f6
f5
f4
fb
07
1c
05
0b
0f
f8
ec
ec
02
09
fd
01
09
fe
fc
02
00
05
06
fe
f8
0a
03
01
01
09
f9
fb
09
fd
07
13
fd
ef
f7
0a
0c
f6
f9
05
fa
fb
04
fc
07
0f
04
04
0c
0c
03
05
05
f4
fc
04
f8
fa
04
04
ff
fb
08
f7
05
fe
f0
09
05
f1
04
eb
fa
0d
f2
f2
f8
00
00
fe
fb
fd
f7
fa
fa
f4
fb
02
02
01
00
01
09
01
fe
0d
0a
00
f5
f5
f6
f6
f3
f4
fa
fc
fc
f9
02
ff
fc
04
07
f6
ff
04
0d
00
f6
09
03
04
fd
f7
08
f8
fe
06
f4
01
0b
ee
00
0e
05
00
fa
01
01
fd
00
02
fa
f2
ee
e6
f6
0d
21
f0
fd
20
fe
98
cb
33
ab
cc
fb
81
bb
05
f5
01
1a
15
09
0c
f7
f6
fd
0a
03
02
0e
01
00
00
fb
fc
f8
f8
00
fd
ef
ff
fd
fc
fd
08
ff
00
0f
0f
02
08
00
fd
ff
fa
fa
07
fa
fa
ff
f7
fd
09
fb
f8
01
fb
04
05
ff
03
05
07
fe
01
04
02
04
05
04
0a
00
09
0d
05
03
06
fe
06
0c
09
00
06
fa
00
fe
f9
04
fe
f9
0e
11
0b
08
00
04
01
05
12
0b
18
2e
08
0c
19
55
ff
ec
5f
06
e9
65
fb
d8
05
10
04
02
0e
fd
02
06
f9
fa
fb
fa
f8
fc
f4
01
00
f8
06
fd
f6
04
03
00
fc
fc
04
0e
f4
fd
04
f8
08
0e
e7
ef
03
01
f1
05
04
f8
ff
04
ed
05
fb
fb
01
f9
f6
01
fe
f9
03
07
0d
0e
0f
08
02
0d
f0
dc
f4
16
c3
ea
1a
dd
f7
08
05
fc
fe
0c
04
fe
00
01
fd
fe
04
01
01
03
07
07
03
03
fe
05
ff
fc
09
08
f5
ff
04
06
fb
f9
03
fe
fc
fc
02
04
fe
fb
f9
fc
f7
f3
05
05
fa
eb
f9
0b
ec
eb
f2
fb
f7
f3
f8
fc
00
f7
fb
ff
fb
fc
02
f4
04
00
f4
08
06
fa
04
00
09
0e
07
00
01
04
04
03
fc
ff
fd
f8
f7
fd
fa
f4
fc
fc
f1
fc
fa
ec
ef
ef
ef
f3
fe
14
08
08
17
0f
17
15
11
08
04
05
fe
05
04
f9
0a
0b
08
ff
f9
ff
02
f7
06
fb
f5
03
03
fd
ee
08
f5
eb
08
f3
eb
03
01
f4
f3
02
00
fc
08
00
fd
fc
07
0e
0a
0f
10
03
02
f5
f0
ee
f7
f5
ef
f8
fc
ff
04
01
03
fd
05
05
fc
04
04
01
03
f9
eb
f8
fd
f4
f5
f8
f2
f2
03
fd
fa
fb
03
00
fd
fe
fa
f4
fc
f9
f4
09
00
f7
fa
fc
fa
f8
f5
f2
fa
f9
f7
02
01
02
ff
00
fe
fe
00
01
07
17
08
0c
2b
32
17
15
0d
11
ff
05
0b
02
15
02
fa
0e
05
00
01
02
fd
04
fe
fa
fc
e2
f8
fb
c1
d6
e5
ac
ca
df
08
0a
04
0b
06
fc
12
03
f5
fd
06
f9
0b
01
f2
10
0a
f8
06
f5
f9
00
f4
fd
04
f6
f5
fd
fd
fd
fd
00
0a
02
fd
fd
fc
04
fb
05
0c
fe
02
09
fe
fe
00
fc
ff
02
fb
ff
03
fe
dd
df
ed
c5
d6
ed
d9
e1
f2
0b
03
05
ff
fb
03
fa
f9
fc
ea
f6
ea
f4
02
fe
fb
fe
f1
06
ff
f0
02
fa
f4
10
fd
f9
03
08
05
02
05
04
ff
01
00
fd
08
09
f1
f6
f4
fe
f8
f1
e4
fe
06
d2
ee
f7
de
f8
04
03
02
fd
fc
fe
f8
fd
ff
fc
fd
fd
06
00
00
07
03
02
06
07
f8
fd
0c
04
11
08
f8
01
fe
00
02
ff
00
00
03
07
04
05
00
00
fc
f9
03
fa
f7
00
fd
fd
ff
ff
fc
fb
fe
fa
fb
f6
fd
06
f5
ff
04
f6
fb
fe
fd
01
02
fc
fd
fc
fb
fb
f8
04
07
05
08
06
ff
0c
09
01
fa
fd
06
fc
fd
04
ff
02
02
13
fb
fa
16
f7
ff
18
03
01
fe
f3
ff
e9
e7
02
ee
ee
01
e7
f4
f5
ec
f8
f7
f4
f7
f1
fa
fc
00
05
02
06
01
f5
f9
13
e8
de
02
d6
e3
00
f1
02
fc
01
fd
03
05
02
fc
fe
00
fe
00
fc
00
01
f8
ff
03
01
fb
03
0a
f7
00
06
05
0b
0b
05
04
fb
00
03
fd
fd
00
fc
fd
ff
fb
00
02
ff
06
0a
07
f8
f9
00
f7
f8
ff
f7
fa
fe
fb
08
fa
fc
10
fc
f3
03
f6
05
02
05
fb
fa
06
fb
fc
07
03
ff
fc
fe
fe
04
ff
00
0b
09
04
fd
08
07
02
0a
0b
09
fc
ff
f8
ff
00
fd
fa
fe
fc
00
f7
f4
fe
f3
ee
fd
f9
f9
05
07
f9
02
05
ff
0d
09
02
fc
08
03
f6
06
06
f8
06
05
03
00
f6
01
ff
fa
04
04
01
f9
00
fa
f9
fd
fe
f6
fb
01
01
fe
01
00
fd
fb
05
07
02
01
fe
ff
ff
fc
f7
02
01
fc
0a
09
f6
04
08
02
fe
03
fe
04
fe
f8
05
07
05
08
09
05
fe
f3
e7
f3
f2
ec
fe
ff
fa
f6
ff
fe
f7
ff
f9
f2
fd
f9
03
04
f7
00
fc
f6
ff
fc
f6
f5
fa
00
f8
00
fc
f2
fd
fe
03
03
f2
fd
fa
fa
fb
00
00
ff
00
04
fd
06
fe
07
0c
f8
fe
fd
03
05
02
04
fc
01
03
02
05
01
06
06
09
02
00
fe
0b
e6
0a
04
df
0a
05
f2
07
fb
ed
e9
f8
e5
de
fa
eb
e9
04
08
06
03
0d
09
02
0b
09
00
05
fa
02
00
fd
ff
fd
fe
fe
06
0b
08
13
0c
01
01
00
f9
fc
fd
06
07
fe
0a
07
fb
fb
02
01
fe
05
04
fa
00
00
01
05
01
05
06
06
04
03
01
05
f9
02
03
fa
f9
fb
fb
f3
22
0e
14
1e
0c
17
35
1e
18
f7
fc
f5
fc
00
f6
03
06
00
f0
05
12
ec
f4
f1
ed
e3
e0
fc
01
0b
f8
ed
04
f4
f3
fd
04
02
03
01
fb
fd
01
fd
fb
fe
07
02
05
fd
08
04
fc
01
01
e9
06
fe
e9
fb
fc
fb
fd
08
08
fb
04
04
02
fe
f5
f3
fc
d6
16
e9
c2
18
fe
e5
10
fe
ff
fe
fb
03
f8
fb
01
06
f0
08
fb
eb
fc
f9
f5
fe
06
f3
cb
05
f8
cb
fa
fa
e8
f8
fe
11
04
0a
fe
0f
02
f7
f7
05
fe
ff
09
f6
05
0c
ff
02
00
f4
03
fe
fb
07
04
f1
08
f8
00
07
fa
01
07
07
03
09
08
0b
05
0a
13
fa
fd
fb
fa
fe
ff
07
05
00
0d
01
06
04
fa
d5
3e
00
a1
61
f5
0f
1e
07
fe
05
0a
fd
0a
0c
fd
fd
ff
10
10
f8
fc
05
fe
fd
ff
08
f5
ed
10
fa
f1
07
f3
f1
01
fe
13
08
fa
03
fd
05
f8
ff
fd
f6
04
fe
f9
04
01
fc
0b
fc
fc
ff
f0
f8
fc
f1
f1
fd
09
14
fa
f3
05
f8
0c
00
02
0e
01
01
09
0b
fd
f6
0a
04
03
fb
fc
fd
00
fc
f3
fb
f6
fb
09
fb
03
f8
00
08
ff
ff
04
0e
e7
e2
f5
e1
e8
f3
ff
d8
05
09
d4
0a
05
ee
10
05
08
f7
04
02
f1
0c
09
f6
f9
0a
00
ff
0b
02
06
02
fb
fa
0d
f7
ef
fd
f0
ed
f7
f5
09
fb
05
08
f5
00
0c
ff
fd
f2
f0
fe
fd
13
f9
f7
06
ff
07
fd
0b
fc
fd
0a
fe
00
06
01
f7
f5
05
fc
f9
08
01
fc
05
0e
eb
03
05
e8
00
09
e7
02
f4
fa
06
fb
f6
08
0b
0a
fb
f2
f7
f5
f1
e4
f8
f6
f2
f2
0c
03
0f
04
1e
09
09
09
fd
ec
06
fe
0d
fc
0b
07
f0
f3
fd
fb
f1
f5
fb
fe
fe
ff
03
e6
24
1b
ea
1b
ef
fe
23
02
f7
fb
01
f4
fc
05
fa
fb
f9
03
0d
f7
08
0a
f9
04
fe
04
fd
fa
fe
fd
fd
04
00
06
0a
fd
de
f8
02
d8
f2
00
d6
08
fe
fe
fe
fe
fc
fd
fe
f7
f8
02
fa
f4
01
fe
f9
fc
04
f2
fd
f5
05
08
fa
f8
10
02
03
ff
05
fb
00
ff
f5
05
02
09
0d
04
fd
07
03
05
ff
00
08
fd
00
04
f7
fb
04
f6
fb
ee
06
fc
fa
f2
fb
06
0c
05
ee
ec
fb
f8
fe
ff
01
f9
0d
00
04
ee
ed
f7
f0
01
f2
eb
ed
f4
00
04
03
f0
fa
f7
f5
e8
f9
17
ed
fe
11
f8
f3
0d
f9
e7
f4
f0
d1
ea
05
f1
f5
fd
f1
ff
00
fc
fb
02
f0
06
00
fb
fd
05
fa
0a
fa
f1
f4
fd
0b
02
0a
12
15
00
f8
02
07
f6
2a
07
f6
3a
05
0a
26
f9
05
09
da
e4
0d
f6
ec
f7
fe
f1
f7
05
ed
ee
f7
f5
f6
01
fe
f4
fd
04
fc
fe
f4
02
fb
09
fa
f2
fe
f3
ff
04
11
07
09
0c
06
01
01
0a
05
06
f3
bf
f2
0a
ae
e0
01
cd
fe
f4
fa
02
e9
fc
09
f8
f1
fd
04
04
18
06
18
29
02
0b
17
ee
eb
f6
05
04
f4
01
f9
0c
ff
02
0a
ff
f9
f8
f8
fa
f2
ff
05
fc
03
06
fc
03
f9
fa
fb
f8
f6
06
02
f6
ff
fe
fd
00
f9
fe
03
0d
fe
01
f6
fa
fd
03
01
ff
01
fb
ff
fd
fa
00
fb
fd
f2
f7
fe
f7
fc
fb
00
fa
00
03
f7
f5
02
f8
fa
fc
16
0d
fa
1a
fc
01
1b
01
fa
f9
0b
fc
fd
03
ff
0f
03
03
ec
f4
fb
e6
f7
ff
00
0c
0c
fd
fd
06
e1
e3
fd
03
f4
f3
05
08
f0
02
07
f2
fd
fa
f7
f3
f1
ec
f6
ee
f2
fc
f0
e9
e3
fb
f8
0f
03
f1
f8
fb
02
f5
f7
fa
f2
f7
00
fe
fe
1a
19
ec
0e
0f
e0
f8
0f
05
fc
fd
04
fa
fa
fe
00
ff
00
ff
03
f9
f9
00
f4
fc
02
f5
05
0c
01
05
ff
00
04
f3
fe
ff
fd
ff
01
01
00
03
08
fe
04
05
ff
02
03
fd
fd
00
02
f6
07
00
f3
0a
12
fe
10
14
f6
fd
fa
f8
02
00
fb
00
0c
fe
04
f6
fa
06
fd
fb
18
01
f2
25
f0
ea
36
0e
fb
13
f0
09
06
01
0b
00
f7
fe
ff
04
fe
e6
f7
05
02
0b
01
14
10
00
05
f8
03
0d
fe
01
01
fa
ed
04
01
df
0b
f9
f4
0e
f7
00
01
fb
00
ff
00
00
07
01
f9
f4
f3
02
07
03
ff
ff
0b
14
f6
f4
ff
f4
fb
f5
f5
04
03
02
03
04
0c
05
03
ff
04
f7
08
ed
fa
0f
e7
f9
05
00
00
00
04
ff
05
03
00
02
05
f8
f6
fa
fd
f8
00
04
03
0e
05
f2
02
00
ec
02
0b
fd
07
0b
09
0b
ff
10
0d
0b
00
fc
09
1d
02
12
08
f7
00
15
f7
d8
ff
07
01
11
06
fa
fb
f3
00
fc
fd
fd
fc
08
07
f8
00
f9
f1
f8
fb
05
0a
fe
03
01
f6
01
06
f8
01
16
00
ff
05
0c
0d
fb
08
05
ff
00
0c
ff
09
0b
fd
04
13
f6
05
01
ff
00
00
00
f7
0a
fd
fc
05
fb
03
f7
ec
04
f9
ef
01
f4
e5
09
03
0a
09
0f
04
f6
fd
f3
f2
f9
06
f9
f6
08
02
f9
03
00
f1
08
01
fa
0e
00
ff
06
08
0a
fe
0b
f0
f7
05
f7
f0
02
01
02
fd
ef
fc
14
0e
fc
f9
fb
f9
fb
f9
fd
fe
00
fe
26
ff
07
17
f0
f7
fc
d8
f4
11
11
13
fa
ee
17
0f
f9
04
10
10
fb
20
07
fc
10
02
12
12
e5
f3
11
ef
f4
0d
f4
f8
fc
ea
0d
f5
da
03
fc
f0
0e
fc
f7
04
06
00
ff
f8
00
f7
f7
e7
ea
f9
01
f5
03
21
11
0f
0a
05
0b
0e
08
fe
f9
fc
e2
f8
fe
ec
00
08
fa
f8
f6
fe
ff
02
05
fb
fd
05
07
fb
03
f8
01
fc
fb
fb
f9
fb
f1
ed
ef
00
f3
00
02
0b
01
f3
e0
e6
ef
e5
fb
13
01
14
17
fe
02
07
fd
13
f6
00
02
ff
08
fe
15
fb
d0
f9
00
df
f9
f9
f7
fd
f5
fb
00
f8
f4
01
ee
fb
17
dd
f6
25
01
09
1d
fd
fc
f3
01
02
f4
05
10
0e
fa
22
e9
ed
27
f3
f0
09
fb
01
f1
04
fc
fb
ff
f8
ee
0d
0a
0f
06
0a
f0
ff
07
0b
0b
f7
e9
ef
ef
d9
de
fe
ef
ef
fa
01
03
f2
fa
fd
f4
03
f8
06
ff
fc
08
fe
00
09
fd
ff
03
eb
0c
f8
e1
0c
09
00
14
f7
05
fb
00
00
fd
fe
fd
fb
f6
29
f9
00
1d
10
04
2f
f4
09
fa
f9
0a
ef
f1
06
f4
f9
02
f4
f7
0c
ef
eb
07
fa
f5
fc
f9
06
04
f7
05
05
fe
04
0b
05
06
fa
f5
ff
fc
f7
ef
f8
b0
25
e3
81
13
ff
db
26
05
02
07
fe
f8
f9
fe
fa
00
fe
fc
fd
fc
f7
fb
fe
fd
fe
00
04
08
fb
f4
0d
02
06
ff
00
0b
f6
12
19
04
fc
17
02
f2
ff
fa
e9
e2
03
f6
fa
05
f3
f0
ff
ef
f7
ff
04
f1
04
fa
01
f2
fa
04
f9
fa
f7
01
f7
fd
f5
fa
03
04
05
ed
f1
16
0e
07
0e
03
fc
0a
02
f9
07
f1
ec
03
f3
eb
09
21
0f
09
01
02
0b
fb
07
03
ff
07
fa
ff
fb
01
06
f9
04
07
f7
04
fb
05
01
ec
f5
02
04
f3
fd
f9
ec
f6
f9
f0
eb
fc
f7
f1
f8
0a
05
1f
18
f3
f0
06
f7
fd
f4
09
06
f6
06
0f
02
03
09
f9
08
0e
fd
ff
ff
fa
f0
0d
18
e8
e9
e6
e1
df
ee
fd
15
11
f0
0a
14
f8
0f
13
fb
e0
19
fc
c9
09
02
e8
0f
fc
fd
07
02
fa
04
02
03
ff
0a
0d
02
f9
07
ec
03
ff
09
03
e9
14
03
d4
17
04
e3
1b
24
e7
f5
0f
c4
da
11
e4
f8
06
0f
06
f1
0e
09
e2
f1
fa
f2
db
f4
ee
e0
d5
00
eb
ea
f9
fc
0b
fa
03
05
ff
f8
f7
0d
06
01
0a
04
03
04
02
01
0b
d4
f0
0d
c2
f0
11
e5
f0
0c
fd
fe
01
14
17
04
24
13
fa
fd
ff
00
0b
f8
f9
0a
f5
01
ff
11
fd
01
07
f8
01
fc
f8
f2
00
03
08
03
00
0c
05
12
15
01
14
15
f7
0a
09
ef
07
07
0a
00
12
fc
04
14
0c
f3
f7
0b
08
e1
fc
04
fe
fb
06
0b
f4
06
0b
f4
fd
fa
f4
07
fd
ff
fb
fa
f9
fb
fe
ff
0b
09
01
fb
f0
f1
fe
06
03
f9
02
f3
f5
09
f4
f9
f3
02
fa
ed
f3
f4
ee
ef
f9
f7
09
15
0c
e1
07
fd
ea
10
f9
de
f9
ff
02
fe
0d
07
02
03
01
fd
f5
0c
01
f6
09
06
04
03
e9
fc
16
df
e8
06
00
f8
ff
05
03
01
0c
0a
02
fd
0c
03
fe
fa
ff
04
00
06
09
06
07
0a
05
01
0f
fe
09
0b
0a
06
00
fd
ff
fc
02
02
fc
fa
fb
fe
fc
05
fb
f7
0e
05
08
0b
ff
01
f9
ff
fe
fc
00
fd
fc
fa
fd
f3
02
08
fd
09
09
01
f9
f7
f6
ff
0a
01
01
03
04
f9
f5
f0
fb
02
f4
fd
f9
ec
fc
03
f6
00
06
ed
f7
04
03
0b
eb
f3
0b
eb
f4
00
ec
09
09
f2
fb
07
df
e2
0a
ee
f3
f7
b7
fc
f8
b9
10
05
e3
04
04
f5
13
00
ed
0e
0f
fd
0c
fd
15
08
00
15
e5
07
1b
fb
05
01
fc
01
01
00
ff
02
fb
03
f8
f6
0a
00
00
03
02
00
f7
ff
0d
01
fb
09
0b
09
04
07
fc
f6
00
f4
fb
00
f6
fb
fd
00
00
03
fe
fa
06
fe
f9
07
ff
fe
03
04
01
01
00
03
0a
fd
f8
04
05
f6
08
03
04
f7
f8
04
f3
ff
11
f6
00
06
f3
ef
ff
fd
fd
f9
06
02
f4
f4
fa
f8
f8
01
fe
02
08
01
04
02
0f
f7
f4
05
fd
fb
05
fd
f8
fa
05
01
ff
0d
0c
f7
05
03
f0
fa
e7
ec
fb
ef
00
f9
ee
f9
f0
c6
ec
00
f2
f8
fa
ff
0c
01
fd
f9
02
fb
fd
07
fe
ff
02
f0
0f
f6
f7
03
00
f8
fc
ff
00
ff
04
03
06
fd
fa
f7
f8
fc
f9
f6
f8
f9
04
f9
fe
f3
fc
06
04
f8
0e
f2
02
f7
f6
fb
fd
f5
f9
07
01
0b
0a
f8
ea
f8
fa
e5
e8
fb
ea
fa
fe
f7
01
03
09
10
01
e4
ee
06
eb
f3
fc
ee
f1
fc
f7
0e
00
fb
0a
07
01
04
fd
05
09
fc
fd
0b
fc
01
fe
f1
f6
ef
fd
0d
f4
fd
02
0c
0c
09
fd
02
fb
f1
fd
00
02
00
fc
fa
f7
ed
fd
fb
fc
ff
0e
f0
b8
16
fc
9e
0d
ff
cd
f3
09
05
f3
01
0c
f5
fd
17
03
e3
12
06
dd
18
01
ef
10
fc
f7
00
fa
f8
06
ff
fa
f3
f6
f1
18
f6
f7
32
f1
f8
11
f7
f6
fc
f3
f8
f8
09
07
fa
06
00
fe
09
09
05
02
fd
fc
ff
00
f6
03
06
fa
05
fe
fc
fd
03
06
0a
06
f8
01
01
02
0d
08
fc
09
0a
01
0a
0d
07
f2
ff
02
f2
f7
fb
f7
f9
0b
de
ed
03
12
13
fb
10
1f
03
02
03
00
00
04
fc
02
01
fd
03
fb
fa
10
02
07
12
04
07
00
04
fa
00
0e
fa
05
0b
fc
f8
fe
ff
f4
f1
f8
ff
f8
fe
04
fb
f7
11
02
03
02
fc
09
01
00
f7
f1
13
f7
fb
06
f3
05
05
03
fd
fe
fa
01
08
06
01
ef
01
05
f7
f7
ff
fd
fc
04
0a
f7
fe
06
06
f9
fe
03
05
15
0d
f5
f6
ee
00
fb
fa
00
0b
02
00
02
01
ff
ff
fd
fe
fe
fa
05
07
00
fe
03
fe
0a
05
fc
03
00
06
04
01
01
00
04
ff
fc
05
ff
f6
00
01
00
07
ff
fe
0a
ff
fd
f9
f8
fd
02
0a
fc
0f
ff
f7
11
03
fc
14
04
fd
ee
05
11
fd
0f
ff
12
06
fe
0d
fe
f8
fe
f9
f8
fd
02
fd
ff
02
f6
f4
f5
00
07
f6
09
28
0a
14
f0
14
fb
03
05
fe
fd
fd
ff
03
03
fa
f6
f1
00
fd
ef
01
03
fd
05
e9
fc
ef
0c
e7
f6
f7
f6
07
ff
06
fb
f9
fd
01
07
00
fd
04
e1
1c
26
07
0c
0c
f9
2b
30
3d
e0
a7
d1
fc
fc
f0
00
03
fe
f9
fa
fa
03
0a
fd
f6
fb
f4
00
09
f3
07
02
f7
fb
01
f7
fc
07
fa
02
09
f9
04
02
02
06
07
01
01
fc
f8
fb
06
02
fb
1a
10
f9
03
f3
f3
f3
f4
ff
10
fd
06
0d
ff
f5
f7
f6
fe
04
04
fe
05
f8
fe
f7
f9
07
07
04
fe
fe
00
f2
ef
f5
08
05
0b
fe
fa
fc
f8
fa
f8
f7
04
03
ff
05
fd
fd
0b
ff
f8
06
ff
03
05
07
04
0d
01
03
07
03
00
02
05
f7
fd
fc
fb
fe
fd
01
ff
01
e1
9f
ce
0a
2d
0f
0e
0d
0e
1a
40
36
2b
37
23
da
e1
d9
fd
05
fe
ff
00
04
fc
fb
fd
ff
04
02
01
00
ff
06
08
05
01
00
01
fe
07
ff
ff
0a
fc
f8
fd
05
00
fa
04
00
04
03
08
fa
f5
00
fd
fc
09
00
00
02
07
ff
02
04
00
fe
00
fd
ff
00
ff
00
f9
01
04
01
07
fd
fb
0a
09
f3
08
04
fa
09
fd
fa
fa
05
07
08
00
ff
04
fc
fa
fb
fe
fe
fa
fe
00
01
03
fd
03
05
05
07
fe
f9
fa
fe
08
ff
f5
0d
f9
fe
05
fb
dd
f1
e5
f4
08
fc
f9
07
fc
f7
f8
0d
f8
f0
00
f8
fb
01
f8
fc
fa
f8
07
fc
fc
04
03
fe
ff
f9
03
01
fe
04
ff
f9
f7
05
fc
fc
03
05
01
06
06
03
fc
fd
0b
06
00
fb
07
fd
d3
b9
c6
c7
2f
ce
09
0a
14
fd
09
fd
01
04
04
01
fd
01
04
fb
ef
09
0b
ee
07
04
f3
ff
02
02
0c
03
fe
11
fa
f6
e5
fa
e4
f2
09
f4
f3
12
f0
fe
f6
00
f8
f6
f9
f7
01
01
fd
d8
e3
e5
c3
e1
03
ff
06
fe
05
fc
fe
ff
fd
f9
f9
fd
00
f9
fa
00
fb
0a
f8
fc
0b
fa
00
f5
03
0b
03
fd
04
fa
03
fe
03
05
06
03
f8
fd
02
0a
15
15
02
06
05
eb
e2
ee
dc
b1
cc
ff
fc
fc
fc
f7
fa
fb
fe
01
07
fe
01
06
fd
00
fd
02
ff
07
01
04
07
ff
fe
03
08
fc
01
07
fd
fa
05
02
05
07
03
fe
ff
fc
fd
f9
fa
04
01
00
02
00
02
01
fd
fd
f8
fa
fa
02
fa
fc
fb
fe
f8
f7
f5
fa
fc
fb
fc
06
0e
ff
08
f5
04
ff
15
02
02
f4
05
ec
0b
17
08
16
1a
ea
f7
16
08
0e
f0
f9
07
00
03
03
0e
fe
ed
fe
05
f5
02
f7
f8
0e
00
0f
00
04
02
00
fe
05
03
fd
fe
f3
00
fd
f8
fe
ee
ee
ff
0a
03
fb
fd
fe
04
05
07
0c
fe
ff
04
fd
0f
fe
f3
01
00
02
04
fa
03
fd
01
04
fc
3a
35
29
cf
df
cd
fb
08
04
01
02
08
f0
f1
f6
f4
01
02
fd
06
00
fe
fb
fc
01
ff
00
06
07
01
03
fe
03
00
fb
ff
08
0a
00
08
04
fa
f6
00
fa
fe
fa
02
fd
01
00
fd
ff
05
f9
fd
fa
09
f7
fc
07
ff
05
04
02
02
07
f1
f0
05
f8
f7
f7
ff
05
04
02
f9
00
00
f9
fe
23
08
f9
f1
eb
0c
0a
0b
03
00
03
04
04
05
00
fa
01
fd
05
f9
01
fe
f6
01
01
ff
0b
06
05
02
01
00
fb
fc
fe
2a
20
26
f5
dc
ed
e9
2c
26
f9
0f
00
f5
07
fe
08
05
01
08
ff
07
00
fb
00
04
fe
ff
ff
07
07
f4
fe
fc
fc
ff
03
fb
ff
04
02
fb
fa
06
fe
fe
00
04
06
02
03
09
ff
fe
04
fe
06
04
07
03
05
ff
fc
ff
f7
04
fe
02
00
01
01
02
05
03
03
fd
04
ff
fd
0b
04
02
01
fb
e8
15
04
f9
00
f7
f0
ff
fc
02
06
03
01
fd
02
fc
04
10
03
f4
f3
f6
05
06
08
e0
ed
f2
02
12
0a
00
ec
fd
04
01
05
02
fb
ef
02
01
fc
f8
f2
02
02
0a
01
04
09
fd
00
01
fe
03
02
04
04
02
07
09
12
0c
06
fc
f7
0a
0c
0f
02
05
f7
fb
06
f7
fc
02
02
fa
ff
ff
f4
ff
f7
fa
00
fd
07
05
02
f7
f9
fb
fb
08
f9
00
0c
f6
03
08
fa
f8
01
01
ef
ef
ed
06
07
04
02
f3
02
07
04
00
00
03
00
07
01
04
fb
02
ff
f8
fb
fc
f7
ff
fc
fc
07
12
00
07
06
00
03
01
ff
07
0a
fe
fd
f4
04
07
0c
01
f6
fd
0c
fa
08
08
fa
07
05
ff
f6
04
01
05
06
fc
fa
f2
f6
f2
ee
d6
f5
f9
e9
ee
00
18
09
f0
04
04
f9
fb
06
0b
0a
0b
04
00
fe
02
fe
00
01
ff
f5
fe
f4
f1
ff
f5
ff
ff
0b
02
f7
f9
f0
04
00
08
ff
ff
fd
0a
02
08
03
08
04
8f
07
44
39
04
dd
2a
f6
fa
e3
e6
e8
12
1a
fa
e4
fa
14
04
07
fd
00
05
ff
04
fd
ff
fe
09
fe
08
11
08
02
10
06
02
fd
fe
04
fb
01
00
fa
02
2f
0d
ea
f8
11
06
f5
02
f8
03
01
ff
ff
fd
01
ff
03
fa
fb
08
ff
fb
09
ff
01
02
f8
fe
ff
05
ff
05
05
fe
09
fa
fd
06
f9
07
06
fe
03
08
fe
03
fa
fd
02
00
06
01
fa
fe
fd
fc
ff
fe
fb
00
fc
f4
fb
fb
f8
f8
f7
f2
f9
00
fe
03
ff
fb
f8
07
08
04
fa
fc
07
04
f6
fb
00
04
08
02
f9
04
08
f9
03
15
ed
f2
ff
0b
08
fc
01
07
fd
fd
fa
00
fd
02
e5
f6
02
fa
11
f9
fe
03
e9
05
05
ff
fe
06
03
fd
fb
fb
00
fc
fe
fd
00
fd
fc
00
ff
0b
f8
e6
ff
18
10
fa
fb
05
fa
f7
02
f9
01
fc
00
fd
02
05
05
0b
fd
03
00
00
ff
03
fe
0d
ff
fb
e1
05
0b
ef
01
fc
04
13
08
ff
0b
f3
f7
0d
fd
fd
05
05
f7
02
02
f5
fe
03
fb
02
0b
02
0d
fa
fd
03
df
d7
d3
06
20
16
f9
e7
f0
04
09
05
03
03
04
ff
f6
fb
08
f4
fd
06
fa
01
f8
07
fd
f2
0b
fe
f8
04
04
fa
f9
fc
02
02
ff
01
00
01
00
f8
00
06
ff
02
01
00
00
02
01
fe
07
00
05
fc
e1
01
03
ff
04
10
07
05
ff
02
03
02
04
ff
04
07
05
fd
fe
0a
02
fd
fe
00
03
02
00
06
fa
05
0d
02
06
06
06
03
03
05
0a
06
06
06
0b
07
02
06
06
fc
03
02
01
f9
05
ff
05
03
0a
fc
fe
09
f5
e8
ff
0b
02
f8
fb
ff
ba
bc
bf
e4
e1
ed
10
f4
0a
fa
26
06
f2
08
fa
1c
f1
02
fe
fe
fd
fa
01
fb
fc
01
ff
e3
09
34
ff
f9
f8
f6
fa
10
fd
00
fe
fe
09
fd
ff
04
ff
0a
05
00
0a
f3
f8
02
02
06
05
09
07
ff
07
fd
09
00
03
ff
01
06
03
02
06
01
00
fe
08
04
f5
f9
03
f5
fa
09
fb
0a
fe
fb
03
fa
f5
f8
02
07
0e
16
08
fc
2f
ee
03
fe
11
f9
fe
03
03
fd
ff
04
07
05
03
04
f3
02
05
fb
01
fb
f8
ff
04
04
fe
ff
09
01
fb
01
ff
04
fa
05
00
fb
0b
06
01
01
f6
03
06
fc
05
01
f9
02
00
02
01
03
07
06
03
02
ff
03
09
04
fb
ff
f9
00
03
fe
fe
fb
0d
03
00
05
fb
fd
06
02
01
01
fd
fe
fc
f7
f7
f8
03
f4
03
fe
e9
0c
02
06
fb
03
fd
fd
ff
08
06
04
08
f9
fb
ff
fb
ff
00
01
ff
01
04
06
f3
03
fd
04
fb
fa
fd
f7
fc
f7
f9
01
0d
01
fd
fa
00
00
07
fd
ff
ff
ff
fe
fd
fc
fe
01
01
fd
fe
f9
fb
fe
fa
ff
07
ff
ff
04
f7
03
09
01
0b
ff
09
09
09
08
06
03
04
00
06
fb
f6
f7
f6
fd
f7
fe
fa
00
fc
f7
01
fc
00
02
04
04
04
05
05
03
04
06
0b
08
00
fd
03
00
fd
03
09
02
02
fc
fc
f8
02
fa
fc
06
01
02
ff
07
01
fa
fc
02
0c
fd
06
f1
fb
00
ef
07
05
fe
06
f6
f9
07
10
ec
f9
06
f2
f7
01
04
0b
03
ff
06
fa
fc
01
fc
01
f9
fc
f8
00
01
fd
ff
fb
f2
eb
08
f2
ed
06
fd
fd
0c
02
08
06
ff
01
00
02
01
fd
00
fc
fd
ff
01
fe
ff
fb
fd
fe
09
01
04
0e
07
01
04
02
fe
fa
fc
05
0b
04
05
05
05
04
06
05
05
03
01
fe
f9
fa
02
fc
ff
fc
03
02
fc
fc
fe
fb
f4
03
09
07
09
ff
ff
04
fd
ff
02
00
01
02
02
ff
00
2c
1c
01
cb
e5
f5
1a
1f
fb
04
11
00
03
03
07
00
fd
07
ff
03
fe
00
05
fe
03
01
05
06
08
f4
04
0b
04
fb
f4
fa
02
01
01
00
00
01
02
01
02
01
06
fb
05
11
08
fa
08
f8
e0
14
e0
ec
fb
ec
f7
14
ef
fb
06
ff
ff
05
fd
f7
fe
fa
fb
fc
fc
fe
fc
fd
04
00
03
fc
04
02
fc
f8
ff
03
ff
ff
f9
fa
f8
01
fa
05
fe
06
fc
fc
06
fe
00
09
fa
01
03
00
fb
00
fd
fb
06
fd
fd
07
ff
fd
fe
fa
02
07
03
fe
02
00
08
fc
07
f9
f6
0b
ff
ff
0d
99
81
96
fc
21
fa
01
f4
f9
17
66
39
ea
f3
ed
f3
09
f7
0c
00
0c
fa
ea
02
fc
f1
fa
f2
d8
c8
e5
0b
14
ea
20
13
f7
09
00
f6
f7
fa
04
fc
00
fa
0a
0c
e7
fb
0d
fe
02
07
fe
f7
05
02
f4
04
0b
fd
fa
f9
03
ff
f8
08
fc
fd
06
ff
d6
9f
b9
eb
18
f7
de
f4
e0
00
05
01
08
07
05
04
ff
f9
43
49
34
d4
bb
de
f2
ef
e4
02
02
07
ff
fd
02
03
00
05
fa
f7
f9
02
ff
03
03
fe
02
03
ff
ff
ff
00
07
fc
01
ff
00
fe
fb
fd
ff
07
08
f8
f3
00
01
fe
01
05
fb
01
fe
01
fa
08
fb
08
0f
0a
f7
ff
fd
13
00
05
f7
ea
f8
06
00
0f
10
23
11
fc
f9
0a
01
0f
03
f7
eb
dd
f2
0c
06
ed
07
ee
16
0e
08
fd
10
01
08
f4
02
f8
13
13
dc
20
1a
ed
1c
11
fd
0f
04
fa
fd
e5
18
00
fe
03
08
00
f6
fe
f4
00
0b
05
fc
04
ff
fd
d2
f5
09
ec
ed
06
eb
0c
f3
e4
1a
e7
e0
1e
00
f4
f9
0e
10
f1
03
0c
f4
fd
0a
04
ff
09
f5
fc
07
ff
04
02
07
f9
e8
00
0b
dd
0b
05
11
15
fa
fe
fc
ff
13
06
08
fa
1a
0b
d7
21
00
df
1c
09
fb
03
f2
fe
f3
f9
00
fb
fe
09
22
e1
42
36
dd
2e
05
f9
10
0b
fb
0d
ed
fe
07
eb
0d
06
0a
fa
f8
ff
fb
01
00
de
fe
05
d7
f3
09
e5
0f
18
0e
04
01
08
14
00
fc
12
09
fd
fd
00
fa
02
04
f5
07
0d
ea
08
04
eb
ee
e3
01
f7
f4
15
f6
ff
05
fd
f6
fc
f5
f6
fe
09
2d
f9
ed
18
f6
e1
fe
0b
01
04
0f
01
fe
15
01
f9
0f
08
e5
02
08
d6
ed
08
f2
ee
e8
ea
01
08
f4
07
e0
f4
01
09
fc
0f
fa
f6
10
ee
f8
f6
f4
01
fd
01
0c
f0
f7
f9
03
0d
fc
01
02
f3
00
03
f5
08
fe
fa
00
fd
0a
08
f8
00
04
ff
0e
f2
f5
00
f4
fa
05
02
19
10
07
0c
f1
15
f0
dd
06
06
0d
fd
02
ff
fe
05
04
ff
0b
11
fa
09
03
f8
01
09
fe
06
f9
f0
07
e8
e9
04
f3
0f
06
fa
0a
02
00
fa
fe
fd
fe
fa
03
fd
05
10
0e
14
19
01
ff
f9
08
ef
e4
fd
f2
f3
00
fd
fc
fc
f0
f3
f6
ef
12
0f
03
fb
0d
fb
f2
fa
f3
f6
0c
e1
fa
1f
b4
f2
24
c3
ef
f8
fc
fb
fa
07
f1
fc
05
00
e0
ea
e3
ff
fb
00
f5
f6
00
f1
f6
fd
05
fe
fe
0a
0a
fe
f1
f8
ef
c6
f6
c5
d6
d8
f3
f9
f3
fb
f8
f6
fb
00
07
fd
f7
f3
f1
12
0a
f4
0f
12
06
f4
12
e5
e8
fc
ff
f8
e5
eb
f2
fc
f4
ff
0c
fe
07
09
fe
12
09
00
05
f8
f8
02
eb
f4
07
12
0e
fb
ff
0a
09
0f
14
0b
f9
f8
19
0a
14
fe
eb
ff
fe
f0
fb
0d
d4
e6
0b
ef
fe
e5
0a
16
e4
07
f5
e8
0a
07
1d
fe
f1
07
e7
f1
12
f6
ed
1a
f8
f1
26
e9
f5
1e
f2
f8
01
06
fa
03
16
00
01
17
fe
10
fd
03
06
db
fa
0f
f6
f6
0c
0b
04
04
10
00
fd
0b
0d
fe
f9
f3
02
f8
e6
fe
03
fc
f0
f9
f8
03
da
e6
0d
e2
f7
ec
f7
08
16
04
08
09
f7
0e
dd
d0
e3
e9
f0
e8
0b
03
0c
54
4a
6a
de
de
d2
0a
05
fd
00
f1
f7
0e
06
ec
09
0d
0b
f7
f2
f9
fd
fe
f4
fc
ff
fc
0e
14
00
53
fa
00
42
ff
06
07
01
0c
07
fe
05
fe
fd
f4
f1
09
f8
f3
07
de
f7
03
ee
0e
fd
0e
27
ef
fe
0f
fb
fe
12
03
f8
21
19
fd
fb
05
0b
05
01
04
fb
fd
f2
fa
f2
f3
03
fb
ff
11
e8
05
10
fb
00
f4
fb
ed
f6
f9
f6
eb
fb
f8
f4
f5
f6
00
fc
f4
09
05
06
fd
fc
02
e8
f5
eb
ee
08
f5
e2
06
d9
ef
0c
ef
01
25
0a
06
fe
fd
04
0c
1a
f6
fb
10
0d
f4
ff
2f
05
f0
ff
f3
f0
fb
f9
fb
06
19
19
f9
ff
09
1c
04
f6
27
02
07
27
03
06
fd
06
ed
ec
d9
ea
fe
fd
f2
07
ff
f0
04
f1
e2
fd
f8
eb
ff
05
09
29
0e
cd
23
f4
eb
eb
fa
fc
e6
f1
f9
fd
07
13
fb
f3
0c
0d
fc
37
1b
13
16
ff
f5
00
ff
f4
fe
f8
fc
00
07
09
ff
15
08
03
05
01
f9
0a
04
ff
ef
fe
fa
ff
f8
06
f2
08
fb
f4
f6
e8
fd
fc
f9
01
02
f8
01
06
fb
0e
12
04
00
1a
f7
fd
1d
c5
e2
09
da
10
2b
22
ef
ef
09
07
f5
f5
ee
f1
f9
fa
f5
f8
fa
f6
0c
d6
0b
f2
d2
19
d1
e7
0f
da
16
0f
0a
00
e8
08
01
ea
f2
0e
15
07
07
10
0b
fc
f1
f9
fc
02
0a
02
f7
fa
02
f9
04
00
09
09
fb
e5
03
f9
e8
fa
f7
ff
02
ec
f4
f0
f2
fc
f5
f6
00
0c
fe
e1
ee
03
f9
ed
14
e1
17
40
a0
ef
35
cc
03
fa
fd
0c
f8
f5
ff
f0
02
08
01
f7
13
d4
cc
0d
ee
f2
14
03
0a
0a
fc
f5
04
03
f7
01
d6
db
cb
32
3a
1e
0f
fb
fa
fe
01
04
f4
04
f8
fb
07
fb
f3
11
1e
f5
04
f4
f2
10
11
f7
fc
01
f5
f9
0d
ee
01
0a
f7
e5
f6
0d
02
04
0b
01
f7
ba
e0
b0
fe
f0
f3
fe
05
04
0c
0e
04
fb
fe
fd
02
09
09
ff
fa
fb
09
06
07
f1
fc
fd
ed
e2
fc
da
e6
ea
04
08
15
1a
05
25
06
d6
07
05
e9
0c
02
04
01
04
f8
f4
07
fa
fb
0b
00
0c
14
05
fd
05
0a
12
01
fd
fb
f1
09
15
fb
0b
1b
09
fc
ff
02
01
fc
fc
06
00
09
21
18
fd
fa
f3
02
ec
eb
f5
0f
f8
f4
09
fa
eb
0d
f6
e8
c9
e4
f6
ec
01
06
fb
06
ff
00
04
fd
01
ff
01
00
02
0e
e4
2c
1d
8e
2f
23
dd
38
15
0d
03
07
28
14
11
22
17
f7
f5
05
fe
e3
1a
f1
ea
22
01
ed
00
e3
f0
06
f3
eb
fe
e9
cf
01
e6
ab
f4
dd
ba
fc
e7
fb
04
07
08
14
f7
f7
00
18
f8
ff
0c
fb
fb
03
06
fa
ff
fc
00
04
f9
00
06
07
0a
22
03
fe
1d
ed
f1
1c
f0
fe
ed
0f
ff
f4
0b
00
0a
0b
08
f8
05
04
f8
fd
e9
07
ff
fc
f5
f7
0a
08
f5
06
00
fe
01
03
f2
fc
09
0a
08
f7
fc
06
eb
fa
ff
fe
ef
f6
fb
f8
07
08
fb
f7
fe
fa
00
f0
f5
10
12
10
16
f0
fb
f8
09
05
fe
00
07
12
05
f7
ff
0e
0e
03
f3
f3
fc
f3
0e
fb
0c
f8
eb
00
1e
0f
01
e6
ea
01
03
f6
06
f4
0a
0a
f0
f1
ff
fd
00
f8
0d
06
f4
25
e9
fa
12
f0
09
02
11
12
e1
18
19
0b
29
0c
0e
05
07
00
f3
09
09
fd
ea
fb
fd
f4
03
0a
01
15
11
fd
0a
00
f6
fe
f1
f2
fc
01
ff
eb
f2
03
0d
07
00
09
ff
f6
02
00
e0
03
c6
ee
e6
e2
fa
03
0c
f5
0c
0d
ed
f6
f9
02
e7
e8
fa
f8
e9
ff
08
03
ff
05
01
f0
ff
f0
f5
04
f9
fe
fe
09
fd
fc
04
f9
fa
fa
eb
be
f7
d6
9b
2f
d0
ca
2b
09
05
fa
08
16
03
03
ff
f8
0f
fc
00
04
fc
f8
fe
f9
fc
e9
e0
f9
f2
f9
eb
00
f4
fe
0b
20
ff
eb
fd
0a
f2
ef
03
fe
04
14
f6
20
0a
e2
12
17
e8
eb
04
13
dd
00
f6
f2
fb
05
fc
12
15
fa
07
f6
f9
fa
fc
ea
f4
ef
f0
fd
f4
06
f8
02
09
06
e7
d6
e9
10
fd
08
19
f9
07
0e
f1
fc
04
06
00
0c
15
0e
f8
f8
f6
ff
08
03
f9
fa
f3
10
06
0c
01
e9
00
fa
07
fb
f2
12
05
26
2f
03
16
0f
f8
fe
06
ff
03
fd
f9
f6
e1
f8
0a
98
f4
00
c3
0e
fb
f6
06
fc
00
f4
0d
01
0a
00
00
04
0a
fe
fd
08
07
07
fb
d9
e8
12
f6
fe
1b
0e
07
08
d4
ee
25
e2
e8
01
ce
e8
ce
d4
0d
b9
bc
25
c9
c9
1a
f9
fb
ee
02
12
f0
ff
03
ff
fb
e5
ee
f6
d9
02
f9
07
10
fc
fc
f1
00
ed
e7
0a
f4
f5
08
06
df
db
cd
cb
ec
db
f6
09
f1
02
19
d4
f2
0f
f6
02
0a
f6
d9
2d
9e
cb
16
d7
f6
f8
04
de
03
05
e6
eb
04
08
02
0c
12
fd
f9
fb
f8
00
08
fe
fe
0e
e7
19
ff
f0
06
ff
fa
0e
f6
f3
14
05
da
fe
10
f2
e2
df
11
f5
06
02
f1
f6
05
0d
04
02
fa
f0
fd
f1
ef
03
ec
f4
f7
f4
f9
ff
f9
f9
02
07
11
00
fe
0e
f4
f3
03
17
f2
ec
15
d9
03
17
dd
08
f5
12
16
d6
12
00
d6
1e
13
e8
fb
0b
f4
03
19
ef
0a
0d
f0
fe
fe
00
f6
fa
06
06
ff
01
08
ef
0e
15
09
12
13
03
fd
f9
05
05
0c
0e
18
12
f1
15
25
03
e1
07
f0
fd
fc
e6
f7
fd
e7
f2
01
a7
eb
0d
dc
fd
fe
fe
04
fe
fe
fb
ff
00
08
0f
05
1d
18
e2
26
07
f9
23
f2
04
1e
ec
ec
07
de
f0
f5
f8
03
f2
fd
fe
0b
13
11
02
05
05
ee
f2
f3
f5
fa
f9
19
1d
08
ef
24
1e
fe
1d
ff
04
08
0b
fc
fc
06
fd
01
02
02
0c
03
01
02
e4
10
04
f4
fb
04
fb
fb
07
f3
00
09
03
fb
01
01
f9
fd
fc
f9
f9
01
05
08
09
08
f2
fa
06
ea
fb
0c
17
16
00
01
fb
fb
00
fc
fb
f5
00
14
02
f8
0f
04
fa
02
f4
17
18
9e
fb
fc
d7
09
fc
04
08
0b
e8
ed
1a
fd
f8
0c
f1
fa
18
11
ee
1f
f9
09
f8
0d
f9
0b
17
ff
0c
12
07
06
0c
03
03
04
fd
04
07
04
fb
fd
f8
fa
fb
f5
fc
fe
f6
fe
05
03
f4
fa
fd
f6
fd
03
fe
fc
fc
f0
fb
f3
f2
fc
fe
f9
01
03
f5
fa
f4
00
04
01
ff
fb
f9
f8
04
ff
f0
0a
00
fa
03
06
ff
00
f9
00
03
f8
f2
fe
13
f2
01
21
eb
f1
08
fd
fe
04
fa
e9
ee
04
f4
02
03
f8
fa
08
02
0a
00
fd
06
07
ff
f9
f4
f9
eb
fa
02
fd
17
08
f6
fc
ee
e8
09
03
01
05
f7
fa
04
12
f0
0d
0d
f7
08
fc
ff
09
f2
f4
08
03
0a
04
03
06
f9
11
01
00
09
04
00
fb
eb
f4
03
fc
f0
00
f1
05
10
0d
08
1b
0e
04
10
f9
fb
02
0a
0f
10
03
08
0f
08
f9
eb
f0
03
f0
ea
f8
f2
f4
7f
72
6b
00
25
16
f9
1b
03
fb
e5
f3
1d
fa
0c
0b
f6
ff
0f
e8
08
0c
d6
0d
0d
f5
17
0f
0a
f6
03
11
ed
16
0a
f9
12
fb
04
06
e9
fa
03
e7
ff
0a
f6
04
0b
f0
f9
03
ff
f9
09
f0
fc
01
e6
ed
08
16
04
f9
13
fd
ff
00
0c
07
f0
f1
03
f8
08
01
0d
02
07
0a
e5
fd
fb
f9
00
fc
f7
05
08
09
02
0a
19
13
e0
ec
16
e9
fa
09
17
fa
1b
1a
e1
fe
10
ea
f8
f6
fd
07
e6
ec
0d
eb
f1
0f
f8
f4
04
ff
f1
f0
fc
ff
f9
e6
00
12
f8
fe
13
ff
00
01
f7
f9
0e
f8
f5
03
fb
fa
ed
02
fa
e8
f2
ec
f6
fe
f3
f2
fd
02
ec
f5
01
ef
00
02
e5
b8
dc
11
f3
07
fb
f9
08
00
fe
0f
f1
ed
fa
ff
06
0c
17
fc
fc
1f
ee
fe
01
ee
fd
10
f2
e8
f1
ff
09
f8
f0
ef
00
02
02
00
07
fe
fe
ff
fd
fc
f0
f7
00
fe
f9
ff
f6
f9
fd
f9
fd
ff
0a
02
02
03
fb
fe
00
00
00
f8
02
ff
fb
fd
05
f5
f1
0b
fa
fd
01
00
0c
fe
f9
04
f8
0b
fa
f8
06
fa
00
fc
01
01
fc
02
fd
fa
fe
00
f6
fc
07
fb
fa
f9
f8
03
fa
01
fb
01
fb
01
ff
ff
05
e1
eb
e7
ed
d0
e6
03
f9
fd
ff
fe
fd
fd
fe
fd
01
04
04
0a
03
fb
0e
0a
ff
04
03
05
fe
06
06
fd
fd
fd
04
00
01
02
02
02
05
08
fc
ff
05
07
fe
00
fd
ff
fe
fe
fe
03
01
fa
fe
ff
f8
08
0e
ff
0b
03
04
e8
f1
e9
01
f3
f2
db
f1
06
01
05
ff
06
00
00
04
fd
01
07
05
04
0b
0a
f8
fd
fc
10
35
1a
13
f9
08
03
07
05
fb
fc
fb
00
00
02
01
fe
03
05
03
fc
00
02
fa
01
06
ff
05
f4
03
00
f5
ff
fe
fa
f7
06
02
04
fb
fc
fb
03
0c
00
08
05
04
04
00
fc
08
09
ff
ee
c5
e9
03
f3
00
f9
ef
f5
fa
04
f9
fc
f5
fe
00
01
fe
fd
f0
fc
06
05
f6
fd
04
f4
f9
fe
f9
fa
09
fd
f9
04
fe
fb
06
02
ff
02
fc
04
08
fe
08
09
07
0c
0d
15
03
0d
0d
f9
f9
fa
01
05
fb
04
09
02
fd
fc
f5
f8
03
00
fb
01
fe
ff
02
02
fc
fa
fa
fc
fb
fd
02
fa
ff
07
01
05
05
02
06
ff
fb
f7
00
03
00
06
05
ff
fb
00
f4
fc
0b
fe
fe
07
06
09
02
06
05
0e
08
ff
01
fe
fc
fc
01
fb
02
fe
04
01
02
0b
5c
32
de
fa
e6
08
0a
07
17
24
2e
eb
d9
f2
ff
1e
fe
fe
06
02
fe
05
05
04
fc
fd
f4
f8
f5
fa
f9
fa
03
fe
00
03
05
04
06
09
03
01
09
02
ff
fa
ff
fd
fe
fc
01
00
00
ff
00
02
0a
f4
01
03
f6
fd
01
01
ff
fa
fb
f7
fe
fb
fe
fe
05
06
02
ff
01
04
02
04
f7
fb
06
fc
ee
00
01
fa
05
02
03
05
fe
fe
f9
02
07
03
02
f9
01
fc
fd
fd
ff
02
fd
ff
fe
03
0b
05
09
05
02
03
f9
08
fd
00
0b
f5
fe
06
ff
fb
0a
f9
f3
04
f4
fa
fd
ff
11
fd
f9
fd
f4
fb
fc
f7
06
09
09
fc
02
ff
f9
f9
fb
f8
f8
04
01
03
02
f9
00
fc
fd
fd
fd
fb
03
0d
03
ff
06
01
fe
fd
05
03
01
fb
fd
07
ff
11
38
24
0a
e0
01
06
0c
0b
03
08
06
01
fa
fe
01
fb
03
08
03
fa
06
01
ec
fb
ff
f7
04
01
01
05
06
04
08
02
fe
fd
13
fe
ef
0d
ee
f2
07
f8
00
02
fd
03
04
01
01
fc
ff
cd
cf
aa
e3
c4
e0
06
02
0a
fd
01
01
02
00
fd
ff
fc
fd
fc
06
05
fd
01
07
f8
00
06
f5
02
ff
f9
03
fe
fc
07
01
fb
02
04
02
05
03
04
ff
fe
fe
04
04
f7
12
04
fc
f1
f1
ee
da
ef
f7
ed
f2
0d
06
0a
ff
fd
fc
fc
f9
fc
04
00
ff
fd
fe
fd
fe
03
fe
fc
02
01
ff
fe
00
00
05
f8
ff
04
fd
fe
fd
fc
fd
ff
fd
fe
fe
ff
fe
02
06
03
08
02
01
fd
fe
01
fc
01
fe
03
fc
03
05
fd
fe
01
fe
00
ff
fe
fe
00
f8
01
f5
ff
02
ef
03
0f
fb
0c
fe
04
07
08
0f
0f
f5
01
06
01
03
fc
fe
05
f8
fa
01
fe
04
f9
ff
11
f2
fc
04
f4
0a
00
fc
fb
fe
0c
05
fc
04
02
05
fd
08
02
f5
ff
fc
f2
fc
02
06
06
fd
02
05
fd
ff
ff
fe
00
04
03
f5
ff
04
01
05
f8
f8
fb
fe
04
ff
01
03
01
f4
ee
e5
f6
08
f6
e8
d7
ed
05
ff
04
00
fb
00
f8
00
04
fe
fd
02
ff
01
01
fc
fc
ff
01
02
04
02
00
01
05
ff
04
03
f6
f7
04
05
09
09
00
fe
fc
fe
05
00
fb
fe
03
00
fd
00
fa
00
04
fe
fb
00
fe
f9
fd
00
08
05
f7
fa
01
fa
04
00
02
08
01
ff
fa
fc
05
01
f4
f8
fd
00
fe
fd
04
05
02
05
0a
06
04
02
05
04
ff
02
00
05
03
06
02
fe
05
01
02
02
03
00
07
06
07
fd
fe
01
d5
c5
af
01
32
0c
14
04
0f
fb
06
fc
f7
04
f7
02
02
fc
00
06
fd
ff
00
01
00
fc
fd
00
05
00
01
03
07
fd
fb
fb
06
04
09
fe
fa
fe
00
fc
01
02
00
fb
ff
01
03
03
04
03
04
03
05
04
06
02
01
ff
fe
04
08
05
00
f8
f6
00
04
06
06
0b
f4
fc
02
f6
fc
07
fc
03
07
00
04
05
ef
f6
fc
fa
fb
ff
02
02
08
ff
04
01
01
03
fc
02
fe
fc
fc
ff
fb
01
ef
f5
ff
12
0d
08
00
f4
f3
00
05
fa
06
08
06
fe
05
fd
02
02
06
02
01
00
03
01
04
05
fd
02
00
fd
fd
00
fd
00
04
f8
f9
03
00
fc
fb
01
ff
02
07
f5
01
08
fb
fc
08
fe
01
00
02
03
06
02
00
01
00
06
04
05
fe
03
07
f8
03
f9
fd
02
fd
ff
04
fe
fe
02
04
f3
e9
f4
00
f4
f8
fe
fb
01
fd
ff
fc
05
07
07
ff
03
03
fb
08
ff
f8
05
fe
01
01
09
fe
02
fe
04
08
01
00
ff
fa
06
f8
f5
f7
00
04
07
09
06
07
fb
03
04
f9
07
ff
f8
02
0a
03
07
06
fa
f5
01
fe
fc
bd
b5
bd
06
11
fb
fd
d6
f8
f6
10
04
f9
0e
01
f9
ff
fd
fc
00
f9
05
04
00
07
03
04
05
02
03
fc
ed
f6
fe
f4
fc
01
12
fd
f9
fd
f8
00
fa
fc
f8
fc
fe
ff
fe
fd
06
06
fb
1e
ff
e7
f7
06
0c
fa
06
06
e5
04
17
f3
ee
03
06
10
fa
06
07
ff
03
01
03
ff
fd
02
ff
fb
fe
07
05
09
01
08
04
04
ff
0a
fd
f6
f8
fc
fa
fa
fa
01
0c
18
0d
f8
09
01
f8
03
02
fe
fe
03
fd
fc
0a
fb
fd
02
fd
f4
02
f8
01
02
fd
fd
02
06
01
03
ff
fa
03
fb
f9
fb
00
fb
01
04
fe
01
fd
ff
f8
fc
f8
ff
04
00
04
03
01
01
04
fe
fe
03
fe
fd
02
fa
ff
fc
07
0c
07
02
01
00
f4
f6
fc
01
0c
06
fd
fe
01
fe
01
06
01
fc
ff
ff
fc
06
ff
f8
03
11
f2
f0
03
00
ff
fb
ff
fc
00
fe
04
fe
08
fe
13
f4
d2
fa
15
12
fa
08
0b
fb
fb
fd
06
02
02
fd
fe
fe
01
ff
02
fd
fd
fe
fe
02
fd
fe
ff
07
05
fe
f6
fc
00
fd
02
00
00
fd
02
02
05
00
03
fa
f9
fc
01
fe
03
03
02
ff
02
08
ff
01
f2
05
02
f8
00
0a
fa
f7
07
f7
0d
ff
fd
12
02
fc
06
05
fc
01
08
f9
03
05
07
08
04
fd
02
00
f6
fc
0f
fd
01
dd
d5
e8
e6
e9
eb
03
01
05
05
fd
01
fb
f0
fb
06
ff
03
03
f9
01
fd
03
fd
f8
0b
fe
f5
06
f7
f5
01
fb
fd
fd
ff
07
04
05
00
01
03
04
00
01
00
ff
ff
00
05
01
05
0a
ff
00
ef
02
02
01
fc
fe
00
fa
01
06
02
ff
fd
ff
01
09
fb
04
08
04
fb
03
fd
02
ff
00
fc
07
02
fe
06
01
00
04
00
0c
05
08
03
03
05
02
05
ff
03
05
ff
00
04
01
01
fd
02
02
04
05
08
01
fb
fd
00
04
07
f7
f6
00
fc
ff
2d
35
45
bb
81
bf
05
0d
08
fc
27
08
ee
f7
ed
02
00
01
01
f7
04
ff
ff
f8
01
08
fa
0c
04
fb
f4
0d
1f
fb
fe
0c
01
01
00
fd
05
00
fd
0a
01
09
00
f7
fe
03
ff
12
ff
f7
00
09
06
ff
fa
00
fb
f6
fa
fa
f9
f8
04
0a
02
ff
fd
00
fa
10
01
02
02
fb
fe
01
f7
03
fe
00
02
fc
fe
00
fb
fa
17
1c
17
f6
f7
fc
fb
10
fb
fc
fe
04
ff
03
fd
fc
02
00
08
01
03
08
04
01
05
04
03
06
fe
fa
fd
fd
fd
f8
01
05
00
fb
ff
06
00
01
fd
00
06
00
04
02
03
01
ff
02
ff
fd
01
08
01
07
0c
0a
00
05
01
02
06
06
ff
04
03
03
00
00
04
01
fc
fa
fb
02
fb
fc
01
05
03
03
00
fa
ff
fc
f9
fa
04
fa
02
f3
ee
04
00
fa
01
00
07
ff
00
06
fb
05
03
fb
01
02
03
02
ff
fd
01
03
03
03
fd
fd
ff
fe
03
fa
03
fb
f4
ff
fe
04
fc
fb
06
fd
fd
01
03
01
00
fc
fd
ff
fb
fd
09
06
07
03
fe
01
00
fc
fe
04
ff
fd
fd
02
fe
00
00
fa
fc
fb
fc
03
00
03
00
fb
ff
00
ff
01
fd
fd
00
01
fd
fd
04
06
01
02
fc
fd
ff
fe
00
fa
fd
fb
00
04
01
ff
03
fe
02
05
01
00
fa
f9
02
02
02
02
fc
fd
04
ff
00
02
01
03
fa
00
fe
ff
07
08
06
fc
01
fe
03
04
fa
06
05
fb
02
fa
02
fd
02
ee
04
09
f4
01
07
05
0d
09
fb
05
fe
fb
02
00
02
f8
05
fb
00
ff
00
07
04
02
fb
fe
f2
f4
08
fd
f7
03
fe
01
fd
05
05
00
00
ff
03
ff
06
00
03
02
04
01
02
06
fb
05
ff
01
07
02
fd
ff
ff
f9
01
fd
03
02
03
05
05
03
07
04
02
04
03
00
02
02
00
02
ff
01
02
fc
00
03
fe
ff
01
04
02
02
01
ff
f9
fc
fe
fd
fe
03
04
00
02
ff
ff
fd
cc
e1
10
26
20
f5
fe
03
11
00
04
03
04
01
fe
00
fd
01
ff
fc
fc
fd
00
00
fa
04
fe
ff
08
06
0a
05
0c
08
07
07
03
03
01
00
03
fc
fe
fd
fc
ff
fe
01
fd
0a
ff
f5
0c
ff
bc
e9
bb
e7
19
eb
01
ee
01
f9
08
fb
fc
0c
ff
fb
02
fa
fd
fa
fc
05
fe
01
05
01
02
fc
fb
fb
fe
fb
ff
00
fd
03
f6
fb
fc
02
03
fb
01
ff
04
fd
03
00
ff
0a
fc
fe
01
01
fa
fe
fe
fc
00
ff
fb
00
00
00
01
fe
00
fe
ff
fe
ff
00
00
fc
04
07
fe
02
fc
fc
01
e3
dd
e4
02
ee
02
dc
d3
db
e0
b4
ce
ff
33
13
f6
fe
fa
0b
08
09
04
01
04
00
fe
fe
07
fa
06
ff
0b
03
fe
f6
f1
fd
fd
ff
fb
fa
fe
02
fe
02
f7
05
03
ea
00
08
02
06
02
ef
f5
09
04
f9
02
0f
fe
f8
03
fd
04
fa
05
fa
f6
08
f6
b8
b7
b3
f2
1a
f6
f1
f0
f3
fc
0d
00
09
0d
fd
01
03
f8
01
f9
09
02
0b
00
05
fb
fd
00
01
02
02
02
04
fb
fd
ff
ff
00
02
01
00
ff
03
05
06
fb
ff
fd
fa
02
00
00
01
fe
ff
fa
fa
01
f5
00
0d
05
09
fc
05
03
01
04
fc
fd
02
ff
fd
ff
f4
03
0b
08
fe
fd
00
fe
05
04
04
08
02
f7
05
05
06
da
e9
10
e2
f2
09
e3
fa
d1
fd
19
b8
16
1a
ce
36
2b
07
01
0d
0a
05
0d
01
00
04
fc
fe
fc
fe
06
fb
03
02
fa
f6
eb
fe
02
0a
0e
f3
e9
ff
ff
00
01
01
04
fe
f0
f8
01
06
fa
f2
03
f7
f9
f3
06
f2
02
fc
ff
06
05
04
fe
f5
f2
ff
02
07
fe
07
11
fa
fc
00
f5
f7
f8
00
03
01
02
fa
f7
f2
dd
f0
ff
01
01
ff
eb
f7
c0
fe
e0
8a
39
e1
82
f4
dc
ee
f1
fb
ac
d4
f9
be
ec
fc
01
00
00
03
06
00
03
fe
fe
02
02
08
0c
1c
0c
f3
0f
0c
02
f1
04
08
fe
05
08
f6
05
fb
00
01
03
0b
04
09
fd
fc
f9
d7
da
e5
bf
c2
f5
d3
d0
f1
fb
ff
f8
06
00
ee
f5
0c
01
fe
00
fe
00
fb
f8
fe
fc
fd
02
f8
00
04
fc
13
08
fb
01
ea
f8
13
fe
08
09
f8
f9
07
01
02
01
fb
f8
04
08
ff
fb
fa
f2
0d
03
f7
07
f9
08
0d
fe
ff
07
fb
fc
05
07
08
02
fd
fd
08
00
07
f9
0e
03
fc
f1
f8
0b
fc
04
04
f5
fe
ef
08
02
e8
01
0a
ec
d1
fc
37
bb
14
6e
a5
28
36
c9
1f
fa
05
0a
fd
fd
fb
fb
06
f8
f9
fd
04
f6
f9
ff
00
f5
fa
fb
fe
fd
05
0c
f8
05
08
fd
01
ff
fe
ff
fc
fa
fc
fd
02
05
09
02
09
0d
02
10
0a
04
09
01
01
09
06
05
08
09
02
0c
07
0f
04
f5
fa
f3
e6
f4
fe
0d
06
0b
14
00
01
ff
fc
f7
03
fe
f5
06
07
fd
f9
02
0d
00
0f
01
01
05
09
fe
fd
00
f8
f8
fb
00
08
11
07
fd
fd
fb
01
fd
03
0c
f5
f7
03
06
f7
fa
05
04
fc
07
04
05
fa
00
f9
00
02
fc
fd
f5
f6
fb
fe
00
f0
00
00
02
0f
07
0a
04
01
f7
fe
05
f3
fe
f9
fd
f9
fb
03
ff
02
03
02
06
00
ff
04
00
00
fe
f6
fc
03
f8
14
22
e3
f8
1b
cf
0c
01
00
02
08
07
03
01
ff
02
02
fa
01
02
fd
f8
f7
04
f4
0a
fc
fb
f6
01
05
fa
04
03
fa
eb
dc
f3
e5
10
c5
d7
db
f6
f4
fe
fb
03
11
05
e4
ed
fb
f3
e3
f9
00
fb
02
f0
e6
f2
f6
fe
f6
35
39
f5
0f
12
f7
f1
fd
e1
f2
df
f4
e0
b4
e7
0e
f4
04
14
f3
05
17
fd
ff
ed
16
ff
b1
fc
15
af
23
17
04
03
04
fc
00
fd
01
f7
00
08
09
02
06
03
fe
fe
00
09
f8
04
fb
01
09
06
07
fd
fe
f4
f1
fb
21
f6
0c
37
ec
0e
e7
e6
00
e4
e4
ff
ec
f0
0a
00
08
14
01
03
08
f4
fe
ff
09
05
00
05
fe
fd
02
00
ff
00
04
fc
fc
0b
fa
f5
07
ff
f8
ff
05
f4
01
02
fa
f9
00
61
18
e5
7f
4b
b6
4e
14
c5
05
06
09
02
0a
07
f5
01
07
f7
0a
06
f7
0b
08
ec
e5
fb
03
f5
0a
13
04
04
01
ff
ff
01
ff
04
04
f9
f5
05
01
f6
0d
07
05
1a
15
00
0f
08
ff
df
d7
0e
d3
d7
00
b3
c8
0a
f9
fb
00
07
0a
09
07
fe
01
f0
08
fd
f0
08
00
f0
fd
02
fc
05
03
04
05
09
14
09
0d
02
04
fc
03
08
0e
00
03
0a
fd
fe
f5
15
04
fc
03
fa
ff
0d
0c
04
0a
0f
08
0a
01
05
fd
f9
ff
04
03
05
fc
ff
fd
ed
0d
15
02
fe
1f
04
f7
23
fe
fd
09
f9
f7
0f
fd
fd
0b
f4
fb
f0
0c
21
03
f0
02
04
05
02
06
08
03
ff
0a
06
fd
04
0f
05
fa
00
04
fe
06
fe
07
01
07
02
01
04
01
f7
f7
fc
fe
03
07
0e
06
fe
f3
01
f7
fc
fb
f6
06
01
fc
ff
00
06
04
07
02
04
08
fd
02
02
fd
01
00
fb
07
03
fa
0d
07
10
f9
fd
0f
0c
06
04
03
fb
fa
ff
03
fc
05
fd
fe
00
f7
f4
fb
fb
ee
00
02
02
05
fc
f9
fd
f5
04
0a
f6
04
02
fc
d6
00
df
b5
f7
e7
c6
08
e5
fb
19
10
ea
13
fd
f0
fb
f1
f9
f6
f7
f9
03
fe
fc
00
fb
f7
0b
0b
18
32
0b
24
10
10
ff
f8
fa
ff
fb
fc
fc
f7
fa
fe
0b
07
fa
02
04
f2
04
03
02
06
05
03
06
02
00
02
02
fd
02
01
ff
00
fc
fe
f9
f9
10
07
fa
34
0e
11
1a
0a
02
1d
08
2d
1b
e1
48
09
fb
28
04
00
04
f8
fe
08
fa
04
00
04
f6
fe
01
02
01
fc
04
07
05
13
05
f2
05
f7
f6
0b
04
b3
0d
d6
b8
3f
e9
e2
19
e3
18
08
03
05
f9
ed
fb
e8
eb
09
06
05
0d
09
0c
fe
f4
0a
0f
0c
04
03
04
fd
fc
ff
fe
fd
04
09
fa
00
04
fa
f5
fd
04
f4
ee
10
fe
f9
16
fe
f9
09
fc
01
09
f5
fc
15
f8
07
f5
fc
fd
f9
02
fe
fb
06
04
ff
f6
fa
00
04
fd
0c
11
09
e1
ff
0d
fd
fb
08
cb
fe
0f
f4
02
02
f9
02
fe
01
fb
f7
04
fb
06
f7
f9
f9
f4
fe
fc
3b
e0
0d
7e
e2
09
6a
e2
11
02
ff
00
f8
fa
f7
0a
04
03
03
ff
03
02
06
05
02
fe
ff
f6
f8
e9
ef
ec
e4
01
01
fa
02
06
03
05
09
00
00
01
00
fa
fa
fb
06
02
02
03
ff
01
04
04
09
03
03
fe
0b
ff
ff
01
fd
f8
0b
0e
08
07
09
01
f2
0d
ff
02
0f
01
f6
fa
ff
06
07
08
ff
f6
f3
fc
f3
f5
0a
04
fa
05
02
fb
04
02
ff
06
f4
05
0a
f9
00
01
fb
fc
0a
f8
fa
0b
f9
fa
0d
06
08
fc
fc
fe
ff
01
05
fe
fe
00
fd
f9
fc
fd
06
05
f8
f1
f4
28
02
0a
22
02
05
17
f8
f6
07
fb
fe
0f
02
02
10
fe
09
0c
09
07
f9
02
00
05
16
14
15
f6
08
14
d1
1b
37
e4
03
d4
02
f6
bd
11
fc
d8
11
ee
07
ff
05
02
fe
ff
ff
f4
ff
fc
fe
fc
fa
0f
ff
fd
0c
03
00
f3
ef
0c
1a
0a
ff
f1
01
06
fd
ff
06
04
ff
03
fb
fb
fc
04
04
f1
06
07
fc
07
fa
02
ff
00
0a
05
02
0b
00
00
fe
08
f8
fa
01
f4
01
06
fa
f0
07
0f
f6
00
09
f2
02
10
02
04
01
06
0a
04
fe
f8
ff
02
00
01
06
f4
f2
06
07
04
f2
f9
f2
f4
05
10
f8
fe
16
0f
12
07
02
04
02
f0
f7
ff
02
fd
04
00
02
00
ff
04
04
0b
fc
ff
09
fc
04
0e
fc
0a
fd
f2
f7
fc
02
fd
f1
f7
f8
e7
e6
f8
c0
fd
f6
e9
0b
f6
fa
08
04
fa
0a
ff
f8
03
fb
1d
13
04
15
f0
fa
10
ed
f0
f1
06
0f
13
05
08
f9
f6
17
06
05
f9
09
02
07
0c
05
fa
01
f3
fd
f8
eb
fb
03
fc
04
f7
fd
fc
fa
04
03
fd
04
fc
0d
fe
00
00
f2
f6
f3
ec
ef
10
0c
05
1e
06
f6
18
06
01
08
08
fc
00
f1
ea
fe
f0
ef
fc
fc
f6
02
03
fc
01
ff
fc
14
ff
fd
12
fe
fd
10
ff
02
f9
08
fd
05
00
05
1e
01
0c
01
fe
07
04
f0
fd
f6
ee
fd
0f
0a
07
13
e6
e3
06
06
fb
4a
f5
00
73
0d
ed
72
f8
e9
fd
04
fb
01
0a
06
00
07
00
f8
f9
04
00
0b
09
01
00
13
00
00
07
0a
08
fe
03
02
fa
f8
f4
fd
0b
00
fd
00
fe
fe
f6
fd
00
fd
05
00
ff
00
00
ff
f8
f5
03
f1
fb
0f
01
0c
f9
fa
01
f8
02
12
f7
f6
05
fc
f4
02
01
0d
0c
04
0c
0d
08
fb
ea
fd
0c
09
ee
fe
0c
02
ff
fd
ff
08
08
00
04
00
f5
00
05
f8
03
06
f2
06
0f
02
01
01
05
04
05
04
fd
01
fa
f7
fb
03
e4
f3
fb
e3
f1
f2
fb
00
ff
fe
fd
08
03
ff
00
00
0c
08
08
fe
01
fc
fe
df
0d
03
08
0b
07
31
1c
1b
07
0a
fb
07
0d
fe
f4
00
03
04
06
fe
04
07
01
08
04
fa
02
ff
07
07
01
05
00
fe
01
01
09
0b
f9
02
ff
f9
f8
01
03
ff
f4
f8
f6
eb
02
03
f7
07
fd
02
09
fd
02
04
ff
02
ce
f5
d8
ab
1d
cd
c1
07
da
fe
02
f0
fd
0a
07
ff
01
0d
fe
ed
00
e4
ef
07
11
f8
0d
f9
0b
00
ec
09
ff
f8
fd
f9
f9
02
03
ff
01
03
05
04
07
fa
fc
f5
f8
fa
f5
04
fc
05
df
03
ef
ef
09
02
cf
1a
fb
f4
00
fd
fb
01
fe
ff
01
00
01
04
02
fb
09
00
f9
0a
07
f9
fb
02
09
04
01
06
ff
00
fb
fc
ff
fb
fd
01
fb
fa
ff
02
f9
02
fd
fb
01
fe
00
04
00
00
01
f7
00
f8
f6
fd
f9
fe
07
07
ff
09
00
04
09
f6
02
03
fd
02
05
fc
08
0a
04
05
ff
02
08
fb
fe
03
fa
fd
09
01
00
06
0e
02
01
fb
02
fd
04
08
06
12
06
fa
fa
fc
f9
ee
f5
ff
fd
00
06
fc
f8
fe
0a
03
fe
0a
07
f3
0c
00
fe
fa
fb
01
0a
03
07
0a
03
00
f5
eb
fe
fe
f7
02
fe
fa
06
04
ff
07
03
01
07
fb
fa
fe
02
00
fe
04
03
f9
01
00
fc
fb
fe
00
01
05
fd
fb
fe
04
06
04
ff
02
ff
ff
00
03
04
00
03
00
f8
f9
f7
fa
fd
fe
f9
03
fc
f8
fe
02
f9
08
ff
01
f5
f2
ee
e6
fb
fd
ed
03
fd
f4
06
01
f1
fb
ff
f9
15
09
04
03
07
00
f7
ff
fa
06
fd
00
08
ff
01
f5
f7
fb
fc
fe
02
ff
ff
fe
00
01
09
fc
01
ff
fc
09
05
eb
f5
f8
ff
0a
01
01
01
03
f8
f1
14
03
fd
fd
f0
02
fe
ef
f9
fc
fb
f4
f7
fc
ff
01
08
01
03
13
fd
08
05
08
06
ff
09
04
f9
fb
fd
fe
06
03
f8
fe
fc
05
0a
fe
ff
0a
fd
fc
00
fc
fd
ff
05
02
08
fd
fa
08
fd
01
fb
fc
04
07
fb
f2
fe
00
0b
08
03
00
05
05
04
07
09
00
06
00
01
06
02
fb
00
04
04
f8
fc
fd
00
fe
fe
fe
fb
f8
f1
f9
f8
03
03
f9
0e
fa
fb
02
0e
fd
f7
fe
02
f4
ff
13
13
1f
fc
eb
fb
06
f1
f2
03
f9
09
00
f9
05
05
04
06
04
ff
fb
00
06
fc
06
01
04
f5
06
0b
f6
08
06
02
fc
0a
0d
fe
f5
0f
00
05
08
03
0f
f2
02
08
f2
0a
13
f4
04
06
04
ff
06
f0
04
f8
ea
f6
03
07
0b
09
0b
ff
fc
08
0c
0f
f9
00
07
f4
05
09
ee
ff
0d
07
f8
f3
fe
ef
ea
06
f8
f3
03
fa
f5
fc
f1
ed
f8
ef
f0
f8
00
fe
06
09
05
0b
05
fb
f6
fb
00
07
f8
09
02
fc
0f
f5
05
01
02
0c
04
04
0f
0c
08
0d
1a
00
f1
f3
f3
fb
f0
01
04
02
05
04
05
08
08
fb
ef
ef
f0
f4
f8
fa
ec
f4
ee
01
f5
f5
02
fa
fb
05
04
f3
f9
fe
ef
10
23
01
fd
00
04
08
0e
09
02
0c
03
11
1e
0b
f6
02
f9
0a
01
e4
f3
f9
ed
fd
04
01
f8
06
04
03
03
fc
f9
f5
f3
fe
e3
f5
01
f3
f5
17
0a
0c
27
1e
2b
20
00
09
f9
fc
07
03
02
fe
f8
f7
fc
fe
04
fa
09
08
fd
fa
fd
fa
f7
ea
08
04
e6
f1
06
ed
f6
ff
f7
fa
00
f9
f7
f9
fe
f6
00
05
0f
f3
eb
09
f4
01
06
05
07
02
00
07
f8
02
09
07
f1
f9
ff
0b
32
11
fa
02
ff
fe
08
f9
06
0a
f6
01
04
fb
00
01
fe
09
09
06
06
0a
07
e8
f8
f9
cb
ea
f7
d5
ec
fc
f6
04
fc
f7
06
ff
fb
fe
01
05
ff
0a
fa
fa
fb
fb
03
ff
f5
fd
06
e9
f8
01
f5
ff
07
f7
f5
ff
ff
04
0b
0d
fe
00
04
02
fe
f6
f3
ff
ea
ee
fb
fd
03
06
0b
03
06
0f
01
01
f9
ff
05
03
09
02
f3
f8
fc
05
f7
f5
18
17
f8
16
10
f8
ff
fc
fb
05
0a
f9
03
01
07
03
09
08
06
02
0b
f7
fd
fc
ff
f7
fd
04
fe
06
03
fb
fc
09
0e
fe
01
06
f6
f8
01
f0
fa
fe
fb
f5
fd
fd
ff
07
0b
fd
ff
0e
09
f4
f8
f6
04
0d
02
03
ff
fb
ff
f0
fd
01
fb
fe
04
03
02
0b
05
fe
07
06
e1
f1
42
de
d1
56
d1
dc
42
09
0a
ff
08
0b
fd
fe
fa
f5
0d
0e
fe
fd
0f
0a
fc
06
0c
fe
fd
ff
f4
01
05
fa
01
02
02
fc
f8
fb
f6
fe
00
ff
00
f8
fc
03
0e
00
fc
fc
fc
ff
03
dd
c4
0c
95
9c
09
e6
ae
fe
06
08
ff
03
fa
00
05
ff
fe
f6
ff
07
f6
f8
07
02
0a
fa
03
00
f9
09
ff
03
09
fa
0c
0f
fe
01
fc
d7
04
00
f4
fb
00
02
fb
03
fe
f9
09
00
fc
fd
04
0c
02
fc
08
ff
f6
04
06
f5
ef
13
06
f1
f9
fd
fa
05
05
fb
06
01
ff
00
06
f8
fd
fc
f7
ff
fe
f7
ff
fb
01
02
00
01
07
00
0a
0a
04
03
00
fc
0e
ff
00
f9
f7
03
04
02
09
fa
f8
f6
f7
06
04
fb
07
02
0a
09
fb
fc
05
fa
00
01
08
00
00
04
04
00
11
f9
f5
01
fe
f3
00
05
fa
fd
04
01
f2
05
04
f5
01
02
fc
02
fd
03
ff
01
0b
fc
ff
f6
06
02
05
02
02
f7
0f
06
ff
f8
03
04
f4
f6
fd
02
fa
0a
f5
f3
ee
fd
ef
da
ff
f5
f6
ee
fa
f8
06
04
fb
07
0a
04
05
ed
f4
e7
dd
ea
12
03
fc
f6
02
02
0b
0b
0b
f2
f8
fb
07
ff
fc
03
07
fc
f8
ff
06
f9
fb
00
fd
02
00
04
04
fe
fe
09
f2
f3
03
0d
fd
07
f0
01
fe
fe
0d
06
04
fc
ff
fc
fc
fd
fd
ed
ee
ec
fe
f8
ec
03
07
f8
05
ff
fa
fe
fd
07
fa
f8
f6
17
0b
11
08
01
fd
00
01
07
01
00
04
03
00
ff
00
00
0a
0d
04
0b
08
01
04
03
f6
01
06
f3
f7
05
fc
fd
01
fd
fe
fe
fe
fe
03
00
fe
ff
01
fb
13
0a
f6
03
09
02
fd
00
12
08
0a
0e
fd
ff
03
f5
04
01
fc
09
05
10
00
f5
f7
f9
f8
1a
09
04
fe
fd
fd
fe
07
fd
07
15
06
06
0e
05
27
d6
ec
6d
e0
ef
37
f2
fd
08
06
f3
f1
e7
ed
10
fa
e7
07
f4
0e
03
e1
0f
f5
e1
11
f8
03
09
04
0e
07
f2
f9
fb
06
fc
fe
18
09
06
06
04
08
f3
06
0f
f6
1b
2a
fc
f3
f2
05
ff
fe
f9
f9
fc
fd
00
fb
ff
07
fc
0b
06
04
fe
fe
00
fa
f6
fd
f8
f4
fa
ff
fb
08
ff
0b
0f
fd
fa
01
fd
fb
03
03
05
05
00
09
09
07
0b
03
03
fb
03
f7
eb
d0
f3
ef
f0
fa
02
eb
0d
0f
f5
f8
02
e9
fe
f3
00
08
f9
0c
fc
ed
09
ff
0a
03
02
00
da
f8
0d
f9
fa
05
07
03
09
06
05
06
10
0e
0d
ff
14
16
f6
f7
f4
f5
fe
fe
00
0a
05
ff
06
03
ff
f8
fc
fc
03
f9
fd
01
fd
0d
01
fc
06
01
fd
fb
fb
fb
fc
08
0c
04
fc
fa
01
fa
fa
f8
fc
d6
04
0e
bc
cb
fc
e1
fc
02
f9
fe
f9
f6
01
f6
f9
00
0a
01
02
ff
fa
02
03
f6
f3
fc
fc
f9
00
07
0e
f7
fa
fb
ff
06
fb
0b
0d
fb
0c
fb
ff
fe
01
f9
02
02
ed
fc
03
fc
fc
fe
f9
09
02
dc
01
0d
ee
fb
f4
fe
05
08
04
fd
00
00
09
07
00
07
08
e8
f7
08
f7
04
0d
0e
0a
06
06
0c
08
fb
03
01
fe
04
01
f6
04
10
11
0a
ff
07
02
f8
0a
fb
f4
ff
00
fe
09
f8
f5
fd
ff
f3
f7
f8
fa
0a
e6
e5
07
f5
f7
06
fc
fc
f8
10
0e
fe
05
01
f3
fd
04
08
03
00
fe
02
09
0b
fa
fc
01
02
fe
ff
04
00
01
08
00
fe
0e
01
fa
