05
ff
fc
fd
14
fb
02
0e
0a
e8
0e
06
f7
fe
05
fc
14
ff
f5
ff
df
02
fb
fc
fc
05
fc
07
16
fb
f7
fa
f4
0b
00
f7
0f
06
13
08
03
f6
09
fd
03
f5
fb
05
f4
e7
ff
ff
0c
e2
0f
02
10
f5
05
03
0d
e7
fc
e1
fc
03
10
f3
1d
0f
dc
fc
0c
f4
e8
09
dc
eb
0d
f5
05
0e
1d
0c
17
fe
ed
f5
ea
07
12
e3
0e
fb
0d
03
0b
0b
0c
09
ee
fc
0b
07
4d
05
05
fe
fc
d7
0e
f8
fc
ef
08
0a
06
0b
ef
eb
f2
07
0d
03
fa
04
01
01
dc
17
13
0e
f8
06
f2
0a
f5
1a
ed
0d
fa
e4
e4
e8
78
f6
05
0d
e4
da
00
e4
d8
0a
12
01
f5
ca
12
7f
00
05
f8
00
e0
06
09
f8
fe
0d
11
0d
cc
e4
15
05
02
04
19
e1
f6
0b
1b
0e
05
03
08
0f
f9
08
e2
fa
06
08
01
ef
07
f7
ef
04
01
06
00
02
fe
02
0d
fd
00
04
03
fa
02
ff
fb
f8
08
fe
ff
03
08
fc
ff
0b
01
03
fe
05
00
0b
01
03
04
fd
fc
06
01
ff
f7
08
03
f3
06
01
01
f6
f9
06
06
03
fc
01
f8
fe
fb
05
fe
f8
01
fc
03
fc
08
01
01
12
ff
03
f8
fc
fb
05
00
07
0b
03
f9
f0
fc
f4
01
02
06
02
04
fc
00
0b
09
01
00
f9
0a
02
fc
f9
f7
06
01
ff
ff
fd
fd
01
fc
ff
fb
0a
fe
f9
f9
fe
04
f1
fe
f8
02
03
21
f1
02
0c
07
f4
f6
1f
fe
00
e2
19
07
81
02
04
12
fa
f9
00
01
05
01
fe
e5
f6
08
04
07
02
fd
05
fe
0c
a5
5f
03
fd
f4
02
01
ff
fb
01
bb
06
06
fa
0e
4f
00
09
01
ff
0f
02
02
fb
07
f8
fc
01
fd
02
f4
17
01
09
f4
02
fb
03
ef
11
02
02
fe
fa
ff
f4
0c
ff
f6
f8
05
ff
08
05
f7
fe
fe
01
00
f8
02
ed
0b
01
07
fd
02
05
11
04
08
00
0f
0c
01
ff
02
03
fd
f8
02
08
08
f8
f6
01
f7
01
05
f4
fc
06
f9
fb
fe
f8
03
fa
13
f4
04
f6
81
08
d7
01
09
03
f8
03
06
0f
03
01
0d
08
ff
fa
fe
07
0d
02
fe
16
16
0a
fb
04
06
07
08
ee
05
01
fa
00
fd
08
fc
07
0a
06
0b
fd
00
f6
0d
00
06
da
00
00
02
ed
24
ef
10
03
02
fd
f3
06
11
02
ed
04
00
0d
f9
ff
08
00
00
fe
f8
bc
e3
09
04
01
26
0c
f1
07
30
fe
18
f9
05
db
02
de
0a
fd
fe
00
f6
0a
02
09
03
02
0c
fc
08
08
11
06
fd
fd
01
34
fb
03
04
f9
0b
f8
0b
02
0c
fd
08
01
08
cb
f5
02
0e
fa
fc
00
15
eb
f4
0d
f8
f0
fc
f7
08
f4
08
e1
f2
fa
f7
f3
0c
02
04
05
10
02
19
25
02
1a
ff
15
1f
fe
ed
fb
e5
0f
f0
0b
fd
ec
1e
ed
1c
f7
0c
fc
fd
05
ec
0f
d8
eb
0a
f9
08
06
ff
fd
37
fd
1d
07
0a
21
0e
ff
0e
ec
04
ee
ff
fa
fa
ef
1e
08
01
06
f6
ff
eb
fe
0f
0c
dd
0f
01
01
08
1e
02
08
09
00
ee
03
f8
17
f1
ee
09
07
02
f0
22
fe
d3
2a
ed
f7
1b
11
fc
ff
01
10
1b
fb
e9
fe
01
e2
d4
3b
a6
ff
61
e8
fc
03
0f
0a
ff
f9
3c
f0
e6
ed
db
09
10
a5
f3
f7
21
fc
e7
0b
e4
c4
bb
03
16
e6
23
14
cc
a8
d4
18
fd
0a
12
02
19
ca
ff
05
90
0a
16
81
c1
f6
18
02
02
e2
11
40
f5
ec
0d
fa
06
0c
08
fa
10
06
f3
f0
00
f3
fd
f4
0f
04
fc
0b
e9
10
01
04
f4
00
06
13
03
0b
06
06
0d
01
f2
fe
e1
fa
fd
08
09
f3
ef
07
f8
fc
05
f5
fc
fa
06
17
03
e3
ff
f4
fa
f2
07
02
fb
04
bd
0f
11
03
03
09
04
ff
11
02
fc
09
11
fb
5f
00
2c
05
ec
13
0d
f5
fc
ff
09
0e
06
05
02
fb
03
0e
b8
0a
14
bb
06
00
09
f6
f8
f0
08
1c
e5
f5
f8
fb
fd
07
ff
01
f9
ed
00
13
05
0b
f5
06
09
f7
fa
0d
1a
16
81
30
e9
03
f5
02
26
cf
2f
0e
fb
f8
d2
1d
ff
09
06
df
03
0d
f8
1e
fb
c1
0f
1a
91
f2
f0
f5
9a
0b
11
f0
13
9a
04
f3
14
0b
fd
f0
0d
00
0e
ce
07
03
0b
fa
a5
05
26
fe
e6
f8
fa
f3
1e
f8
10
e3
10
07
1d
12
12
08
12
eb
f4
2d
f9
eb
00
f3
06
ee
1a
06
f0
00
f9
0e
0e
f7
fd
1a
e6
eb
20
fb
fa
ec
fb
f6
fe
fe
f5
01
ee
f4
f8
18
f7
07
08
f2
f2
f8
fc
14
f3
f5
fe
1e
2a
fe
10
f7
f6
d8
f2
f9
00
e5
f5
23
09
24
0e
0e
07
00
fd
e6
1d
ec
1d
02
fa
32
fb
d0
f0
fe
06
ff
18
02
0d
e3
ea
00
17
da
00
01
fa
19
16
f4
08
23
03
ee
02
d9
21
ed
f9
fb
d9
06
fe
0b
1a
ee
e8
06
e9
cf
0f
16
fe
f4
10
13
03
e4
0a
ef
de
02
db
f0
e1
02
c7
21
20
e1
23
d3
f0
0a
11
f2
da
ee
a4
e1
55
f9
02
03
20
1c
3f
f1
44
29
e4
2d
38
1c
ee
e8
19
b8
d8
01
81
b0
da
05
08
0e
fd
02
c8
12
f6
18
49
ec
02
0a
38
11
f6
0c
18
0a
fe
23
e2
0f
25
e7
42
f7
06
03
12
f6
f5
fa
00
02
e1
fb
f4
fd
81
0f
08
fe
f1
f8
1f
02
fe
c6
0d
3c
1c
e2
0d
1a
fb
10
00
e4
f2
15
07
1d
14
39
19
e5
0b
11
fb
35
1a
07
fc
ea
fd
f9
0d
e0
0a
05
01
0a
19
04
df
20
0e
01
02
dc
fd
fd
04
f8
03
00
fb
08
fa
03
fe
02
08
06
01
f6
09
04
02
08
fe
fa
06
07
f8
02
04
fb
08
fb
0e
03
04
ff
fd
ff
01
01
fe
fe
fd
ff
01
03
05
07
02
06
16
fe
02
06
0a
01
fd
f3
fe
f0
00
07
fd
02
fe
f2
fc
f1
06
fd
08
01
01
0b
f7
01
03
02
fb
fe
00
f2
f9
06
04
05
02
f5
01
eb
ff
01
24
04
f2
06
01
f9
05
fd
03
f9
05
ee
fe
04
06
00
0b
f8
05
f1
06
00
fd
05
06
ff
00
08
fd
e1
00
fa
02
05
15
00
08
0a
d9
0c
e7
fd
0e
01
fc
d4
dd
00
0f
f0
05
02
f6
f5
cd
e8
fa
0e
c9
ff
df
fc
0b
db
f3
fa
14
d0
c0
08
01
fc
e9
ec
2c
1b
eb
23
e8
f7
e8
1e
1c
fa
0a
02
d8
f7
03
de
c4
ed
13
f1
7f
32
fa
f7
e6
12
14
53
f6
f4
e1
f7
d9
e1
09
fd
f9
05
f3
dd
16
da
ef
f2
20
e1
15
09
05
ff
ea
11
0e
f7
01
05
fa
f0
0d
0f
1b
13
1f
07
34
03
fe
14
00
ee
0e
e9
ef
fe
fc
26
fc
02
fd
08
fa
05
0a
ef
f5
f4
fe
07
14
12
fc
fa
21
33
0e
00
ef
07
f6
ef
fd
fa
e8
02
13
cf
29
ec
33
f4
08
04
f9
cc
30
06
fa
08
f1
f8
9f
10
fd
40
ea
f4
2d
3d
51
e0
f5
f9
f5
07
e4
c2
fd
c1
12
f7
04
f0
f4
05
08
ec
10
bf
54
0f
04
01
f4
0f
34
f1
f7
11
dd
e8
e6
03
cf
13
05
dc
f8
02
0b
e5
b6
a6
c7
05
17
2e
66
1a
1c
e6
35
e2
d6
08
e6
d5
fd
d9
37
1e
1d
f4
21
fc
1b
23
f3
02
e8
d7
fa
1e
fd
c0
e0
cb
08
ce
e7
22
fb
12
e2
02
33
0d
f8
b0
d1
18
07
ef
19
5b
19
fd
f5
18
ef
f3
f4
eb
18
02
0a
fb
e0
01
f6
0c
ea
e5
00
0e
13
22
e6
fb
10
fe
05
d8
17
f6
2a
ec
f6
e6
01
f2
f4
e4
ed
07
02
f2
1a
e1
fd
23
1e
0d
39
21
0f
0f
04
0b
03
1d
16
01
01
b4
ea
81
e5
fc
09
c1
0b
61
eb
f5
b6
c5
28
9a
52
ec
fb
35
07
04
10
8c
16
ed
07
fe
bd
de
15
d9
1c
fd
e2
04
1a
00
1e
fe
0a
1c
3a
0e
c8
8b
e9
fd
8b
e4
15
fa
d0
10
e5
1b
ee
36
e9
37
f3
0f
2a
05
1a
13
00
02
ff
fc
fe
fd
ed
02
03
fe
05
fd
02
ff
09
02
03
08
fb
fb
02
00
00
fc
07
03
fd
00
05
00
03
07
00
05
01
04
06
fe
09
00
fc
02
fe
00
fc
05
fc
fb
03
08
00
04
01
03
0b
01
f4
05
07
02
ff
08
ff
fa
00
04
0d
03
fd
05
07
f9
03
02
11
f1
0a
07
fc
fd
03
05
0e
ef
fa
f9
03
0d
fd
fe
01
01
ee
f7
00
06
f8
02
f0
02
00
fb
ff
fc
05
fd
fc
03
1f
fc
03
f9
01
fa
f2
06
fe
03
fe
f5
04
05
fa
00
ed
fc
05
f4
00
0c
03
c9
fd
07
ff
f6
05
0d
f0
08
f6
fa
00
00
0d
04
ca
01
01
0c
fd
f6
fd
38
0f
fc
07
05
2a
09
00
fa
f9
fa
19
02
01
00
63
1a
fd
05
03
f5
ff
fc
fa
05
ff
fc
ff
ff
81
fa
f0
10
01
04
87
d2
ee
05
e0
ff
0f
05
d7
05
db
d6
30
f4
14
8e
f3
89
e6
e3
24
b6
c4
09
2a
a2
17
f5
c9
d7
26
12
3d
da
dd
e9
11
2d
15
2d
0e
eb
e7
23
27
e0
2d
e0
dd
d8
50
e8
dd
ee
0b
b1
dd
fd
ed
7f
ef
25
fb
fd
fa
f1
2c
e3
f8
05
fc
e7
1c
00
02
06
fd
f9
09
e5
fa
ea
f7
e0
03
e7
fb
fc
e7
06
06
02
10
09
0d
0e
be
fe
10
2f
e3
01
16
3b
09
03
f6
fe
ea
05
03
12
fd
09
ff
f7
26
fd
0c
00
ff
16
e5
ee
e9
ea
10
01
01
f9
fd
f8
f8
18
0f
01
ed
08
ef
ff
14
fc
f9
01
10
e6
fb
9c
c1
ee
f9
fc
fc
02
f1
ed
11
f6
53
09
11
e7
04
bd
15
fd
f7
e9
13
0a
09
02
f3
08
10
17
0a
15
12
ff
f5
07
14
37
07
0c
11
d0
11
e8
fd
03
ef
f5
15
0e
0b
ff
07
05
11
f4
06
08
f4
07
00
0c
fd
fd
15
f7
ff
04
fc
03
12
e9
0b
02
f1
f4
ef
f1
05
f7
da
05
12
fe
07
f8
f2
02
fd
f8
0a
02
06
09
06
e5
20
12
fc
03
06
0e
09
fc
0b
f4
f0
e4
fc
f6
f9
f8
f2
0e
fe
f6
f4
f7
fe
02
ee
06
e7
fa
09
08
11
08
0a
f6
03
f1
2e
14
00
06
e5
0b
fb
0a
05
ef
fc
fa
01
fb
f7
ed
09
15
f2
14
02
0b
f9
ff
f6
04
0e
de
01
f1
f5
f6
fd
06
08
41
14
ed
02
f6
e8
ec
f1
fe
03
16
f9
0e
09
fb
f9
00
94
ec
17
fa
04
05
04
fc
0a
be
41
f9
04
fc
5c
f7
fe
06
62
f9
25
1a
fe
12
fa
1f
04
0a
f3
07
f5
05
08
81
f9
f2
06
e9
08
0a
ed
f8
06
f4
05
bf
0b
fc
07
34
0d
db
01
fb
05
f6
14
f9
0e
34
2e
05
02
0c
37
db
38
fe
08
32
eb
e3
06
ff
33
11
ff
ec
bd
35
2d
ce
f9
ca
03
38
0e
ba
8e
05
d7
1f
df
f4
b6
24
ab
1c
d6
1c
95
df
49
20
e5
56
f6
d4
da
fa
dc
2a
d1
10
da
1d
81
f6
2a
1e
a3
cf
01
fc
f8
ec
ed
0a
10
1e
01
ff
05
f8
0a
ed
f5
0d
11
e1
fb
10
00
27
e1
fd
f0
26
1b
0a
1d
01
13
35
0a
e9
27
14
13
de
2e
ef
f1
16
f5
f5
e3
fe
fd
40
2a
ff
f9
33
27
fa
0d
b0
06
ec
00
fb
f2
00
e9
ee
df
f4
10
eb
04
f1
f1
14
01
1d
00
f6
26
13
34
cf
f7
04
08
0c
12
f9
06
bc
1e
1a
47
00
da
ee
fd
f9
fc
05
0f
e1
1e
fd
03
14
13
f2
21
f1
09
dd
fb
ef
ff
0a
05
29
07
06
e6
df
fe
d3
0e
16
27
12
00
ef
0b
ff
1b
06
07
08
f2
ea
ee
09
12
07
0c
12
26
e3
11
f9
e8
00
81
fe
0e
0e
df
10
fc
f0
0a
2b
0b
d8
03
10
09
0b
01
10
10
04
ff
e3
f8
10
fc
ed
1f
e4
f5
1e
2f
17
18
10
0e
e0
53
1c
0d
f8
f3
26
f5
f2
ef
07
e2
fc
fb
10
fe
ef
1b
fa
00
fb
05
fe
e9
18
fd
fd
fd
1d
03
05
10
ff
27
10
0b
fe
e6
fc
f8
0d
09
0b
05
15
1e
0f
24
11
10
1a
ed
10
ff
f9
0b
c8
ee
fa
f1
06
e0
e3
eb
f4
29
f5
10
ee
fb
f6
f9
d9
07
18
06
ea
e8
11
09
25
ed
02
ec
22
03
99
cf
07
48
2f
00
f8
ff
a1
59
6c
00
f1
b7
05
86
1f
ed
4b
bb
ff
22
10
42
c8
0d
ec
01
fd
d0
94
01
c6
09
f8
ec
32
ee
c9
14
f5
10
0c
55
fa
60
01
d1
08
2f
ee
21
07
f3
1c
f1
df
2e
eb
fc
e8
06
10
06
0e
d5
1a
ee
15
0c
1d
db
f7
f9
10
00
0a
e9
f2
f7
1f
e0
0d
06
f3
16
10
f2
11
00
18
05
fc
06
03
04
0e
02
e9
f5
f9
19
03
f9
f3
ff
e0
ab
00
f4
f9
0c
26
11
3a
16
ff
01
09
0a
ef
0a
fd
0b
0e
15
fa
eb
00
09
16
0d
fd
20
c5
f0
03
10
13
18
fc
19
10
f3
ee
19
fc
ee
11
7f
01
1f
f8
17
fd
0c
fe
0b
04
8d
0f
e4
ef
1a
03
81
11
10
f0
03
f6
0b
1e
fa
08
cd
08
fe
f1
e4
c7
16
bb
05
0b
0f
06
0e
de
c4
fc
01
e0
fb
02
0c
12
9b
e9
0a
02
13
1f
0d
8f
0d
15
03
2e
be
04
e5
f0
17
ee
0b
fa
0e
0a
b9
ac
07
e4
2e
f8
2e
0b
29
f8
05
0b
1f
93
14
f6
e3
25
b6
d3
f0
d0
e0
1d
d7
ec
fe
da
f6
fe
d8
06
14
3e
1c
1d
fb
fd
ff
b9
db
eb
f7
14
23
f7
27
ee
e8
fc
fd
f9
02
cc
dc
ce
0d
fe
0b
08
0a
05
f7
ff
02
1a
ef
0b
df
04
08
01
fb
0b
08
0c
e8
f5
07
0d
7f
02
05
e9
ce
08
10
df
09
f2
ef
03
f9
df
d5
fb
05
fe
cd
0b
ef
0c
d9
f7
fe
0e
e9
fa
ee
f5
17
06
08
13
f7
fc
0b
e5
05
00
0c
05
f6
0d
1b
0c
01
fc
e4
f9
16
0a
f6
17
fb
2a
f8
00
d7
06
0b
f8
c9
e7
fa
ed
1c
14
f8
03
11
d0
f3
e1
f7
0f
09
f7
07
f7
0e
10
d4
ff
25
e9
23
e8
03
02
0a
0d
07
b5
13
b8
04
ff
5e
10
e8
eb
04
f5
fa
19
dc
f4
12
e5
0c
0f
f8
fd
0a
c3
01
f2
f1
03
04
f1
0b
3d
f0
f9
06
d4
eb
11
e2
19
0c
f7
15
0a
02
09
0f
02
06
fd
07
e2
14
03
f7
0d
16
07
fe
f5
18
f9
e0
26
fa
ec
04
fe
e3
0b
1f
21
81
d8
ff
09
39
ec
17
1b
27
ea
10
11
fc
19
10
06
fc
ee
e9
fd
09
00
fc
04
16
d2
f7
f0
0d
0a
fe
11
0b
09
04
f8
fe
02
05
01
0a
05
01
07
03
04
07
04
fc
0c
0a
f4
03
0d
00
02
ff
03
04
ff
03
07
02
09
fd
fe
04
04
f8
00
05
fa
f7
01
08
03
f3
fd
fc
04
07
0b
04
05
07
08
06
05
07
fc
fc
f1
01
fe
fb
f7
06
01
02
f6
f0
ec
03
fa
00
fd
fd
fe
fe
01
02
fe
05
fd
09
ef
fa
fc
00
ff
02
fb
05
d9
04
01
1a
05
f0
fd
05
f9
00
00
01
fc
04
fa
00
03
03
fe
0a
f9
05
f2
01
04
fc
07
0c
0f
06
03
fb
e3
03
fc
05
ff
11
05
02
02
06
09
0b
cb
03
23
f3
f3
16
02
02
ec
04
11
f9
f1
04
1f
f9
f3
04
08
09
fc
10
f0
f6
00
00
e9
de
f4
10
0b
0e
00
05
0b
f6
0d
0c
0e
fd
01
04
28
20
1a
14
11
01
f9
0c
06
0b
e5
ee
12
01
08
01
fb
13
ed
14
11
16
f9
0c
f6
fc
d3
f8
26
ee
1b
ea
e5
08
13
e8
f3
df
eb
01
09
01
e7
15
f7
d4
0e
ea
09
ef
00
00
eb
f0
f5
d6
db
11
fb
0e
ea
d5
0a
06
f1
12
08
f7
ec
00
00
01
04
fc
e5
f6
11
07
04
18
13
ec
0b
03
42
c6
15
fd
f3
19
12
fd
f8
d2
fa
23
f6
e1
f2
dc
1d
d7
fc
e3
d3
bb
1a
13
ed
4a
14
cd
fe
ee
10
fe
01
2a
48
fc
d7
0a
00
44
04
0c
81
ed
d0
95
16
0a
e6
c6
05
13
fe
fd
1d
c3
f3
28
fe
31
29
0a
f8
00
0b
17
b1
ec
f0
20
08
1b
e6
db
17
02
e2
0f
b7
fd
2e
f7
cd
f3
07
1d
e8
23
fe
0f
04
fc
05
0f
20
fc
08
e5
03
ed
f5
fb
e4
1c
15
ef
17
2c
c6
12
ec
fd
00
09
d7
38
12
f1
21
e0
2b
ff
27
07
ee
e1
07
02
1b
12
0a
eb
3a
be
18
3d
19
01
07
1e
e7
0e
e8
fd
e8
3b
fc
f5
0f
16
e6
f0
f4
29
1d
e2
0a
fa
0c
f0
fb
1b
05
d7
e2
01
cf
db
f7
15
00
f0
fd
de
04
ff
ee
0a
f9
13
e6
15
fa
03
18
dd
e8
e5
1b
fa
22
0a
28
34
11
df
1f
1a
f0
3e
f4
f0
e5
fb
9d
fd
52
3e
32
f1
e4
d1
9f
1d
00
ea
ea
f5
0b
d2
57
07
05
f2
de
cf
7a
bd
2d
21
36
fc
09
00
00
1f
f4
50
e9
02
18
ff
16
f1
f2
ff
31
14
81
0c
ef
ec
04
c9
fb
01
fb
00
07
03
03
fc
02
fd
fc
07
fb
f5
ff
0a
f9
02
fd
05
04
03
05
01
03
fb
fc
02
fb
03
ff
ee
fc
03
02
06
fa
01
fa
fc
fe
03
08
02
01
fe
06
07
03
00
fb
04
05
0c
f8
0f
f9
e9
01
04
00
ff
fd
fa
0c
ff
03
fe
f7
02
f1
12
05
d5
03
fb
01
f3
0a
0b
09
05
ff
07
07
f9
fb
fe
0c
e5
02
04
81
01
03
04
01
08
e5
04
0c
fc
fd
fb
f5
fb
01
fb
09
09
0c
fc
f1
f6
02
03
fe
07
f1
01
fd
04
fa
52
fb
08
07
f4
f8
f8
03
0c
ff
fb
04
2b
03
0d
03
05
fa
fc
fe
03
d7
fc
e9
06
06
04
fd
f5
f4
eb
01
1f
00
ff
4d
01
f4
04
02
fe
fa
05
04
05
2c
03
ff
03
f7
ad
07
05
00
f7
f8
03
1a
05
fe
03
01
0e
f0
09
04
0b
fe
0e
f9
f3
06
f6
0c
23
fa
1c
fb
0a
02
f7
01
04
fb
07
e4
ff
0f
f2
f9
07
f7
12
01
00
02
07
02
01
f9
03
04
f9
0a
f4
07
fb
f6
fe
fa
04
04
05
ff
f9
00
00
e8
05
fc
fc
f7
f8
06
f9
f7
e1
0a
05
19
0e
f6
fc
f6
f5
17
0d
fd
05
f5
06
db
0e
16
fb
fa
14
f4
2c
f6
eb
ef
ff
f0
eb
f4
f6
0d
f6
02
f8
f9
f6
21
f8
16
f8
09
05
08
eb
f2
fc
02
ef
fe
ed
11
f3
fa
ea
fa
02
fe
f8
00
fb
08
13
f1
09
09
f7
00
f5
0e
f7
fb
01
01
d8
ee
eb
17
06
49
e4
23
14
34
00
ff
ee
11
dc
ee
0a
02
fe
e1
a8
cd
f9
ee
3b
07
25
f9
fd
1d
ea
f5
1b
ea
e1
29
f5
05
e8
f9
1a
e5
fa
17
b5
13
fc
f6
db
f9
32
fd
fe
f2
fc
fb
df
04
fe
09
81
0d
f8
fe
00
fd
fc
08
05
06
02
0e
ff
03
fd
fd
fd
f5
00
04
02
00
03
02
f9
03
fd
ff
07
02
fd
04
04
00
fc
fd
06
03
03
fe
02
06
04
05
02
fd
fe
07
0c
f7
07
fa
ff
01
03
0c
fd
ff
dc
00
fe
01
00
01
ff
04
fc
11
0d
fd
fd
03
01
19
f5
f8
00
f4
fa
fe
06
ff
09
fd
fc
04
02
f8
08
03
01
19
03
fa
f9
f6
01
ff
f3
0e
f5
02
14
fd
01
02
07
00
f7
0e
04
f9
fd
fe
05
ce
f9
08
27
02
00
09
00
f8
09
08
04
07
01
09
7f
fe
3f
04
e9
fd
00
06
fd
02
f6
f9
fc
fc
fb
f8
fe
07
ff
d4
07
fa
02
fc
03
09
0a
bf
04
fd
00
04
fb
03
fe
f6
fc
06
03
01
04
07
02
fa
08
fb
d0
05
fd
ff
42
06
ff
05
fb
03
f6
01
f9
e8
0e
05
0a
fb
fc
02
0d
e6
13
ff
d6
06
05
07
fe
fd
16
ff
f9
e3
08
fd
07
f7
22
ec
e5
03
ed
0e
02
1d
0e
fb
11
ef
f2
ea
16
01
31
03
16
f0
07
fa
f6
0b
f5
1c
dd
03
e8
14
12
07
f7
f7
1e
10
e3
f5
f2
13
fc
f1
0a
fe
08
02
05
d9
17
de
f4
fa
f6
e2
09
0c
dc
08
0c
03
ec
fd
e0
24
f4
0e
20
1e
fb
06
f5
f6
f9
f0
f9
16
f9
eb
eb
18
0a
13
f3
02
f4
0d
0a
07
ea
01
10
f3
00
e6
fb
05
03
f9
2c
0c
02
18
d9
01
00
f5
11
f5
ff
ad
ec
13
e9
f1
05
ff
28
fd
81
eb
fb
af
1a
fb
ff
02
d9
f8
f8
d5
e1
fa
ed
ef
12
f3
2b
03
1e
0a
0c
21
ea
d4
e6
1e
02
07
04
31
0e
06
01
03
ea
ec
16
f6
ef
df
da
4b
2f
3e
f7
ed
65
00
a1
15
e4
14
e5
d9
3e
fc
ef
ff
23
9d
27
11
48
f3
1a
91
ca
fd
81
e7
27
eb
f1
05
e8
5b
e7
2b
0e
c9
06
b4
33
0b
0b
31
ef
1d
13
2c
4a
3a
09
1b
1a
30
34
f2
01
05
48
f6
d7
e2
0a
f1
07
10
0c
f4
27
e2
ff
d2
95
2b
ff
f3
fb
fb
fa
e9
05
13
04
03
0c
01
f0
f6
00
f1
00
17
f8
ff
00
f6
f3
fc
05
06
0a
04
03
fc
02
05
fd
02
02
e5
fd
ef
0c
f1
fe
ec
04
f8
0d
04
f8
0e
04
19
04
e8
05
09
f5
02
f0
0d
15
09
09
01
f4
de
f6
fe
09
fd
0a
fd
07
05
00
fe
01
fb
f6
f4
f7
ef
f6
0b
09
fc
0d
e7
07
cf
04
07
21
03
f2
0d
08
f7
15
fe
01
f8
f4
f0
03
05
09
01
0b
e3
0c
ec
16
0b
f9
0e
0b
fd
fe
05
ff
e4
fe
01
07
05
21
07
09
fa
fa
03
02
06
10
02
f7
01
02
04
02
05
02
04
05
00
f9
03
00
fa
0b
fe
05
fd
fd
02
01
05
fe
f9
00
f9
fe
00
fe
f6
fc
01
08
02
06
00
fb
00
00
fd
f7
0c
fd
0a
00
f7
00
fc
00
07
1c
01
0c
02
f6
fd
fe
06
04
fe
f9
00
ff
08
05
0a
fc
0a
fd
02
f5
0a
06
0a
f5
fa
06
00
fa
f4
f8
04
ff
fa
fd
02
f9
fb
d7
0a
ff
fd
ff
f7
0d
00
f6
fb
fd
06
01
f9
f6
fd
02
10
fc
08
fc
01
03
09
ff
0b
f5
17
00
04
04
ff
0b
ee
03
06
06
0c
e8
89
fc
14
b9
6a
07
20
01
f3
10
fe
ff
f4
fc
04
04
fe
d8
ea
03
fc
0b
ff
07
03
02
0d
a1
b5
0d
e9
f7
03
02
04
fb
05
81
f8
08
01
08
b9
fc
08
ff
fe
65
fe
ff
04
08
f8
f8
02
ff
04
e8
24
08
06
ff
0c
0b
fa
fb
01
02
05
05
fb
00
09
0b
fb
02
0c
f8
ff
fd
0c
ff
07
03
02
04
ff
07
0a
04
15
fe
00
f7
04
01
01
0a
fd
0b
fc
04
07
00
02
f4
05
05
fe
fe
01
04
00
fe
fb
e2
04
fa
00
01
fb
00
ff
5c
fd
f6
01
0c
04
05
f8
01
06
f5
07
fd
f9
ff
ff
16
fc
fa
f7
0e
ee
f6
00
04
bc
b7
03
f8
fd
fc
03
1a
00
0a
0b
f0
00
ef
ff
fa
00
09
54
ff
05
15
fa
fc
02
fd
f9
cc
fb
03
f4
01
05
fc
fe
f1
02
f7
f0
1d
f0
d3
02
e9
06
fb
0e
06
05
fe
05
2d
08
ff
f6
03
0f
03
81
05
03
02
1a
00
fe
0c
94
f3
00
01
f8
06
ff
e7
07
ff
ac
62
fa
01
00
02
08
00
e8
ca
04
ec
fa
4c
06
02
ff
fb
f0
f7
f4
08
7c
0a
02
01
fd
15
28
06
0e
e7
fa
f5
06
08
09
0c
01
12
ff
05
00
03
1d
0a
03
00
ef
fd
08
02
08
f3
fd
05
f5
f8
f1
fd
0d
13
08
f9
12
08
fc
ff
05
08
04
f8
26
16
f2
02
04
1f
07
11
00
06
fc
0e
06
08
0c
f2
04
ff
ea
09
05
f8
08
f2
02
07
e2
25
19
03
e3
f6
15
fd
0e
f2
17
34
fc
21
ec
0d
1a
12
ff
b5
27
eb
22
0c
02
ef
13
12
04
e7
de
07
15
ed
f0
12
ea
f8
fc
18
0e
f4
01
06
00
d1
01
13
09
f2
21
1b
fc
ed
0d
fe
e6
06
16
9a
15
ca
f8
0a
2b
f0
0a
19
16
e5
09
ee
e3
c9
f7
12
d6
1c
0e
11
d6
13
2f
e7
f6
bd
f4
19
43
cf
fe
7f
ef
fb
db
cd
1f
01
00
e0
c3
fa
d0
85
f1
ee
c9
97
e5
11
f9
06
4a
fe
2f
16
d8
05
1a
0b
c5
02
ee
03
18
fe
0e
05
04
01
ff
f6
00
04
ff
05
03
09
0a
00
f4
ec
fe
00
04
fe
04
0d
02
fb
0a
03
02
ff
00
fa
ff
08
01
f9
fb
07
04
05
fe
03
ff
0c
f8
02
d7
03
04
03
06
f1
f7
da
06
05
ff
fb
fc
05
03
0b
0a
f8
ef
e7
01
06
02
07
0b
fa
08
02
03
06
0f
04
f3
09
fb
04
f8
fd
14
04
0b
0c
05
fd
0a
0a
fc
fc
05
01
06
0a
05
0c
fa
f5
f3
0c
fe
04
02
02
0b
02
ff
ef
f1
04
f4
fb
ec
11
fc
0b
f7
f5
08
e0
05
f5
e4
f7
01
f4
f4
ea
81
03
8f
ed
db
ed
fc
25
02
f7
9e
04
f6
04
ff
df
fe
f9
06
0d
f5
ff
01
06
04
52
ca
0e
18
fd
00
fb
fe
d2
0c
14
dd
03
06
05
c2
fc
15
02
07
8c
0b
fb
e3
fc
0a
f5
09
10
e2
f8
f7
ff
fb
04
fd
f8
08
0f
04
00
09
04
ff
03
f7
f7
f6
03
ff
fb
00
fd
f9
02
07
fe
fb
08
fb
fd
06
03
fb
02
fd
01
0a
fa
f8
07
f0
01
00
f6
f9
06
06
05
fd
08
02
01
06
00
0a
02
08
f0
02
fc
02
01
00
f7
09
ed
02
02
0e
01
f1
03
ee
f9
01
f3
f1
f8
f8
10
fe
f6
fc
05
03
02
f7
03
00
fe
db
e6
fa
f7
01
f7
03
f9
0b
00
03
0b
04
fd
0d
fc
03
f4
ff
fd
00
ea
fb
fa
0e
f9
05
ed
15
ff
f4
03
f9
0b
01
f9
f5
ff
0a
37
03
97
02
bc
fc
fa
03
fe
00
e9
04
09
eb
f9
da
fe
0e
fc
1b
18
fd
fe
f0
07
06
00
08
05
ec
02
01
f7
00
15
f2
fe
23
7f
07
0b
07
00
f0
fc
ef
69
05
da
19
2c
f8
02
0b
0a
07
ed
f8
fe
fa
ff
05
04
fe
81
02
ef
ff
fc
02
0b
06
26
05
d4
de
2e
0b
00
ed
00
07
dc
38
f4
1d
0a
18
0f
24
1c
ce
27
0c
fe
fe
0d
25
06
04
e9
10
be
03
f4
11
d7
1b
10
0b
07
ee
e9
fb
32
d9
28
ca
ed
10
20
dc
0b
e8
09
09
e8
f9
fe
07
02
fc
ff
0b
05
00
ff
04
fc
f8
07
14
05
ef
07
ff
0c
0a
06
f8
0a
02
f8
03
07
00
ff
fa
03
14
fa
03
07
07
ff
05
fa
07
f8
02
fd
03
fb
0d
fd
0d
18
fb
ff
00
ff
0e
fb
fc
fe
f9
fc
f2
06
0a
fc
fc
eb
f4
04
f5
02
fd
ff
02
f3
02
02
fc
fd
0a
01
ec
f8
ff
02
fe
02
f7
06
da
03
08
27
08
e8
fd
01
f7
07
fb
0b
f9
03
f4
f6
03
08
fe
14
01
09
ec
0b
01
f4
09
10
08
08
11
01
e0
fd
ec
fb
00
19
04
06
08
02
03
05
f1
fd
fe
e3
ed
01
0a
08
ff
02
06
ef
f8
11
fa
02
08
06
09
fc
06
f8
f9
01
fc
0f
04
07
00
00
fd
03
03
fd
02
01
fc
fb
fd
fc
06
06
10
07
fc
fb
fd
fa
00
f8
04
01
02
ef
f5
05
f8
02
04
01
fa
07
fe
08
f8
06
01
fb
03
fe
03
1a
f5
e3
0a
f2
05
fb
06
fc
00
ff
fd
0f
ff
03
0a
05
01
05
fb
0a
0a
fb
00
fc
08
01
03
00
05
00
0a
fe
fe
e7
fd
fd
fb
fe
ff
fe
0f
0f
f7
00
12
02
fd
f5
0a
ff
f5
fa
f7
ed
03
07
f9
08
05
0a
f9
0a
fd
a1
01
eb
c2
f7
fe
16
07
f5
ed
f7
e8
07
f2
fd
00
fe
0d
f5
07
ef
0e
fa
02
03
f4
16
f9
09
07
f3
fc
ff
e7
08
fa
0c
04
03
0e
09
fb
07
de
f1
12
06
fc
23
04
81
fe
f7
0d
0c
f5
ba
0c
e5
08
f2
dc
fd
06
0a
d1
fe
29
25
ec
0f
be
22
15
ff
be
00
1c
f4
2a
13
0d
21
36
e9
f6
29
1c
81
fa
f1
0b
e4
59
0d
41
08
ac
05
23
13
e8
da
f5
03
f0
e0
00
fc
26
1b
15
f3
ff
0f
f3
d5
01
f7
f7
03
ff
f0
f3
07
09
00
fe
ff
0b
05
02
0a
fc
ef
fe
ff
fd
ff
08
12
ea
f8
13
08
02
fc
0f
fc
1c
fa
06
06
0c
08
03
08
fd
14
fe
01
05
09
fc
f1
13
00
f3
00
05
ff
f9
fa
09
f9
fc
f5
f9
02
f5
07
01
f5
ff
0e
fc
f5
08
01
14
f8
ff
04
06
f7
f6
fe
e7
fd
06
02
06
02
ef
01
dc
04
06
26
06
e8
10
07
01
08
01
06
ed
fe
f0
fb
00
07
00
0e
f4
08
e0
17
03
fe
13
0e
04
04
03
fd
d4
f8
e9
00
fe
1f
ff
fb
04
22
dd
0a
f0
fd
ef
09
1a
da
0b
25
34
08
1f
02
fd
ca
ee
1f
9f
07
4e
77
30
06
1b
23
12
23
21
11
1c
18
81
19
07
f8
f9
24
41
8d
c1
9c
f0
2f
19
0a
d7
9e
fa
0a
f3
f4
d0
ef
e9
0c
14
3a
e4
2a
c9
33
f9
05
09
22
ed
f4
07
04
07
f2
f8
e1
0b
0a
11
01
08
fc
ff
ee
03
f7
fc
0a
ed
fa
00
0b
ea
05
f5
0d
e4
fa
fd
19
00
00
00
01
02
d7
01
00
09
19
fb
f6
1a
0d
10
fa
f2
12
f6
08
f4
fc
0d
04
07
03
fa
fd
f0
eb
f5
08
f6
05
05
ff
11
03
09
0b
00
e4
ee
fe
da
ef
01
03
09
0b
e5
f3
c8
0d
06
20
0c
ea
13
0d
ed
ff
04
02
f9
f0
f1
07
fe
05
fb
08
d8
0d
e5
0c
f8
fa
0e
0d
0e
07
0c
ff
cd
f4
f5
0f
0e
20
03
f4
02
04
f6
04
24
ff
0c
02
0f
fd
f0
02
f5
fa
f8
01
ff
fc
fe
0a
fa
f1
0b
03
00
fa
07
00
fd
03
08
ff
f7
05
f7
fe
01
01
08
f7
07
02
07
07
01
fa
fe
f6
fa
06
cd
07
ff
0d
03
e6
09
e5
02
fc
ff
03
05
07
f0
00
04
fb
fc
05
04
06
07
0d
00
0a
f1
e9
08
ff
05
10
f9
03
0a
ff
fb
f9
02
16
0b
0e
0c
ff
08
01
ee
fd
05
00
f8
00
07
10
f9
19
fb
ff
08
00
02
05
02
fd
0a
0b
fa
05
f5
fc
f1
09
0f
15
05
f2
0a
01
f6
ec
f6
03
fe
fa
00
fc
ff
fd
e6
f8
03
f7
0c
fc
03
eb
05
ff
f0
00
e8
f3
07
00
a7
08
05
f4
0f
e2
f1
fe
f2
00
01
10
fb
03
fe
c2
c3
07
fa
0b
f5
06
0a
0d
fa
0a
00
0f
8d
f8
d8
07
1b
81
e0
15
dd
ff
03
fa
01
00
10
ff
0f
f4
ff
06
f8
02
03
04
01
06
05
06
02
0c
02
01
0a
04
03
03
03
01
02
00
09
0f
13
fd
fb
04
05
04
05
fd
0a
09
0c
fe
ff
03
03
f1
0c
04
13
00
fa
00
02
02
04
f2
f7
00
f8
fa
fd
03
f8
fd
f9
f1
f6
01
0b
f8
00
fe
0c
fe
fa
0a
0b
f7
fb
04
f1
00
fb
ec
e9
ff
ef
0b
03
09
fe
fb
fa
51
f3
14
08
05
fd
ff
00
81
f6
fb
05
fe
fa
fd
f8
06
fb
03
f5
05
ff
05
04
f9
02
05
27
05
f9
07
07
23
ff
fd
06
02
fa
02
a6
ff
03
fe
f2
03
27
fb
00
16
f7
f5
fe
02
fc
00
fc
fb
f3
fd
04
05
fb
f1
fd
01
fd
12
db
0b
0c
05
01
fc
03
f1
f3
cf
ee
ff
00
03
d0
02
02
06
09
e9
ff
ff
ea
01
03
f9
fd
0e
02
ff
2b
05
09
f6
f2
0d
1e
fe
ff
01
29
fa
04
04
0c
e4
14
00
10
ec
0d
f5
12
fa
06
02
09
04
00
ea
11
f9
2d
f4
0e
f9
fd
f0
05
f7
fa
01
fc
10
fc
03
05
26
f5
fe
f8
f7
fd
02
13
13
f5
d9
f0
01
fc
01
f8
14
ef
92
f8
14
17
f9
00
01
2b
05
14
ed
f9
07
01
f9
13
f7
0a
ed
f4
05
ff
10
09
11
3c
fe
02
10
f5
ef
f9
f1
f8
20
21
12
fa
0f
ee
f5
fe
db
1f
12
f7
f3
26
17
be
14
0e
81
04
06
fd
19
08
08
19
fc
01
fa
04
1c
d6
c4
fb
4c
fc
0b
14
01
ff
fb
f9
28
00
00
0a
04
1d
f8
b6
e9
ef
00
e5
ff
f9
0e
c1
f4
03
f9
03
04
fe
03
25
fd
e1
cf
f1
14
00
0c
e9
06
1c
10
fc
b2
cb
bd
f1
f0
00
f0
09
12
ff
03
eb
01
09
02
ff
1d
01
f0
03
e7
fa
12
07
13
04
f1
f9
f2
10
09
ec
05
08
04
38
e8
06
d5
16
f0
f2
49
0e
30
f7
ea
18
25
17
4c
04
14
02
d6
e2
fd
f4
16
cb
ea
ef
e1
0c
d7
fb
a9
11
13
1f
f5
00
17
06
10
20
81
eb
e8
31
fe
fc
f7
ef
02
01
09
09
02
ff
02
07
f7
0a
06
fc
00
fe
f4
00
03
fc
fc
03
11
09
06
09
fb
fa
0a
0a
00
fd
06
f5
0a
01
02
02
f3
0c
fd
06
02
02
f6
0d
14
06
fd
07
0f
fd
f4
eb
f1
f4
02
0d
f3
ff
00
fd
f6
f2
0a
fe
06
02
07
05
06
ff
0f
ff
fc
01
07
ed
f5
02
01
06
08
f4
01
dc
04
04
2b
05
ee
0b
05
f5
03
f7
03
fa
01
f7
03
09
02
02
11
f4
09
ec
0b
ff
f5
07
09
0b
03
07
05
db
fd
fd
ff
02
16
09
05
07
09
09
09
fa
f1
07
06
07
ee
05
fa
f8
00
04
0d
ef
0e
04
f6
06
fb
05
ff
0f
f5
09
02
fc
04
12
01
06
05
01
00
f2
f1
01
12
00
0a
ff
08
f9
f9
05
12
f4
ff
06
06
0c
11
00
f6
ec
fa
03
fd
0f
11
08
f1
d7
fc
09
f7
06
00
01
f5
02
04
16
05
f6
10
f4
f1
04
04
07
07
08
0f
02
15
fc
01
04
07
fd
01
fc
04
f5
13
fd
ff
fc
f5
00
00
12
e6
ff
eb
03
09
02
02
e8
26
0b
0c
fa
03
f8
fb
10
01
06
03
f8
0d
0c
0c
f7
02
cb
04
fe
01
e6
f8
f3
f1
0c
10
d9
09
ee
19
fa
b7
f0
09
08
13
04
81
ff
04
fc
ef
05
dd
e5
fc
f4
09
05
0f
b2
06
fd
fa
00
01
09
05
f4
f2
2e
01
07
07
0e
06
f1
dd
f2
ff
fa
14
0d
0d
03
06
05
d1
12
06
05
01
f8
fe
fd
05
fd
02
fe
06
00
02
fe
01
00
01
11
fe
fe
00
01
04
03
03
05
ff
f7
03
02
01
03
06
fb
fc
00
03
fb
01
ff
01
fc
01
fc
00
03
fc
01
05
01
06
02
fe
fe
10
fa
e3
0d
03
09
03
04
fe
00
0d
06
09
f6
ff
03
0a
07
fd
00
ee
04
fe
01
fe
05
fe
ff
04
2d
fd
04
14
05
08
03
03
04
fc
03
04
10
fa
0a
fc
0d
fb
fe
ff
f9
12
03
0b
04
fc
00
01
08
fb
08
ee
01
01
fa
f2
fa
07
03
00
06
f2
00
0a
f2
fd
03
03
7f
ff
02
02
09
06
fd
ef
fc
fb
09
0b
ff
07
04
56
fb
05
00
09
fa
fc
8e
0f
06
08
05
5e
09
f9
00
07
fa
08
03
03
04
36
d0
01
f6
06
fb
09
03
0a
01
04
00
07
86
bc
ff
ef
14
f3
fc
fa
9d
ed
04
ec
f4
07
46
1a
a1
fd
fe
ff
08
04
f7
fa
f9
fd
e7
10
0f
fb
fe
0b
06
16
13
f1
05
07
01
f4
07
f1
ea
02
f8
fb
f5
01
f2
01
f4
07
0f
04
e8
01
0a
fb
f7
07
2a
fc
ff
06
16
fe
05
ee
f8
07
04
03
fc
02
fc
f9
ec
08
ff
ee
09
f9
13
f5
e4
fa
f3
01
0e
ef
15
10
f9
18
f4
12
4f
00
01
02
fe
02
f5
fe
24
8c
e1
e3
f7
03
11
15
f4
92
1a
fd
0c
03
11
01
05
03
23
02
ef
fe
dd
f4
06
f6
18
f9
14
ff
08
fb
db
24
0a
fa
fa
fe
f8
fd
56
05
0b
a1
73
1e
81
f8
f5
f2
ee
fc
fd
fe
0a
0d
f7
02
f5
fb
fb
2d
05
fb
f8
ff
02
02
e4
06
04
fc
01
02
03
fb
fb
a3
02
ff
f3
fd
07
00
03
04
02
7d
f6
fe
eb
01
f8
e0
01
0e
0c
fc
76
09
31
f3
fb
54
ef
f1
1b
24
fb
ee
e6
f8
10
32
81
ee
f5
d4
ce
b1
38
00
1f
d6
06
f9
10
2c
c5
14
f2
20
da
22
0f
17
3f
24
12
43
19
0c
07
ea
11
f5
bb
0e
ea
3f
1f
15
e3
30
ab
3d
06
ea
16
d2
ea
f5
ed
df
f7
e5
f2
dc
eb
28
1f
d9
21
de
f4
0f
e6
16
12
01
05
e7
e0
03
f6
04
4e
00
fe
4c
e8
02
02
05
3a
44
1b
4c
0a
41
0b
0f
00
f6
db
28
10
15
db
fe
17
0d
26
13
18
ff
0b
20
c2
17
04
d9
40
f5
13
1e
a7
14
cd
04
04
f8
16
e9
22
d2
ed
f7
e7
c7
c4
ec
f5
d6
e1
e9
0a
c5
d0
07
2c
18
da
5c
e7
ec
ff
0f
fc
fa
ef
18
03
e5
f3
d8
e2
0f
ff
00
ad
0c
ff
0b
04
cd
eb
f7
fa
f7
05
01
45
0c
ef
11
1a
26
ef
20
24
22
16
ed
f6
2e
11
d3
00
d7
20
05
e0
ff
18
f0
06
f9
21
fc
17
e3
04
07
08
04
03
d8
f9
f2
0d
d2
11
fd
0a
16
12
ee
f9
16
12
04
d1
2a
24
04
fe
ef
fc
fb
e1
0e
25
17
02
17
d8
9f
fa
0f
08
22
13
f5
df
ff
07
04
4f
15
ee
d3
fb
06
ef
41
c8
fb
16
e4
e8
02
fe
0a
03
0b
0e
29
f3
ef
0c
f6
07
f9
10
01
0f
ee
02
ca
fe
f6
02
19
fb
db
e0
09
e7
f3
fa
0a
06
3f
fe
00
34
fd
02
1b
00
d2
01
04
d0
ec
de
25
fd
fb
af
f1
f0
0b
e5
13
ac
1e
e6
b7
02
56
e7
67
24
39
12
ca
d9
d2
fe
f2
27
f3
cd
81
11
2a
fa
ea
ed
e0
f3
a8
f7
44
f7
1d
03
05
ff
d8
08
ec
22
d4
e9
ff
cb
f5
eb
fb
f9
b4
ef
da
44
c9
0b
0e
e7
f0
04
f8
05
10
ff
e0
f9
f8
46
33
0c
23
d6
ea
5d
d7
01
44
11
20
14
d5
98
0a
e9
07
15
f9
81
f6
c9
08
0b
db
e5
21
f0
16
1e
24
3a
10
06
88
2c
2e
ae
16
e8
02
14
ea
bd
09
33
e3
0f
28
33
fe
d9
00
e8
e7
09
fe
fc
08
ee
fd
fb
11
06
05
fc
ff
06
ea
0d
fd
05
0c
11
fa
fc
0d
fb
07
0c
fe
05
09
ff
01
02
0a
05
08
fb
fb
e8
0b
03
09
f9
f8
e3
fa
f9
0b
09
f7
15
10
0e
07
fa
03
fd
f6
fd
f6
0a
00
f7
f6
05
01
e9
f2
f5
04
fd
f9
06
01
11
fd
ff
fd
01
f8
f5
06
e6
f7
01
02
08
08
e7
fd
c5
0a
03
1c
07
ea
04
0a
f5
01
02
06
f1
f7
ef
fb
00
0b
03
06
e4
14
dd
0a
02
fb
05
10
05
06
0a
ff
d8
fa
ef
09
fb
23
fe
02
10
ec
f8
e2
11
eb
03
fe
0a
81
02
26
f3
f7
d4
eb
e4
d8
fc
8f
08
ff
eb
fd
9a
e5
8c
17
26
26
25
06
25
3c
26
23
15
f6
0e
1a
48
b3
51
07
2b
47
2c
03
ec
06
07
1a
de
4d
3a
ed
09
2d
2c
bb
ea
d1
ec
05
f6
02
06
fc
fe
f8
0a
0a
02
05
fe
03
fb
fa
e7
06
07
f3
04
f3
01
04
01
1b
ef
01
10
0e
fd
03
ed
07
fe
fe
03
17
16
00
f9
0a
fb
01
02
f1
fb
03
f6
05
fc
0b
06
fd
f9
08
01
04
ea
f2
17
08
00
f3
f3
08
ed
f2
f7
07
ff
f7
f6
fb
06
f5
fe
06
01
fa
03
fd
ef
05
fb
00
00
06
f6
0c
d4
09
02
2d
0c
ef
05
04
00
0c
fe
08
f4
fd
ee
fc
fd
fe
03
12
fe
08
e9
13
0c
f4
0a
15
0b
08
04
fc
d5
00
fb
14
02
1d
0a
07
10
f6
fe
25
f3
da
2c
d0
15
1c
e7
03
07
01
14
29
db
03
29
ea
d9
12
f9
29
04
fe
1e
03
08
05
12
e4
00
1c
03
0f
f6
ec
0e
2b
06
ff
1b
29
01
fe
da
15
f4
03
d0
11
18
14
14
c4
f5
17
00
fd
e6
e5
ca
fc
ed
03
14
07
e3
27
28
e5
1f
f0
19
be
01
3b
f8
f6
c5
12
02
12
07
0e
e6
c1
21
09
0f
f9
22
06
00
f0
fe
33
0c
ec
d4
fc
08
fa
ea
e4
0e
10
1d
1e
f8
0a
12
05
fe
fe
d4
1b
e0
be
01
26
e9
42
21
11
ed
e4
c5
fc
37
17
0b
05
f4
02
0c
de
26
22
1f
b6
cd
cd
f4
f5
0e
0c
03
0c
e1
eb
02
17
00
f4
0c
a7
05
43
02
e0
21
d7
00
a9
00
0a
fe
0c
31
20
12
02
9f
2d
14
0d
33
2f
fc
05
47
3c
d1
ea
81
44
2c
ce
09
ab
c3
f4
04
02
09
16
06
f2
02
03
10
07
01
01
fd
fe
f2
07
04
09
fd
02
0b
fd
fe
08
fd
07
04
fc
0f
08
10
f8
01
01
fd
01
ff
00
09
0c
11
fd
02
03
05
f7
fe
ff
ff
fb
f5
fc
04
07
00
f5
f5
01
fc
fb
03
ff
04
17
0a
ef
14
06
06
fc
f8
ff
09
ef
06
01
04
fe
fc
fe
ff
fb
f6
fb
01
05
10
07
81
17
06
07
f7
fb
03
11
f8
08
08
f5
ff
00
ff
f2
fa
03
4d
06
fe
0c
08
f9
2a
05
f5
ff
fc
0d
03
e9
08
03
07
f9
fe
f8
f5
f8
09
b2
07
0d
0a
02
06
ff
00
06
00
08
fa
04
f5
02
08
f8
3e
fe
eb
01
02
06
00
0b
53
ed
05
00
f0
07
04
d8
f5
03
b8
fa
02
04
0a
0a
10
03
ea
1d
03
f6
f5
9d
09
00
08
fc
f6
f9
ff
f6
08
12
fd
02
f8
f7
11
01
04
f2
ed
f9
04
04
fe
04
02
f7
10
04
f2
f9
01
f1
fc
1f
04
00
0a
f9
01
08
03
01
e7
05
e3
06
00
ff
f7
fc
01
0c
06
01
05
04
f1
f9
03
12
f5
02
d5
ff
06
07
01
0b
ff
03
0f
02
f7
fd
fd
fb
f1
07
ed
0a
f2
fd
11
f4
0b
0a
08
f9
10
f8
fe
08
f9
e6
02
0a
04
0a
c0
12
fc
09
07
0e
04
fd
fe
f7
f3
f5
00
02
09
05
fd
ec
fb
eb
10
ff
07
fb
0c
06
f9
f6
03
f8
f1
0d
f9
e7
0a
11
19
07
0b
05
04
02
f8
fe
30
04
fc
ca
11
08
2d
fd
21
01
2b
f0
f8
81
d6
d5
2b
04
fc
11
ef
f9
e0
20
f5
01
02
13
0e
00
eb
a4
01
0a
bf
cb
f4
02
ff
03
f5
0e
eb
10
d9
07
12
01
03
fc
ed
32
ed
08
26
1c
03
29
02
fb
13
eb
f5
f4
03
0d
11
1d
a4
fc
fd
07
04
00
00
fa
ff
f6
fc
11
ff
f9
f9
07
0c
01
fd
fd
05
08
08
00
fa
fc
fa
02
0a
07
f8
00
0f
fd
ff
02
01
08
f7
ff
0c
fc
f1
06
ee
09
fb
05
08
03
fe
f2
02
07
03
fd
f8
00
fe
03
ed
fc
08
e1
09
08
20
f9
e1
f9
fe
01
06
fe
10
13
fc
0e
fd
0e
25
ff
53
05
fd
0a
07
02
08
81
f6
e9
04
fa
10
05
f7
5d
04
f0
10
ff
10
f9
fd
01
12
02
02
03
eb
02
fd
fb
00
00
e9
f9
0a
fd
eb
da
04
ff
06
06
f5
fb
cf
f9
fe
e3
d9
07
71
01
fb
f5
f0
ea
f9
06
04
fe
ef
08
00
f3
05
24
06
f7
fb
10
08
16
e4
0a
0e
ff
f8
06
07
f9
ea
a4
f2
fe
fa
0d
b0
01
0d
09
00
cd
fa
06
f2
02
01
ee
05
11
f4
ff
7c
07
fd
fe
f1
fd
fd
11
fc
fe
12
01
fc
00
fd
f6
00
00
08
f9
05
f9
08
01
04
f9
ff
09
f8
ff
0a
fc
05
04
fd
fe
06
03
f7
03
00
0a
01
03
ff
03
fd
00
fe
02
fb
03
fd
03
fe
05
fd
d9
06
fb
01
04
07
03
08
04
01
03
f6
03
f8
fc
fc
f8
f8
f6
fe
0a
fc
08
f9
f8
fd
fa
ee
f1
03
09
fa
06
00
02
fd
fe
0a
ff
07
00
05
f4
03
06
02
00
04
08
05
08
fc
c8
08
07
ff
07
02
19
04
04
fe
f6
07
0b
08
02
07
08
f7
02
07
ff
fd
ff
47
00
01
02
0a
ff
06
f0
fd
fc
fa
04
f5
02
05
40
02
05
04
04
fc
02
db
06
05
01
07
bd
06
01
04
0b
f5
f4
00
00
03
b0
d8
03
fe
0b
fc
fe
06
02
07
01
fe
09
ef
7f
fa
fc
07
fd
01
25
31
f5
fd
fe
cb
0a
1f
0c
04
3b
05
f5
13
0b
c7
10
dc
f0
e8
11
cf
1b
0c
d8
1c
0d
df
05
01
10
16
f5
18
00
d9
f6
3e
ed
0d
32
13
e8
01
f8
f6
ed
f2
f0
e1
e3
f4
19
ed
18
e5
05
00
e6
0a
b1
2b
13
e7
08
09
04
c9
f9
0b
3c
ea
07
11
fc
dc
02
16
11
e5
19
e0
f1
e1
0e
eb
02
f4
fe
ea
fd
0d
fa
02
00
f6
01
e5
06
f6
04
17
e6
06
e0
02
ff
fa
e2
fa
0f
1a
fb
da
26
c9
e0
16
1f
e2
18
e1
2e
fb
ed
25
1a
12
15
18
09
e5
ed
17
0a
f7
1b
00
fd
fa
ec
0b
c6
ff
ec
81
00
04
f1
c4
f8
ff
d3
b5
d0
e1
e3
db
f1
eb
e8
b1
04
0e
f1
09
dc
2d
04
f2
ea
f5
f3
ea
04
13
b2
f8
f5
fa
f6
ed
03
34
f8
ec
d8
c4
08
ff
ad
11
38
cf
e1
01
fe
fc
0c
09
0b
fd
00
fa
00
fb
07
0b
03
00
f7
f8
0a
02
02
fe
02
0a
00
03
fd
08
03
00
00
13
f8
f9
00
06
06
f7
ff
fb
f9
03
05
07
fe
fd
04
f8
05
f6
00
08
04
fd
05
f6
10
f8
f4
0d
07
06
ff
f7
07
0d
0b
09
f7
f5
fe
05
a0
00
66
09
fd
10
fc
fb
02
f8
07
00
19
02
f5
ff
02
f5
c9
07
10
75
0d
05
01
f0
fc
fd
09
08
dc
00
fa
fe
ff
01
0d
04
05
f6
06
08
00
f5
fe
06
0d
f5
ff
07
fb
00
81
d4
07
0c
06
f4
16
eb
00
02
00
03
b2
08
f7
05
03
fc
fc
04
fb
ee
f8
32
03
11
b4
fc
ee
f0
93
fa
10
fb
06
ac
01
fa
07
0a
fd
f8
ff
f9
fa
b9
00
ff
07
f2
d3
fc
05
fa
23
08
08
12
04
03
05
f0
08
ff
0c
02
0e
fe
11
fd
f9
fd
04
ef
ff
f9
ff
00
fb
f3
05
fb
ff
01
f9
fa
ff
05
ff
03
03
fc
09
04
f9
fa
fe
01
fe
07
f0
f7
03
ff
06
03
05
01
05
f8
09
08
01
fe
fd
fa
fb
f3
02
17
0a
0e
05
03
08
02
22
04
0b
00
fa
02
03
f8
fb
03
f5
02
fe
02
06
03
03
05
23
0b
19
07
0b
f2
07
f4
0c
be
00
f0
0d
0c
07
02
01
08
f7
05
fe
00
04
0d
4e
00
06
fa
f9
fd
fc
0b
fd
00
1b
fd
0c
01
ff
07
01
e1
00
f5
06
06
09
0c
06
03
0a
f5
f6
08
07
03
02
87
f8
02
ff
f9
04
0b
eb
03
f7
e1
fb
05
09
03
b1
01
01
fa
00
eb
fd
7f
0b
0b
f7
09
b2
09
05
f9
f3
fc
ef
ff
02
03
ef
30
01
ff
07
e3
fa
09
01
fe
06
fd
08
12
57
00
f3
0e
e6
0b
0d
6e
ed
0b
04
0d
04
09
0e
ff
f7
00
02
04
fb
fb
02
f9
0b
f8
0a
08
fc
f9
05
04
09
06
01
00
fd
fe
05
fe
f6
00
08
02
fb
f8
f9
04
03
f4
01
04
fd
03
06
fd
00
f7
fd
fc
04
0c
08
05
10
fa
e8
07
05
0e
02
00
00
06
ff
f8
0b
0e
f7
11
01
0b
ff
f8
f7
0b
fd
fb
f2
05
05
02
fa
fb
0a
01
06
fa
11
01
f9
07
fe
03
f5
0d
fd
03
01
f1
f7
00
13
fb
fb
fc
fa
f8
01
ff
fd
01
f7
05
02
fb
fc
fd
01
07
ff
e7
05
f9
0c
f9
ee
04
02
15
fd
fe
ef
fc
1a
13
e2
fd
06
0b
19
0e
bc
ef
eb
14
0a
f6
0c
e9
23
ff
fd
07
fc
06
fc
10
07
f4
81
f7
fd
e7
e9
f9
00
f2
02
fb
dd
e2
05
ea
ff
f9
02
10
fe
f2
08
00
03
19
11
ee
12
ff
f8
16
f4
1d
17
29
24
03
cf
08
f9
20
e2
15
f5
0c
2b
d8
53
c1
46
af
d9
35
08
ae
fa
2c
44
1e
81
12
eb
22
09
20
85
9b
8d
11
ba
98
a6
e9
12
d8
ff
ee
31
68
05
fd
53
19
2d
c4
22
68
cf
35
f3
bc
3f
75
03
d2
11
48
fd
f7
06
15
ee
f7
0e
02
fb
02
fc
0a
ed
e1
1c
e1
f6
cb
18
06
f2
de
e1
fb
03
08
13
fd
0b
d3
f9
f2
04
0d
27
0a
eb
0b
f8
f3
ee
17
0b
17
07
f5
01
30
0e
f2
17
01
0b
10
e8
f1
e0
ed
15
f2
f9
12
f9
1a
04
16
0d
0a
eb
17
01
14
01
02
02
08
e4
e0
e0
e2
f6
0b
0a
0c
f1
ef
f6
00
f1
f7
52
02
fc
f8
11
f9
05
01
ff
ed
ec
f9
05
0c
ff
0e
12
f6
ea
fd
17
04
eb
13
15
fc
00
14
16
d1
f3
0b
08
10
12
f3
04
19
00
fb
07
0a
0c
06
08
fe
03
e3
fb
04
00
fc
fd
02
06
fe
f8
07
03
03
00
fe
01
02
04
06
fd
08
ef
f7
03
01
08
01
fd
02
00
01
05
06
03
f9
07
02
fc
fb
fb
08
01
f4
fd
0a
f7
ef
ec
fb
01
04
02
fe
02
ff
d0
fd
0a
02
f4
12
00
f6
01
f8
02
ef
00
08
ff
fe
f5
0b
0f
fb
00
04
02
14
ff
cb
7f
06
08
09
02
0e
fc
05
05
1b
0e
fa
f9
f6
f6
02
e5
03
02
fd
fc
04
fd
c7
05
03
a3
06
0f
fb
09
e1
f5
12
fd
fd
1f
04
07
ec
df
03
31
00
fd
04
00
fe
fc
00
05
fc
fb
f9
02
13
fe
ec
fb
f1
0a
fb
fc
f1
0f
e4
f1
05
ff
f7
04
00
ec
01
fa
c8
e4
fe
08
0a
00
fe
08
0b
03
01
c3
cd
d7
fd
fe
09
fb
f5
fe
02
f7
ec
0c
02
09
fb
04
ff
fe
e9
f7
04
fa
01
05
06
01
ff
ff
ff
fb
06
07
f3
07
02
f5
06
fa
00
00
fd
04
fc
0a
09
0c
0c
01
fa
f3
03
0b
04
f1
00
f6
08
02
07
03
06
f4
01
03
05
fc
f9
fc
04
fa
00
f7
fc
06
05
01
11
01
eb
07
01
1f
f8
fa
07
04
02
04
08
18
fb
f4
0b
fc
0b
03
02
07
f5
f2
05
02
08
0c
07
06
07
02
09
03
02
03
03
e6
07
02
01
08
07
08
fa
05
f9
e0
f6
09
02
f6
0b
fb
04
0d
f0
f2
ef
fa
09
05
01
f3
07
09
f6
fa
07
09
fd
fc
11
fc
ea
05
00
81
07
f5
cc
fa
f9
fc
01
f7
f7
fa
01
f7
fb
ff
d5
fc
04
f9
0f
dd
01
fe
03
03
ff
23
fb
05
fd
cf
de
09
0f
06
08
03
07
01
06
07
ee
08
9f
d7
f8
20
13
1e
06
d4
db
18
00
06
ff
01
01
f8
f5
08
f7
0a
03
04
fd
f7
0a
03
ff
08
08
f3
fa
05
0b
f9
08
00
04
01
f8
04
0c
f8
0c
fc
fe
f6
00
05
f4
09
fb
fb
02
06
02
f9
00
03
f6
05
07
02
01
05
ff
06
f7
f6
ff
02
fe
06
04
08
02
bd
0a
fb
18
0e
f8
07
13
04
06
ec
f9
00
ff
f9
02
0c
01
fb
fd
f7
fe
fe
03
0e
d8
b3
00
f5
f8
f3
0a
05
f7
09
01
09
0b
f5
04
f4
02
0e
f7
0b
f8
fa
f4
f7
dc
03
f2
7f
eb
e4
fd
f2
f0
00
ff
05
fe
03
09
0f
ef
ec
02
14
05
03
11
ff
05
f4
f7
33
f6
f9
fd
00
0e
00
ad
eb
00
fb
06
03
08
10
cf
f2
fd
02
f7
0f
02
e7
09
fa
cb
b6
00
08
01
0e
00
01
dc
12
03
5d
d0
f3
0a
fd
01
f7
f6
fd
04
02
be
17
00
fc
fe
01
fd
02
07
10
f9
fc
ff
02
fd
fd
ff
00
fd
f7
02
03
fe
f8
fc
02
00
01
ff
00
00
06
fd
fd
04
f6
f8
05
01
0b
04
fe
fb
fb
ff
05
fd
fd
fe
00
04
01
fc
01
f6
05
fc
01
05
fd
08
f2
00
ff
09
05
ff
fc
05
c5
0d
15
fe
07
03
fb
ef
fe
08
ff
02
00
ff
00
0c
00
fe
03
00
ff
ff
02
16
05
4c
10
00
06
01
12
f2
f2
0e
ff
03
01
01
06
0a
ff
00
fd
b5
0c
fb
fd
ff
ef
03
f7
fb
e9
ff
fe
12
08
03
07
0f
f4
04
01
f7
2c
0b
e6
00
01
01
ff
00
fe
00
fa
02
06
f9
fb
f7
06
05
01
4e
ff
03
03
06
05
07
00
43
f8
05
00
f5
08
04
f8
f4
03
1f
a8
02
08
09
09
fd
0a
ef
39
04
e8
ec
81
00
01
0a
ff
05
f7
0a
fe
bc
0d
01
06
ff
f7
00
13
13
fb
02
f8
01
0c
0f
fe
ec
06
fa
12
f5
fe
15
01
0b
ff
06
06
f5
0c
0a
fe
03
fd
03
fc
08
05
fc
fc
03
f3
ff
00
fd
f5
06
f8
fe
04
01
0c
11
03
01
07
08
16
03
19
00
f5
17
00
08
06
f1
03
db
fa
11
1c
fa
10
0b
f7
fa
f7
fe
08
e2
2a
04
f7
e9
fa
0f
08
f3
fd
f2
fb
02
19
0a
0e
07
fa
fa
05
00
03
f5
db
fa
ed
f9
06
fc
ee
ee
f9
fb
05
02
06
0b
eb
f9
f8
f5
04
01
02
fb
06
0a
16
01
02
07
f9
ff
e4
22
17
0f
f6
f7
fd
e6
fb
0c
98
fd
e9
81
d6
24
03
fd
ea
f9
08
fb
d8
ed
00
e9
ef
11
d8
0d
09
17
ef
0a
d5
25
45
03
09
f9
cd
24
07
13
0c
de
10
05
15
02
1a
ee
02
03
0c
14
4c
d7
d1
0e
ee
e9
30
fb
fd
f8
02
f4
f1
13
f8
fd
fd
f8
00
03
00
02
03
01
04
03
02
f9
f6
01
fb
00
fd
04
08
04
01
06
fa
03
fd
00
00
02
ff
01
00
01
05
01
03
02
00
fe
06
fe
05
f5
02
04
ff
02
f2
ff
ef
02
02
03
01
fc
02
02
00
fe
03
ff
f7
05
04
08
01
00
fd
fd
fa
fa
02
06
07
fd
03
02
00
ff
fe
0c
00
05
07
07
ff
07
f5
fd
0a
fc
fd
00
05
00
fd
08
fd
fd
02
01
00
02
08
fb
07
00
fb
03
08
fd
fe
f4
08
fb
05
fe
f7
ff
05
fb
01
f7
df
05
21
fa
ff
05
01
01
f8
ff
26
05
f9
fe
fe
12
ff
a5
e6
fb
05
02
fd
fe
0e
ba
e8
02
00
f4
00
05
cd
fe
fc
0b
fe
f7
08
04
06
0b
03
fb
f7
04
0a
81
ed
06
02
07
fc
ed
fe
04
fe
f2
0a
03
06
f9
fd
06
12
f9
ee
fd
19
00
ee
39
0a
0d
05
fc
f2
f0
06
e1
13
10
f5
f9
ee
f3
f2
fb
05
f9
0c
07
f6
e5
08
ec
0c
05
00
0c
f8
0f
05
0e
04
01
fd
13
fe
ec
02
fd
02
09
0a
f3
e8
06
24
04
fe
fc
08
11
04
dd
fa
fb
04
fc
26
ff
11
10
fd
f7
dc
dc
e7
f8
09
19
f2
02
22
0a
f5
eb
fb
00
08
0a
06
10
e3
04
f9
0f
e6
f6
cc
12
06
fb
fd
04
1a
03
01
f2
12
f0
eb
e7
01
07
d1
53
03
f9
08
03
ff
10
01
03
0a
0e
10
07
c8
ed
01
f0
11
e3
f7
01
fd
f2
04
eb
17
cd
fb
f1
f5
ff
ee
f8
f7
e0
04
f3
f8
00
0c
00
08
17
e5
e7
07
f8
f5
1c
f5
11
d3
0a
fe
0c
06
dc
19
e1
fd
09
7f
cf
00
f4
09
0c
f4
f6
f5
08
f6
4c
ff
d4
f6
11
e9
ee
ff
cd
e5
ea
81
fb
e0
ba
17
08
10
fe
15
1f
f8
03
17
13
e9
26
fb
15
07
fe
03
f5
04
e1
d0
0b
15
f5
10
15
fa
f5
e7
05
17
f3
fd
11
0d
05
0e
b2
02
e2
ed
11
08
f9
fc
02
ea
f4
e8
ff
09
f5
01
c8
2a
17
0d
ed
f7
06
0f
e8
15
ef
e4
dd
d2
df
49
ef
02
c5
e5
15
f6
f7
1f
0c
1d
08
0c
21
f0
f9
0c
e2
1e
05
fb
19
28
f2
e6
15
f5
4e
07
f8
19
d7
fa
09
09
1a
1d
19
33
07
ed
25
13
2e
fc
13
0e
12
1c
0e
f3
d6
e6
f4
21
00
c5
f3
cf
f9
01
db
dc
02
0a
f8
fe
ee
fa
dd
eb
ca
f1
d7
bb
f7
07
f8
eb
d6
fc
f2
1e
f9
8f
0c
01
28
dc
fe
f1
10
19
07
ef
fb
f4
ec
f8
e1
0b
03
e8
f0
0b
23
b7
0b
bf
da
1f
06
dc
09
00
05
fe
0b
f7
02
fc
03
07
f9
04
fd
fb
01
05
01
02
01
fa
fb
16
00
02
03
ff
01
ff
ff
03
f8
07
f7
fe
ff
fb
ff
fe
fe
09
ff
02
08
fd
fd
fd
00
04
fa
02
ef
fb
03
04
00
03
03
fe
04
02
05
05
02
06
00
ff
00
fe
03
05
fa
f9
ff
f4
fe
fe
f8
02
00
f7
01
02
09
fb
08
04
f2
01
00
fe
fe
ff
fc
06
fb
fc
fe
05
05
02
f9
fb
f6
f4
00
04
03
f5
fe
07
fc
02
05
04
01
0a
f0
01
01
f5
0f
06
09
04
ff
02
f6
fc
fc
ff
14
0b
01
ce
0a
04
1a
fe
06
1e
0d
f8
16
c7
00
fe
10
02
fd
04
c5
f5
ea
09
fd
03
0e
fe
09
ff
00
ba
04
e4
ea
be
02
03
04
0e
07
05
81
0a
01
07
ff
00
fc
08
03
08
08
03
fe
ed
fc
05
02
0c
1c
d2
f0
02
11
fd
ca
00
0f
fc
00
00
fc
f7
15
0e
fd
f8
f1
05
00
08
01
0d
f0
0b
fe
02
fc
00
0b
02
fb
fa
fc
f1
03
fe
f8
fd
0f
fe
02
06
fe
0d
04
0e
f1
f0
01
fd
14
fe
e9
12
14
05
15
de
0b
1a
05
f4
07
11
09
ff
ff
03
eb
1d
0f
f0
02
f0
ee
09
f6
03
f6
04
ff
07
f9
f5
01
f9
13
22
06
04
0b
03
08
fb
20
05
f5
ef
ee
01
07
01
05
00
f9
dd
fd
00
14
e4
09
02
08
02
0d
16
13
fa
03
0b
12
f4
ec
0f
13
fb
09
0d
20
cb
e4
f9
fa
3a
13
0d
db
04
ef
f9
07
01
d4
e2
16
1b
e8
fd
fa
17
d7
fe
3b
16
fc
bd
f1
15
f1
13
21
06
ff
f4
81
fb
03
f3
23
f1
fd
12
d3
f6
e6
fc
00
06
fe
0d
19
fd
ef
ff
06
ee
c2
e4
fd
fb
e4
09
07
ff
ff
01
0a
07
f5
ff
04
04
fb
fb
00
00
00
0b
08
08
0c
fd
f4
ff
ff
fa
03
02
02
03
04
04
01
09
10
fd
02
f9
06
02
05
03
fa
03
00
06
05
01
03
07
03
06
f1
fe
07
02
04
fa
fd
fb
09
02
03
00
f3
fd
f9
0a
f5
03
0c
08
02
06
fc
06
fe
fb
fd
00
f7
f7
0a
06
04
00
03
fb
f3
fe
fa
01
fc
08
05
03
fe
20
07
0f
0b
08
07
11
00
df
ff
fe
01
00
fd
fe
04
00
f1
05
ff
fa
f7
05
f4
f7
fd
05
ea
04
00
ff
ff
0d
f4
01
f9
04
f7
ff
ce
f9
e0
6b
81
ff
1c
fc
09
1f
f8
ef
fa
fe
05
fb
ff
ec
02
01
08
fd
00
fd
fd
00
09
c8
2c
08
09
ff
fb
04
ff
f7
01
54
ff
ff
fe
09
21
ff
09
05
f6
89
01
fb
e9
02
fa
fa
06
00
fd
04
07
14
fb
03
31
eb
fd
01
17
ff
be
00
07
f0
05
0d
eb
08
04
05
f2
21
07
0b
03
03
04
06
02
0b
0a
12
02
03
fe
fa
03
fa
fd
06
08
0e
1b
04
fd
f8
00
e5
eb
02
06
01
04
17
f6
f3
06
ce
fe
0d
02
0b
1f
00
c6
11
0f
fd
12
13
f3
f5
0b
e7
01
09
f0
0d
f7
d4
ed
0a
07
09
0d
07
0c
fd
0b
03
0a
02
01
07
e6
06
f9
05
fe
00
17
de
e5
de
ec
f5
e7
fb
fb
03
00
1b
ee
31
09
03
e5
06
ed
fe
02
f5
0c
12
09
07
f7
0b
0c
ed
1b
09
0c
33
03
fd
06
00
05
15
08
f3
06
b3
ef
c6
2f
f9
04
f8
a7
eb
e7
0d
fd
09
11
dd
15
fc
9c
86
12
81
de
ce
0c
05
01
09
ff
03
03
0f
da
f7
1b
01
f7
0a
c4
14
0b
ff
0c
c4
04
15
06
1b
05
19
f6
fb
fb
00
13
ed
fc
09
fa
09
00
fc
01
f6
00
05
f4
04
fb
f9
fb
03
0a
00
ff
01
02
04
03
06
07
ed
00
ff
fb
08
01
05
fe
08
08
ff
05
04
fc
ff
02
f2
f3
fe
05
02
fd
ff
01
06
f2
0b
fd
02
fe
04
fa
04
0c
be
02
f8
10
09
0c
02
ee
08
f8
06
fb
f8
04
09
f7
fb
0d
02
06
ec
fa
01
14
0c
7f
c3
07
00
08
ff
0e
02
00
fe
01
15
07
f4
ff
f3
02
05
c7
00
fc
ff
0f
fd
fc
07
f9
0f
f4
06
ee
fa
10
fc
fd
05
0d
0d
0d
18
f7
da
03
1c
0d
03
06
fc
ff
f8
ff
ec
f2
fc
f8
ff
04
f1
07
f5
e8
fd
06
fe
f3
06
fc
f7
ff
fe
02
0a
ff
0b
f8
ff
9e
d8
ff
03
05
03
fe
fd
f7
09
02
b9
d2
e5
09
00
07
f8
ed
03
00
f5
f1
10
fd
f8
f6
fb
ff
ed
ca
1c
e7
0f
02
16
29
f9
f4
0d
02
05
fb
f9
1a
06
00
e5
f2
09
08
0a
fe
ef
0b
e9
01
f4
20
fc
07
13
f3
f1
06
06
04
04
10
0b
f1
03
26
0b
f8
02
2a
16
0e
03
0a
f9
e5
04
05
03
fa
f8
fb
16
14
0d
06
ee
15
0d
09
1d
0d
14
06
ad
2d
05
14
f5
13
09
13
03
4f
ee
02
ff
2b
01
01
09
06
e1
05
16
f9
19
fa
81
c5
f7
e9
0a
df
e8
fe
ef
f1
18
12
f5
db
07
06
0a
00
04
ef
f1
d7
16
1e
f6
0b
e1
fe
ef
f0
0c
d7
ff
bc
01
e8
08
e6
13
e6
b8
fa
f5
b1
06
0d
fb
f1
e8
d8
fd
01
17
0d
10
e8
0a
1f
05
33
87
01
04
0d
0d
e2
0b
fb
0b
08
bb
a8
0c
f6
24
09
06
12
2a
de
08
15
13
a5
ed
ec
e8
2f
f3
02
08
b9
e2
04
21
ee
32
f2
e9
f5
24
f3
22
06
13
dc
33
28
26
f0
d0
41
42
f9
fe
f4
c7
b5
23
ef
46
14
2c
ea
d3
be
31
d7
d7
15
17
26
16
0f
f4
f3
0b
81
10
bc
10
ee
fd
f7
20
02
e3
49
f7
03
30
e0
f3
02
0c
ef
1c
c9
02
02
f7
08
16
fb
10
09
fe
0d
f1
1f
f8
f8
fe
0b
12
f6
f5
07
02
fe
1c
03
00
00
05
0e
f0
14
11
f7
f7
09
f4
08
04
09
f9
0c
0f
00
12
0a
0f
2b
08
04
14
01
08
00
fa
05
0d
e6
f7
f2
04
fd
06
0f
15
f3
ff
da
05
07
0b
0a
fd
06
fc
f5
f7
07
0e
02
0e
e0
f8
f9
01
02
fc
fe
09
da
f9
fc
37
01
ed
ff
04
fa
17
fb
07
f2
15
f4
f8
fe
fc
0c
0f
06
04
ec
03
00
fc
02
09
0d
fa
10
03
f0
0b
f5
fd
fa
22
f5
14
16
f1
1c
00
0e
2a
f5
f0
ff
0e
04
02
0d
06
04
fa
f0
fa
0a
01
f1
16
fd
fd
f7
04
f9
09
02
fc
fc
ff
f7
f5
fb
00
08
f8
f9
03
16
0d
fe
f4
fb
f6
0f
f4
13
0a
05
07
fb
fa
f0
04
03
0a
06
fb
01
fc
fc
fe
fd
fc
fe
f1
fb
eb
fb
f8
0d
00
ec
fe
f5
08
06
08
fb
ed
fd
0e
de
06
00
01
05
f6
e4
e0
f9
ef
f6
ee
10
1e
06
ed
f7
0f
02
0e
f5
f7
05
08
f5
01
fe
00
12
f7
fd
05
02
f0
f8
f0
25
0c
11
07
ee
f9
16
f9
fd
03
fd
f9
e4
f8
6f
f7
2e
bb
0c
da
7a
01
fb
c6
05
f6
f2
08
ed
f0
eb
47
b0
13
f2
f9
f9
14
fb
fb
07
bc
b0
05
e0
fe
12
01
0b
f8
0c
8c
fd
0c
03
fc
81
0c
08
f3
02
ce
00
f2
18
fd
0a
ec
09
16
02
25
33
10
fb
e3
f9
28
1b
16
03
f7
fc
ef
fb
08
06
09
c9
1a
10
12
fd
ed
2c
04
0c
fd
0f
12
f1
00
0f
7f
fd
0b
11
05
04
14
fd
05
18
0b
eb
fd
ff
0d
0d
ea
f1
0c
b5
f4
f9
e3
32
b6
f5
bf
e8
10
02
06
1d
fe
16
1d
0c
06
f7
fc
06
f4
f7
05
0b
0e
07
06
03
fb
f5
1d
f5
17
f9
fc
fe
fe
06
10
fb
f7
f7
28
06
0d
1e
21
01
09
f5
f7
12
05
fd
fc
e0
1a
d8
10
fe
06
e3
fe
02
14
fb
0a
0a
05
df
01
1c
04
f9
0f
1e
f6
b9
f8
c9
16
ff
25
03
f9
ed
fa
04
d9
f1
20
18
1c
00
e8
fa
f8
f0
00
e4
f8
1b
0e
0a
c7
05
23
d5
fb
ec
eb
ff
00
06
29
eb
17
ef
10
ff
d9
c5
f6
2b
1a
f3
21
e9
02
0f
f6
07
0c
ad
ef
0d
10
00
e4
00
fb
18
fd
f0
04
fd
fe
0c
ee
fe
03
01
fe
fb
05
f7
17
e0
0d
0a
04
00
f0
f6
04
f0
08
f7
05
09
06
fb
22
14
03
fd
fa
0b
09
01
01
f5
00
07
e1
03
0c
ff
08
f5
14
0a
13
12
08
f7
00
fc
f9
02
07
02
f7
06
0d
e4
0f
14
0c
fb
06
1a
06
ed
ee
07
05
ea
f2
0d
2a
1f
11
14
fc
f3
1a
fb
1f
03
09
05
da
07
02
05
f1
0e
13
ee
fd
f1
00
16
f1
ec
ef
fb
1a
da
f6
01
fe
03
f3
12
fc
05
f3
f8
04
f8
d9
20
18
09
00
e5
01
ec
f1
24
da
f8
ee
f0
ec
dd
f8
14
f3
08
d5
e4
01
0a
16
4f
ff
13
e5
c1
24
01
ef
0e
f8
df
18
02
09
b4
eb
fa
49
12
ca
cd
01
f5
f2
fe
e3
b9
05
a1
cf
ee
d7
03
e7
f1
e5
f2
18
0f
7f
17
f7
1c
fb
f9
cb
f2
fe
f6
f7
f8
e9
fc
09
a5
0a
07
f4
b8
01
04
f2
fd
f6
cc
24
eb
fa
fe
6c
a9
27
13
e1
bc
3a
ea
f9
16
b7
fc
4b
21
47
d3
23
18
3c
12
7f
d9
1e
f5
0f
f6
03
f1
03
d5
f4
f5
f4
10
23
18
ce
f9
f3
0b
19
e4
fe
f7
fb
f1
fa
0a
03
0e
06
02
01
fd
f9
0e
08
01
01
0c
01
0b
f8
05
fa
fa
04
ff
09
0c
f9
0d
03
f6
0b
f0
fd
0b
0e
fc
06
03
05
09
e9
05
03
f3
f2
07
06
07
09
ff
08
0f
00
f2
f3
ff
f8
04
02
fa
f9
ed
ec
eb
0d
fa
06
fc
f9
11
fa
07
01
fd
fa
fb
fe
e2
f3
ff
03
06
00
f3
01
cb
0b
fe
2f
01
e7
03
0b
f1
03
fd
0b
f2
f3
f5
08
06
08
f9
16
ee
12
e3
10
0a
f9
0f
12
08
06
06
fb
e3
f5
f3
03
03
22
02
fc
02
02
03
03
00
fa
fd
fc
07
04
07
01
fb
fc
04
01
fb
05
03
fc
f9
0e
01
ff
04
02
02
00
01
03
00
03
ff
fe
fe
fa
fe
fe
fe
07
02
02
06
01
00
01
ff
fa
fc
02
fb
fd
03
09
ff
01
00
0b
01
02
01
ff
00
04
fb
08
04
fe
00
fc
ff
ef
fe
e1
ff
04
fb
05
04
f5
00
fd
07
0a
04
02
05
fd
fa
07
01
02
fe
ff
f8
03
03
06
fe
03
04
00
f9
ec
f4
f6
f8
03
05
05
07
09
fe
fc
ff
02
ed
03
ff
fd
07
f3
fa
0a
03
03
fd
fc
06
03
14
0d
01
05
04
02
ff
08
02
0e
08
e6
04
e1
fa
03
09
ff
04
02
81
0c
ec
08
05
fb
08
fa
0b
03
e5
cd
04
db
f8
d0
fe
09
02
03
04
02
10
09
ea
0f
03
01
0e
09
de
08
0a
03
0a
d2
f8
05
04
17
0a
f6
f6
ff
e0
3a
07
e5
f8
c9
f3
2c
04
61
0c
01
54
15
d8
ea
81
e4
38
f5
16
3b
23
ff
b4
0c
2d
e1
f5
34
f7
f6
f1
03
0e
da
f8
b1
f3
e2
3e
20
0c
cc
be
f9
c8
d3
0b
4e
ea
c8
0b
d3
2f
13
01
9d
f3
fb
c6
f7
53
f9
fe
e9
f7
0f
fd
04
0b
0a
07
27
08
ee
06
f3
e4
03
f5
fb
06
0e
ef
f3
ea
14
fc
fd
04
23
06
f8
09
f7
fe
08
02
13
0c
fe
ff
d4
f7
fe
ff
fc
ff
17
03
07
0a
07
f6
f7
05
03
09
f8
07
20
0b
f8
0c
fa
ed
f3
f4
0b
ff
0f
05
04
0f
06
fe
01
f8
fa
fe
fe
f0
f6
f9
fb
07
fc
e7
f9
c5
fc
02
2e
fd
e9
15
05
f8
15
05
01
ef
f6
f6
f2
01
07
f8
11
f7
0d
ec
1a
fe
ef
0a
09
fd
f7
07
15
d2
ff
f4
f5
f9
1f
06
0e
13
bb
ed
cf
2d
ca
0d
da
51
c9
f3
07
fa
55
00
16
e9
35
8d
0c
ba
e4
ef
3b
9d
ab
17
b5
40
c8
2a
f4
23
50
0b
39
5d
a8
6f
08
fd
fd
cc
4c
12
44
0d
ff
f2
ef
10
a1
b1
9e
bf
df
6d
ec
22
7f
9e
cd
f1
22
0a
fa
ed
0e
e4
20
fe
06
15
ff
07
06
08
ee
b7
01
10
05
16
07
0e
f1
f4
03
0b
f6
00
fd
f6
eb
f8
01
fb
02
fe
00
f8
27
fc
05
00
06
f5
eb
11
05
0e
03
3f
04
fc
e1
f3
0a
0b
db
0c
f8
d6
13
ea
e2
fe
fc
ea
f9
f0
0a
02
ee
11
03
18
00
03
1a
02
f6
e4
f9
cd
ea
29
00
ff
1a
ec
01
d5
11
08
47
fe
d7
f8
09
ef
08
06
0d
e3
04
e8
06
04
09
01
17
ee
0f
d3
24
00
fe
20
11
03
fa
0c
02
d2
f0
e3
05
0d
3d
02
ff
11
ff
fd
0e
11
fc
13
fb
ff
11
0b
fd
f7
01
f5
fc
f8
fa
fd
f5
00
0d
fb
0a
02
01
f7
fe
06
ff
06
fc
f7
06
fd
03
01
01
f7
0b
f9
fc
fb
f8
fc
03
07
fc
ff
0b
0e
01
08
fd
0e
10
f8
18
0b
11
02
f4
ff
fb
00
fa
f1
fc
f0
fe
f1
0b
01
0a
f2
fd
f7
f9
02
05
f7
01
ee
fb
01
de
0b
01
0a
f4
04
01
fb
f6
e2
14
02
05
07
ed
f4
03
09
16
0d
fc
06
04
0a
03
fd
f9
f7
ea
f0
fb
f9
05
19
f1
f8
0a
05
0e
fb
fd
00
da
f3
07
e7
f9
1d
ef
ef
f1
12
71
b7
ef
e3
e2
d9
01
a7
34
15
fa
f7
0b
e0
ef
ec
f1
00
f7
05
0a
ed
1c
08
e7
9a
09
de
de
09
01
fe
f8
22
e3
f1
f1
f6
04
7f
0a
09
fe
c1
62
36
03
15
1d
ce
f7
03
f6
04
b2
12
cf
fa
e7
38
03
f3
0e
d4
01
d7
fd
d9
05
f9
ec
c8
e7
ca
03
1c
10
d2
e3
dd
fd
d2
1a
09
fa
c5
25
f6
f3
cf
e8
f7
20
02
ea
f6
f3
17
d6
15
1f
e7
f7
d4
de
b9
d8
f5
d3
ec
e8
f0
7f
2b
08
fd
20
f7
e4
fe
e0
0b
ce
1b
e9
16
04
0a
e0
04
01
d7
0c
fb
f2
ee
05
11
03
0e
f1
01
1e
00
03
fb
11
f9
09
04
fd
31
02
0b
2b
15
0e
f9
0f
e7
dc
0e
f1
1c
f2
11
0a
13
0c
eb
0f
12
e7
00
01
23
05
e4
0a
f4
e5
fb
ff
2e
00
13
3b
1e
d8
08
08
0c
13
02
36
0c
da
a3
dc
ce
15
1f
e9
00
f4
9c
f6
86
f2
eb
60
27
d8
13
2e
d2
02
1b
f2
d7
e5
d9
01
f0
16
04
08
c3
1f
85
37
03
f5
11
37
d5
fe
18
10
cd
bd
e6
de
04
5f
ea
e4
0e
e9
f7
11
06
01
01
ff
f5
03
01
06
1c
06
fd
f8
fa
16
01
08
00
ff
fc
f5
01
04
0b
01
0b
fe
1a
f1
f8
f5
03
02
ff
09
fb
f5
00
0a
06
04
f6
06
00
02
04
03
fb
01
ff
07
f5
19
f9
d9
1c
09
06
00
eb
07
fc
0b
03
fd
fe
03
f6
d2
fa
81
0f
fd
14
f3
fe
08
fa
13
0b
08
f9
06
fe
f4
fd
47
0c
0a
eb
07
08
02
f2
fb
f5
00
06
e1
fe
ff
01
f7
fc
06
fb
06
1c
03
f4
02
02
00
09
0f
fe
01
fa
04
f8
d3
e2
fe
0d
ff
fe
03
f1
03
04
00
00
c2
02
f5
07
03
fd
03
ff
0a
ed
02
ea
03
0a
d9
eb
f6
f1
cd
00
0f
f9
00
cd
03
fc
00
07
fe
02
04
f7
fe
ce
00
ff
05
f3
e0
fd
fc
fe
02
f7
04
04
ff
fc
02
fb
0d
f8
08
0e
12
ff
0a
02
f8
ef
01
07
d7
c1
ff
fd
0a
f7
fd
0f
f9
f7
11
07
fb
f7
0a
f5
f6
f8
fe
fb
ff
02
0a
06
00
14
05
17
fd
fc
00
ff
fc
f9
f2
07
08
0d
fa
02
f6
f1
f3
03
13
df
03
0f
01
fa
e8
08
e5
f9
f7
03
f9
fe
00
fc
10
14
f5
f0
f9
e4
0d
f5
ff
13
e8
ff
02
f9
1f
f3
fb
f7
04
04
ee
07
fc
04
fd
02
f5
08
09
fe
1b
ff
fc
fe
06
f1
1b
11
ee
02
f9
06
07
ec
08
f5
01
ed
03
0b
fb
f4
26
1a
f7
02
e5
ff
10
03
03
19
f0
f7
f4
dd
f7
fd
f9
ed
d9
86
f8
f5
03
da
f7
08
2c
0e
f1
81
04
08
09
1b
f1
e3
fb
06
fa
ed
eb
dd
09
ed
17
04
10
39
e6
f3
f5
04
da
01
ed
eb
e6
3b
fa
f8
02
21
02
1b
ce
06
0c
d2
ef
db
07
0b
0c
eb
f5
1e
04
20
02
18
e8
09
dc
01
ff
f9
00
0a
04
fb
fc
ec
00
15
fb
02
fe
f6
f9
fa
fe
08
ff
fa
fc
01
13
ec
fb
ff
fd
02
fc
06
0b
06
fc
fd
02
f5
fd
0a
13
f9
ff
01
08
ff
06
03
02
fd
18
0e
01
09
fc
05
fa
f5
1c
fe
fc
e8
f6
fb
fe
1b
f4
07
f9
f4
0e
05
00
0a
f8
19
13
02
0a
fd
f9
ef
02
fe
0d
07
f6
0f
fc
f8
dd
11
ff
fd
04
08
13
0f
05
fc
fc
f5
02
19
16
f4
03
20
f7
f5
03
05
f9
01
01
ff
07
02
04
fa
fd
08
05
06
07
05
d8
d5
fb
de
fc
f4
fa
eb
f5
04
0a
e8
45
37
f8
01
03
01
77
c9
13
ff
d1
03
c5
ff
fe
f2
eb
f0
14
eb
0d
ea
f5
04
23
05
db
f5
0a
dd
09
f2
12
10
fc
01
f6
06
01
1b
ee
14
1c
ff
02
0e
7f
11
e2
81
07
3a
fc
2a
fb
12
26
36
06
1f
eb
fa
21
0d
2d
d7
01
ec
37
06
04
f3
11
fd
21
10
1d
f8
49
33
f6
12
09
03
1b
0b
04
05
fb
0c
f5
eb
f0
fa
d1
e7
29
d7
09
14
03
0e
17
fd
07
cc
ef
db
fa
20
e4
f5
1a
02
22
fa
d4
ee
fd
0f
fc
00
05
e1
c7
05
06
03
17
25
f5
08
ee
1a
00
e5
0f
fd
06
fc
f5
04
0a
e7
f2
00
05
f0
cd
ea
04
00
0c
05
07
fb
18
fa
f4
0b
c8
fc
d2
41
09
fd
09
fe
ea
0c
fb
ed
08
25
f4
0f
cf
32
14
ed
f6
f4
0e
1a
0c
00
de
f5
e8
e0
e2
09
0b
09
13
ee
02
f5
f9
df
11
10
09
03
e0
1f
ef
01
0a
07
0b
f3
b7
f3
0f
fd
13
fc
10
fc
13
f2
24
f4
f7
0c
f9
fc
11
f7
09
02
df
07
27
fc
fb
f2
ff
fd
0a
08
09
04
10
f4
f5
fd
05
ec
ff
ff
fd
fe
04
fa
0a
f9
02
fb
fe
08
03
fd
04
fd
04
ff
0c
ff
f8
00
0d
ff
06
0a
0a
00
00
00
06
fc
fb
01
fe
12
fa
f1
03
01
07
03
01
00
fb
fe
f2
fb
ff
02
06
ff
f4
fb
2f
0c
09
0c
fe
f8
02
e4
02
fd
07
ff
f6
01
fd
01
00
12
09
08
f3
fc
fc
1f
11
52
47
10
09
08
00
0a
15
07
f6
fb
fd
00
f9
09
f8
03
06
f1
02
04
f7
f4
ff
02
09
03
81
f8
04
f9
fb
f5
0b
f9
06
01
f4
fd
46
00
cc
06
0b
08
02
09
fd
03
fc
01
fe
f7
01
f8
ff
08
02
fa
05
ee
f8
fd
06
03
0a
f3
f0
05
fc
f3
08
fe
00
fe
06
bd
d9
09
07
0a
05
04
0e
e8
0b
01
b0
14
fe
12
01
0f
fb
10
f4
02
f3
32
18
03
fa
f9
cc
e3
10
f9
01
fb
0c
06
fc
f5
0f
19
e4
db
21
db
ea
ac
02
08
01
0e
0d
f2
10
d3
15
e8
12
b4
81
22
0d
f1
dd
06
07
ed
0d
03
f8
17
df
09
e6
02
ed
27
f7
fa
0a
0a
04
f0
2b
10
d4
e1
eb
ea
f7
4e
f9
40
08
f8
e5
fc
e7
06
f8
fa
f9
f1
f9
f2
f5
00
fd
dc
1f
ec
e9
12
fe
04
09
07
0b
0c
0a
0c
ff
0d
01
fd
f1
03
15
09
05
08
13
01
fd
d0
07
03
01
ea
fd
0a
09
fe
08
18
0a
ee
06
e1
e3
ff
f9
1c
0f
0b
0f
0e
0b
f6
03
fb
fa
f3
fe
f2
f7
f4
fc
00
e5
f5
f5
f0
e9
f4
fd
fb
f4
f9
e8
d4
f4
fd
15
02
fb
fa
f9
f0
f7
00
ea
f9
ef
ea
f8
ff
fa
f9
04
ed
ee
f3
0a
fb
02
e9
04
f6
f4
f5
01
ed
f1
00
dd
fe
04
fc
f3
0e
fe
08
1f
f4
29
03
2d
f0
ef
03
09
08
03
01
e8
f1
23
fc
ff
ff
f9
04
fc
07
06
0a
ef
07
fa
3b
e4
e1
fd
09
01
03
fc
f6
ee
f5
03
f9
ff
fb
11
f1
08
f1
f5
01
00
0b
10
f2
19
f6
fc
1d
08
f8
fb
f0
0b
07
ff
fe
00
17
0d
2d
29
e9
9a
08
f4
06
0d
03
fb
07
f7
f6
f3
04
00
04
10
fd
bb
f6
f0
cf
f5
e7
fb
d5
04
01
26
15
d3
e9
03
03
dd
ec
ed
02
fc
32
fe
dd
fa
f5
16
04
fd
0b
f8
de
ff
04
fd
d5
e2
ff
03
10
ff
f4
0b
03
fc
fa
f2
ed
fe
02
f7
f0
ef
f7
11
1f
23
aa
00
fa
fa
f7
05
ea
26
fa
1c
f2
f3
81
01
26
0e
0b
ed
02
03
05
01
f5
fe
00
01
ec
48
09
f8
f0
d2
cb
f3
f7
e7
ff
01
18
f9
fa
02
17
0f
f7
05
fa
02
fc
08
00
f9
04
02
fa
fd
00
08
ff
01
06
fc
f2
16
07
fd
01
03
05
00
03
fa
06
ff
04
fe
f9
f9
fb
02
03
01
fd
03
08
05
ff
03
01
06
f7
fd
02
f9
02
f6
f3
06
03
09
03
fc
ed
e4
fe
00
00
f4
e6
fe
f8
0a
03
03
f9
08
fe
e6
fe
fc
02
f8
0e
ef
fa
03
06
f7
fe
fe
01
07
f4
07
05
0d
01
06
ff
06
fb
01
01
01
09
e9
f6
08
0d
00
07
1c
08
04
01
f7
f5
02
fc
fa
fd
fd
f8
03
fa
fe
09
0d
08
05
03
fb
f9
f8
fc
f6
12
fa
fd
fe
fa
f8
fd
fd
05
fb
f7
f9
ee
f9
97
16
26
fa
05
05
e7
f0
ff
05
04
fc
e0
05
31
02
0e
0e
08
f1
f8
f5
03
04
f4
06
06
07
f2
2e
eb
16
0d
01
08
13
81
fe
05
fb
12
05
dc
fd
08
ff
07
f5
f4
f8
f9
f9
ff
12
00
01
fe
fe
f7
fa
04
03
f9
0b
ff
01
fe
03
01
ef
fd
fa
06
0e
07
0a
fd
00
07
0d
05
ff
0b
06
0d
fa
f8
00
02
fb
07
fb
03
13
fd
05
fb
0a
ff
fc
f3
ee
03
e8
06
e9
07
fe
09
04
fa
03
fa
01
0b
0b
f3
fb
0c
10
05
1a
09
04
fd
f8
01
09
08
ff
04
12
10
06
05
ff
02
05
fe
00
eb
00
f8
02
f2
f8
ff
00
f1
f8
04
04
fd
f2
f8
00
03
09
e8
02
fb
f1
0b
0e
04
07
e8
f9
f2
fd
02
fc
08
fd
01
00
0d
0c
f4
07
08
03
fa
00
11
ea
10
f3
f9
f5
f1
fa
04
d3
cf
05
15
d0
fa
f6
01
d6
fd
fb
ea
f3
a1
09
e7
f8
0c
f9
0c
eb
02
e4
0a
fc
08
10
15
81
0c
fb
ff
fe
fc
fc
50
01
04
05
ca
f7
f3
08
0f
21
ef
fa
fa
f0
ca
0b
fc
17
0e
f1
f3
36
d9
dc
06
f2
e4
0f
c7
10
18
f7
e8
dc
16
fb
e4
0f
f1
0f
1e
03
0e
f2
45
0f
0c
ef
e9
40
1d
02
f3
07
0a
07
15
1c
f4
1c
18
18
cf
f5
f6
f9
12
0c
ed
af
f4
e7
07
12
f0
eb
13
03
27
ee
1d
d4
0b
f5
0b
ee
11
08
fe
f8
1a
17
dc
15
fc
fb
26
ec
28
c9
f5
03
0a
11
fe
f5
01
ff
f6
da
ff
0e
fa
ec
11
00
fc
ce
fe
ef
eb
3a
e3
0a
0c
e1
fd
40
ef
14
fa
21
1c
17
e2
18
fa
00
17
e6
1f
01
02
f1
05
21
01
fa
0a
05
09
1d
fb
05
d5
02
f1
d7
27
f9
f6
23
0e
ee
0b
0d
c1
f4
da
c5
f8
ee
00
e2
13
ff
26
fc
ef
e1
0a
d4
dc
fa
d4
07
da
26
02
1d
1b
19
e5
fa
c3
20
e0
21
7f
1f
37
ed
f1
39
2d
05
f7
f9
ea
14
fb
e5
01
ff
24
13
07
ff
07
09
f0
03
19
fb
08
00
08
0a
05
f9
04
05
f8
ff
19
da
0c
05
03
03
06
fe
f6
0d
06
fc
05
07
0c
fb
f1
f7
f9
05
f8
fa
03
00
0a
0b
f2
0a
f4
06
04
0a
03
06
ea
09
10
11
e9
fa
09
17
fc
fc
fa
5c
18
f9
0f
fe
06
f9
10
fe
c7
fa
00
06
e7
11
fd
00
0a
1f
07
fe
ff
fd
ff
c9
ff
0d
ee
ff
f4
0a
f9
04
fe
d3
08
fa
0a
ff
fa
3a
91
f7
f9
01
f1
0d
01
0b
0c
fc
fa
07
f2
f6
08
14
14
f3
fa
05
f2
04
0a
d8
11
f9
e8
fa
08
07
00
6b
f5
fd
ff
07
04
f9
0a
09
08
f8
11
90
02
00
f7
f4
ee
f8
02
06
01
eb
97
07
f4
0c
df
1a
02
02
fb
0e
fe
05
7f
d6
02
ee
17
e6
03
0d
7b
e8
00
f8
f3
19
0c
e6
f9
f3
0c
03
1e
02
fa
f9
07
14
f0
13
09
f7
f9
19
01
06
08
fd
04
fa
07
03
02
fd
fb
fb
01
f6
fe
01
fb
12
f5
01
07
09
f8
01
f5
05
f2
02
0d
f9
08
11
08
0e
fd
0f
05
fd
fe
fc
f8
fe
f6
01
09
05
04
09
06
f0
fe
ee
0f
eb
01
f5
01
fb
f2
fe
0e
fe
11
0b
f9
fa
f9
f9
fe
15
f0
03
db
12
03
06
02
2d
f2
f2
e7
fe
fb
11
e1
f5
03
18
0a
02
fb
1a
f2
0f
de
fa
fc
ef
11
01
f6
f8
fe
f2
e9
0d
0b
e8
ff
ee
ff
ff
0f
f9
ec
11
fa
65
0d
ff
3b
fd
12
1d
0b
1d
ec
05
ac
cb
0b
f6
0a
1e
07
12
0a
08
20
2a
01
e9
e0
81
0c
04
05
12
fe
04
f1
06
f3
fb
0a
ee
0e
01
dd
0b
0a
13
0a
ae
01
dd
e8
25
1d
ab
ff
cb
fe
eb
1b
e9
03
27
f9
cd
f7
fc
31
f4
0d
e7
e8
0a
e7
5d
5c
29
0d
cb
ea
01
c7
42
ab
3e
c7
de
5a
28
aa
c3
05
19
22
47
0a
45
20
12
41
aa
1e
0c
35
14
f7
48
e6
fc
eb
e9
10
81
1a
02
e5
fa
c1
50
45
03
07
16
f6
f0
16
19
12
f5
ef
17
03
e4
dc
07
f3
17
05
c0
f6
dc
14
0b
01
13
20
1d
17
1a
fc
08
0d
06
f8
0e
fe
fb
db
15
ec
d5
fd
03
03
07
e5
fa
20
0e
fa
e9
fc
1e
e3
fa
fd
fe
f9
f8
da
df
04
fc
d9
f3
01
0e
f7
ff
fb
04
16
10
12
03
f8
05
f6
0d
da
fc
12
04
07
0f
f9
01
c9
02
09
23
08
ef
28
0d
f9
03
0f
09
f0
fb
ee
0d
ff
0b
fa
10
e1
11
e3
23
fe
01
0e
0c
0a
04
fe
fa
e2
f6
df
23
21
19
06
f9
f0
fc
3b
fc
0e
11
e8
db
fb
09
fd
00
11
fd
10
fa
09
fe
1b
f6
ee
20
07
f5
f7
fc
03
fb
f7
f2
00
e9
03
f0
0d
f5
00
0e
f6
fc
18
fb
09
01
fb
00
0b
1c
0b
14
f2
f2
e6
07
fd
e7
f9
1f
0e
0e
13
01
f1
0b
04
f9
08
e5
fb
ed
e2
04
d0
ea
32
fd
f5
11
df
18
1a
ff
0c
ff
f4
fe
f1
f2
27
f1
f3
a1
fb
ed
18
27
00
0f
f6
0d
f8
fc
f7
00
ff
0a
21
08
ff
03
fb
07
12
09
fa
03
07
e0
f9
0c
e5
e6
fe
ec
07
fc
f7
03
f5
17
03
d4
fe
b3
12
37
df
20
21
19
2b
4f
0e
b1
f1
01
e9
06
12
0f
34
9d
b8
ff
f0
21
02
24
20
f3
18
41
20
34
2b
08
e7
0a
f9
db
f7
42
d1
15
08
b8
21
10
ed
b8
15
23
ef
fe
e5
44
f0
0a
fc
f4
1e
81
17
ff
f9
0d
00
e5
fe
0b
fd
0c
f1
ff
fa
fe
02
0d
fb
09
02
f4
00
23
03
04
0c
01
ff
f9
07
00
08
09
fb
03
fa
0d
f8
f3
01
07
fd
03
06
fc
f0
00
fc
f0
f0
12
14
fd
07
0e
fc
f1
f4
52
fa
04
ff
f7
f4
fb
ec
04
fa
0c
06
fc
04
fa
f7
ea
02
f6
f6
f4
02
e3
02
fe
02
0b
08
10
ef
11
08
25
06
14
0d
ef
f6
06
f9
19
f8
e1
f2
03
f9
0d
f4
e0
f0
fa
f8
0a
04
02
fe
fd
0e
03
f4
0e
f1
ea
21
f8
0f
1f
0b
0b
dd
12
33
fc
40
1e
0e
ff
10
03
23
f9
0b
02
05
b9
ae
d2
a5
90
16
fa
14
1f
1c
d3
c5
15
f3
36
f4
1b
1b
08
81
0e
12
94
ef
da
00
f5
02
fb
0f
16
0a
28
fe
1c
10
07
2e
25
e7
fc
01
13
22
fc
d7
26
13
cc
08
01
fc
ed
0c
12
05
e3
01
0c
dc
16
0e
15
ca
84
a3
0d
ce
42
28
1f
4b
f9
07
f7
15
06
32
15
35
27
ed
02
e3
04
c0
e5
02
11
e3
ef
4f
a0
b0
26
13
01
0d
31
e5
2a
07
50
d8
0b
ba
e1
17
3b
fa
fb
af
81
15
17
0e
f7
ff
f7
dd
09
03
0c
08
09
f7
f7
0f
f7
0a
0d
ff
02
f7
03
ff
f8
f7
0a
00
07
0d
0f
00
05
0f
0b
ff
13
f7
fd
0b
0a
16
f9
19
0f
03
f7
13
fd
fb
03
23
06
f9
05
f9
f7
07
f9
eb
fc
fb
02
02
f2
01
05
d8
e3
eb
08
f3
fb
05
01
07
03
06
ff
02
00
f7
11
e0
fa
f4
fc
08
05
ee
05
bf
07
01
42
0b
e7
fa
fe
f7
15
01
05
f0
09
f5
fb
05
02
fe
12
f4
0a
e3
07
fe
fd
05
16
10
09
05
fd
d1
fd
e4
ec
fb
2c
f7
01
11
03
ef
21
c4
dd
f7
08
0e
eb
2f
03
df
14
1b
ea
bf
05
fa
f9
37
ec
05
05
03
fc
ed
f8
f5
fc
0f
f9
cc
f8
ef
ff
08
f4
16
10
f8
0a
01
fe
e9
07
1a
de
03
f4
2b
0c
13
26
e4
20
24
e8
e7
f8
ff
f8
18
fc
c6
1a
03
ee
25
13
d1
f1
01
f8
ee
f8
26
e8
f3
eb
ef
eb
ff
0b
f2
ef
2a
fc
dd
f8
c5
09
0e
06
d3
fd
d5
f7
ff
14
64
24
19
fe
f5
fc
0d
e8
25
28
ef
fc
0e
f8
cd
d0
23
c9
f1
dd
f5
fe
42
e1
1f
0b
16
2b
11
1a
fc
25
e9
c2
e1
0c
0a
fa
2d
27
ea
a2
e3
38
05
d0
aa
23
ff
17
be
c1
dd
fd
ee
25
ea
14
f9
0f
23
e6
fa
32
f9
01
c8
e7
e4
e8
eb
02
81
fb
13
5c
0d
08
47
0a
16
17
0a
12
da
45
32
39
fd
41
ed
07
28
fa
07
02
07
f6
07
e9
03
04
05
fc
02
fd
03
f6
f8
f6
fc
02
00
08
0e
f2
ff
09
0c
04
03
06
fd
10
04
03
fa
03
0c
0a
03
f6
12
05
fd
04
03
03
06
f6
e1
05
f7
f8
f8
f7
01
f0
0b
f2
08
05
07
00
01
09
ea
0b
06
f3
f7
07
fe
df
03
fe
0b
fd
05
0a
ff
f6
04
06
00
e8
fa
00
fb
06
04
e8
07
10
fa
fc
11
fd
f8
05
fd
07
06
f7
06
01
f7
e8
01
0e
06
04
1a
05
05
0a
09
ff
fc
03
bf
fe
fe
09
0c
13
1b
05
07
10
eb
15
f1
fe
01
ff
00
7c
0f
ee
fe
05
f4
f9
08
f6
09
c9
f6
ff
01
a5
05
fa
fb
81
01
0a
fa
03
10
01
dd
fd
00
04
f8
04
f8
f7
7b
00
02
f8
f9
bb
fe
08
01
fd
ff
f8
27
fc
06
fd
ec
02
fe
0e
0b
08
01
0a
01
fc
fc
b2
09
f1
03
12
01
1f
0b
48
19
f7
1b
eb
f1
e8
f6
1c
e2
01
23
e4
e8
20
08
fe
1f
00
0a
f6
07
1f
e8
0b
02
d6
f7
cf
81
0d
e9
17
20
fd
07
00
ef
39
06
f8
09
fa
f0
ec
fd
11
24
f5
f6
08
04
d1
fc
04
01
f1
02
00
03
03
00
00
08
05
02
02
fc
07
00
09
fe
07
12
fa
02
00
03
0c
05
07
05
08
03
0a
18
0a
fd
06
05
ff
fb
07
fa
fc
fa
fd
ff
fe
05
04
07
0e
0c
07
f6
10
ff
f5
e4
03
02
0c
fc
f3
02
01
f6
ec
ef
06
f6
02
07
f9
08
01
04
03
07
fe
00
0c
e7
f9
00
fd
04
09
f4
fc
e0
08
07
20
08
e9
03
03
f8
02
03
0a
f7
03
f4
00
f8
07
01
07
f7
0b
e9
08
fd
fc
09
0c
09
09
0f
fc
d0
00
f4
04
04
1a
00
03
0c
0d
fc
fe
f3
fd
fc
fe
fd
01
3b
05
05
fc
03
01
f7
02
08
f9
08
03
06
07
fd
fb
f9
03
f8
01
14
db
06
05
fd
fe
09
ff
fa
01
fd
00
ff
01
0a
02
f9
fc
f9
fc
f5
fe
ff
06
02
02
f8
e8
f3
f9
02
05
03
fb
08
08
fb
00
f4
0b
f4
10
02
04
01
20
f6
f1
fd
09
0a
00
0f
02
1e
fc
fe
ff
fe
0f
f9
06
0a
ec
f2
ff
03
fc
06
f7
fd
f1
fb
fa
f7
01
08
05
f1
17
ff
fd
ef
00
f7
e2
f3
00
04
f8
00
03
ff
04
0b
16
fc
fd
07
fc
fd
0d
fc
02
0f
00
08
01
fe
f9
06
0a
20
0e
f6
fe
fe
98
07
fd
f2
01
02
02
e9
09
00
ff
02
6e
01
03
fe
02
04
e5
fd
05
fe
fe
7f
fc
f9
01
fa
0c
fd
04
00
fe
fe
06
da
0b
08
f8
fa
f1
01
f7
b5
f2
02
f5
05
10
fa
15
f8
f6
05
03
fd
07
03
04
fa
03
f2
03
06
fb
f4
03
02
05
fb
09
03
06
05
ff
fc
f3
fa
00
fe
00
01
fd
03
06
ff
08
02
fe
f8
fb
02
fe
fb
ff
06
0d
f8
fb
f1
06
03
ff
12
fe
03
ff
ff
00
02
0a
0e
fd
fd
f6
fc
06
f6
06
05
f5
fe
04
ff
0b
ff
01
f7
fe
f6
0e
f6
f6
15
06
01
f9
0a
ee
04
00
00
04
00
05
01
fd
03
04
00
ff
fc
05
ef
06
05
04
fd
ed
12
fc
08
f2
fe
12
0b
fe
fd
03
fd
f9
02
07
06
cc
18
7f
04
de
f6
03
05
f9
fd
06
f6
e3
f6
f8
02
02
0d
03
36
1e
f6
0b
02
fc
05
ff
30
f6
06
08
eb
f6
06
05
f4
fe
c2
06
20
05
01
04
03
02
d5
b2
05
e3
03
f7
01
00
01
05
02
eb
14
0c
f2
12
00
03
fe
fe
c8
b5
eb
c4
f5
07
23
26
05
13
21
dd
eb
b3
0b
d0
9a
11
35
ce
fc
21
20
13
fb
9f
d9
c9
0e
1d
fd
05
1e
22
fa
2a
e6
d1
39
09
b9
15
e6
ef
13
45
d3
81
e1
28
38
6b
40
ee
83
f6
0c
3c
b3
cb
35
f1
a4
fd
fd
01
15
ff
e9
f3
18
03
f7
06
06
dd
26
09
2d
1e
21
e5
0a
14
05
04
d5
fb
07
06
0a
09
ef
10
0d
f9
e0
1c
12
2b
21
0a
1b
bb
2f
07
f6
f4
01
fd
07
10
ec
08
f0
f9
f6
e1
dc
17
ed
a0
0d
da
15
10
31
fc
d8
05
09
d7
ed
25
45
05
04
ec
e3
f1
e9
e8
c6
17
59
ff
17
30
d5
df
f1
02
e8
56
ee
f2
2e
fd
05
fe
07
f8
dd
e2
f6
ff
1d
05
f3
f8
cb
2e
b3
0b
fd
13
13
08
c3
e4
e6
06
1d
16
e4
5d
08
fa
e8
2e
02
05
09
03
04
d8
f6
f7
ff
fb
1b
f5
e9
06
0e
e9
fd
fc
eb
f9
13
0b
0a
fd
0a
fc
ea
e7
08
ee
ed
fa
01
07
06
f7
0f
01
1f
16
f2
06
e3
06
fa
f6
19
03
16
da
20
02
ff
06
fd
08
02
43
ea
fa
ec
dd
f2
ff
fa
ff
fb
e9
fe
10
d7
b1
18
f3
fa
f6
08
f1
05
ec
fb
f2
05
0a
08
0c
0b
08
f8
fc
f6
f0
e1
0d
e0
01
03
02
f6
03
0b
09
02
0c
06
01
0a
fb
09
fa
1c
f9
0a
11
e7
0d
f4
ea
13
e9
00
01
fc
f2
eb
fd
f0
03
ea
df
f7
09
fa
f0
11
07
02
f6
06
f7
07
c7
fb
e2
b2
1f
62
fe
e4
2d
24
f1
11
20
0b
e2
1a
05
52
03
18
e2
f3
2f
d8
0c
ec
09
0c
10
03
fe
1d
5e
eb
18
f0
ff
3f
0f
81
13
08
f6
1c
06
00
14
fc
dc
13
f0
09
02
07
0c
ff
0a
03
fd
f8
f5
21
f5
f7
00
f5
1b
f7
fc
fb
05
03
f0
11
fc
fb
13
14
ef
0f
07
25
ff
0e
f8
f3
fa
17
e8
f0
01
fa
03
fb
f1
0b
09
db
0b
f0
fd
f4
ef
02
0b
ff
f9
11
de
20
07
0a
fd
f1
f0
ed
fe
05
01
0d
f2
1f
05
f8
eb
19
17
e8
0e
fa
ee
e7
f8
05
fc
f4
ff
0e
28
13
10
fd
0b
12
eb
05
01
1b
f7
00
f8
f2
fc
ef
03
f6
af
04
1c
f6
ef
12
f5
f7
11
04
fa
fc
fd
f1
1e
e2
04
f5
02
09
04
0d
08
e0
ff
fc
f0
f9
13
f4
f5
14
04
ed
db
fa
0b
d5
2b
0d
8d
ff
ea
e5
23
f7
ea
01
25
ea
3a
09
04
18
fb
81
05
07
f0
f2
1d
f9
02
01
e9
0f
f8
e0
2d
0b
e3
0a
0a
f1
fe
0b
18
15
fb
db
0e
e2
f8
f7
dc
f1
18
1f
0b
f3
0a
01
fa
fc
02
03
f4
fd
0e
fd
11
fc
fe
f7
f6
f9
01
0d
ff
eb
03
11
16
08
02
fd
07
01
01
09
0c
12
fe
81
fe
f1
02
0c
0d
f3
1b
19
19
ff
fa
fd
f0
fe
10
ef
e9
0c
f6
0a
13
11
f8
ef
06
ff
03
ee
fd
ff
ff
fd
f9
00
05
0a
fb
01
ff
fe
00
01
00
fe
02
05
02
05
00
02
00
01
04
03
07
04
fd
fb
04
07
00
07
07
03
0b
fd
06
fb
ff
03
05
02
fb
04
fe
04
03
05
fc
01
00
01
00
f6
00
fd
05
05
fb
fe
ff
f4
fe
f7
07
ff
02
01
02
08
02
fd
03
ff
fb
fd
ff
f7
fd
06
02
00
04
f8
fe
f2
03
01
19
03
f9
04
02
ff
00
02
03
fa
ff
f6
04
01
05
ff
05
f7
04
fa
07
ff
ff
05
04
04
04
02
01
f2
fd
fd
06
03
0b
02
ff
05
18
ea
fb
05
1a
1f
09
fd
0a
df
ed
fb
05
0f
00
03
0b
0e
f5
f0
f0
07
ee
0c
00
16
09
07
01
09
fa
20
fb
0d
0b
fe
0b
09
fd
f7
01
fb
11
0f
03
00
1f
e9
02
fd
08
04
fa
15
ef
f2
d6
ed
ff
fb
08
f7
11
01
08
08
17
0b
f2
05
24
1a
04
f9
1d
db
08
0d
ff
0f
06
16
22
03
f4
0a
11
c3
0e
07
23
0a
0f
05
eb
0b
f8
f9
10
0b
0b
f4
3f
eb
fd
f2
02
08
1a
fa
fa
13
0d
14
03
22
15
fb
f5
ff
f8
cd
05
ff
01
fe
13
f9
f2
f7
0a
17
11
da
fd
af
c9
9a
fc
81
ec
06
58
f4
f9
b2
f8
fd
0e
00
eb
e6
0e
1b
00
00
f4
04
0f
04
4f
ef
1b
10
14
07
fd
03
ed
fd
aa
f8
05
fd
1a
f0
01
26
11
06
8b
00
05
fc
f1
0d
07
08
08
e0
12
f6
ec
f7
23
03
ee
02
11
b7
2b
11
20
f3
f9
cf
f5
df
f4
27
16
f5
fd
0f
81
15
b3
9d
b1
27
23
04
02
09
4a
2f
34
02
01
eb
fb
f5
33
f2
23
fe
f2
ec
e1
ed
8a
f1
3c
d6
0e
1b
ee
0c
2c
d4
45
1d
2b
16
37
ed
fe
ff
0a
f6
f8
18
fa
04
06
f9
07
0a
fc
ff
04
ef
eb
10
fc
08
0f
fe
07
04
0b
00
03
0c
0f
04
10
f0
f8
04
00
f7
02
fd
04
fb
02
14
f3
f8
eb
ec
02
18
21
09
e6
fd
06
09
09
e8
f5
fa
04
07
fa
ec
f7
e5
e8
e1
06
f9
04
fc
ff
08
08
00
fe
fb
f0
f7
ff
ed
f4
03
08
fc
07
f1
02
c6
0d
f9
28
02
e6
fd
07
fb
f9
07
08
f7
f5
e7
0e
08
0b
fb
0c
ee
10
ef
06
00
fe
12
11
0b
08
05
fe
da
fa
ec
09
02
19
03
fc
0a
f7
40
d3
f1
f1
f3
1d
df
f7
3a
08
0a
fd
fa
f8
d5
bd
f0
d7
14
d2
11
f5
fe
fd
fd
f2
f6
05
c1
cd
ca
03
eb
da
f5
02
08
de
06
fa
f1
fe
f7
0e
e9
34
ed
dd
ff
fa
a8
f1
e8
07
ea
c8
4f
21
27
01
f4
1d
0a
03
04
17
ea
e8
f4
02
0c
11
09
f1
ec
f1
ca
fa
13
0c
c2
fb
11
02
02
05
ff
10
f6
02
11
f3
eb
12
25
08
06
f9
ed
18
f8
0b
f0
0b
fa
02
0f
03
08
f5
1a
49
08
ee
1c
ef
eb
07
d1
0c
da
f3
13
f4
01
f5
c9
ea
e9
06
f1
ea
ef
09
ec
ee
fb
f5
02
e6
06
e3
f7
fe
01
ff
fd
14
f1
01
15
f4
11
7f
03
ec
fd
f7
08
08
fe
0f
ed
f8
f4
f9
05
f2
0e
03
fc
fa
f4
0d
fd
0c
09
03
e0
f5
ff
14
e0
0c
12
fb
ff
fe
0c
17
fe
fc
04
05
05
05
03
f8
01
01
02
02
fe
fd
fe
00
fd
ff
03
fe
03
04
01
fd
fb
01
04
01
fe
fb
ff
04
f3
06
0b
01
fe
04
fa
f2
fc
02
fd
fb
fe
fc
f9
0d
f7
05
fc
fa
fd
f8
fe
ff
fd
28
02
06
06
fb
fd
00
ff
01
f7
fb
f8
06
03
04
03
ec
01
f2
08
0f
ff
06
07
06
fd
0a
fd
06
fd
02
00
40
fe
03
28
fd
0c
01
02
01
0c
07
04
f6
0c
06
06
09
06
fe
04
01
ed
01
fd
f5
08
00
fb
fe
17
ff
01
00
07
ab
04
ef
fd
0a
01
10
fc
00
05
02
01
ae
07
fd
fe
08
fc
fb
02
fe
04
fe
11
00
04
42
0c
ef
f3
2a
fe
0f
03
fb
3e
01
03
ff
04
02
f5
ff
02
fc
a1
fe
04
ff
04
81
ff
fd
00
03
ff
fb
1a
ff
04
01
fe
08
f7
ff
03
06
03
12
06
04
01
03
05
0a
fd
fe
03
fd
13
08
fa
f7
06
16
f8
f9
ff
fd
fe
11
01
06
04
f6
fe
01
f8
07
02
f2
0e
0c
f8
0a
00
03
fe
00
fd
0f
05
05
04
00
00
17
04
04
0b
0b
0d
0a
fe
0f
eb
0f
f2
fe
fa
fc
01
f4
17
02
0a
fb
ee
fc
fe
f2
0e
54
05
04
00
f3
0e
0c
fc
01
0b
0a
0c
fa
00
ed
fe
a1
04
0a
b8
f9
03
f8
06
0a
e3
0d
ee
fc
06
f5
08
fc
01
f6
00
06
ea
05
f5
08
f1
06
fb
04
d2
fc
0f
06
ff
48
55
f6
01
f2
fa
f4
ff
03
fb
f7
0f
47
fe
0e
ff
05
02
ff
08
11
b2
03
0a
08
08
94
f8
f3
f7
81
ff
2b
08
07
b6
00
01
07
06
ff
fe
fa
02
03
36
05
f8
04
ed
78
fa
ff
fe
06
0d
04
25
13
ff
ff
15
11
eb
0c
fe
0e
fc
10
fb
25
0c
17
e1
ea
03
d2
04
0f
07
f9
0c
1e
fd
a4
dd
03
11
0d
07
f5
d7
03
ef
0a
d9
14
e2
11
f3
b4
49
f5
18
08
15
39
f9
cd
e6
da
00
f5
e0
0d
f2
04
d4
14
dd
18
ce
fe
f5
0c
07
c5
fd
fc
fa
0a
df
e5
f2
07
04
e7
2b
13
10
0f
22
fd
e2
f2
f8
37
17
2c
14
f9
e6
f2
ec
f2
0f
ef
e3
1b
ca
dc
11
1c
f3
e2
30
b7
ea
fa
fc
d0
19
d3
e2
eb
e4
fc
09
d5
0e
f8
c7
e9
15
0e
24
0d
f7
19
ff
2c
4e
0d
13
f1
f4
f1
06
e2
23
d4
fd
75
c3
f0
16
05
eb
c1
cc
a4
10
10
19
d8
ce
de
01
c1
07
3a
ff
fd
ef
36
23
28
f1
e2
a1
b6
01
1c
d0
4c
00
f7
09
f5
fc
da
c7
05
59
81
ea
22
c2
cd
59
fa
1a
c7
0a
bd
85
c1
00
ed
f2
03
04
0f
05
14
e4
d3
f8
23
14
df
e6
06
0f
ed
eb
1e
14
d4
f4
f0
7f
11
0d
15
d4
0a
0d
dc
1b
1d
11
f2
df
d1
c1
ec
01
30
f6
14
ed
ea
02
1c
f7
14
99
b3
fd
02
11
f0
d6
07
fa
07
1b
17
06
26
ca
18
ec
ad
ec
05
d7
fb
06
fc
e6
0b
03
f7
06
0f
fb
37
d9
e0
ef
19
1f
16
03
ea
e2
fb
0f
03
f0
f6
f5
fc
e2
ea
10
cf
21
d2
03
1e
0c
fe
f3
dc
22
10
ed
17
fa
1f
15
f1
f4
07
2f
fb
08
3a
ff
e9
bb
29
db
0e
13
f3
eb
14
f7
10
03
d8
11
07
2d
f1
13
f0
05
04
cf
f7
02
eb
2c
15
10
04
fd
f8
e8
00
ed
f5
0d
f8
e9
fc
f4
de
ff
06
e8
16
de
f0
0a
1b
df
06
ea
ef
eb
22
00
0f
16
11
1f
ea
f8
e7
d2
fd
cd
d8
05
35
ed
e9
1a
03
14
06
0a
f9
05
f9
ff
08
05
0a
02
ff
04
12
f9
ff
04
f7
f9
1e
05
0a
0a
fc
06
01
fc
08
fc
0a
e4
09
fa
07
f5
f6
02
0d
04
07
0b
fa
f6
ff
01
00
f2
0a
fe
06
0d
0d
fc
12
f6
fe
10
03
04
fb
08
04
f8
05
f8
0d
f8
fa
08
db
f7
f9
10
09
07
ec
fa
14
04
0b
0c
0e
05
0b
01
09
f5
03
01
e7
03
01
f6
fa
02
fd
05
03
01
02
fe
0a
f8
ea
f0
04
f9
0b
0c
ff
06
ea
0c
ff
f4
01
07
ee
01
f8
04
0f
fe
07
fe
04
e0
e8
2c
ff
02
94
fb
03
11
fa
01
09
05
81
e8
e3
96
d9
17
01
f9
2a
d9
f9
11
02
03
fb
2b
d9
0d
fc
e5
d4
08
06
f8
04
db
1c
10
05
00
f7
d3
16
d9
f8
01
fe
2f
14
a8
04
f9
03
2f
e4
eb
26
f4
e7
05
0f
ee
04
0d
06
f6
f1
09
f7
05
05
f8
04
fd
ff
0b
00
ed
ff
0b
f5
f1
19
06
0a
04
fa
fe
04
ff
02
ec
fd
e8
05
03
ff
fd
f9
ff
11
00
06
02
09
fa
f8
07
0e
fb
f8
f1
09
fd
0c
fc
01
0d
e2
15
04
00
fa
fc
00
f5
0a
ff
0e
f2
06
0a
ec
05
09
06
f9
0d
fe
f6
09
06
f7
04
02
02
01
02
07
e6
fe
f7
ec
01
fb
0e
fb
02
ff
06
fb
02
00
0d
00
f7
fc
06
03
fd
fe
0a
ff
fe
fb
15
fc
e9
fa
f7
e6
09
fd
07
00
ff
0e
fe
07
f6
ec
1a
09
02
c7
fa
fb
06
fd
fe
0f
fb
b4
10
f5
fc
17
12
11
28
11
d9
19
fd
fc
1f
01
f6
09
07
06
c7
d4
00
f8
ef
df
df
f7
05
0e
fb
f9
f1
02
81
0b
fc
f5
3e
18
fc
00
09
11
fc
bc
f0
0c
2c
12
17
eb
09
3c
df
b3
f8
ef
f4
1a
3e
40
fa
28
06
3c
e0
f5
fc
09
07
02
37
0a
20
17
04
81
c2
d3
42
17
ff
ec
0e
8f
1c
06
05
43
ee
0b
27
5c
f0
d5
1c
fc
ea
17
c7
1d
0f
21
e2
ef
ef
dd
09
31
34
06
01
e5
05
d3
f5
01
f9
0c
f1
06
fa
0a
f7
fe
fb
04
fb
f7
11
f2
00
11
00
e6
0e
01
fb
f3
0a
f9
05
ff
fd
09
e8
13
0b
06
f9
f8
f8
fb
08
f9
02
02
0d
f8
17
0d
11
06
fb
13
f9
ef
01
0e
09
f9
01
07
ef
fa
f8
f9
0f
00
ed
eb
ec
02
08
fc
00
02
03
f7
08
0a
ff
f5
f0
01
e7
f9
f8
04
05
00
01
08
d3
04
fd
1e
0f
e4
0b
0a
fb
07
05
08
f4
f4
ef
09
fd
05
f5
0a
00
09
eb
0f
02
05
13
10
02
09
07
00
d9
fd
eb
0d
09
1d
fb
01
07
fc
fe
01
05
f0
05
10
09
04
0d
fd
04
09
f9
ff
04
02
fe
08
03
fd
f7
fd
02
02
08
00
01
f8
11
10
ef
0c
fb
05
fe
0a
fa
ff
fd
09
06
fb
f5
09
ff
01
0a
08
15
fe
07
f9
fc
06
ff
f6
fe
09
0f
0b
04
05
fe
01
fe
e0
04
03
11
eb
f9
e9
11
f4
0c
f3
f2
f5
f2
ff
f0
ff
06
f4
ff
fc
fa
35
03
03
f9
0c
03
f1
f5
0d
f7
18
0e
f5
02
fe
f1
ff
fa
05
00
10
19
fa
f4
1c
f9
07
fe
fd
f5
0e
0c
04
00
11
04
fc
05
fc
fc
25
e5
04
fe
0d
ed
6f
11
eb
f9
fa
e8
ec
1c
ef
fe
d6
fe
fd
0b
b0
ff
19
fe
7f
f7
10
f2
20
c5
f4
e3
04
03
07
f7
ff
ea
f2
a8
fe
fc
ff
00
c0
e7
01
f3
18
fa
fe
27
da
f9
02
fa
f5
14
23
08
05
f8
00
f8
fd
01
04
de
e4
3d
25
01
04
0a
02
03
ff
04
ff
05
fc
fa
fb
01
0a
06
f3
0a
07
05
ff
06
f5
fe
f9
04
fe
05
10
f3
f6
08
fc
0a
03
08
09
f8
03
0c
19
f9
03
d8
01
f3
fe
0c
01
ef
1f
f7
05
f5
ff
fb
05
08
08
fc
10
22
fc
f0
0c
fb
fd
cd
ee
08
03
f6
01
0a
09
09
f4
f4
1b
63
08
e2
fe
f4
03
fd
ff
ff
84
0d
eb
f2
07
08
23
f6
81
11
00
04
05
ed
06
fc
fd
f1
08
18
ea
fa
05
fa
09
e5
04
06
f9
0d
ec
eb
ca
f4
05
05
0d
fd
11
e7
e6
02
f9
d6
0f
c5
fc
05
e7
fe
03
f7
08
00
fa
f2
33
df
f6
0a
f3
f5
07
ff
07
03
f9
f2
06
08
09
f7
03
00
f2
f1
e7
ee
f8
14
08
ef
03
fe
0a
f0
c9
00
fc
f2
02
00
0f
fe
0c
f4
00
6f
ff
23
f7
e7
02
2b
2b
f9
e0
04
ff
c7
07
f5
fd
c8
07
ef
f8
16
ea
fe
ea
fe
09
06
fc
fa
0c
1b
0f
1e
fc
04
e3
12
fe
f4
0f
06
dd
f8
f4
07
0c
df
d3
0a
01
f5
fd
f3
f8
f9
e5
32
e1
20
1b
24
fd
f0
1e
f4
eb
f6
f5
0c
25
09
11
08
02
da
ee
ea
d4
04
2d
05
02
0f
f6
eb
f9
f8
15
fd
ed
0a
05
00
17
ef
d8
41
09
ff
03
17
08
ef
f7
10
fa
03
fa
e2
14
f3
12
f9
f6
d7
02
0b
ee
f8
ff
c4
d9
ee
f8
ec
f5
fe
e7
ef
03
01
fe
f4
d8
ed
f0
2d
f3
f5
19
ee
ec
16
2b
02
20
06
dc
11
ce
dc
11
3c
c5
f0
0b
20
e5
ec
da
04
f5
d8
0e
ec
ef
f1
09
e1
02
05
e7
07
d9
16
f9
f4
fb
09
01
04
e5
07
e6
02
81
09
d9
fb
fe
0b
fe
14
24
a2
e8
00
e2
06
1e
2c
28
0a
f0
34
d5
f1
00
ec
22
ec
f9
18
53
f7
1d
f5
01
13
05
e3
16
31
1f
21
06
2d
07
fd
0c
f7
0b
0b
f3
1f
0d
ef
e7
e2
db
e0
24
ed
e6
1b
21
0d
49
28
d1
94
00
ce
06
24
f8
e4
22
f9
0e
04
18
00
f5
ea
00
0e
ef
f4
fa
32
0b
fc
18
27
e0
ec
e9
f8
13
be
fa
0c
09
01
0c
13
fe
16
f1
e4
ea
de
df
12
01
ee
f0
f6
15
e7
f0
0d
08
e3
12
1d
28
f6
18
e4
05
d3
f4
26
fd
13
f0
1e
02
49
cb
d6
c4
dd
fc
05
f3
22
00
e5
ed
e9
c7
ff
16
f6
dc
d8
f5
dc
21
bf
b5
9c
00
09
23
02
60
34
14
e9
d5
e9
ec
53
ac
0d
ec
18
06
02
03
cd
29
f5
e9
07
f7
50
14
ba
05
1c
ff
b5
ae
68
e8
f6
26
e8
81
22
fc
2e
18
cd
01
ec
e5
f8
f9
06
f1
f9
0b
fd
fc
fe
f6
10
ed
02
e0
d3
04
ef
f0
16
f6
05
e1
0a
81
bd
fd
ef
e3
ef
e6
fe
e6
e6
f2
e7
f4
ea
fe
f5
11
0c
ee
17
e7
fe
16
e0
21
04
56
15
e1
f8
13
0f
11
fa
f0
00
f8
ef
fe
fb
ec
f9
fb
0a
f5
ef
22
ea
f1
0c
00
d4
1b
00
1a
fd
e7
f9
d9
ed
e4
fa
f4
fe
0a
fc
e1
f7
f1
ff
09
10
f7
1f
20
0f
0b
ee
f9
e9
0a
fa
2f
ff
0e
1d
fd
07
e5
f6
f8
fd
ed
0c
05
ec
01
1f
25
02
fb
0c
e1
f0
f2
ed
04
e0
18
01
2c
0d
1b
cf
2f
d6
f8
00
db
1f
10
e0
cb
e9
03
03
17
d6
f5
35
01
e8
f4
fa
19
09
f3
06
e6
04
ee
0d
cf
0c
e7
fb
04
bc
e9
f7
e5
f4
08
38
00
13
a1
eb
e9
f8
04
18
0a
fb
c1
0c
e8
fb
e3
0a
2e
10
01
1c
39
da
f0
ef
21
c3
e1
01
0b
cc
f1
09
06
a3
f1
ec
eb
fd
09
1d
e7
81
da
0d
e4
34
42
f1
f1
2b
f6
23
b3
0b
ff
f7
37
00
2a
08
fc
60
d4
ee
17
31
67
07
14
e6
b5
d1
09
fe
ee
ef
fd
f1
02
fe
05
ec
f1
df
09
0d
dd
16
fe
f3
16
ef
f2
f3
02
e3
05
01
ff
07
ef
14
0e
f2
fe
11
18
18
e9
fb
0b
01
f8
1a
1b
03
e4
fd
f3
e5
17
f4
f5
ea
0f
03
fb
fb
e9
02
1d
d1
f6
f8
07
fb
f6
e6
0e
00
fe
f9
ec
07
f1
fa
f9
fa
00
e4
00
bd
d4
f8
04
01
fa
f8
f4
c8
03
fc
33
ff
06
e6
05
d7
02
ff
02
f2
16
f1
fb
00
fd
09
0c
06
fc
03
00
fc
f8
f9
03
26
07
0e
ff
da
15
f1
0a
00
fe
fe
12
10
f8
e7
01
ff
15
f5
e7
0a
0e
ef
fc
04
00
fa
01
f6
09
02
0a
f4
16
00
00
04
04
fe
fc
09
fe
07
00
0f
f8
fc
f8
fa
fc
f9
07
01
06
0f
f7
06
09
f8
e6
f5
01
14
f5
01
09
01
f2
09
22
f8
01
f2
fc
f4
0e
f7
0f
08
ff
07
fb
03
d7
f3
cb
01
dd
f3
00
ff
f4
ef
0b
02
04
f5
f4
f4
08
0d
17
e1
ba
0a
00
ff
0e
0c
0c
0a
e2
02
f8
ef
e0
f7
ec
27
05
f4
0d
01
09
ee
15
12
16
d2
0c
18
f2
14
f3
0a
13
ff
f1
fa
12
f0
12
fd
20
04
b4
fb
04
02
0e
0a
1b
09
c5
07
cc
f2
cf
e6
0b
14
11
e3
c2
81
11
0c
fa
0c
13
0a
0b
d6
f4
06
0c
ed
a0
0d
0c
09
06
0a
0e
c7
12
f4
1c
0b
07
fd
04
e2
08
0b
11
1d
b8
eb
d9
ff
0d
04
ab
0e
17
d2
30
07
fa
fb
ea
d4
d6
11
81
44
df
0a
07
e8
e9
12
29
1d
fc
56
0e
d0
d3
25
cb
f3
ef
fe
f7
e9
04
20
08
01
e1
f2
13
04
df
3b
00
13
d6
38
e5
b3
0f
fd
f2
13
ca
ef
c6
0b
37
3b
fe
f3
d6
d8
e5
02
05
13
02
ea
0e
11
0f
09
04
0c
f4
1d
f0
1a
11
18
05
11
f7
0e
04
02
14
ec
10
0c
06
fa
03
04
0c
fb
1f
05
0c
f8
14
f9
07
06
fe
03
08
00
f8
09
f8
10
fc
0d
12
fb
0c
fb
0e
d1
04
02
17
fb
01
f8
13
ea
ef
f2
0a
fc
05
07
f7
0a
ff
fe
02
02
f0
fd
ff
e6
fa
00
ff
04
03
f1
04
d2
01
ff
35
02
ec
13
04
f6
11
00
0a
f7
f9
f8
f8
f6
03
fc
0f
f6
17
e6
0f
ff
f9
0d
0e
03
04
09
05
dc
05
f2
0c
03
25
01
0d
11
ac
fd
f5
fc
29
0a
51
f4
f5
1b
19
cd
bb
c8
0b
f9
0a
ac
0a
cc
de
fb
f1
01
f8
d3
0a
0c
0c
96
81
2a
e8
a1
f4
f6
f5
ec
f1
d0
06
4e
cb
cb
f9
f4
f7
61
03
e0
19
f8
dd
d1
0a
ed
9c
08
0a
0f
08
28
04
0f
ee
05
e5
08
dd
1a
e0
00
f3
1c
f3
ca
13
08
dc
07
fe
fa
0b
08
fb
f2
f2
1d
e6
0c
f6
ed
dc
fd
f5
de
24
fa
16
03
05
08
fb
ef
e2
ef
04
eb
f6
ee
f5
15
0e
ec
03
f7
f3
f5
03
e1
fa
cb
da
f2
f2
fd
d8
4a
07
14
ed
05
e2
f7
e4
05
fe
f0
e3
f2
0d
de
08
e7
0a
01
ee
02
de
e7
fe
e5
e5
e2
f8
f1
ef
e8
00
f6
f6
10
e3
ed
03
fe
f2
f3
d9
10
f0
eb
ec
d8
f5
f3
ff
e0
f3
f8
d3
f4
fe
0e
07
0c
d5
00
ed
f1
06
09
fe
ff
07
ff
03
f7
07
01
fe
06
02
fe
fd
01
fc
f5
06
03
01
00
fc
06
05
08
01
f9
00
fa
fe
03
f2
fe
05
ff
03
00
fd
ff
fc
fd
02
03
02
fb
fe
04
01
03
0a
07
01
01
08
08
04
0c
e6
fc
fc
fa
03
05
fa
0a
04
0e
fa
fc
04
f9
ff
00
fc
fa
f9
00
06
04
f9
01
06
f7
04
f6
09
0a
01
04
00
03
fa
03
0c
f8
fd
fa
08
ec
fb
09
0b
01
00
01
ff
0a
03
02
0c
fa
02
fc
0c
f8
06
fa
02
fc
fb
02
f6
f8
fa
0e
fd
ff
14
0c
f9
03
04
fb
03
43
07
07
f3
a1
f7
79
01
f9
08
fe
fb
0a
fd
01
02
fa
fd
fb
02
00
06
00
fb
04
05
ff
cf
7f
01
00
fc
fc
02
02
0d
fd
f4
05
09
fa
01
63
fe
03
07
06
9a
fd
fc
06
04
02
05
ff
0b
ff
09
08
05
04
00
0d
f4
f6
ff
04
01
0d
02
f9
01
04
fc
00
fb
01
04
03
fc
12
07
0a
f5
ff
fd
fd
02
0a
f9
fb
04
f9
03
0c
ff
05
fb
01
08
05
02
05
fd
02
f1
03
fb
f2
01
01
fa
fd
f1
00
e1
fd
fc
ec
fd
fe
0a
f0
07
09
07
f7
06
f2
05
05
fd
ff
10
e2
ea
06
04
14
0e
fe
ff
fa
fc
03
ff
f2
07
04
08
0a
09
05
0b
fd
05
02
f7
00
fe
02
03
fa
0e
02
00
07
06
fe
0b
14
ff
01
2a
01
05
17
f0
f4
08
05
0d
11
eb
01
ee
ec
ed
ff
04
ff
f0
fe
03
fe
04
f8
b4
fe
f3
dd
f2
0e
13
0b
fa
e4
08
f7
01
f1
03
de
0b
0c
f4
0e
f3
0e
fb
01
ff
f8
2b
02
05
03
ec
e2
04
fe
12
ea
06
08
08
00
05
08
0f
81
e4
ee
0b
15
e0
ea
ec
e2
ee
fc
f2
e1
ff
17
4e
17
11
01
f7
01
00
24
05
0a
00
f7
02
09
ff
fa
f6
f0
07
fc
fb
08
05
04
03
fb
1a
00
f5
0a
fb
09
06
01
fa
f3
f3
08
0c
ff
fc
ff
10
f0
f5
e9
09
f4
f7
0a
ea
f6
02
00
00
06
f5
06
06
f1
ef
fb
09
fd
fb
0f
04
f4
08
08
0e
fa
ff
0e
0d
03
f7
fc
fc
12
f4
06
03
ef
04
0a
02
00
10
24
f4
06
ee
f7
03
01
0b
fa
0b
00
ee
e4
f8
1a
ff
fb
0e
fc
ed
f2
02
ef
ef
03
22
df
01
19
09
0a
f6
f2
f3
f8
12
11
e8
fb
eb
f8
f7
c6
ec
cd
05
e6
13
fc
23
fb
f8
ac
fe
dd
fa
f6
0b
07
13
fc
fd
ea
fd
05
06
f2
02
eb
e5
02
ef
f8
ee
fe
ef
09
ec
e2
04
fd
e5
eb
f3
81
da
03
d2
18
03
eb
f3
0b
f7
e7
05
f4
04
02
f0
fe
07
0d
e9
7e
ff
f4
09
07
f9
f7
f5
fd
08
00
fb
fb
f5
02
0b
10
06
fc
fc
03
01
05
01
04
ed
f6
ff
f0
15
fb
03
ff
00
0b
0d
08
0a
fa
f8
03
ed
02
fd
0a
0c
ff
06
05
09
fb
ec
fe
01
00
fa
f3
fc
01
0a
eb
f3
0e
f4
0a
ff
04
03
fa
f5
f4
0c
08
fc
02
09
fb
fa
0a
fd
a2
0e
f8
04
fe
0c
02
e9
02
4d
f5
f9
0b
fa
14
1a
fd
66
07
f6
00
08
fd
f8
01
fb
ff
04
01
fc
e9
fe
07
f3
fb
fc
20
f4
02
0c
e4
ba
05
01
f5
fe
f0
06
0d
f2
07
a9
e8
00
d0
fe
fc
f4
f2
f6
f8
05
fd
f9
e1
30
f5
f2
fe
0f
fd
ec
f7
06
fc
f5
df
04
15
fd
fb
ff
04
e4
f0
b3
ec
fd
fd
04
ec
02
03
04
01
c9
00
00
f8
07
02
f6
02
0e
f0
0a
7f
43
0d
33
f4
1d
fa
0d
04
e4
ea
fd
de
10
03
10
de
bf
1e
ad
1f
ed
fe
f3
de
25
de
49
1d
30
ba
ea
e3
a6
04
fe
13
58
c6
eb
ee
0c
55
0f
21
fc
04
39
f9
06
ee
f7
eb
18
e9
df
81
2a
d9
46
f0
0a
ea
b3
e2
08
14
ec
d6
ec
07
fb
0d
09
f4
f2
17
0a
1e
04
00
11
e3
e4
fb
0c
0b
0b
07
12
09
0c
12
01
0e
19
fa
f3
0f
03
f4
0d
0a
05
02
eb
16
15
00
f6
13
0c
f5
25
05
f9
f0
0d
e0
da
fa
05
1c
e0
0a
f3
0c
06
dd
f1
cc
fc
fd
01
f3
05
09
09
0e
07
f1
0b
09
1e
d7
f8
0e
05
0b
15
f1
fa
d1
0e
03
11
0c
f0
0a
0c
f1
08
16
f6
f3
07
fd
fe
fe
0c
09
0b
dc
18
ec
ef
f7
f7
ed
06
14
03
15
ff
d3
fd
e2
0d
18
12
09
0d
0d
f1
ff
21
00
fa
04
06
e2
e4
fc
1a
dc
1b
c5
dd
e7
0e
1a
d9
06
00
e2
28
04
3b
2b
f3
40
15
09
07
02
1f
f5
00
f5
1a
56
f1
36
37
11
df
22
81
f6
10
e8
f2
fd
a8
eb
04
01
e3
0b
19
f8
f0
d9
ff
f4
14
02
fc
fc
ff
e6
01
0e
ff
08
06
09
fd
0f
02
f7
01
fc
05
01
00
10
0a
fc
03
fc
fd
02
00
06
11
fa
08
0c
f7
10
0a
07
07
07
05
02
f4
fb
05
ff
01
06
0c
fc
05
0d
fb
f8
00
fd
03
e7
f9
08
00
fa
09
05
05
f7
f2
e9
04
f5
fe
00
fb
08
00
00
0a
ff
fc
ff
04
e5
f6
ff
03
00
07
f8
01
dc
0d
03
24
0a
f4
03
02
f6
0c
f8
00
f5
02
fc
fe
ff
0b
01
12
f8
0a
f1
04
06
f8
08
0c
0a
07
00
fe
e4
03
f1
01
f7
22
02
02
0f
